{"version":"1.0","truncation":null,"padding":null,"added_tokens":[{"id":0,"special":true,"content":"<pad/>","single_word":false,"lstrip":false,"rstrip":false,"normalized":false},{"id":1,"special":true,"content":"</seq>","single_word":false,"lstrip":false,"rstrip":false,"normalized":false},{"id":2,"special":true,"content":"<seq>","single_word":false,"lstrip":false,"rstrip":false,"normalized":false},{"id":3,"special":true,"content":"<unk/>","single_word":false,"lstrip":false,"rstrip":false,"normalized":false},{"id":4,"special":true,"content":"<en>","single_word":false,"lstrip":false,"rstrip":false,"normalized":false},{"id":5,"special":true,"content":"<es>","single_word":false,"lstrip":false,"rstrip":false,"normalized":false},{"id":6,"special":true,"content":"<fr>","single_word":false,"lstrip":false,"rstrip":false,"normalized":false},{"id":7,"special":true,"content":"<it>","single_word":false,"lstrip":false,"rstrip":false,"normalized":false},{"id":8,"special":true,"content":"<ru>","single_word":false,"lstrip":false,"rstrip":false,"normalized":false}],"normalizer":null,"pre_tokenizer":{"type":"Whitespace"},"post_processor":null,"decoder":null,"model":{"type":"BPE","dropout":null,"unk_token":"<unk/>","continuing_subword_prefix":null,"end_of_word_suffix":null,"fuse_unk":false,"vocab":{"<pad/>":0,"</seq>":1,"<seq>":2,"<unk/>":3,"<en>":4,"<es>":5,"<fr>":6,"<it>":7,"<ru>":8,"!":9,"#":10,"$":11,"%":12,"&":13,"'":14,"(":15,")":16,"*":17,"+":18,",":19,"-":20,".":21,"/":22,"0":23,"1":24,"2":25,"3":26,"4":27,"5":28,"6":29,"7":30,"8":31,"9":32,":":33,";":34,"<":35,"=":36,">":37,"?":38,"@":39,"A":40,"B":41,"C":42,"D":43,"E":44,"F":45,"G":46,"H":47,"I":48,"J":49,"K":50,"L":51,"M":52,"N":53,"O":54,"P":55,"Q":56,"R":57,"S":58,"T":59,"U":60,"V":61,"W":62,"X":63,"Y":64,"Z":65,"[":66,"\\":67,"]":68,"^":69,"_":70,"`":71,"a":72,"b":73,"c":74,"d":75,"e":76,"f":77,"g":78,"h":79,"i":80,"j":81,"k":82,"l":83,"m":84,"n":85,"o":86,"p":87,"q":88,"r":89,"s":90,"t":91,"u":92,"v":93,"w":94,"x":95,"y":96,"z":97,"{":98,"|":99,"}":100,"~":101,"£":102,"¨":103,"¯":104,"°":105,"·":106,"½":107,"Á":108,"É":109,"×":110,"à":111,"á":112,"ä":113,"ç":114,"é":115,"ê":116,"í":117,"ï":118,"ñ":119,"ó":120,"ô":121,"ö":122,"ü":123,"ā":124,"œ":125,"ū":126,"ƒ":127,"ș":128,"ə":129,"ˌ":130,"Α":131,"Θ":132,"α":133,"β":134,"τ":135,"ḫ":136,"–":137,"—":138,"†":139,"′":140,"‾":141,"₁":142,"₂":143,"₄":144,"₈":145,"₨":146,"ℓ":147,"→":148,"∈":149,"−":150,"≈":151,"⊆":152,"⊇":153,"♭":154,"♯":155,"in":156,"or":157,"th":158,"er":159,"on":160,"an":161,"ing":162,"at":163,"en":164,"of":165,"re":166,"al":167,"to":168,"es":169,"ed":170,"ar":171,"ti":172,"the":173,"om":174,"is":175,"ly":176,"ic":177,"as":178,"le":179,"ou":180,"ac":181,"it":182,"ec":183,"To":184,"st":185,"ent":186,"se":187,"and":188,"ro":189,"ion":190,"he":191,"ve":192,"su":193,"for":194,"ce":195,"be":196,"de":197,"per":198,"tion":199,"wh":200,"ome":201,"ch":202,"ith":203,"ally":204,"con":205,"ul":206,"The":207,"with":208,"us":209,"il":210,"un":211,"ation":212,"ter":213,"ol":214,"ab":215,"ig":216,"me":217,"lo":218,"some":219,"thing":220,"one":221,"tr":222,"po":223,"ex":224,"by":225,"ge":226,"pec":227,"ur":228,"ate":229,"ain":230,"im":231,"ad":232,"pro":233,"that":234,"id":235,"ot":236,"ess":237,"ap":238,"ver":239,"pl":240,"tic":241,"qu":242,"ther":243,"fr":244,"peci":245,"av":246,"ment":247,"par":248,"ir":249,"An":250,"res":251,"com":252,"di":253,"ten":254,"pe":255,"ke":256,"ity":257,"ay":258,"am":259,"od":260,"sh":261,"oun":262,"em":263,"el":264,"something":265,"man":266,"li":267,"si":268,"pers":269,"from":270,"ous":271,"dis":272,"et":273,"ich":274,"person":275,"other":276,"out":277,"pecially":278,"especially":279,"ut":280,"act":281,"ri":282,"which":283,"igh":284,"mo":285,"able":286,"ag":287,"who":288,"ant":289,"op":290,"ure":291,"uc":292,"tain":293,"form":294,"gr":295,"der":296,"ma":297,"aving":298,"all":299,"are":300,"str":301,"ect":302,"In":303,"ty":304,"ff":305,"ow":306,"um":307,"ance":308,"ne":309,"ive":310,"wor":311,"not":312,"oc":313,"ace":314,"ard":315,"pr":316,"est":317,"Of":318,"ence":319,"ated":320,"ting":321,"age":322,"our":323,"ob":324,"ner":325,"ight":326,"ass":327,"being":328,"used":329,"ating":330,"ish":331,"sp":332,"ine":333,"ound":334,"up":335,"rec":336,"over":337,"rel":338,"au":339,"low":340,"king":341,"ular":342,"ical":343,"cl":344,"ber":345,"ind":346,"fic":347,"end":348,"ts":349,"tw":350,"pres":351,"vi":352,"ted":353,"ong":354,"ill":355,"ple":356,"bl":357,"ful":358,"such":359,"fe":360,"gh":361,"etc":362,"ph":363,"manner":364,"taining":365,"gen":366,"te":367,"pos":368,"sc":369,"ble":370,"tive":371,"por":372,"ack":373,"iv":374,"pre":375,"state":376,"ary":377,"aw":378,"fi":379,"partic":380,"Having":381,"ial":382,"des":383,"iz":384,"ree":385,"cess":386,"ip":387,"no":388,"ach":389,"acter":390,"char":391,"fl":392,"mor":393,"ual":394,"br":395,"ater":396,"its":397,"ev":398,"ang":399,"speci":400,"ame":401,"ta":402,"ign":403,"sub":404,"ser":405,"duc":406,"ough":407,"lec":408,"particular":409,"ject":410,"ood":411,"ll":412,"usu":413,"make":414,"any":415,"Not":416,"sy":417,"ave":418,"cont":419,"qual":420,"ue":421,"ious":422,"Any":423,"dr":424,"cer":425,"having":426,"ative":427,"col":428,"time":429,"into":430,"co":431,"bo":432,"ans":433,"ding":434,"ice":435,"Some":436,"sion":437,"ite":438,"place":439,"so":440,"inter":441,"part":442,"cur":443,"often":444,"cr":445,"ist":446,"usually":447,"ef":448,"ase":449,"we":450,"air":451,"someone":452,"comm":453,"character":454,"row":455,"ext":456,"action":457,"red":458,"ving":459,"reat":460,"comp":461,"sm":462,"use":463,"int":464,"reg":465,"do":466,"ise":467,"One":468,"way":469,"cor":470,"play":471,"posi":472,"move":473,"ast":474,"own":475,"lar":476,"cons":477,"fer":478,"another":479,"ep":480,"oup":481,"than":482,"ness":483,"istic":484,"group":485,"set":486,"tim":487,"ture":488,"clo":489,"more":490,"dec":491,"pertaining":492,"but":493,"work":494,"inc":495,"position":496,"num":497,"sur":498,"ause":499,"less":500,"med":501,"mar":502,"enti":503,"ud":504,"produc":505,"ere":506,"small":507,"like":508,"ily":509,"peri":510,"car":511,"diff":512,"val":513,"sing":514,"without":515,"ick":516,"ward":517,"eng":518,"ody":519,"under":520,"using":521,"ide":522,"has":523,"sen":524,"quality":525,"ale":526,"long":527,"order":528,"ange":529,"number":530,"ust":531,"two":532,"body":533,"struc":534,"ak":535,"rough":536,"can":537,"object":538,"if":539,"ople":540,"wr":541,"cep":542,"leg":543,"min":544,"ers":545,"har":546,"ear":547,"ies":548,"enc":549,"process":550,"very":551,"af":552,"ties":553,"tend":554,"app":555,"tions":556,"people":557,"side":558,"made":559,"een":560,"anc":561,"port":562,"tur":563,"relating":564,"hol":565,"ning":566,"vis":567,"acti":568,"Something":569,"ys":570,"high":571,"Th":572,"when":573,"bec":574,"fin":575,"ship":576,"gener":577,"sim":578,"vid":579,"kn":580,"light":581,"vol":582,"go":583,"cent":584,"cri":585,"have":586,"betw":587,"direc":588,"between":589,"ort":590,"ism":591,"large":592,"og":593,"ail":594,"wer":595,"ory":596,"Un":597,"pur":598,"sec":599,"coun":600,"sup":601,"tional":602,"cause":603,"ves":604,"att":605,"stance":606,"den":607,"tu":608,"pi":609,"org":610,"sex":611,"bu":612,"loc":613,"Ex":614,"giv":615,"sk":616,"sel":617,"ations":618,"tical":619,"ds":620,"cre":621,"ically":622,"specific":623,"spe":624,"through":625,"stand":626,"ade":627,"appe":628,"ath":629,"ell":630,"anim":631,"ents":632,"les":633,"sound":634,"mem":635,"cle":636,"vice":637,"aff":638,"ok":639,"ech":640,"ates":641,"mer":642,"emp":643,"organ":644,"mat":645,"mus":646,"back":647,"ument":648,"face":649,"put":650,"where":651,"hand":652,"ld":653,"condi":654,"ew":655,"stem":656,"bre":657,"mis":658,"With":659,"ather":660,"ond":661,"proper":662,"tal":663,"sed":664,"ved":665,"oman":666,"member":667,"var":668,"power":669,"present":670,"mon":671,"pu":672,"ca":673,"ins":674,"posed":675,"ry":676,"ility":677,"certain":678,"tern":679,"sive":680,"requ":681,"sul":682,"ized":683,"characteristic":684,"ient":685,"animal":686,"water":687,"great":688,"ilar":689,"land":690,"good":691,"pol":692,"pass":693,"cul":694,"cour":695,"cap":696,"cover":697,"hor":698,"ven":699,"itu":700,"sol":701,"pri":702,"off":703,"ord":704,"area":705,"dist":706,"bas":707,"her":708,"soc":709,"beh":710,"That":711,"eff":712,"fied":713,"fun":714,"hy":715,"nat":716,"hu":717,"nor":718,"art":719,"tri":720,"system":721,"fol":722,"led":723,"again":724,"type":725,"iting":726,"similar":727,"ider":728,"ently":729,"anti":730,"read":731,"Con":732,"trans":733,"bling":734,"line":735,"differ":736,"ash":737,"ink":738,"appear":739,"particularly":740,"ural":741,"beli":742,"sem":743,"curr":744,"period":745,"about":746,"aterial":747,"isting":748,"iness":749,"point":750,"phys":751,"thor":752,"igin":753,"condition":754,"ho":755,"elec":756,"icul":757,"try":758,"pon":759,"reme":760,"ments":761,"comple":762,"given":763,"ele":764,"take":765,"fam":766,"give":767,"ug":768,"ery":769,"ia":770,"material":771,"pose":772,"angu":773,"self":774,"human":775,"acking":776,"ished":777,"divid":778,"consider":779,"fir":780,"change":781,"ian":782,"times":783,"amoun":784,"ss":785,"origin":786,"top":787,"same":788,"tle":789,"che":790,"main":791,"ore":792,"olog":793,"Per":794,"ken":795,"fore":796,"ile":797,"perform":798,"pect":799,"become":800,"langu":801,"ited":802,"sequ":803,"ible":804,"pleas":805,"contro":806,"show":807,"force":808,"publ":809,"sti":810,"only":811,"resul":812,"uring":813,"flu":814,"amount":815,"lit":816,"woman":817,"ones":818,"mal":819,"nec":820,"pen":821,"vity":822,"offic":823,"right":824,"been":825,"shap":826,"ute":827,"tended":828,"things":829,"adi":830,"ms":831,"appro":832,"sl":833,"adv":834,"ress":835,"this":836,"fact":837,"fort":838,"plant":839,"ength":840,"iet":841,"sexual":842,"most":843,"cir":844,"ned":845,"sty":846,"avi":847,"sense":848,"ks":849,"sign":850,"fo":851,"deg":852,"ying":853,"ling":854,"ru":855,"inform":856,"typ":857,"piec":858,"their":859,"expres":860,"down":861,"pat":862,"uch":863,"ings":864,"jo":865,"what":866,"feel":867,"ose":868,"well":869,"incl":870,"ason":871,"plan":872,"inten":873,"ger":874,"head":875,"structure":876,"ball":877,"oper":878,"cas":879,"contr":880,"event":881,"ze":882,"ither":883,"collec":884,"activity":885,"language":886,"gl":887,"physical":888,"gu":889,"hic":890,"cus":891,"conf":892,"surface":893,"different":894,"bus":895,"food":896,"ities":897,"kind":898,"ines":899,"cho":900,"also":901,"arch":902,"after":903,"follow":904,"situ":905,"arr":906,"Without":907,"open":908,"buil":909,"behavi":910,"Rel":911,"aid":912,"ors":913,"device":914,"ability":915,"means":916,"parts":917,"public":918,"vel":919,"class":920,"design":921,"Someone":922,"whe":923,"ination":924,"ret":925,"spir":926,"single":927,"uce":928,"vo":929,"invol":930,"liqu":931,"degree":932,"word":933,"Ch":934,"difficul":935,"cept":936,"ire":937,"non":938,"game":939,"ict":940,"gether":941,"elf":942,"author":943,"law":944,"together":945,"ste":946,"electr":947,"flow":948,"sum":949,"ected":950,"lim":951,"ection":952,"ately":953,"import":954,"vide":955,"view":956,"mark":957,"others":958,"new":959,"effect":960,"meas":961,"quanti":962,"Pertaining":963,"gar":964,"hab":965,"orn":966,"interest":967,"family":968,"aking":969,"gy":970,"inal":971,"ession":972,"ously":973,"grap":974,"short":975,"draw":976,"many":977,"ped":978,"active":979,"item":980,"get":981,"grow":982,"ived":983,"regard":984,"bro":985,"ank":986,"emo":987,"style":988,"dom":989,"round":990,"individ":991,"add":992,"eld":993,"ren":994,"mean":995,"value":996,"property":997,"individual":998,"close":999,"direction":1000,"Be":1001,"exam":1002,"motion":1003,"subject":1004,"purpose":1005,"Char":1006,"ending":1007,"mi":1008,"os":1009,"toward":1010,"func":1011,"pul":1012,"tem":1013,"let":1014,"mental":1015,"piece":1016,"suc":1017,"extreme":1018,"tas":1019,"substance":1020,"day":1021,"ib":1022,"kes":1023,"gre":1024,"arm":1025,"liquid":1026,"each":1027,"free":1028,"sever":1029,"mil":1030,"ra":1031,"strong":1032,"common":1033,"legal":1034,"turn":1035,"care":1036,"equ":1037,"ually":1038,"represent":1039,"ket":1040,"first":1041,"control":1042,"oney":1043,"come":1044,"fur":1045,"respon":1046,"information":1047,"real":1048,"itch":1049,"ages":1050,"''":1051,"``":1052,"happ":1053,"ters":1054,"social":1055,"iety":1056,"Character":1057,"sible":1058,"fully":1059,"prec":1060,"ark":1061,"isten":1062,"cell":1063,"uses":1064,"feat":1065,"bing":1066,"either":1067,"sw":1068,"separ":1069,"worth":1070,"complete":1071,"rup":1072,"rest":1073,"prof":1074,"relig":1075,"hold":1076,"natural":1077,"bol":1078,"ific":1079,"atten":1080,"plic":1081,"relation":1082,"music":1083,"against":1084,"building":1085,"fem":1086,"instance":1087,"oci":1088,"sym":1089,"ency":1090,"cal":1091,"eve":1092,"ener":1093,"cut":1094,"ground":1095,"sequence":1096,"will":1097,"ised":1098,"ational":1099,"sometimes":1100,"tran":1101,"life":1102,"upon":1103,"male":1104,"run":1105,"und":1106,"ably":1107,"medi":1108,"ired":1109,"during":1110,"associ":1111,"vision":1112,"know":1113,"known":1114,"situation":1115,"name":1116,"resem":1117,"away":1118,"quantity":1119,"eas":1120,"ouse":1121,"descri":1122,"specified":1123,"appearance":1124,"though":1125,"measure":1126,"fill":1127,"ens":1128,"ied":1129,"lay":1130,"refer":1131,"tom":1132,"itable":1133,"vehic":1134,"serv":1135,"belief":1136,"Relating":1137,"sof":1138,"def":1139,"defin":1140,"practi":1141,"space":1142,"bed":1143,"prom":1144,"meric":1145,"result":1146,"Americ":1147,"que":1148,"az":1149,"dri":1150,"ering":1151,"concer":1152,"ize":1153,"cessive":1154,"circ":1155,"ont":1156,"them":1157,"prot":1158,"gram":1159,"course":1160,"wise":1161,"viol":1162,"carry":1163,"poli":1164,"fac":1165,"mind":1166,"outh":1167,"due":1168,"rap":1169,"sil":1170,"titu":1171,"dep":1172,"ization":1173,"oneself":1174,"ring":1175,"xed":1176,"allow":1177,"sure":1178,"chil":1179,"opposed":1180,"extent":1181,"typically":1182,"vir":1183,"business":1184,"bur":1185,"doc":1186,"influ":1187,"agree":1188,"making":1189,"strument":1190,"indic":1191,"ric":1192,"thin":1193,"ening":1194,"level":1195,"uni":1196,"tail":1197,"various":1198,"text":1199,"ref":1200,"suff":1201,"quick":1202,"comb":1203,"Very":1204,"bad":1205,"bir":1206,"mit":1207,"instrument":1208,"three":1209,"lead":1210,"deter":1211,"fit":1212,"tly":1213,"uter":1214,"intended":1215,"reason":1216,"skill":1217,"blo":1218,"around":1219,"tial":1220,"vent":1221,"ane":1222,"omen":1223,"containing":1224,"movement":1225,"was":1226,"rece":1227,"pected":1228,"ances":1229,"specifically":1230,"ft":1231,"ping":1232,"ices":1233,"within":1234,"pain":1235,"anger":1236,"fav":1237,"now":1238,"eding":1239,"heav":1240,"related":1241,"species":1242,"hard":1243,"may":1244,"mod":1245,"trave":1246,"idence":1247,"poss":1248,"clear":1249,"arti":1250,"stud":1251,"velo":1252,"tradi":1253,"worn":1254,"generally":1255,"considered":1256,"shape":1257,"female":1258,"cy":1259,"year":1260,"atch":1261,"als":1262,"chi":1263,"commun":1264,"region":1265,"incre":1266,"writ":1267,"mul":1268,"ush":1269,"vers":1270,"plac":1271,"Res":1272,"jud":1273,"wood":1274,"rot":1275,"color":1276,"vehicle":1277,"ury":1278,"oppos":1279,"based":1280,"bi":1281,"dden":1282,"ease":1283,"loy":1284,"words":1285,"genus":1286,"bring":1287,"computer":1288,"inclu":1289,"success":1290,"ove":1291,"rather":1292,"ses":1293,"attr":1294,"before":1295,"tra":1296,"standard":1297,"Com":1298,"dat":1299,"pay":1300,"aring":1301,"ross":1302,"sudden":1303,"develo":1304,"compe":1305,"produced":1306,"characteristics":1307,"bar":1308,"men":1309,"mot":1310,"much":1311,"conn":1312,"contin":1313,"attach":1314,"practice":1315,"aim":1316,"fil":1317,"ged":1318,"she":1319,"wind":1320,"regular":1321,"ae":1322,"gin":1323,"ply":1324,"whole":1325,"country":1326,"call":1327,"see":1328,"tively":1329,"atively":1330,"crim":1331,"player":1332,"uit":1333,"repe":1334,"ising":1335,"stre":1336,"example":1337,"function":1338,"money":1339,"onic":1340,"atic":1341,"restr":1342,"arily":1343,"room":1344,"ques":1345,"near":1346,"En":1347,"duce":1348,"ined":1349,"stri":1350,"deli":1351,"necess":1352,"habit":1353,"gover":1354,"rope":1355,"poin":1356,"respect":1357,"else":1358,"dish":1359,"pleasant":1360,"attention":1361,"relationship":1362,"At":1363,"keep":1364,"difficult":1365,"19":1366,"bit":1367,"found":1368,"pa":1369,"inary":1370,"ident":1371,"identi":1372,"compl":1373,"weight":1374,"writing":1375,"echn":1376,"meaning":1377,"St":1378,"bal":1379,"mic":1380,"remove":1381,"ital":1382,"usion":1383,"book":1384,"general":1385,"support":1386,"treat":1387,"war":1388,"erc":1389,"abl":1390,"met":1391,"field":1392,"correc":1393,"centr":1394,"ledge":1395,"mag":1396,"rit":1397,"tor":1398,"ese":1399,"enter":1400,"exc":1401,"uck":1402,"ource":1403,"his":1404,"hair":1405,"experi":1406,"consisting":1407,"second":1408,"resembling":1409,"multi":1410,"Ca":1411,"ax":1412,"ake":1413,"fig":1414,"mid":1415,"inf":1416,"while":1417,"sib":1418,"neg":1419,"sport":1420,"eth":1421,"expected":1422,"objects":1423,"skin":1424,"important":1425,"bs":1426,"fall":1427,"lacking":1428,"inj":1429,"ons":1430,"standing":1431,"break":1432,"authority":1433,"ck":1434,"oid":1435,"those":1436,"too":1437,"ective":1438,"log":1439,"provid":1440,"special":1441,"fish":1442,"spo":1443,"itary":1444,"front":1445,"otherwise":1446,"aft":1447,"influence":1448,"cop":1449,"length":1450,"yond":1451,"exh":1452,"whose":1453,"speech":1454,"associated":1455,"ben":1456,"bri":1457,"rom":1458,"sat":1459,"tre":1460,"disease":1461,"usual":1462,"00":1463,"lack":1464,"thus":1465,"arg":1466,"contain":1467,"size":1468,"possible":1469,"anything":1470,"nature":1471,"stic":1472,"inion":1473,"anch":1474,"tionally":1475,"post":1476,"provide":1477,"utter":1478,"need":1479,"animals":1480,"religious":1481,"political":1482,"dest":1483,"equal":1484,"house":1485,"just":1486,"ult":1487,"unit":1488,"shar":1489,"sci":1490,"blood":1491,"ior":1492,"techn":1493,"thod":1494,"ony":1495,"super":1496,"ull":1497,"program":1498,"produce":1499,"there":1500,"princ":1501,"tingu":1502,"obtain":1503,"drink":1504,"colour":1505,"distinc":1506,"liter":1507,"behaviour":1508,"ces":1509,"ced":1510,"ides":1511,"establ":1512,"feeling":1513,"Lacking":1514,"cup":1515,"ris":1516,"rul":1517,"stor":1518,"achi":1519,"larger":1520,"culture":1521,"Ac":1522,"Pro":1523,"dim":1524,"fal":1525,"pare":1526,"throw":1527,"white":1528,"old":1529,"true":1530,"version":1531,"fri":1532,"ried":1533,"opinion":1534,"spor":1535,"flat":1536,"both":1537,"organization":1538,"showing":1539,"oud":1540,"conduc":1541,"train":1542,"living":1543,"service":1544,"cry":1545,"location":1546,"curring":1547,"dle":1548,"fy":1549,"four":1550,"gg":1551,"ology":1552,"foot":1553,"items":1554,"several":1555,"data":1556,"Eu":1557,"dam":1558,"above":1559,"metal":1560,"distingu":1561,"strength":1562,"taken":1563,"decor":1564,"expression":1565,"wheel":1566,"ey":1567,"frequ":1568,"abor":1569,"exp":1570,"formal":1571,"apply":1572,"element":1573,"energy":1574,"American":1575,"determin":1576,"travel":1577,"past":1578,"youn":1579,"fire":1580,"employ":1581,"musical":1582,"tribut":1583,"symbol":1584,"knowledge":1585,"friend":1586,"kill":1587,"spr":1588,"inate":1589,"err":1590,"arrow":1591,"prim":1592,"cloth":1593,"normal":1594,"ological":1595,"appropri":1596,"thought":1597,"govern":1598,"dy":1599,"ann":1600,"acy":1601,"held":1602,"unt":1603,"pop":1604,"fruit":1605,"previ":1606,"designed":1607,"dou":1608,"done":1609,"every":1610,"pair":1611,"pitch":1612,"ub":1613,"ures":1614,"uous":1615,"ased":1616,"ould":1617,"look":1618,"excessive":1619,"apable":1620,"moral":1621,"actions":1622,"Being":1623,"how":1624,"ps":1625,"sn":1626,"swe":1627,"ulation":1628,"urch":1629,"aves":1630,"office":1631,"moder":1632,"chief":1633,"fail":1634,"pt":1635,"icient":1636,"tru":1637,"world":1638,"ishment":1639,"count":1640,"opposite":1641,"base":1642,"sle":1643,"rele":1644,"full":1645,"portion":1646,"events":1647,"little":1648,"spirit":1649,"Able":1650,"dark":1651,"fa":1652,"ming":1653,"mas":1654,"ox":1655,"construc":1656,"company":1657,"product":1658,"norm":1659,"bound":1660,"card":1661,"source":1662,"wide":1663,"remo":1664,"alco":1665,"edge":1666,"del":1667,"black":1668,"elements":1669,"mix":1670,"path":1671,"acc":1672,"pression":1673,"phr":1674,"drug":1675,"ential":1676,"ature":1677,"alth":1678,"beyond":1679,"ili":1680,"doing":1681,"attemp":1682,"lock":1683,"horse":1684,"istence":1685,"Causing":1686,"sharp":1687,"ci":1688,"fab":1689,"hal":1690,"mass":1691,"pun":1692,"rank":1693,"wal":1694,"iction":1695,"road":1696,"deal":1697,"commit":1698,"suppor":1699,"causing":1700,"rapid":1701,"dance":1702,"ensive":1703,"accept":1704,"sue":1705,"perfor":1706,"comfort":1707,"occur":1708,"charge":1709,"effort":1710,"ences":1711,"hit":1712,"rid":1713,"ingly":1714,"sun":1715,"bet":1716,"ants":1717,"tele":1718,"prepare":1719,"causes":1720,"describing":1721,"circum":1722,"written":1723,"net":1724,"ution":1725,"seen":1726,"embling":1727,"lower":1728,"team":1729,"covered":1730,"Resembling":1731,"including":1732,"home":1733,"ension":1734,"lect":1735,"organism":1736,"behavior":1737,"alcohol":1738,"Dis":1739,"gain":1740,"ially":1741,"lig":1742,"belong":1743,"deep":1744,"formed":1745,"lled":1746,"does":1747,"playing":1748,"because":1749,"capable":1750,"pattern":1751,"princi":1752,"Europe":1753,"young":1754,"dro":1755,"along":1756,"they":1757,"begin":1758,"method":1759,"verse":1760,"ples":1761,"personal":1762,"goods":1763,"collection":1764,"argument":1765,"scho":1766,"ars":1767,"astic":1768,"acqu":1769,"exten":1770,"distance":1771,"ashion":1772,"originally":1773,"involving":1774,"false":1775,"fabric":1776,"performan":1777,"ost":1778,"heat":1779,"excl":1780,"izing":1781,"syn":1782,"graph":1783,"depend":1784,"communic":1785,"popular":1786,"school":1787,"Capable":1788,"bor":1789,"far":1790,"race":1791,"radi":1792,"wo":1793,"dem":1794,"ulate":1795,"term":1796,"live":1797,"makes":1798,"medic":1799,"Ext":1800,"speak":1801,"broad":1802,"child":1803,"document":1804,"quickly":1805,"hum":1806,"ini":1807,"ator":1808,"left":1809,"ched":1810,"conven":1811,"official":1812,"render":1813,"towards":1814,"negative":1815,"Extreme":1816,"bot":1817,"my":1818,"then":1819,"accor":1820,"stone":1821,"meet":1822,"extremely":1823,"pan":1824,"sor":1825,"once":1826,"below":1827,"perce":1828,"prac":1829,"goal":1830,"echan":1831,"shaped":1832,"joy":1833,"ificant":1834,"Des":1835,"sent":1836,"slow":1837,"tree":1838,"onom":1839,"atter":1840,"tible":1841,"detail":1842,"uty":1843,"agg":1844,"fear":1845,"serving":1846,"characterized":1847,"valu":1848,"direct":1849,"increase":1850,"hon":1851,"mechan":1852,"xim":1853,"icy":1854,"itself":1855,"stances":1856,"ions":1857,"acting":1858,"particip":1859,"series":1860,"higher":1861,"members":1862,"military":1863,"question":1864,"performance":1865,"Im":1866,"Re":1867,"danger":1868,"mach":1869,"wa":1870,"inv":1871,"ison":1872,"death":1873,"perf":1874,"chang":1875,"load":1876,"riage":1877,"statement":1878,"board":1879,"craft":1880,"harm":1881,"vari":1882,"profession":1883,"develop":1884,"normally":1885,"fashion":1886,"erving":1887,"stat":1888,"roy":1889,"parent":1890,"former":1891,"oblig":1892,"fication":1893,"branch":1894,"Anything":1895,"court":1896,"traditional":1897,"government":1898,"fas":1899,"flo":1900,"range":1901,"sal":1902,"sto":1903,"smo":1904,"ining":1905,"reach":1906,"tice":1907,"itation":1908,"exec":1909,"imp":1910,"gender":1911,"lling":1912,"played":1913,"attack":1914,"matter":1915,"brief":1916,"bow":1917,"say":1918,"ister":1919,"ists":1920,"dev":1921,"acts":1922,"modi":1923,"aging":1924,"forming":1925,"record":1926,"claim":1927,"surround":1928,"production":1929,"caused":1930,"stead":1931,"task":1932,"study":1933,"phrase":1934,"mical":1935,"pic":1936,"wall":1937,"step":1938,"seem":1939,"terms":1940,"somebody":1941,"irable":1942,"audi":1943,"ception":1944,"visible":1945,"United":1946,"vessel":1947,"plants":1948,"completely":1949,"motor":1950,"case":1951,"voc":1952,"ene":1953,"offer":1954,"hel":1955,"conce":1956,"existence":1957,"aint":1958,"ained":1959,"aged":1960,"pred":1961,"taking":1962,"perior":1963,"wrong":1964,"giving":1965,"temper":1966,"correct":1967,"appropriate":1968,"dig":1969,"hom":1970,"mess":1971,"night":1972,"ron":1973,"zz":1974,"orous":1975,"ender":1976,"plied":1977,"ured":1978,"fool":1979,"soft":1980,"rules":1981,"bes":1982,"ition":1983,"later":1984,"lines":1985,"oking":1986,"sail":1987,"ude":1988,"want":1989,"atom":1990,"touch":1991,"search":1992,"usive":1993,"proble":1994,"pet":1995,"forms":1996,"desire":1997,"qualities":1998,"variety":1999,"original":2000,"Characteristic":2001,"separate":2002,"connected":2003,"experience":2004,"cast":2005,"oul":2006,"ateg":2007,"addi":2008,"occup":2009,"tax":2010,"covering":2011,"tempor":2012,"possession":2013,"As":2014,"bt":2015,"bon":2016,"hes":2017,"native":2018,"narrow":2019,"sin":2020,"lear":2021,"occas":2022,"poses":2023,"Al":2024,"For":2025,"gent":2026,"hence":2027,"said":2028,"impro":2029,"prog":2030,"outside":2031,"producing":2032,"chemical":2033,"electronic":2034,"violent":2035,"placed":2036,"deliber":2037,"satis":2038,"conduct":2039,"Tending":2040,"bul":2041,"ee":2042,"foc":2043,"loud":2044,"nation":2045,"squ":2046,"slight":2047,"ustr":2048,"superior":2049,"party":2050,"sho":2051,"lip":2052,"spread":2053,"preh":2054,"idea":2055,"intense":2056,"collectively":2057,"voice":2058,"attached":2059,"necessary":2060,"multiple":2061,"Extremely":2062,"Made":2063,"stop":2064,"anal":2065,"envir":2066,"alter":2067,"tow":2068,"educ":2069,"tis":2070,"role":2071,"poor":2072,"imag":2073,"vert":2074,"moving":2075,"oph":2076,"tware":2077,"fixed":2078,"ways":2079,"works":2080,"importance":2081,"rupt":2082,"heavy":2083,"central":2084,"achieve":2085,"environ":2086,"Ap":2087,"brow":2088,"city":2089,"song":2090,"ats":2091,"atory":2092,"account":2093,"ster":2094,"stage":2095,"det":2096,"upper":2097,"pressure":2098,"bles":2099,"scre":2100,"content":2101,"early":2102,"ordinary":2103,"difficulty":2104,"easily":2105,"Nor":2106,"oth":2107,"rac":2108,"infer":2109,"remain":2110,"access":2111,"church":2112,"trou":2113,"iving":2114,"iously":2115,"critic":2116,"secret":2117,"tures":2118,"current":2119,"emotion":2120,"film":2121,"called":2122,"middle":2123,"18":2124,"Oc":2125,"jor":2126,"forward":2127,"poten":2128,"augh":2129,"phen":2130,"prepar":2131,"compon":2132,"dece":2133,"affect":2134,"Characterized":2135,"sufficient":2136,"attractive":2137,"paper":2138,"Ar":2139,"Li":2140,"band":2141,"fle":2142,"table":2143,"women":2144,"til":2145,"unpleasant":2146,"ended":2147,"sco":2148,"intro":2149,"create":2150,"speed":2151,"stit":2152,"taste":2153,"software":2154,"favor":2155,"stream":2156,"distinct":2157,"modern":2158,"gment":2159,"oto":2160,"iny":2161,"artic":2162,"iment":2163,"avoid":2164,"Indi":2165,"evil":2166,"worthy":2167,"definite":2168,"agreement":2169,"points":2170,"here":2171,"jection":2172,"tiv":2173,"stu":2174,"susp":2175,"ches":2176,"meat":2177,"persons":2178,"working":2179,"clothing":2180,"entity":2181,"engage":2182,"sens":2183,"longer":2184,"supply":2185,"conditions":2186,"advant":2187,"operation":2188,"followed":2189,"furn":2190,"reference":2191,"bird":2192,"States":2193,"beginning":2194,"occasion":2195,"On":2196,"ption":2197,"vul":2198,"eness":2199,"return":2200,"alle":2201,"tition":2202,"tigh":2203,"accompl":2204,"loss":2205,"trust":2206,"essing":2207,"amp":2208,"major":2209,"ives":2210,"desirable":2211,"closed":2212,"ancient":2213,"required":2214,"passage":2215,"fluid":2216,"equip":2217,"transport":2218,"services":2219,"mixture":2220,"ament":2221,"ging":2222,"acity":2223,"conve":2224,"consc":2225,"existing":2226,"image":2227,"disorder":2228,"prin":2229,"ends":2230,"takes":2231,"istent":2232,"ordinal":2233,"titude":2234,"favour":2235,"Asi":2236,"Po":2237,"born":2238,"fut":2239,"moun":2240,"noun":2241,"yi":2242,"star":2243,"season":2244,"suitable":2245,"concept":2246,"obsc":2247,"sole":2248,"tural":2249,"purposes":2250,"transfer":2251,"advance":2252,"rub":2253,"following":2254,"attempt":2255,"rapidly":2256,"0s":2257,"aur":2258,"catch":2259,"gun":2260,"lic":2261,"rance":2262,"ense":2263,"truc":2264,"owner":2265,"cerem":2266,"bodi":2267,"engine":2268,"legs":2269,"society":2270,"firm":2271,"destroy":2272,"belonging":2273,"phenomen":2274,"Su":2275,"eat":2276,"gather":2277,"job":2278,"tent":2279,"tro":2280,"stant":2281,"forth":2282,"ceeding":2283,"tract":2284,"project":2285,"fric":2286,"stra":2287,"ump":2288,"phone":2289,"timate":2290,"volving":2291,"hands":2292,"believe":2293,"pleasure":2294,"arrange":2295,"emotional":2296,"concern":2297,"chiefly":2298,"machine":2299,"problem":2300,"Eas":2301,"From":2302,"categ":2303,"fat":2304,"hot":2305,"ky":2306,"labor":2307,"psy":2308,"spl":2309,"stim":2310,"eds":2311,"ics":2312,"acid":2313,"ables":2314,"resh":2315,"key":2316,"phil":2317,"genre":2318,"prevent":2319,"wear":2320,"aircraft":2321,"senses":2322,"behind":2323,"planet":2324,"closely":2325,"happen":2326,"truth":2327,"perceived":2328,"creat":2329,"fing":2330,"fel":2331,"ias":2332,"nam":2333,"slo":2334,"thir":2335,"arth":2336,"tious":2337,"ision":2338,"sea":2339,"suit":2340,"iring":2341,"distur":2342,"ishing":2343,"noise":2344,"weak":2345,"compound":2346,"speaking":2347,"hypo":2348,"ready":2349,"custom":2350,"limit":2351,"dimension":2352,"distinguished":2353,"sleep":2354,"European":2355,"environment":2356,"future":2357,"Afric":2358,"De":2359,"Tr":2360,"amental":2361,"block":2362,"cross":2363,"gn":2364,"mouth":2365,"sme":2366,"tig":2367,"lying":2368,"leave":2369,"accur":2370,"dead":2371,"memor":2372,"idden":2373,"aphor":2374,"share":2375,"relative":2376,"cles":2377,"press":2378,"pressed":2379,"bright":2380,"serve":2381,"contact":2382,"commonly":2383,"believ":2384,"plication":2385,"sibility":2386,"exhib":2387,"eye":2388,"Wor":2389,"duty":2390,"ges":2391,"national":2392,"extra":2393,"ote":2394,"pel":2395,"evidence":2396,"wards":2397,"earth":2398,"section":2399,"neck":2400,"involved":2401,"greater":2402,"raised":2403,"medium":2404,"frequently":2405,"advantage":2406,"Ger":2407,"Or":2408,"gir":2409,"hood":2410,"ler":2411,"otic":2412,"tar":2413,"vig":2414,"inside":2415,"altern":2416,"esh":2417,"ung":2418,"uncertain":2419,"trick":2420,"verb":2421,"composition":2422,"agon":2423,"grad":2424,"Involving":2425,"ailable":2426,"local":2427,"powerful":2428,"electric":2429,"feature":2430,"running":2431,"ban":2432,"god":2433,"ny":2434,"wi":2435,"wit":2436,"wil":2437,"wine":2438,"reed":2439,"tish":2440,"oured":2441,"roll":2442,"idae":2443,"plural":2444,"thern":2445,"tened":2446,"ources":2447,"products":2448,"becom":2449,"affected":2450,"Containing":2451,"figur":2452,"half":2453,"perfect":2454,"big":2455,"cro":2456,"fair":2457,"osexual":2458,"vate":2459,"win":2460,"anno":2461,"aling":2462,"health":2463,"bell":2464,"love":2465,"aining":2466,"ading":2467,"assign":2468,"photo":2469,"ogn":2470,"solid":2471,"years":2472,"criminal":2473,"walk":2474,"Occurring":2475,"civ":2476,"ule":2477,"ume":2478,"threat":2479,"reduc":2480,"tially":2481,"icted":2482,"leather":2483,"demon":2484,"une":2485,"tries":2486,"agr":2487,"derived":2488,"clim":2489,"teach":2490,"prefer":2491,"box":2492,"dog":2493,"performed":2494,"rule":2495,"marked":2496,"representing":2497,"explo":2498,"tribute":2499,"straight":2500,"dress":2501,"gam":2502,"ked":2503,"list":2504,"rig":2505,"sand":2506,"inhabit":2507,"tit":2508,"behave":2509,"consum":2510,"meal":2511,"tically":2512,"even":2513,"context":2514,"dren":2515,"counter":2516,"mission":2517,"beliefs":2518,"judge":2519,"repeated":2520,"hist":2521,"must":2522,"pack":2523,"sa":2524,"test":2525,"vag":2526,"thick":2527,"enem":2528,"ali":2529,"store":2530,"sugg":2531,"expl":2532,"exerc":2533,"essential":2534,"vertical":2535,"plat":2536,"resp":2537,"ounce":2538,"oppon":2539,"ders":2540,"descent":2541,"angle":2542,"marriage":2543,"likely":2544,"tribu":2545,"express":2546,"join":2547,"severe":2548,"science":2549,"determined":2550,"previous":2551,"dependent":2552,"Sh":2553,"blow":2554,"du":2555,"hang":2556,"reli":2557,"sugar":2558,"deb":2559,"frame":2560,"lives":2561,"actual":2562,"auto":2563,"nose":2564,"notice":2565,"compan":2566,"entire":2567,"write":2568,"center":2569,"created":2570,"properties":2571,"talk":2572,"capacity":2573,"graphic":2574,"defined":2575,"treatment":2576,"scienti":2577,"demand":2578,"status":2579,"foolish":2580,"barr":2581,"cot":2582,"five":2583,"listen":2584,"wed":2585,"asting":2586,"pow":2587,"extend":2588,"excell":2589,"iding":2590,"tending":2591,"six":2592,"gry":2593,"scale":2594,"minis":2595,"penis":2596,"feelings":2597,"domin":2598,"letter":2599,"response":2600,"religion":2601,"techni":2602,"spring":2603,"doubt":2604,"development":2605,"vocal":2606,"conceal":2607,"civil":2608,"Ad":2609,"gas":2610,"io":2611,"jective":2612,"lu":2613,"watch":2614,"thr":2615,"eral":2616,"display":2617,"occurring":2618,"scri":2619,"contemp":2620,"century":2621,"clean":2622,"solute":2623,"advoc":2624,"whether":2625,"green":2626,"cutting":2627,"metaphor":2628,"established":2629,"medicine":2630,"practic":2631,"enemy":2632,"cand":2633,"ified":2634,"ufact":2635,"wing":2636,"inent":2637,"econom":2638,"rog":2639,"constr":2640,"user":2641,"exact":2642,"excep":2643,"verage":2644,"division":2645,"tainment":2646,"interval":2647,"weap":2648,"sky":2649,"growth":2650,"children":2651,"injury":2652,"benef":2653,"better":2654,"conscious":2655,"girl":2656,"Jap":2657,"Roman":2658,"fine":2659,"gust":2660,"ium":2661,"reput":2662,"assu":2663,"asted":2664,"root":2665,"ceed":2666,"connec":2667,"trade":2668,"exper":2669,"adap":2670,"quar":2671,"els":2672,"manage":2673,"manufact":2674,"discus":2675,"agent":2676,"grant":2677,"string":2678,"relatively":2679,"ficial":2680,"ival":2681,"boy":2682,"smaller":2683,"minor":2684,"financ":2685,"going":2686,"courage":2687,"topic":2688,"willing":2689,"receive":2690,"connect":2691,"continu":2692,"bitter":2693,"figure":2694,"obtained":2695,"network":2696,"progress":2697,"eu":2698,"eight":2699,"find":2700,"had":2701,"push":2702,"sac":2703,"inser":2704,"title":2705,"outer":2706,"perman":2707,"concentr":2708,"abund":2709,"tric":2710,"pective":2711,"proced":2712,"quiet":2713,"formation":2714,"note":2715,"recogn":2716,"via":2717,"nothing":2718,"cold":2719,"positive":2720,"groups":2721,"carried":2722,"ideas":2723,"require":2724,"transmit":2725,"ashing":2726,"divided":2727,"mixed":2728,"precise":2729,"mediate":2730,"micro":2731,"previously":2732,"television":2733,"principles":2734,"help":2735,"philos":2736,"Japan":2737,"nic":2738,"wish":2739,"ero":2740,"enthus":2741,"asy":2742,"leaves":2743,"chance":2744,"unexpected":2745,"lot":2746,"poly":2747,"extended":2748,"shoc":2749,"gene":2750,"partner":2751,"crime":2752,"consideration":2753,"confidence":2754,"protection":2755,"literary":2756,"smooth":2757,"It":2758,"bind":2759,"ded":2760,"hib":2761,"jac":2762,"lat":2763,"mut":2764,"ns":2765,"pal":2766,"rail":2767,"spar":2768,"va":2769,"instruc":2770,"orient":2771,"thes":2772,"arms":2773,"theory":2774,"lege":2775,"cele":2776,"concl":2777,"tery":2778,"urity":2779,"aph":2780,"avity":2781,"available":2782,"irt":2783,"serves":2784,"boat":2785,"compass":2786,"uded":2787,"understanding":2788,"sounds":2789,"complex":2790,"regarded":2791,"representation":2792,"filled":2793,"protect":2794,"carrying":2795,"payment":2796,"excite":2797,"copy":2798,"removed":2799,"iliar":2800,"tissue":2801,"Like":2802,"psych":2803,"By":2804,"So":2805,"cred":2806,"ek":2807,"ju":2808,"sity":2809,"oring":2810,"ert":2811,"attend":2812,"rever":2813,"estic":2814,"ises":2815,"across":2816,"bel":2817,"compar":2818,"ousing":2819,"serious":2820,"dram":2821,"reduce":2822,"corpor":2823,"ify":2824,"harsh":2825,"institu":2826,"basic":2827,"physically":2828,"significant":2829,"inese":2830,"video":2831,"milk":2832,"leading":2833,"street":2834,"provides":2835,"storage":2836,"occurs":2837,"extension":2838,"invest":2839,"Bri":2840,"fes":2841,"iff":2842,"ker":2843,"oil":2844,"rain":2845,"rich":2846,"sect":2847,"would":2848,"rock":2849,"veget":2850,"bear":2851,"convert":2852,"unc":2853,"track":2854,"exchange":2855,"tics":2856,"among":2857,"mob":2858,"grade":2859,"sphere":2860,"code":2861,"commerc":2862,"setting":2863,"market":2864,"numbers":2865,"aked":2866,"ancy":2867,"visual":2868,"ellig":2869,"empty":2870,"horiz":2871,"private":2872,"thorough":2873,"maintain":2874,"archit":2875,"Chinese":2876,"drawn":2877,"added":2878,"versity":2879,"radio":2880,"focus":2881,"equipment":2882,"Full":2883,"Speci":2884,"etr":2885,"fast":2886,"send":2887,"sides":2888,"ina":2889,"infl":2890,"inspir":2891,"attitude":2892,"defeat":2893,"delay":2894,"consequence":2895,"impression":2896,"aps":2897,"resist":2898,"ressive":2899,"coming":2900,"composed":2901,"manif":2902,"disposition":2903,"areas":2904,"occurr":2905,"pron":2906,"assist":2907,"destruc":2908,"intel":2909,"carbon":2910,"icked":2911,"highest":2912,"Excessive":2913,"crete":2914,"results":2915,"approach":2916,"slender":2917,"pieces":2918,"effects":2919,"garment":2920,"features":2921,"identity":2922,"sports":2923,"meeting":2924,"professional":2925,"inferior":2926,"celebr":2927,"Ab":2928,"Clo":2929,"Mo":2930,"Wh":2931,"dly":2932,"fying":2933,"la":2934,"nal":2935,"paid":2936,"roman":2937,"ton":2938,"inking":2939,"inte":2940,"erce":2941,"ases":2942,"assem":2943,"itting":2944,"rod":2945,"sus":2946,"conc":2947,"loose":2948,"popul":2949,"shr":2950,"emph":2951,"ager":2952,"opposition":2953,"recur":2954,"presence":2955,"desc":2956,"served":2957,"dry":2958,"produces":2959,"ustri":2960,"ift":2961,"highly":2962,"volume":2963,"countries":2964,"basis":2965,"elev":2966,"resulting":2967,"penetr":2968,"glass":2969,"broken":2970,"calcul":2971,"concerned":2972,"standards":2973,"wheels":2974,"faith":2975,"alcoholic":2976,"trouble":2977,"potential":2978,"respond":2979,"architect":2980,"Earth":2981,"Jew":2982,"athing":2983,"cam":2984,"crow":2985,"fan":2986,"mine":2987,"pas":2988,"ror":2989,"rise":2990,"sight":2991,"thread":2992,"thetic":2993,"stret":2994,"beat":2995,"deity":2996,"ilities":2997,"unable":2998,"agger":2999,"pra":3000,"feet":3001,"teeth":3002,"flav":3003,"anged":3004,"ought":3005,"lection":3006,"cere":3007,"timid":3008,"medical":3009,"earli":3010,"holding":3011,"ternal":3012,"policy":3013,"ugg":3014,"glish":3015,"competition":3016,"regularly":3017,"English":3018,"prepared":3019,"wool":3020,"dangerous":3021,"formerly":3022,"preparation":3023,"tight":3024,"occurrence":3025,"ever":3026,"fight":3027,"gland":3028,"hour":3029,"ls":3030,"rhy":3031,"uel":3032,"redi":3033,"tian":3034,"asing":3035,"acle":3036,"story":3037,"bearing":3038,"adjust":3039,"applied":3040,"reser":3041,"ests":3042,"vious":3043,"contest":3044,"cord":3045,"valid":3046,"ideal":3047,"familiar":3048,"foreign":3049,"pleasing":3050,"approxim":3051,"electrical":3052,"address":3053,"fitting":3054,"providing":3055,"spoken":3056,"clothes":3057,"circumstances":3058,"bottom":3059,"values":3060,"mechanical":3061,"obligation":3062,"addition":3063,"improve":3064,"German":3065,"opponent":3066,"procedure":3067,"Cover":3068,"Happ":3069,"Op":3070,"Pr":3071,"Serving":3072,"bly":3073,"fly":3074,"hidden":3075,"next":3076,"rate":3077,"vine":3078,"anx":3079,"reve":3080,"tool":3081,"escap":3082,"oment":3083,"asp":3084,"accep":3085,"perception":3086,"illegal":3087,"geo":3088,"uration":3089,"ains":3090,"compr":3091,"tense":3092,"model":3093,"price":3094,"Often":3095,"fee":3096,"coat":3097,"cook":3098,"command":3099,"ifying":3100,"ceptible":3101,"enced":3102,"fined":3103,"critical":3104,"attle":3105,"hope":3106,"Chris":3107,"worthless":3108,"ification":3109,"America":3110,"suddenly":3111,"container":3112,"spiritual":3113,"brown":3114,"North":3115,"exceptional":3116,"commercial":3117,"bid":3118,"border":3119,"hun":3120,"last":3121,"were":3122,"yet":3123,"ende":3124,"remark":3125,"tile":3126,"itate":3127,"stay":3128,"ulated":3129,"ape":3130,"shot":3131,"sitive":3132,"discrim":3133,"antly":3134,"observ":3135,"score":3136,"fix":3137,"curved":3138,"airs":3139,"decl":3140,"directly":3141,"purch":3142,"itude":3143,"appears":3144,"opening":3145,"individuals":3146,"reality":3147,"calm":3148,"waste":3149,"developed":3150,"necessarily":3151,"sibly":3152,"logical":3153,"primary":3154,"release":3155,"principle":3156,"message":3157,"introduc":3158,"category":3159,"becoming":3160,"romantic":3161,"Free":3162,"High":3163,"Over":3164,"Ph":3165,"Ref":3166,"Show":3167,"bish":3168,"cow":3169,"fro":3170,"gri":3171,"nuc":3172,"sale":3173,"uine":3174,"won":3175,"inst":3176,"insul":3177,"enough":3178,"enclosed":3179,"total":3180,"isted":3181,"termin":3182,"apart":3183,"application":3184,"paralle":3185,"resources":3186,"embarr":3187,"uted":3188,"actually":3189,"molec":3190,"aud":3191,"eval":3192,"intellig":3193,"door":3194,"plays":3195,"Under":3196,"soldi":3197,"hydro":3198,"growing":3199,"responding":3200,"indicate":3201,"suffering":3202,"combination":3203,"attract":3204,"swee":3205,"accum":3206,"honour":3207,"predict":3208,"temporary":3209,"phenomenon":3210,"annoy":3211,"British":3212,"Christian":3213,"embarrass":3214,"bill":3215,"glo":3216,"rout":3217,"rum":3218,"spec":3219,"tum":3220,"inn":3221,"inher":3222,"ored":3223,"alty":3224,"ites":3225,"sually":3226,"unknown":3227,"expect":3228,"ided":3229,"plate":3230,"manip":3231,"ared":3232,"auti":3233,"fulness":3234,"brand":3235,"ignificant":3236,"lected":3237,"cool":3238,"media":3239,"akes":3240,"sexually":3241,"request":3242,"patron":3243,"welling":3244,"drawing":3245,"letters":3246,"further":3247,"possessing":3248,"artistic":3249,"strip":3250,"entertainment":3251,"axis":3252,"damage":3253,"according":3254,"sensation":3255,"mountain":3256,"technique":3257,"Japanese":3258,"emphas":3259,"20":3260,"Gener":3261,"Lat":3262,"Usually":3263,"gro":3264,"ham":3265,"mam":3266,"oce":3267,"vow":3268,"ories":3269,"thro":3270,"think":3271,"ingredi":3272,"tification":3273,"omin":3274,"least":3275,"station":3276,"forces":3277,"union":3278,"units":3279,"somewhat":3280,"oting":3281,"oted":3282,"verbal":3283,"resol":3284,"prise":3285,"obstruc":3286,"objection":3287,"desired":3288,"understand":3289,"minim":3290,"turned":3291,"pipe":3292,"mature":3293,"fund":3294,"Cons":3295,"difference":3296,"performing":3297,"inclined":3298,"measurement":3299,"azy":3300,"circular":3301,"mention":3302,"ethnic":3303,"Produc":3304,"construction":3305,"organisms":3306,"sentence":3307,"surrounding":3308,"slightly":3309,"convey":3310,"figuratively":3311,"weapon":3312,"Out":3313,"Pre":3314,"date":3315,"fresh":3316,"gard":3317,"mone":3318,"pig":3319,"tone":3320,"vic":3321,"vac":3322,"ware":3323,"zed":3324,"devi":3325,"absolute":3326,"pot":3327,"exts":3328,"impul":3329,"disgust":3330,"strate":3331,"Intern":3332,"obst":3333,"reci":3334,"recor":3335,"lowing":3336,"indul":3337,"flight":3338,"final":3339,"organized":3340,"hero":3341,"facts":3342,"plane":3343,"contrad":3344,"contract":3345,"custo":3346,"indicating":3347,"birth":3348,"mote":3349,"strike":3350,"pointed":3351,"trees":3352,"training":3353,"error":3354,"initi":3355,"details":3356,"components":3357,"yield":3358,"inhabitant":3359,"tribution":3360,"connection":3361,"manifest":3362,"Covered":3363,"Money":3364,"Off":3365,"gest":3366,"hur":3367,"moment":3368,"nob":3369,"rent":3370,"zy":3371,"indefinite":3372,"rees":3373,"arse":3374,"themat":3375,"isl":3376,"aspect":3377,"consu":3378,"abstr":3379,"kept":3380,"shor":3381,"outward":3382,"mode":3383,"grand":3384,"ney":3385,"pressive":3386,"vities":3387,"few":3388,"cost":3389,"web":3390,"timber":3391,"legisl":3392,"simple":3393,"passion":3394,"itually":3395,"hole":3396,"expressed":3397,"contrasted":3398,"raise":3399,"equival":3400,"leader":3401,"clearly":3402,"deliver":3403,"bene":3404,"stick":3405,"needed":3406,"primarily":3407,"picture":3408,"audience":3409,"homosexual":3410,"square":3411,"arrangement":3412,"financial":3413,"mobile":3414,"earlier":3415,"Happening":3416,"Em":3417,"Great":3418,"Str":3419,"Sup":3420,"Used":3421,"bone":3422,"cou":3423,"hus":3424,"hide":3425,"jus":3426,"mes":3427,"rat":3428,"sou":3429,"sad":3430,"vable":3431,"warm":3432,"xible":3433,"angry":3434,"enjoy":3435,"remote":3436,"estern":3437,"ardi":3438,"isation":3439,"start":3440,"beauti":3441,"whom":3442,"iling":3443,"absor":3444,"excess":3445,"imper":3446,"prote":3447,"iron":3448,"compreh":3449,"elong":3450,"ops":3451,"prison":3452,"upid":3453,"fiction":3454,"possibly":3455,"fier":3456,"answer":3457,"intercourse":3458,"players":3459,"legally":3460,"apping":3461,"handle":3462,"greatly":3463,"intentionally":3464,"limited":3465,"faces":3466,"birds":3467,"decorative":3468,"acceptable":3469,"exclusive":3470,"deceive":3471,"target":3472,"reedom":3473,"games":3474,"platform":3475,"scientific":3476,"economic":3477,"benefit":3478,"horizon":3479,"intellect":3480,"Done":3481,"aper":3482,"dil":3483,"dull":3484,"egg":3485,"hat":3486,"itive":3487,"lab":3488,"lum":3489,"mill":3490,"pale":3491,"rical":3492,"tan":3493,"tac":3494,"tang":3495,"inves":3496,"aries":3497,"iss":3498,"asts":3499,"seat":3500,"sell":3501,"roof":3502,"hear":3503,"ula":3504,"illi":3505,"unk":3506,"expen":3507,"adop":3508,"adher":3509,"plies":3510,"tender":3511,"strict":3512,"estate":3513,"aust":3514,"fies":3515,"izes":3516,"flesh":3517,"evol":3518,"corresponding":3519,"constit":3520,"numer":3521,"married":3522,"tendency":3523,"turning":3524,"directions":3525,"supposed":3526,"adequ":3527,"match":3528,"passed":3529,"veness":3530,"offensive":3531,"basket":3532,"humans":3533,"still":3534,"confused":3535,"whel":3536,"void":3537,"happening":3538,"layer":3539,"drive":3540,"facial":3541,"silk":3542,"student":3543,"traditionally":3544,"dishon":3545,"keeping":3546,"logic":3547,"employed":3548,"sweet":3549,"graphical":3550,"myth":3551,"scope":3552,"stitute":3553,"declare":3554,"Showing":3555,"investig":3556,"He":3557,"Le":3558,"bent":3559,"cous":3560,"dign":3561,"hi":3562,"ie":3563,"ience":3564,"tell":3565,"inner":3566,"rear":3567,"research":3568,"alk":3569,"tire":3570,"issue":3571,"itor":3572,"sets":3573,"convers":3574,"terri":3575,"ady":3576,"adul":3577,"overwhel":3578,"awk":3579,"brain":3580,"lessly":3581,"harmon":3582,"anced":3583,"finite":3584,"handed":3585,"currency":3586,"cases":3587,"casual":3588,"guard":3589,"choice":3590,"arranged":3591,"careful":3592,"responsibility":3593,"happy":3594,"received":3595,"continuous":3596,"establishment":3597,"risk":3598,"cryst":3599,"eyes":3600,"widely":3601,"comfortable":3602,"conventional":3603,"zzle":3604,"deliberately":3605,"criticism":3606,"furnish":3607,"ceremon":3608,"wild":3609,"exercise":3610,"Specific":3611,"population":3612,"France":3613,"Mark":3614,"Rec":3615,"Sex":3616,"South":3617,"bab":3618,"eleg":3619,"lav":3620,"might":3621,"vant":3622,"theat":3623,"icit":3624,"stupid":3625,"entr":3626,"roc":3627,"beverage":3628,"constant":3629,"ulty":3630,"undesirable":3631,"territ":3632,"trip":3633,"extr":3634,"imm":3635,"adm":3636,"proof":3637,"appar":3638,"partial":3639,"comes":3640,"compos":3641,"amm":3642,"outcome":3643,"river":3644,"moon":3645,"arely":3646,"neu":3647,"print":3648,"industri":3649,"phy":3650,"earing":3651,"holds":3652,"located":3653,"breaking":3654,"transl":3655,"signal":3656,"informal":3657,"graphy":3658,"preceding":3659,"doctr":3660,"places":3661,"successful":3662,"shel":3663,"achiev":3664,"applying":3665,"double":3666,"oxy":3667,"aggressive":3668,"component":3669,"tivated":3670,"Asian":3671,"bodies":3672,"finger":3673,"discussion":3674,"Latin":3675,"Internet":3676,"conversation":3677,"Marked":3678,"New":3679,"We":3680,"dic":3681,"mur":3682,"senti":3683,"vest":3684,"xic":3685,"zo":3686,"zero":3687,"instead":3688,"independent":3689,"thy":3690,"armed":3691,"ission":3692,"aster":3693,"ections":3694,"stress":3695,"consequ":3696,"withdraw":3697,"trail":3698,"exer":3699,"idi":3700,"irm":3701,"irrit":3702,"elding":3703,"ety":3704,"uting":3705,"ries":3706,"ighten":3707,"neither":3708,"substances":3709,"interpre":3710,"wealth":3711,"decision":3712,"typical":3713,"patient":3714,"limits":3715,"rench":3716,"freely":3717,"promise":3718,"agreeable":3719,"thinking":3720,"skilled":3721,"aneously":3722,"community":3723,"biological":3724,"magn":3725,"000":3726,"sporting":3727,"untary":3728,"drugs":3729,"lively":3730,"practical":3731,"slowly":3732,"mechanism":3733,"changed":3734,"fasten":3735,"India":3736,"third":3737,"disturb":3738,"Africa":3739,"philosop":3740,"institution":3741,"beautiful":3742,"16":3743,"Med":3744,"Rem":3745,"ai":3746,"best":3747,"lin":3748,"len":3749,"rand":3750,"sis":3751,"tin":3752,"tes":3753,"yel":3754,"era":3755,"attribut":3756,"repair":3757,"arri":3758,"isy":3759,"acious":3760,"heart":3761,"depression":3762,"conv":3763,"confl":3764,"confer":3765,"ilt":3766,"olate":3767,"external":3768,"partially":3769,"opport":3770,"grat":3771,"mathemat":3772,"reck":3773,"aware":3774,"file":3775,"cooking":3776,"weather":3777,"Unable":3778,"mistake":3779,"requiring":3780,"materials":3781,"stil":3782,"rights":3783,"circle":3784,"types":3785,"confine":3786,"publication":3787,"regarding":3788,"plicit":3789,"measured":3790,"referring":3791,"azard":3792,"violence":3793,"determine":3794,"aneous":3795,"judgment":3796,"punishment":3797,"accordance":3798,"saying":3799,"screen":3800,"favorable":3801,"article":3802,"Asia":3803,"obscure":3804,"eaten":3805,"extraordinary":3806,"threatening":3807,"reputation":3808,"integr":3809,"praise":3810,"escape":3811,"wonder":3812,"parallel":3813,"fundamental":3814,"Specifically":3815,"French":3816,"Ir":3817,"Se":3818,"aus":3819,"bag":3820,"cu":3821,"dwelling":3822,"fant":3823,"gence":3824,"iar":3825,"jour":3826,"py":3827,"pical":3828,"specially":3829,"zen":3830,"infr":3831,"oral":3832,"revol":3833,"almost":3834,"tip":3835,"tired":3836,"assum":3837,"stated":3838,"forc":3839,"cel":3840,"concrete":3841,"unch":3842,"unusual":3843,"until":3844,"olar":3845,"getic":3846,"adminis":3847,"prop":3848,"resid":3849,"odd":3850,"disput":3851,"overe":3852,"vie":3853,"illness":3854,"aws":3855,"drag":3856,"curve":3857,"compens":3858,"uster":3859,"earn":3860,"affairs":3861,"insignificant":3862,"languages":3863,"controlled":3864,"cells":3865,"unique":3866,"correctly":3867,"spot":3868,"supernatural":3869,"supporting":3870,"supports":3871,"telephone":3872,"communication":3873,"initial":3874,"wanted":3875,"deceit":3876,"ceremony":3877,"stimul":3878,"accurate":3879,"memory":3880,"alien":3881,"companied":3882,"powder":3883,"conclusion":3884,"excitement":3885,"soldier":3886,"Consisting":3887,"equivalent":3888,"Diff":3889,"Ob":3890,"Using":3891,"ares":3892,"bacter":3893,"hin":3894,"ires":3895,"lap":3896,"ogen":3897,"pure":3898,"page":3899,"sick":3900,"slip":3901,"atmo":3902,"rep":3903,"aled":3904,"issu":3905,"chall":3906,"imple":3907,"improper":3908,"ades":3909,"adorn":3910,"essed":3911,"residence":3912,"shoul":3913,"discomfort":3914,"grass":3915,"beings":3916,"reek":3917,"bra":3918,"coarse":3919,"corrupt":3920,"consistent":3921,"deck":3922,"decis":3923,"surg":3924,"roughly":3925,"gives":3926,"throughout":3927,"affection":3928,"horses":3929,"situated":3930,"flowing":3931,"easy":3932,"texture":3933,"opposing":3934,"thereof":3935,"thrown":3936,"distinguish":3937,"friendly":3938,"failure":3939,"relevant":3940,"constructed":3941,"Design":3942,"changes":3943,"vessels":3944,"Indian":3945,"ownership":3946,"Suitable":3947,"fellow":3948,"vague":3949,"practices":3950,"accepted":3951,"mammal":3952,"awkward":3953,"God":3954,"Greek":3955,"Making":3956,"Mars":3957,"Sm":3958,"See":3959,"cen":3960,"kne":3961,"late":3962,"pom":3963,"son":3964,"sam":3965,"sort":3966,"tation":3967,"ugh":3968,"vital":3969,"invent":3970,"orph":3971,"antic":3972,"ales":3973,"arrog":3974,"theme":3975,"astr":3976,"acade":3977,"iter":3978,"stro":3979,"delight":3980,"chrom":3981,"looking":3982,"exist":3983,"essence":3984,"tension":3985,"pep":3986,"elim":3987,"discharge":3988,"rier":3989,"ighting":3990,"grace":3991,"spher":3992,"award":3993,"desp":3994,"correspond":3995,"marks":3996,"encing":3997,"encour":3998,"centre":3999,"creating":4000,"affic":4001,"breath":4002,"passeng":4003,"prior":4004,"ordinate":4005,"distress":4006,"transparent":4007,"cheer":4008,"joint":4009,"operating":4010,"contrast":4011,"domain":4012,"functional":4013,"strongly":4014,"responsible":4015,"ruption":4016,"symp":4017,"allowing":4018,"uniform":4019,"England":4020,"magic":4021,"literature":4022,"killing":4023,"participate":4024,"gentle":4025,"affecting":4026,"vulgar":4027,"printed":4028,"iasm":4029,"wife":4030,"hanging":4031,"candid":4032,"dramatic":4033,"architecture":4034,"rhyth":4035,"doctrine":4036,"yellow":4037,"opportun":4038,"administr":4039,"overeign":4040,"15":4041,"Aff":4042,"All":4043,"Mid":4044,"Most":4045,"Pl":4046,"bat":4047,"cil":4048,"dol":4049,"duration":4050,"map":4051,"mother":4052,"oy":4053,"rad":4054,"rational":4055,"spect":4056,"sovereign":4057,"tall":4058,"wet":4059,"inqu":4060,"ths":4061,"these":4062,"reaction":4063,"alf":4064,"tous":4065,"ouds":4066,"itating":4067,"usage":4068,"unspecified":4069,"olic":4070,"mel":4071,"lost":4072,"exists":4073,"urn":4074,"images":4075,"impossible":4076,"immediate":4077,"prob":4078,"plug":4079,"plastic":4080,"fraud":4081,"dial":4082,"dies":4083,"divide":4084,"peace":4085,"shame":4086,"elve":4087,"persistent":4088,"discre":4089,"ets":4090,"strange":4091,"estly":4092,"recre":4093,"cler":4094,"fictional":4095,"genuine":4096,"subst":4097,"subtle":4098,"drinking":4099,"colum":4100,"clock":4101,"decay":4102,"processes":4103,"visit":4104,"finish":4105,"generate":4106,"secure":4107,"bread":4108,"greatest":4109,"privi":4110,"distant":4111,"performs":4112,"penalty":4113,"approval":4114,"fortune":4115,"operate":4116,"confuse":4117,"carefully":4118,"bold":4119,"artificial":4120,"restricted":4121,"snack":4122,"broadcast":4123,"icycle":4124,"variable":4125,"floor":4126,"recorded":4127,"atomic":4128,"additional":4129,"hesive":4130,"deliberate":4131,"African":4132,"exhibiting":4133,"abundance":4134,"thoroughly":4135,"inspiring":4136,"Jewish":4137,"Bet":4138,"NA":4139,"No":4140,"Taking":4141,"bac":4142,"cin":4143,"cli":4144,"father":4145,"gan":4146,"gently":4147,"link":4148,"luck":4149,"pes":4150,"pick":4151,"rist":4152,"rush":4153,"sch":4154,"session":4155,"sque":4156,"wicked":4157,"erve":4158,"onto":4159,"tough":4160,"tism":4161,"stable":4162,"staff":4163,"seed":4164,"seven":4165,"ands":4166,"cha":4167,"unning":4168,"abnormal":4169,"adver":4170,"propri":4171,"frag":4172,"elabor":4173,"liz":4174,"neigh":4175,"objective":4176,"spin":4177,"clouds":4178,"vibr":4179,"blind":4180,"acknow":4181,"flour":4182,"server":4183,"contents":4184,"coloured":4185,"soil":4186,"internal":4187,"characterised":4188,"udent":4189,"carriage":4190,"undergo":4191,"minister":4192,"goals":4193,"cream":4194,"insect":4195,"passing":4196,"cultural":4197,"sold":4198,"effem":4199,"appearing":4200,"circul":4201,"rude":4202,"downward":4203,"operations":4204,"ictory":4205,"laws":4206,"steal":4207,"summon":4208,"viewed":4209,"habitually":4210,"ornament":4211,"domestic":4212,"pull":4213,"preced":4214,"separation":4215,"profit":4216,"buildings":4217,"badly":4218,"receives":4219,"cycle":4220,"continue":4221,"secondary":4222,"contains":4223,"technical":4224,"failing":4225,"fault":4226,"cards":4227,"accident":4228,"execute":4229,"town":4230,"transportation":4231,"fingers":4232,"photograph":4233,"agricul":4234,"history":4235,"suggest":4236,"permanent":4237,"shock":4238,"thesis":4239,"compassion":4240,"psychological":4241,"anxiety":4242,"remarkable":4243,"ingredients":4244,"impulse":4245,"shoulders":4246,"10":4247,"Belong":4248,"Fol":4249,"Ital":4250,"Mar":4251,"Mus":4252,"Non":4253,"bud":4254,"bicycle":4255,"farm":4256,"hind":4257,"oing":4258,"site":4259,"snow":4260,"tled":4261,"welf":4262,"inity":4263,"atives":4264,"accus":4265,"iture":4266,"stain":4267,"entry":4268,"heard":4269,"chec":4270,"conform":4271,"irregular":4272,"complic":4273,"divine":4274,"ays":4275,"should":4276,"eting":4277,"grain":4278,"maxim":4279,"asser":4280,"twist":4281,"twelve":4282,"pressing":4283,"presents":4284,"blue":4285,"scr":4286,"brid":4287,"intent":4288,"activities":4289,"Excell":4290,"clever":4291,"presenting":4292,"solution":4293,"similarly":4294,"intention":4295,"intensity":4296,"emotions":4297,"happiness":4298,"swim":4299,"tomach":4300,"allows":4301,"levels":4302,"instruments":4303,"reasoning":4304,"exhaust":4305,"delic":4306,"circumstance":4307,"woven":4308,"impact":4309,"walls":4310,"occupation":4311,"accomplished":4312,"starting":4313,"Easily":4314,"creature":4315,"uncertainty":4316,"safe":4317,"duties":4318,"entirely":4319,"wedding":4320,"contemptible":4321,"manufactured":4322,"insert":4323,"destruction":4324,"stretch":4325,"comprising":4326,"noble":4327,"abstract":4328,"legislative":4329,"southern":4330,"intellectual":4331,"terrible":4332,"Belonging":4333,"17":4334,"Dec":4335,"Especially":4336,"Qu":4337,"Sun":4338,"Sub":4339,"ah":4340,"bank":4341,"dre":4342,"freedom":4343,"gall":4344,"ians":4345,"jump":4346,"tary":4347,"ui":4348,"uti":4349,"wave":4350,"refr":4351,"replace":4352,"toc":4353,"arbit":4354,"tie":4355,"tied":4356,"ask":4357,"itated":4358,"itted":4359,"celes":4360,"permit":4361,"abs":4362,"tral":4363,"trading":4364,"oty":4365,"appoint":4366,"plain":4367,"shed":4368,"manual":4369,"discer":4370,"distribution":4371,"ride":4372,"mood":4373,"moist":4374,"ector":4375,"Intended":4376,"worse":4377,"notation":4378,"illicit":4379,"feather":4380,"manners":4381,"pregn":4382,"fiel":4383,"qualified":4384,"college":4385,"crack":4386,"constitu":4387,"ancing":4388,"Union":4389,"secre":4390,"muscle":4391,"lands":4392,"police":4393,"socially":4394,"Concer":4395,"semi":4396,"election":4397,"published":4398,"stile":4399,"males":4400,"slam":4401,"contrary":4402,"choices":4403,"Related":4404,"Christ":4405,"rounded":4406,"functions":4407,"days":4408,"filling":4409,"servant":4410,"concerning":4411,"grammat":4412,"faculty":4413,"burst":4414,"burden":4415,"combat":4416,"heavily":4417,"restric":4418,"treated":4419,"travels":4420,"pitched":4421,"excessively":4422,"acquire":4423,"harmful":4424,"predic":4425,"shoot":4426,"Appe":4427,"flexible":4428,"stuff":4429,"printing":4430,"Poss":4431,"dimensional":4432,"smell":4433,"believed":4434,"electricity":4435,"assigned":4436,"rigid":4437,"consumption":4438,"debate":4439,"cotton":4440,"excellence":4441,"intervals":4442,"concentration":4443,"comparison":4444,"festi":4445,"Producing":4446,"horizontal":4447,"shelter":4448,"oxygen":4449,"philosophy":4450,"academic":4451,"welfare":4452,"Cl":4453,"Can":4454,"Centr":4455,"Islam":4456,"Par":4457,"Rus":4458,"Span":4459,"battle":4460,"cab":4461,"cod":4462,"eper":4463,"ha":4464,"ife":4465,"mn":4466,"nations":4467,"pous":4468,"sau":4469,"stomach":4470,"vous":4471,"winter":4472,"ato":4473,"reward":4474,"refined":4475,"esome":4476,"estimate":4477,"tise":4478,"isc":4479,"assi":4480,"aste":4481,"aside":4482,"lean":4483,"aced":4484,"stars":4485,"het":4486,"forced":4487,"depart":4488,"depri":4489,"traffic":4490,"pects":4491,"impressive":4492,"adow":4493,"adjac":4494,"aved":4495,"resource":4496,"lide":4497,"ago":4498,"agency":4499,"uct":4500,"Incl":4501,"endure":4502,"awn":4503,"particles":4504,"ipp":4505,"morally":4506,"subsequ":4507,"syll":4508,"coast":4509,"ween":4510,"week":4511,"productive":4512,"legi":4513,"holes":4514,"directed":4515,"creation":4516,"capital":4517,"soci":4518,"fung":4519,"reading":4520,"holy":4521,"host":4522,"hook":4523,"stiff":4524,"designated":4525,"spirits":4526,"renew":4527,"ibly":4528,"Characterised":4529,"resembles":4530,"defense":4531,"silver":4532,"allowed":4533,"university":4534,"combine":4535,"skills":4536,"receiving":4537,"include":4538,"Comple":4539,"falling":4540,"contained":4541,"walking":4542,"branches":4543,"stood":4544,"modified":4545,"atoms":4546,"racing":4547,"suspic":4548,"favourable":4549,"demonstr":4550,"climb":4551,"excellent":4552,"lux":4553,"enthusi":4554,"enthusiasm":4555,"binding":4556,"hibiting":4557,"unction":4558,"recurring":4559,"observation":4560,"embarrassment":4561,"ocean":4562,"delivered":4563,"arrogant":4564,"Between":4565,"Excellent":4566,"Central":4567,"Spanish":4568,"Sec":4569,"Sim":4570,"bend":4571,"batter":4572,"cat":4573,"dread":4574,"fec":4575,"haph":4576,"kick":4577,"mud":4578,"pin":4579,"sar":4580,"soph":4581,"tong":4582,"uity":4583,"van":4584,"ana":4585,"enforce":4586,"esy":4587,"arous":4588,"till":4589,"accompanied":4590,"ecti":4591,"height":4592,"dex":4593,"ulp":4594,"unimportant":4595,"unci":4596,"aband":4597,"loan":4598,"trial":4599,"pod":4600,"prove":4601,"proportion":4602,"verted":4603,"ressed":4604,"shop":4605,"shade":4606,"shore":4607,"embell":4608,"disci":4609,"utes":4610,"formally":4611,"formula":4612,"grasp":4613,"strings":4614,"worm":4615,"worship":4616,"notes":4617,"obed":4618,"obvious":4619,"illing":4620,"blade":4621,"scene":4622,"sculp":4623,"porting":4624,"particle":4625,"izations":4626,"novel":4627,"charged":4628,"brilli":4629,"angles":4630,"settle":4631,"singing":4632,"engaging":4633,"engaged":4634,"understood":4635,"structures":4636,"minute":4637,"harp":4638,"appreci":4639,"bub":4640,"Existing":4641,"selves":4642,"organic":4643,"matters":4644,"powered":4645,"puzzle":4646,"behalf":4647,"systems":4648,"hosp":4649,"trying":4650,"mostly":4651,"signs":4652,"degrees":4653,"grey":4654,"mediately":4655,"vehicles":4656,"themselves":4657,"burn":4658,"burning":4659,"indication":4660,"paint":4661,"judic":4662,"colored":4663,"repeat":4664,"restrained":4665,"questions":4666,"relationships":4667,"identify":4668,"ritual":4669,"iliation":4670,"citi":4671,"committed":4672,"drop":4673,"methods":4674,"Descri":4675,"salt":4676,"seemingly":4677,"wrongdoing":4678,"temporarily":4679,"learning":4680,"superiority":4681,"preparing":4682,"bodily":4683,"ceedingly":4684,"Eastern":4685,"alternate":4686,"metaphorical":4687,"credit":4688,"resistance":4689,"descend":4690,"geographical":4691,"vowel":4692,"mentioned":4693,"monetary":4694,"territory":4695,"Difficul":4696,"elaborate":4697,"effeminate":4698,"complicated":4699,"subsequent":4700,"haphazard":4701,"Co":4702,"Cor":4703,"Care":4704,"Pe":4705,"Sy":4706,"Tur":4707,"cau":4708,"cular":4709,"could":4710,"ga":4711,"housing":4712,"ios":4713,"nom":4714,"rab":4715,"tiny":4716,"ues":4717,"utive":4718,"washing":4719,"yard":4720,"inated":4721,"inating":4722,"input":4723,"enn":4724,"always":4725,"areness":4726,"tite":4727,"omy":4728,"ley":4729,"leaf":4730,"acing":4731,"ache":4732,"ece":4733,"forest":4734,"whol":4735,"ulating":4736,"unwanted":4737,"tering":4738,"imperfect":4739,"otes":4740,"avour":4741,"keen":4742,"ambig":4743,"shi":4744,"shine":4745,"ounter":4746,"lift":4747,"dislike":4748,"movable":4749,"movie":4750,"prone":4751,"spend":4752,"recent":4753,"recently":4754,"relations":4755,"cloud":4756,"industr":4757,"illum":4758,"bled":4759,"awareness":4760,"angular":4761,"subordinate":4762,"crust":4763,"movements":4764,"mineral":4765,"tends":4766,"ancest":4767,"simult":4768,"tually":4769,"membr":4770,"breathing":4771,"presentation":4772,"north":4773,"antial":4774,"cheese":4775,"mainly":4776,"shows":4777,"signific":4778,"expressing":4779,"built":4780,"Church":4781,"news":4782,"examination":4783,"tasks":4784,"army":4785,"transi":4786,"runs":4787,"driving":4788,"driven":4789,"heavens":4790,"artist":4791,"writer":4792,"Common":4793,"barrel":4794,"books":4795,"warning":4796,"dimin":4797,"trained":4798,"wheeled":4799,"employee":4800,"extending":4801,"communicate":4802,"waist":4803,"devices":4804,"steps":4805,"audio":4806,"temperature":4807,"digital":4808,"imagination":4809,"suspended":4810,"accomplish":4811,"gathering":4812,"sugges":4813,"dominant":4814,"assume":4815,"install":4816,"recording":4817,"indulgence":4818,"beneath":4819,"adequate":4820,"overwhelming":4821,"random":4822,"Small":4823,"despite":4824,"Middle":4825,"arbitr":4826,"celestial":4827,"sauce":4828,"adjacent":4829,"Difficult":4830,"industry":4831,"significance":4832,"Austr":4833,"Che":4834,"Open":4835,"Ple":4836,"bom":4837,"coc":4838,"eating":4839,"ier":4840,"iency":4841,"mad":4842,"pill":4843,"ran":4844,"sper":4845,"south":4846,"vote":4847,"vector":4848,"wid":4849,"wel":4850,"intr":4851,"incorrect":4852,"intimid":4853,"ores":4854,"oration":4855,"erect":4856,"report":4857,"represents":4858,"arn":4859,"arising":4860,"itative":4861,"stab":4862,"bea":4863,"beam":4864,"chron":4865,"conj":4866,"abilities":4867,"admit":4868,"administer":4869,"parame":4870,"parties":4871,"irty":4872,"empor":4873,"liber":4874,"perspective":4875,"discourse":4876,"grind":4877,"grave":4878,"mail":4879,"spic":4880,"upset":4881,"induc":4882,"induce":4883,"ghost":4884,"ports":4885,"contexts":4886,"interaction":4887,"corner":4888,"surprise":4889,"encounter":4890,"holder":4891,"generation":4892,"gos":4893,"tuber":4894,"creative":4895,"appetite":4896,"organisation":4897,"muscles":4898,"whereby":4899,"breeding":4900,"talent":4901,"cultivated":4902,"capture":4903,"offence":4904,"Conf":4905,"lingu":4906,"included":4907,"balls":4908,"contrived":4909,"choose":4910,"flower":4911,"views":4912,"ornamental":4913,"restaur":4914,"describe":4915,"defensive":4916,"violently":4917,"politic":4918,"silly":4919,"suffer":4920,"painting":4921,"bringing":4922,"succession":4923,"trait":4924,"attachment":4925,"restrain":4926,"pointing":4927,"establish":4928,"opinions":4929,"teams":4930,"boring":4931,"attered":4932,"changing":4933,"stock":4934,"devil":4935,"satisfy":4936,"analog":4937,"poorly":4938,"scoop":4939,"studies":4940,"named":4941,"shared":4942,"reduction":4943,"repeatedly":4944,"histor":4945,"powers":4946,"contempt":4947,"consciousness":4948,"granted":4949,"instructions":4950,"susceptible":4951,"Overly":4952,"nuclear":4953,"insult":4954,"annoyance":4955,"enjoyment":4956,"protein":4957,"basketball":4958,"baby":4959,"column":4960,"squee":4961,"sarcas":4962,"unciation":4963,"People":4964,"Austral":4965,"Am":4966,"Har":4967,"eal":4968,"laid":4969,"laugh":4970,"nas":4971,"oo":4972,"pound":4973,"sit":4974,"uding":4975,"witch":4976,"atious":4977,"ened":4978,"already":4979,"tot":4980,"token":4981,"arian":4982,"lex":4983,"aces":4984,"stam":4985,"entrance":4986,"seman":4987,"selling":4988,"beer":4989,"behaving":4990,"deed":4991,"debt":4992,"persu":4993,"uliar":4994,"unreason":4995,"unstead":4996,"older":4997,"igr":4998,"melo":4999,"loop":5000,"exceed":5001,"exagger":5002,"imped":5003,"immediately":5004,"irres":5005,"ression":5006,"ressing":5007,"die":5008,"shake":5009,"ounced":5010,"sip":5011,"ousers":5012,"distr":5013,"dissol":5014,"diseas":5015,"distribute":5016,"gravity":5017,"strugg":5018,"umb":5019,"notably":5020,"lowest":5021,"clause":5022,"sche":5023,"noisy":5024,"fling":5025,"flame":5026,"substitute":5027,"Somewhat":5028,"crude":5029,"cruel":5030,"commend":5031,"characters":5032,"useful":5033,"decep":5034,"finished":5035,"tube":5036,"tuous":5037,"organs":5038,"monument":5039,"fold":5040,"hostile":5041,"complement":5042,"famous":5043,"mainstream":5044,"officer":5045,"nonsense":5046,"flowering":5047,"newsp":5048,"grown":5049,"separated":5050,"thoughts":5051,"prominent":5052,"virt":5053,"regions":5054,"rotation":5055,"nearly":5056,"destination":5057,"technology":5058,"decorate":5059,"determination":5060,"employment":5061,"everything":5062,"construct":5063,"acceptance":5064,"offered":5065,"bestow":5066,"educated":5067,"engineering":5068,"phenomena":5069,"creates":5070,"World":5071,"vigor":5072,"vigorous":5073,"experiment":5074,"sacred":5075,"permanently":5076,"abundant":5077,"precisely":5078,"elevated":5079,"approximately":5080,"Phil":5081,"molecule":5082,"throat":5083,"obstacle":5084,"couple":5085,"eggs":5086,"dignity":5087,"stilts":5088,"Affected":5089,"dollar":5090,"substantial":5091,"bacco":5092,"dream":5093,"grammatical":5094,"sophistic":5095,"hospital":5096,"Describing":5097,"beauty":5098,"50":5099,"Giv":5100,"Haw":5101,"Ne":5102,"bloc":5103,"cof":5104,"cavity":5105,"diction":5106,"faint":5107,"gly":5108,"got":5109,"hop":5110,"iance":5111,"lam":5112,"lord":5113,"mys":5114,"nav":5115,"pace":5116,"soul":5117,"sitting":5118,"temp":5119,"wound":5120,"wash":5121,"yr":5122,"youth":5123,"zone":5124,"online":5125,"enous":5126,"enjo":5127,"reject":5128,"toms":5129,"theore":5130,"isol":5131,"leap":5132,"ittle":5133,"seeds":5134,"rob":5135,"defic":5136,"chain":5137,"chant":5138,"terosexual":5139,"trim":5140,"tray":5141,"exposed":5142,"explicit":5143,"peculiar":5144,"uries":5145,"adding":5146,"apparent":5147,"pled":5148,"resident":5149,"dious":5150,"shiny":5151,"shares":5152,"dispar":5153,"discover":5154,"acted":5155,"moved":5156,"allic":5157,"nervous":5158,"overcome":5159,"bers":5160,"twisted":5161,"viation":5162,"feed":5163,"phase":5164,"posing":5165,"awe":5166,"flag":5167,"brick":5168,"coll":5169,"coin":5170,"interior":5171,"core":5172,"owned":5173,"consent":5174,"positions":5175,"surrender":5176,"surfaces":5177,"wrist":5178,"apped":5179,"genera":5180,"knife":5181,"culine":5182,"herb":5183,"efficient":5184,"considerable":5185,"guide":5186,"involve":5187,"steam":5188,"steep":5189,"interested":5190,"Beyond":5191,"represented":5192,"switch":5193,"undant":5194,"association":5195,"reasons":5196,"competi":5197,"competent":5198,"shell":5199,"window":5200,"warf":5201,"experienced":5202,"princip":5203,"Acting":5204,"frequent":5205,"frequency":5206,"errors":5207,"boundary":5208,"removing":5209,"removal":5210,"pathy":5211,"acquired":5212,"bored":5213,"medicinal":5214,"aught":5215,"yielding":5216,"accuracy":5217,"figurative":5218,"reduced":5219,"agram":5220,"preference":5221,"noticeable":5222,"sixty":5223,"adapted":5224,"management":5225,"spark":5226,"assistance":5227,"shrill":5228,"cooked":5229,"evalu":5230,"patronizing":5231,"ammation":5232,"industrial":5233,"bacteria":5234,"atmosphere":5235,"mammals":5236,"anticip":5237,"scholar":5238,"preceded":5239,"Muslim":5240,"Nonsense":5241,"maximum":5242,"discern":5243,"restrictions":5244,"Possessing":5245,"Russi":5246,"enthusiastic":5247,"abandon":5248,"citizen":5249,"newspaper":5250,"Given":5251,"Hawai":5252,"14":5253,"Col":5254,"Dist":5255,"Native":5256,"Port":5257,"Sat":5258,"Scot":5259,"Ter":5260,"US":5261,"Western":5262,"Wearing":5263,"bod":5264,"bond":5265,"eager":5266,"gift":5267,"hill":5268,"ief":5269,"jer":5270,"kin":5271,"liness":5272,"lung":5273,"mol":5274,"pour":5275,"pend":5276,"pins":5277,"rug":5278,"swell":5279,"sword":5280,"util":5281,"vation":5282,"vast":5283,"waves":5284,"inet":5285,"insur":5286,"insufficient":5287,"instant":5288,"thest":5289,"enab":5290,"recept":5291,"ican":5292,"icting":5293,"aspects":5294,"eccles":5295,"stere":5296,"states":5297,"ander":5298,"permission":5299,"chest":5300,"chann":5301,"confront":5302,"unusually":5303,"trousers":5304,"posure":5305,"imply":5306,"ads":5307,"aded":5308,"applic":5309,"appreh":5310,"pluck":5311,"iration":5312,"kets":5313,"amuse":5314,"sharing":5315,"disagreeable":5316,"output":5317,"umul":5318,"este":5319,"assess":5320,"overall":5321,"club":5322,"classi":5323,"fice":5324,"twice":5325,"president":5326,"viously":5327,"fever":5328,"posit":5329,"possibility":5330,"scar":5331,"nox":5332,"istently":5333,"smart":5334,"regret":5335,"decided":5336,"worker":5337,"harass":5338,"generous":5339,"cribed":5340,"attacking":5341,"buff":5342,"Exhibiting":5343,"spell":5344,"oked":5345,"miss":5346,"landsc":5347,"polic":5348,"originating":5349,"officially":5350,"factory":5351,"planning":5352,"intensi":5353,"zeal":5354,"classes":5355,"classical":5356,"quantities":5357,"addle":5358,"examine":5359,"mild":5360,"layers":5361,"dried":5362,"depth":5363,"refuse":5364,"combining":5365,"painful":5366,"increasing":5367,"placing":5368,"rotate":5369,"successfully":5370,"striking":5371,"keeps":5372,"founded":5373,"identification":5374,"magne":5375,"literal":5376,"moderate":5377,"released":5378,"masculine":5379,"boundaries":5380,"documents":5381,"sorrow":5382,"honor":5383,"flood":5384,"shoe":5385,"education":5386,"screw":5387,"criticize":5388,"disorderly":5389,"iastical":5390,"compounds":5391,"Origin":5392,"gradual":5393,"judgement":5394,"advocate":5395,"Close":5396,"assembly":5397,"elevation":5398,"passive":5399,"discrimination":5400,"obstruction":5401,"objectionable":5402,"garden":5403,"Offensive":5404,"labour":5405,"expensive":5406,"elegant":5407,"compensation":5408,"implement":5409,"pepper":5410,"privilege":5411,"accusation":5412,"feathers":5413,"Similar":5414,"sculpture":5415,"restaurant":5416,"struggle":5417,"theoretical":5418,"ecclesiastical":5419,"88":5420,"Fe":5421,"Gre":5422,"Prec":5423,"Requ":5424,"Self":5425,"Skill":5426,"West":5427,"Wide":5428,"fus":5429,"foun":5430,"faction":5431,"ki":5432,"lind":5433,"lake":5434,"mia":5435,"ni":5436,"nab":5437,"raw":5438,"rural":5439,"sanc":5440,"sched":5441,"slide":5442,"tun":5443,"upr":5444,"vary":5445,"inappropriate":5446,"orches":5447,"anus":5448,"attribute":5449,"enh":5450,"repu":5451,"alone":5452,"tobacco":5453,"arrest":5454,"isk":5455,"isto":5456,"lets":5457,"sevent":5458,"selected":5459,"devo":5460,"whim":5461,"chr":5462,"ules":5463,"abase":5464,"locom":5465,"loying":5466,"excre":5467,"adult":5468,"vering":5469,"verte":5470,"avy":5471,"parents":5472,"respected":5473,"emer":5474,"lie":5475,"ouses":5476,"disposed":5477,"disorient":5478,"ucent":5479,"Incapable":5480,"tyle":5481,"nego":5482,"ocolate":5483,"spont":5484,"upward":5485,"relax":5486,"reluct":5487,"clar":5488,"clum":5489,"endor":5490,"gency":5491,"pread":5492,"statements":5493,"fif":5494,"deserving":5495,"commerce":5496,"compat":5497,"register":5498,"astro":5499,"consists":5500,"buttoc":5501,"incident":5502,"lessness":5503,"entially":5504,"sensitive":5505,"cannab":5506,"leged":5507,"hollow":5508,"generic":5509,"lightweight":5510,"counters":5511,"crew":5512,"maturity":5513,"insin":5514,"landing":5515,"horror":5516,"venue":5517,"folk":5518,"linear":5519,"cheap":5520,"stir":5521,"advanced":5522,"guardi":5523,"confusion":5524,"follows":5525,"spirited":5526,"newly":5527,"grows":5528,"brother":5529,"emotionally":5530,"precious":5531,"attentive":5532,"described":5533,"defect":5534,"depending":5535,"doctor":5536,"rics":5537,"hardware":5538,"possess":5539,"increased":5540,"includes":5541,"196":5542,"sibilities":5543,"provided":5544,"household":5545,"determining":5546,"symbols":5547,"friends":5548,"sprink":5549,"appropriately":5550,"attempts":5551,"speaker":5552,"convenient":5553,"reaching":5554,"sincere":5555,"detect":5556,"blesome":5557,"firmly":5558,"split":5559,"stimulation":5560,"felt":5561,"slope":5562,"customary":5563,"gradually":5564,"dogs":5565,"automobile":5566,"assumed":5567,"adapt":5568,"riches":5569,"Moving":5570,"improvement":5571,"hunting":5572,"Phys":5573,"innoc":5574,"minimal":5575,"ratio":5576,"dishonest":5577,"sentimental":5578,"consequences":5579,"journey":5580,"revolution":5581,"propag":5582,"Designed":5583,"recreational":5584,"chaotic":5585,"absence":5586,"deprive":5587,"suspicion":5588,"discipl":5589,"simultaneously":5590,"welcome":5591,"sarcastic":5592,"sophisticated":5593,"seventy":5594,"locomo":5595,"negoti":5596,"buttocks":5597,"Car":5598,"Lar":5599,"Loc":5600,"Ma":5601,"Pol":5602,"Pow":5603,"Sc":5604,"aze":5605,"ault":5606,"ba":5607,"bin":5608,"bour":5609,"cance":5610,"cunning":5611,"da":5612,"gle":5613,"gone":5614,"hall":5615,"hack":5616,"ix":5617,"oath":5618,"phe":5619,"ssing":5620,"uum":5621,"wides":5622,"zing":5623,"inous":5624,"inactive":5625,"ono":5626,"atus":5627,"ators":5628,"enclo":5629,"remed":5630,"review":5631,"toler":5632,"ester":5633,"arts":5634,"asm":5635,"ascertain":5636,"sting":5637,"stew":5638,"segment":5639,"selection":5640,"heed":5641,"supre":5642,"forty":5643,"beg":5644,"perple":5645,"condem":5646,"unite":5647,"terous":5648,"igible":5649,"trum":5650,"poem":5651,"urs":5652,"imen":5653,"imil":5654,"adhesive":5655,"proc":5656,"proceeding":5657,"iden":5658,"ots":5659,"mentally":5660,"compart":5661,"diver":5662,"diox":5663,"tenn":5664,"tention":5665,"amate":5666,"amber":5667,"shadow":5668,"liable":5669,"utal":5670,"moves":5671,"motiv":5672,"umbling":5673,"nerve":5674,"preserve":5675,"illed":5676,"portions":5677,"noon":5678,"morning":5679,"brought":5680,"drum":5681,"intermediate":5682,"crazy":5683,"wearing":5684,"corn":5685,"eping":5686,"marine":5687,"carries":5688,"underlying":5689,"mink":5690,"processed":5691,"pile":5692,"background":5693,"talking":5694,"polite":5695,"effective":5696,"effecti":5697,"hydr":5698,"Contr":5699,"completed":5700,"controver":5701,"stitu":5702,"planned":5703,"collective":5704,"situations":5705,"array":5706,"involves":5707,"measuring":5708,"interests":5709,"interesting":5710,"greed":5711,"separating":5712,"femin":5713,"tranqu":5714,"medieval":5715,"associate":5716,"facing":5717,"indicated":5718,"reflec":5719,"students":5720,"cylind":5721,"rotating":5722,"paign":5723,"meaningless":5724,"exciting":5725,"thodox":5726,"onym":5727,"thereby":5728,"cryp":5729,"football":5730,"damaged":5731,"decoration":5732,"expand":5733,"announce":5734,"ridge":5735,"arguments":5736,"synthetic":5737,"honest":5738,"variation":5739,"statistic":5740,"executed":5741,"bowl":5742,"devoted":5743,"pictures":5744,"satisfied":5745,"imaginary":5746,"remaining":5747,"furniture":5748,"solely":5749,"tracted":5750,"wearer":5751,"sleeping":5752,"becomes":5753,"winning":5754,"automat":5755,"thrust":5756,"constrained":5757,"reputable":5758,"roots":5759,"requirement":5760,"philosoph":5761,"shocking":5762,"railway":5763,"vault":5764,"inspiration":5765,"campaign":5766,"flavour":5767,"reveal":5768,"nucle":5769,"sweeten":5770,"routine":5771,"manipulate":5772,"gesture":5773,"Emp":5774,"Supporting":5775,"hatred":5776,"constitute":5777,"theatre":5778,"achieved":5779,"attributes":5780,"conflict":5781,"issued":5782,"vitality":5783,"candidate":5784,"opportunity":5785,"Italian":5786,"festival":5787,"tongue":5788,"emporary":5789,"gossip":5790,"linguistic":5791,"district":5792,"scheme":5793,"Philipp":5794,"enabling":5795,"esteem":5796,"noxious":5797,"devotion":5798,"locomotive":5799,"widespread":5800,"effectiveness":5801,"cylindrical":5802,"Af":5803,"Based":5804,"Cath":5805,"Fo":5806,"Irel":5807,"Man":5808,"Ra":5809,"aut":5810,"bath":5811,"bark":5812,"bund":5813,"cres":5814,"dess":5815,"dirty":5816,"gap":5817,"gut":5818,"gau":5819,"greg":5820,"hate":5821,"hund":5822,"iable":5823,"jur":5824,"ko":5825,"lor":5826,"lasting":5827,"mand":5828,"mere":5829,"nu":5830,"nit":5831,"och":5832,"oter":5833,"rarely":5834,"vitable":5835,"western":5836,"inth":5837,"inhab":5838,"independ":5839,"invalid":5840,"eration":5841,"erring":5842,"enge":5843,"retain":5844,"estim":5845,"tivity":5846,"titious":5847,"leaving":5848,"acles":5849,"ental":5850,"hell":5851,"whip":5852,"chat":5853,"conspic":5854,"ulous":5855,"iled":5856,"terior":5857,"abate":5858,"abrupt":5859,"poe":5860,"poison":5861,"exit":5862,"exception":5863,"pecting":5864,"urally":5865,"urable":5866,"propose":5867,"protru":5868,"propel":5869,"proceed":5870,"apt":5871,"aped":5872,"plans":5873,"fron":5874,"diagram":5875,"shown":5876,"eminent":5877,"eling":5878,"elic":5879,"lies":5880,"lime":5881,"lifes":5882,"displayed":5883,"outline":5884,"utable":5885,"moti":5886,"agno":5887,"strand":5888,"Indo":5889,"neath":5890,"inevitable":5891,"recover":5892,"overly":5893,"endent":5894,"scen":5895,"preten":5896,"flash":5897,"evening":5898,"coher":5899,"interfer":5900,"commod":5901,"extre":5902,"useless":5903,"dove":5904,"decre":5905,"butter":5906,"smallest":5907,"underhanded":5908,"underneath":5909,"longing":5910,"orders":5911,"ordered":5912,"volcan":5913,"centuries":5914,"pursuit":5915,"sections":5916,"suppose":5917,"deny":5918,"pire":5919,"buy":5920,"appeal":5921,"handles":5922,"properly":5923,"funds":5924,"chee":5925,"factor":5926,"signature":5927,"ruth":5928,"joining":5929,"intentional":5930,"operates":5931,"guilt":5932,"follower":5933,"voking":5934,"flowers":5935,"limb":5936,"subjects":5937,"osaur":5938,"featuring":5939,"silvery":5940,"leads":5941,"tradition":5942,"sheep":5943,"metallic":5944,"magaz":5945,"enterprise":5946,"spots":5947,"exhaus":5948,"posture":5949,"stored":5950,"distinguishing":5951,"symbolic":5952,"dye":5953,"everyday":5954,"morality":5955,"mixing":5956,"supporter":5957,"supported":5958,"belongs":5959,"deeply":5960,"personality":5961,"extensive":5962,"synchron":5963,"accord":5964,"valuable":5965,"Ready":5966,"execution":5967,"surrounded":5968,"offering":5969,"occupied":5970,"taxon":5971,"loudly":5972,"achievement":5973,"troublesome":5974,"tightly":5975,"names":5976,"thirty":5977,"disturbed":5978,"brightly":5979,"advantageous":5980,"witness":5981,"teachings":5982,"consuming":5983,"reliable":5984,"metaphorically":5985,"manufacture":5986,"noteworthy":5987,"transmitted":5988,"wishes":5989,"reverence":5990,"investment":5991,"vegetation":5992,"Excessively":5993,"flavor":5994,"Opposed":5995,"Highly":5996,"intelligence":5997,"sweetened":5998,"gloomy":5999,"route":6000,"emphasis":6001,"Generally":6002,"strategy":6003,"heroic":6004,"Sexually":6005,"lavish":6006,"composite":6007,"neuro":6008,"translucent":6009,"murder":6010,"Remaining":6011,"wonderful":6012,"fantasy":6013,"dispute":6014,"sample":6015,"encourage":6016,"passengers":6017,"shield":6018,"diseases":6019,"coffee":6020,"upright":6021,"vertebr":6022,"guardian":6023,"remedy":6024,"philosophical":6025,"Ireland":6026,"hundred":6027,"100":6028,"Bro":6029,"Dep":6030,"Eff":6031,"Giving":6032,"My":6033,"Mex":6034,"Material":6035,"More":6036,"Old":6037,"Pu":6038,"Part":6039,"Spe":6040,"Sharp":6041,"Ty":6042,"bull":6043,"cities":6044,"don":6045,"dain":6046,"daugh":6047,"dirt":6048,"fu":6049,"fighting":6050,"gay":6051,"itic":6052,"narr":6053,"oples":6054,"pus":6055,"pause":6056,"plot":6057,"tast":6058,"texts":6059,"west":6060,"wire":6061,"wedge":6062,"wagon":6063,"yl":6064,"ino":6065,"orbit":6066,"erous":6067,"erup":6068,"erved":6069,"enzy":6070,"toxic":6071,"esque":6072,"tified":6073,"tify":6074,"tidy":6075,"tidious":6076,"theater":6077,"thetical":6078,"omatic":6079,"lyrics":6080,"icon":6081,"iterr":6082,"stained":6083,"rolled":6084,"heating":6085,"chocolate":6086,"ulations":6087,"withheld":6088,"uscri":6089,"unfair":6090,"terror":6091,"abdom":6092,"lose":6093,"urge":6094,"urious":6095,"advice":6096,"adverse":6097,"adjective":6098,"proved":6099,"proposed":6100,"provision":6101,"proxim":6102,"queen":6103,"avor":6104,"Anc":6105,"peoples":6106,"amed":6107,"amusing":6108,"shif":6109,"emin":6110,"emit":6111,"manuscri":6112,"disk":6113,"displaying":6114,"outstanding":6115,"rib":6116,"antagon":6117,"owed":6118,"never":6119,"aceous":6120,"pray":6121,"observer":6122,"spi":6123,"ineff":6124,"recy":6125,"augment":6126,"indec":6127,"vial":6128,"feud":6129,"ported":6130,"awesome":6131,"ached":6132,"subdivision":6133,"makeup":6134,"intoxic":6135,"cury":6136,"rowing":6137,"workers":6138,"inct":6139,"surd":6140,"margin":6141,"carn":6142,"singular":6143,"ships":6144,"lightly":6145,"security":6146,"tub":6147,"locate":6148,"Excep":6149,"stands":6150,"organizations":6151,"missing":6152,"presented":6153,"monarch":6154,"cultures":6155,"basin":6156,"funny":6157,"cheat":6158,"advent":6159,"feels":6160,"voke":6161,"pulling":6162,"greeting":6163,"energetic":6164,"transitive":6165,"layout":6166,"definition":6167,"driver":6168,"protective":6169,"universe":6170,"anean":6171,"modest":6172,"travelling":6173,"chiev":6174,"traits":6175,"sheet":6176,"complain":6177,"compliance":6178,"writings":6179,"balance":6180,"injure":6181,"distinctive":6182,"ruling":6183,"cultured":6184,"pairs":6185,"master":6186,"dealing":6187,"riding":6188,"perceive":6189,"participation":6190,"participant":6191,"fashioned":6192,"satisfaction":6193,"stopping":6194,"analy":6195,"detected":6196,"potentially":6197,"definitely":6198,"returns":6199,"conveys":6200,"rubbing":6201,"destroyed":6202,"gathered":6203,"hypothetical":6204,"counterpart":6205,"mutual":6206,"mutually":6207,"maintained":6208,"celebrity":6209,"stretched":6210,"reserved":6211,"purchase":6212,"purchased":6213,"Referring":6214,"expectations":6215,"minimum":6216,"disgusting":6217,"contradictory":6218,"justification":6219,"comprehensive":6220,"exclusively":6221,"harmony":6222,"apparently":6223,"exertion":6224,"disturbance":6225,"Mediterr":6226,"mathematical":6227,"hinder":6228,"challenge":6229,"decisive":6230,"distinguishable":6231,"pompous":6232,"stroke":6233,"symptoms":6234,"agricultural":6235,"bridge":6236,"Complete":6237,"obedience":6238,"ancestor":6239,"suggestive":6240,"width":6241,"irrespective":6242,"principal":6243,"lungs":6244,"stereoty":6245,"amusement":6246,"Greece":6247,"Requiring":6248,"chronic":6249,"innocent":6250,"crescent":6251,"juris":6252,"Mediterranean":6253,"12":6254,"99":6255,"Bl":6256,"Bad":6257,"Bible":6258,"Dam":6259,"Dev":6260,"Def":6261,"DNA":6262,"East":6263,"Good":6264,"Now":6265,"Prot":6266,"Sp":6267,"Sem":6268,"Situ":6269,"Such":6270,"Up":6271,"Wi":6272,"War":6273,"average":6274,"bare":6275,"biting":6276,"bidden":6277,"baked":6278,"dict":6279,"foul":6280,"flying":6281,"fuel":6282,"gate":6283,"gold":6284,"hip":6285,"lus":6286,"mast":6287,"nel":6288,"pac":6289,"pse":6290,"pall":6291,"rare":6292,"ritable":6293,"sod":6294,"soften":6295,"saddle":6296,"tap":6297,"tage":6298,"vas":6299,"vill":6300,"wig":6301,"warr":6302,"indirect":6303,"orange":6304,"thumb":6305,"ano":6306,"atically":6307,"enlarge":6308,"oft":6309,"replaced":6310,"reconc":6311,"aria":6312,"tily":6313,"tide":6314,"tiring":6315,"omes":6316,"isure":6317,"isine":6318,"icking":6319,"ician":6320,"ouch":6321,"enty":6322,"seam":6323,"select":6324,"hearing":6325,"heterosexual":6326,"vex":6327,"vein":6328,"forts":6329,"whis":6330,"conscience":6331,"usable":6332,"olding":6333,"ollen":6334,"abuse":6335,"trig":6336,"truck":6337,"gem":6338,"geome":6339,"urban":6340,"ainted":6341,"immoral":6342,"impress":6343,"impregn":6344,"adversity":6345,"proposition":6346,"tices":6347,"parting":6348,"dip":6349,"diet":6350,"tenance":6351,"keeper":6352,"ambi":6353,"odor":6354,"oder":6355,"shallow":6356,"shaft":6357,"eless":6358,"lived":6359,"disgu":6360,"utch":6361,"ighty":6362,"format":6363,"derive":6364,"Inter":6365,"prising":6366,"observed":6367,"assimil":6368,"spire":6369,"reless":6370,"click":6371,"indig":6372,"illusion":6373,"illustr":6374,"please":6375,"prev":6376,"predomin":6377,"aching":6378,"charging":6379,"brass":6380,"brush":6381,"taper":6382,"ignor":6383,"servi":6384,"seriously":6385,"drunk":6386,"interven":6387,"reddish":6388,"redundant":6389,"compared":6390,"intest":6391,"cording":6392,"astard":6393,"decade":6394,"incapable":6395,"marking":6396,"entities":6397,"udge":6398,"carved":6399,"engages":6400,"underground":6401,"aken":6402,"encies":6403,"ysis":6404,"ails":6405,"Exact":6406,"merry":6407,"breasts":6408,"misleading":6409,"misfortune":6410,"membership":6411,"insane":6412,"ordin":6413,"northern":6414,"transaction":6415,"currently":6416,"hose":6417,"electro":6418,"selfish":6419,"slant":6420,"sexuality":6421,"styles":6422,"inclination":6423,"glad":6424,"cush":6425,"busy":6426,"kindness":6427,"publicly":6428,"lique":6429,"flows":6430,"limbs":6431,"regardless":6432,"renounce":6433,"happens":6434,"precip":6435,"separately":6436,"restore":6437,"practition":6438,"promote":6439,"protest":6440,"combined":6441,"skillful":6442,"Comm":6443,"database":6444,"compel":6445,"compete":6446,"repetition":6447,"nearby":6448,"193":6449,"magical":6450,"excuse":6451,"fishing":6452,"lacks":6453,"distinction":6454,"Provid":6455,"throwing":6456,"elementary":6457,"annex":6458,"communications":6459,"humorous":6460,"Impossible":6461,"faster":6462,"modify":6463,"messages":6464,"petty":6465,"occupy":6466,"Former":6467,"secretly":6468,"affects":6469,"introduce":6470,"obscene":6471,"solemn":6472,"rubber":6473,"engineer":6474,"happened":6475,"exhibit":6476,"teacher":6477,"package":6478,"demanding":6479,"listening":6480,"concealed":6481,"advocates":6482,"winged":6483,"exactly":6484,"expert":6485,"unexpectedly":6486,"instruction":6487,"orientation":6488,"inflammation":6489,"destructive":6490,"revealing":6491,"introduction":6492,"coward":6493,"grip":6494,"intelligent":6495,"vacuum":6496,"deviation":6497,"records":6498,"indefinitely":6499,"consumed":6500,"passionate":6501,"husband":6502,"strictly":6503,"crystals":6504,"physi":6505,"Irish":6506,"correspondence":6507,"administrative":6508,"acknowled":6509,"Following":6510,"Inclined":6511,"luxury":6512,"feces":6513,"aroused":6514,"brilliant":6515,"appreciation":6516,"wholly":6517,"Cheer":6518,"conjunction":6519,"grinding":6520,"Australian":6521,"navig":6522,"Portug":6523,"jerk":6524,"landscape":6525,"policies":6526,"supreme":6527,"perplex":6528,"identical":6529,"Catholic":6530,"conspicuous":6531,"magazine":6532,"abdomen":6533,"Ancient":6534,"Ag":6535,"Bas":6536,"Back":6537,"Brit":6538,"Cer":6539,"Di":6540,"Hun":6541,"Lack":6542,"Lasting":6543,"Moder":6544,"Pri":6545,"Pass":6546,"Red":6547,"Rep":6548,"TV":6549,"Use":6550,"aer":6551,"aqu":6552,"ahead":6553,"aversion":6554,"bun":6555,"binary":6556,"cig":6557,"cute":6558,"dar":6559,"ees":6560,"fate":6561,"fet":6562,"fond":6563,"hob":6564,"iant":6565,"jet":6566,"lad":6567,"mate":6568,"mir":6569,"mour":6570,"mary":6571,"nes":6572,"nut":6573,"nish":6574,"ram":6575,"racqu":6576,"saf":6577,"tab":6578,"uff":6579,"uits":6580,"ince":6581,"infinite":6582,"incorrectly":6583,"anthro":6584,"ata":6585,"attain":6586,"enclose":6587,"rew":6588,"recommend":6589,"alg":6590,"alism":6591,"estri":6592,"edible":6593,"tising":6594,"iciency":6595,"leisure":6596,"acute":6597,"itant":6598,"entatious":6599,"heel":6600,"fores":6601,"cemia":6602,"befitting":6603,"chap":6604,"conver":6605,"ulting":6606,"ils":6607,"unload":6608,"unrestrained":6609,"undecided":6610,"olf":6611,"abnormally":6612,"lod":6613,"loved":6614,"somewhere":6615,"trace":6616,"pool":6617,"potent":6618,"explan":6619,"imprison":6620,"proj":6621,"prov":6622,"prostitute":6623,"fright":6624,"avag":6625,"amation":6626,"shy":6627,"shining":6628,"eman":6629,"embr":6630,"eli":6631,"liament":6632,"dispers":6633,"discrete":6634,"outs":6635,"actors":6636,"ighter":6637,"agreed":6638,"option":6639,"ucas":6640,"grumbling":6641,"strain":6642,"strateg":6643,"umber":6644,"prudent":6645,"spent":6646,"spaces":6647,"ounding":6648,"overnight":6649,"aux":6650,"lowed":6651,"indent":6652,"ficially":6653,"pha":6654,"phal":6655,"phono":6656,"scrup":6657,"ignore":6658,"subset":6659,"drain":6660,"cogn":6661,"boiling":6662,"cruc":6663,"webs":6664,"compact":6665,"corrup":6666,"playful":6667,"consisten":6668,"timately":6669,"decide":6670,"butt":6671,"numeral":6672,"udd":6673,"caring":6674,"cargo":6675,"singer":6676,"haste":6677,"encir":6678,"processing":6679,"append":6680,"turbul":6681,"simpl":6682,"ogue":6683,"Unpleasant":6684,"council":6685,"supple":6686,"athle":6687,"animate":6688,"sounding":6689,"backwards":6690,"missive":6691,"cake":6692,"requires":6693,"distor":6694,"triangular":6695,"trivial":6696,"transactions":6697,"periods":6698,"ugly":6699,"factors":6700,"collect":6701,"retreat":6702,"voy":6703,"involuntary":6704,"China":6705,"authorities":6706,"Behaving":6707,"stronger":6708,"controls":6709,"realm":6710,"swing":6711,"swollen":6712,"separates":6713,"boldly":6714,"symme":6715,"knowable":6716,"promo":6717,"indicates":6718,"refresh":6719,"combines":6720,"mittent":6721,"fitted":6722,"heaven":6723,"versal":6724,"bias":6725,"Coming":6726,"barrier":6727,"attaching":6728,"seeking":6729,"restraint":6730,"habitual":6731,"toral":6732,"bride":6733,"trem":6734,"needs":6735,"superficial":6736,"decorated":6737,"younger":6738,"masted":6739,"punish":6740,"convenience":6741,"bottle":6742,"panic":6743,"aggreg":6744,"questionable":6745,"Regard":6746,"wait":6747,"impure":6748,"isterous":6749,"claims":6750,"picable":6751,"tempered":6752,"Associ":6753,"altered":6754,"alteration":6755,"remains":6756,"Arousing":6757,"vulner":6758,"mounted":6759,"rubbish":6760,"guns":6761,"Suff":6762,"fatig":6763,"smear":6764,"vigour":6765,"crossing":6766,"explosion":6767,"inhabitants":6768,"vagina":6769,"framework":6770,"scientist":6771,"techniques":6772,"quarks":6773,"stringed":6774,"concentrated":6775,"genetic":6776,"pronunciation":6777,"penetrate":6778,"anxious":6779,"feeble":6780,"introduced":6781,"grief":6782,"predictable":6783,"inherent":6784,"resolve":6785,"manifestation":6786,"hurt":6787,"shortened":6788,"investigation":6789,"interpretation":6790,"attributed":6791,"deceitful":6792,"challeng":6793,"spherical":6794,"rhythmic":6795,"radical":6796,"discretion":6797,"lucky":6798,"conformity":6799,"appointment":6800,"Christmas":6801,"Appearing":6802,"Canad":6803,"Careful":6804,"transition":6805,"arbitrary":6806,"cock":6807,"analogous":6808,"deception":6809,"virtue":6810,"dollars":6811,"boredom":6812,"apprehension":6813,"intensifier":6814,"excrement":6815,"spontaneous":6816,"cannabis":6817,"Large":6818,"Located":6819,"Contrary":6820,"stitution":6821,"statistical":6822,"carniv":6823,"jurisdiction":6824,"warrant":6825,"assimilation":6826,"predominantly":6827,"cushion":6828,"practitioner":6829,"consistency":6830,"Bo":6831,"Br":6832,"Blo":6833,"Dutch":6834,"Emo":6835,"Firm":6836,"Gen":6837,"Hu":6838,"Hard":6839,"Harm":6840,"Lo":6841,"Mor":6842,"Que":6843,"Rhus":6844,"Sal":6845,"Two":6846,"Ut":6847,"Wr":6848,"cket":6849,"dated":6850,"fusion":6851,"fuck":6852,"fancy":6853,"groom":6854,"honey":6855,"jol":6856,"jack":6857,"lust":6858,"lens":6859,"nine":6860,"oves":6861,"oeu":6862,"pity":6863,"ptive":6864,"rus":6865,"rud":6866,"soup":6867,"sources":6868,"tag":6869,"vom":6870,"vit":6871,"wich":6872,"wrest":6873,"yarn":6874,"inch":6875,"intric":6876,"orned":6877,"thres":6878,"onious":6879,"anes":6880,"ancer":6881,"anew":6882,"remor":6883,"reverse":6884,"align":6885,"toes":6886,"esoter":6887,"arc":6888,"arre":6889,"arith":6890,"arment":6891,"omorph":6892,"icated":6893,"leth":6894,"acce":6895,"entering":6896,"robot":6897,"deline":6898,"chip":6899,"conserv":6900,"confirm":6901,"They":6902,"users":6903,"united":6904,"unnecessary":6905,"unconventional":6906,"abol":6907,"meant":6908,"losing":6909,"except":6910,"excel":6911,"aints":6912,"impur":6913,"iments":6914,"imitation":6915,"ado":6916,"ids":6917,"idly":6918,"iders":6919,"essentially":6920,"apple":6921,"quant":6922,"frighten":6923,"resent":6924,"died":6925,"divert":6926,"amph":6927,"amorph":6928,"shru":6929,"shirt":6930,"manoeu":6931,"lihood":6932,"actor":6933,"rival":6934,"ightened":6935,"agne":6936,"grid":6937,"deriv":6938,"aret":6939,"Indic":6940,"umping":6941,"ively":6942,"worry":6943,"worms":6944,"noted":6945,"aceae":6946,"obs":6947,"span":6948,"upside":6949,"cluster":6950,"blades":6951,"scop":6952,"scorn":6953,"blem":6954,"portray":6955,"fief":6956,"despicable":6957,"notic":6958,"brave":6959,"eves":6960,"anging":6961,"subscri":6962,"submissive":6963,"lectually":6964,"cratic":6965,"efforts":6966,"consec":6967,"settled":6968,"decline":6969,"senior":6970,"structural":6971,"processor":6972,"anci":6973,"portable":6974,"This":6975,"Those":6976,"knight":6977,"centric":6978,"directing":6979,"ailing":6980,"purple":6981,"pursue":6982,"locations":6983,"Expressing":6984,"Exceedingly":6985,"affirm":6986,"mercen":6987,"breast":6988,"mistakes":6989,"Within":6990,"sediment":6991,"insol":6992,"polish":6993,"cult":6994,"capability":6995,"hormone":6996,"offense":6997,"distaste":6998,"naturally":6999,"huge":7000,"trifling":7001,"readily":7002,"elected":7003,"ologically":7004,"performer":7005,"controll":7006,"showy":7007,"operated":7008,"glac":7009,"glary":7010,"guests":7011,"chosen":7012,"openly":7013,"build":7014,"summary":7015,"succeed":7016,"turns":7017,"swift":7018,"refers":7019,"promisc":7020,"azz":7021,"concert":7022,"silent":7023,"silence":7024,"titudes":7025,"viruses":7026,"paying":7027,"winding":7028,"seeing":7029,"crimes":7030,"habitation":7031,"dishes":7032,"Stand":7033,"argue":7034,"posts":7035,"utterance":7036,"sharply":7037,"therefore":7038,"drinks":7039,"According":7040,"versions":7041,"expend":7042,"phrases":7043,"sung":7044,"sunlight":7045,"exclusion":7046,"synthesis":7047,"myster":7048,"Deserving":7049,"onomy":7050,"detailed":7051,"reached":7052,"hesitating":7053,"focused":7054,"sufficiently":7055,"conceptual":7056,"tructure":7057,"tropical":7058,"stimulate":7059,"dimensions":7060,"True":7061,"trickery":7062,"crop":7063,"exploit":7064,"sandwich":7065,"explain":7066,"relief":7067,"relieve":7068,"practiced":7069,"weapons":7070,"continued":7071,"recognize":7072,"helpful":7073,"jacket":7074,"juice":7075,"reversed":7076,"drama":7077,"Which":7078,"faithful":7079,"Prone":7080,"endearment":7081,"bishop":7082,"accumulation":7083,"conveyance":7084,"pigment":7085,"absolutely":7086,"absorb":7087,"proteins":7088,"evolent":7089,"constituting":7090,"alkal":7091,"crystal":7092,"ceremonies":7093,"Sexual":7094,"theatrical":7095,"admiration":7096,"achieving":7097,"trailing":7098,"forcibly":7099,"residents":7100,"decisions":7101,"surgical":7102,"knee":7103,"cheerful":7104,"symptom":7105,"gangr":7106,"wickedness":7107,"advertising":7108,"circulation":7109,"exhausted":7110,"Quick":7111,"Concerned":7112,"bubbles":7113,"yards":7114,"membrane":7115,"politician":7116,"historical":7117,"nasty":7118,"semantic":7119,"gotten":7120,"umulus":7121,"founder":7122,"enhance":7123,"clumsy":7124,"fifty":7125,"1960s":7126,"Power":7127,"automatically":7128,"bundle":7129,"poetry":7130,"lifestyle":7131,"tastes":7132,"prayer":7133,"chievous":7134,"Situated":7135,"Cheerful":7136,"racquet":7137,"Associated":7138,"threshold":7139,"esoteric":7140,"arithme":7141,"acceler":7142,"quantum":7143,"shrubs":7144,"manoeuv":7145,"promiscuous":7146,"Bra":7147,"Cre":7148,"Cour":7149,"Dark":7150,"Fi":7151,"Fl":7152,"Filled":7153,"Hy":7154,"King":7155,"Never":7156,"Pal":7157,"RNA":7158,"Sur":7159,"Vi":7160,"bap":7161,"buc":7162,"cob":7163,"cue":7164,"camp":7165,"din":7166,"dawn":7167,"dwarf":7168,"ghet":7169,"him":7170,"iti":7171,"iph":7172,"kil":7173,"mim":7174,"nar":7175,"naked":7176,"prel":7177,"pts":7178,"pinc":7179,"pages":7180,"rag":7181,"rence":7182,"rite":7183,"raid":7184,"ske":7185,"sne":7186,"sink":7187,"sket":7188,"tel":7189,"tune":7190,"uten":7191,"wings":7192,"incorpor":7193,"ork":7194,"orthodox":7195,"erent":7196,"onant":7197,"ingen":7198,"rein":7199,"repul":7200,"reminis":7201,"returning":7202,"allo":7203,"alpha":7204,"tock":7205,"aristo":7206,"island":7207,"icious":7208,"itals":7209,"stones":7210,"starch":7211,"semin":7212,"seize":7213,"anda":7214,"veloc":7215,"suited":7216,"beads":7217,"deem":7218,"perceptible":7219,"whore":7220,"conject":7221,"ulent":7222,"unwilling":7223,"uneducated":7224,"uncultured":7225,"abusive":7226,"absurd":7227,"loqu":7228,"trical":7229,"pocket":7230,"existed":7231,"gear":7232,"prope":7233,"idle":7234,"idol":7235,"plus":7236,"pledge":7237,"diac":7238,"ampl":7239,"shout":7240,"liken":7241,"lips":7242,"discontent":7243,"outdoor":7244,"ighs":7245,"agitated":7246,"grains":7247,"stray":7248,"esting":7249,"spouse":7250,"spons":7251,"spiders":7252,"rectang":7253,"clin":7254,"clay":7255,"blic":7256,"blance":7257,"genome":7258,"genital":7259,"teen":7260,"scathing":7261,"scattered":7262,"premis":7263,"notion":7264,"brittle":7265,"evident":7266,"substit":7267,"colors":7268,"coal":7269,"soo":7270,"craf":7271,"crush":7272,"airplane":7273,"commission":7274,"compare":7275,"doors":7276,"clothe":7277,"closing":7278,"surve":7279,"carrier":7280,"ideology":7281,"seness":7282,"orderly":7283,"sideways":7284,"turing":7285,"generations":7286,"voluntary":7287,"secl":7288,"pierc":7289,"Experi":7290,"appealing":7291,"matched":7292,"muscular":7293,"putting":7294,"handling":7295,"puff":7296,"solic":7297,"distances":7298,"artwork":7299,"tribe":7300,"folds":7301,"considerate":7302,"controlling":7303,"malign":7304,"patch":7305,"patri":7306,"structured":7307,"confident":7308,"wheat":7309,"steel":7310,"habits":7311,"pedestri":7312,"osis":7313,"raising":7314,"swind":7315,"transporting":7316,"defence":7317,"defend":7318,"drives":7319,"circuit":7320,"politics":7321,"facility":7322,"burglary":7323,"ancestry":7324,"judice":7325,"biased":7326,"aimed":7327,"filter":7328,"seeks":7329,"functioning":7330,"delivery":7331,"elsewhere":7332,"meaningful":7333,"excav":7334,"experiences":7335,"experiencing":7336,"Caucas":7337,"neglect":7338,"sticks":7339,"needle":7340,"destro":7341,"programme":7342,"Act":7343,"abortion":7344,"firearm":7345,"untarily":7346,"bounding":7347,"commitment":7348,"hitting":7349,"acquainted":7350,"ostentatious":7351,"exclude":7352,"conventions":7353,"agging":7354,"participants":7355,"Reg":7356,"loaded":7357,"royal":7358,"obliged":7359,"fastidious":7360,"briefly":7361,"modifies":7362,"audible":7363,"motorized":7364,"digit":7365,"possessions":7366,"since":7367,"Allowing":7368,"progression":7369,"bully":7370,"towns":7371,"stern":7372,"remainder":7373,"accessible":7374,"180":7375,"occasionally":7376,"majority":7377,"consciously":7378,"obscurity":7379,"troops":7380,"projecting":7381,"customers":7382,"Deep":7383,"alternative":7384,"annoying":7385,"teaching":7386,"explore":7387,"exercising":7388,"opponents":7389,"joints":7390,"Short":7391,"civilized":7392,"watches":7393,"constraint":7394,"benefits":7395,"quietly":7396,"recognition":7397,"railroad":7398,"juke":7399,"vegetable":7400,"vegetables":7401,"architectural":7402,"crown":7403,"threads":7404,"hours":7405,"Prof":7406,"attracted":7407,"ethnicity":7408,"vicinity":7409,"potato":7410,"consume":7411,"outwardly":7412,"sadness":7413,"dilig":7414,"million":7415,"expense":7416,"adopt":7417,"adopted":7418,"hier":7419,"extravag":7420,"apparatus":7421,"arrive":7422,"reckless":7423,"integral":7424,"bravery":7425,"affectionate":7426,"passenger":7427,"boldness":7428,"acknowledge":7429,"syllables":7430,"legitimate":7431,"battery":7432,"judicial":7433,"System":7434,"rabies":7435,"ambiguity":7436,"bomb":7437,"ranking":7438,"parameter":7439,"induced":7440,"squeeze":7441,"totally":7442,"persuade":7443,"unsteady":7444,"isolated":7445,"disparage":7446,"Hawaiian":7447,"utility":7448,"receptacle":7449,"Feeling":7450,"varying":7451,"Physical":7452,"Scouts":7453,"condemn":7454,"compartment":7455,"motivation":7456,"controversy":7457,"coherent":7458,"ignorant":7459,"Direc":7460,"safety":7461,"cocktail":7462,"Blood":7463,"Utter":7464,"ghetto":7465,"narco":7466,"pincush":7467,"velocity":7468,"rectangular":7469,"premises":7470,"2000":7471,"Air":7472,"Abounding":7473,"Bi":7474,"Bearing":7475,"Cur":7476,"Dem":7477,"Elec":7478,"Fal":7479,"Fri":7480,"Hell":7481,"Is":7482,"Me":7483,"Mental":7484,"Rome":7485,"Sing":7486,"Sou":7487,"bending":7488,"cis":7489,"cable":7490,"cash":7491,"dust":7492,"dys":7493,"dart":7494,"eous":7495,"east":7496,"fare":7497,"fanci":7498,"gross":7499,"hired":7500,"hunt":7501,"houses":7502,"jury":7503,"kon":7504,"lon":7505,"lamp":7506,"lady":7507,"none":7508,"nur":7509,"nice":7510,"ode":7511,"osc":7512,"pup":7513,"pip":7514,"pist":7515,"pically":7516,"ras":7517,"rim":7518,"saint":7519,"ued":7520,"ubs":7521,"zer":7522,"zes":7523,"incur":7524,"inscri":7525,"inhib":7526,"index":7527,"incompetent":7528,"inappropriately":7529,"ora":7530,"thous":7531,"thri":7532,"antenn":7533,"inged":7534,"endi":7535,"ensible":7536,"repro":7537,"remember":7538,"aly":7539,"tiles":7540,"omination":7541,"icular":7542,"aser":7543,"ascribed":7544,"itory":7545,"itarian":7546,"static":7547,"stake":7548,"stalk":7549,"seats":7550,"andering":7551,"hem":7552,"veins":7553,"supers":7554,"sustain":7555,"sustained":7556,"ford":7557,"forbid":7558,"forbidden":7559,"forgotten":7560,"bey":7561,"beach":7562,"demo":7563,"debase":7564,"deposit":7565,"whir":7566,"chair":7567,"chamber":7568,"cond":7569,"congr":7570,"concur":7571,"conversion":7572,"conception":7573,"ustice":7574,"illegally":7575,"unnatural":7576,"unconstrained":7577,"olish":7578,"abre":7579,"abby":7580,"abrup":7581,"logy":7582,"trate":7583,"trid":7584,"trend":7585,"pover":7586,"expel":7587,"pection":7588,"imal":7589,"implied":7590,"impressed":7591,"implies":7592,"proli":7593,"prosper":7594,"protuber":7595,"apol":7596,"appointed":7597,"applies":7598,"plunder":7599,"tick":7600,"quo":7601,"park":7602,"combus":7603,"compressed":7604,"div":7605,"dipl":7606,"pear":7607,"keys":7608,"shut":7609,"empl":7610,"manship":7611,"sibling":7612,"disc":7613,"disregard":7614,"disagreement":7615,"disbelieve":7616,"disreputable":7617,"dissemin":7618,"outlook":7619,"rium":7620,"ague":7621,"agitation":7622,"options":7623,"ucking":7624,"grate":7625,"strat":7626,"ecting":7627,"notable":7628,"obnoxious":7629,"recall":7630,"recip":7631,"overpower":7632,"lows":7633,"berry":7634,"vivid":7635,"ongoing":7636,"blunt":7637,"genres":7638,"iva":7639,"nook":7640,"charm":7641,"flaw":7642,"morbid":7643,"brutal":7644,"llery":7645,"coach":7646,"placement":7647,"interface":7648,"interrupt":7649,"intermittent":7650,"curtain":7651,"curios":7652,"cris":7653,"comput":7654,"intu":7655,"regulation":7656,"regulations":7657,"doom":7658,"cork":7659,"grouping":7660,"timacy":7661,"decom":7662,"lesser":7663,"median":7664,"entice":7665,"cars":7666,"valley":7667,"vised":7668,"Thin":7669,"fines":7670,"generated":7671,"goes":7672,"isms":7673,"density":7674,"denomination":7675,"affl":7676,"okes":7677,"mercy":7678,"matri":7679,"breed":7680,"miser":7681,"mischievous":7682,"month":7683,"inspection":7684,"certainty":7685,"poll":7686,"venom":7687,"pride":7688,"offspring":7689,"herbs":7690,"transmission":7691,"thorny":7692,"dividing":7693,"firing":7694,"publish":7695,"slides":7696,"operative":7697,"cussion":7698,"authoritative":7699,"Before":7700,"mitig":7701,"pulled":7702,"liquids":7703,"careless":7704,"equally":7705,"representative":7706,"responsibilities":7707,"swagger":7708,"sympathy":7709,"resemble":7710,"promoting":7711,"burned":7712,"refine":7713,"reflect":7714,"reflex":7715,"instrumental":7716,"artillery":7717,"Resulting":7718,"wooden":7719,"beforehand":7720,"Compare":7721,"menial":7722,"governing":7723,"198":7724,"19th":7725,"State":7726,"entertain":7727,"excited":7728,"midnight":7729,"infection":7730,"ethical":7731,"skinned":7732,"injustice":7733,"specialized":7734,"treating":7735,"uttered":7736,"literally":7737,"sported":7738,"flattering":7739,"fireplace":7740,"annul":7741,"pitcher":7742,"baseball":7743,"massive":7744,"bounds":7745,"occurred":7746,"excluding":7747,"borrow":7748,"broadly":7749,"rendered":7750,"thentic":7751,"panel":7752,"waiting":7753,"wavering":7754,"perfection":7755,"fashionable":7756,"courtesy":7757,"fastened":7758,"modification":7759,"seems":7760,"sailing":7761,"touching":7762,"problems":7763,"learned":7764,"deliberation":7765,"bullet":7766,"analysis":7767,"races":7768,"churches":7769,"critically":7770,"flee":7771,"articles":7772,"sensory":7773,"occasional":7774,"trustworthy":7775,"categories":7776,"hotel":7777,"sloping":7778,"Germany":7779,"locality":7780,"gods":7781,"perfectly":7782,"crops":7783,"healthy":7784,"sauc":7785,"livestock":7786,"watching":7787,"thrill":7788,"script":7789,"quarrel":7790,"connecting":7791,"sacri":7792,"requirements":7793,"microscop":7794,"protects":7795,"pronounced":7796,"assistant":7797,"celebration":7798,"Absolute":7799,"shrink":7800,"descending":7801,"calculations":7802,"Jews":7803,"camera":7804,"crowd":7805,"beaten":7806,"geographic":7807,"expectation":7808,"groove":7809,"grooves":7810,"oceans":7811,"ingredient":7812,"resolute":7813,"Produced":7814,"warmth":7815,"labyr":7816,"numerous":7817,"investigate":7818,"cousin":7819,"rocks":7820,"admirable":7821,"idiot":7822,"magnitude":7823,"conviction":7824,"confinement":7825,"Sea":7826,"cuisine":7827,"infras":7828,"stimulates":7829,"surgery":7830,"censure":7831,"invented":7832,"clergy":7833,"client":7834,"propriety":7835,"fragment":7836,"agriculture":7837,"Followed":7838,"check":7839,"stretching":7840,"uitous":7841,"moisture":7842,"haul":7843,"fungi":7844,"enforcement":7845,"rituals":7846,"caution":7847,"laughter":7848,"unreasonable":7849,"glycemia":7850,"washed":7851,"explicitly":7852,"collision":7853,"involvement":7854,"evaluate":7855,"scholarly":7856,"Russian":7857,"assessment":7858,"buffet":7859,"schedule":7860,"compatible":7861,"propaganda":7862,"Philippines":7863,"After":7864,"merely":7865,"estimated":7866,"volcano":7867,"cheeky":7868,"exhaustion":7869,"Mexican":7870,"proximity":7871,"impregnated":7872,"aquatic":7873,"fatigue":7874,"Genuine":7875,"delineate":7876,"impurities":7877,"manoeuvre":7878,"Kingdom":7879,"reminiscent":7880,"jukebox":7881,"hierarch":7882,"fanciful":7883,"abruptly":7884,"curiosity":7885,"1st":7886,"46":7887,"Barely":7888,"Cal":7889,"Cas":7890,"Disting":7891,"Equ":7892,"Far":7893,"Freedom":7894,"Ho":7895,"Hab":7896,"Jes":7897,"Land":7898,"Lim":7899,"Light":7900,"Oper":7901,"Parti":7902,"Ser":7903,"Soc":7904,"Well":7905,"Willing":7906,"aes":7907,"auc":7908,"bother":7909,"bage":7910,"biz":7911,"bian":7912,"bones":7913,"cence":7914,"cens":7915,"cub":7916,"deduc":7917,"dinner":7918,"dressing":7919,"eup":7920,"eject":7921,"eighty":7922,"fre":7923,"gon":7924,"gou":7925,"grot":7926,"iated":7927,"itous":7928,"jaw":7929,"knot":7930,"kitch":7931,"luc":7932,"lass":7933,"lazy":7934,"mating":7935,"mile":7936,"mund":7937,"na":7938,"nap":7939,"nia":7940,"pit":7941,"pil":7942,"penc":7943,"rhe":7944,"rider":7945,"rash":7946,"tative":7947,"tones":7948,"tling":7949,"uters":7950,"uese":7951,"vain":7952,"vap":7953,"vive":7954,"vacc":7955,"victory":7956,"ws":7957,"wan":7958,"wary":7959,"inally":7960,"inex":7961,"inery":7962,"indistinct":7963,"inadequate":7964,"erals":7965,"oned":7966,"antry":7967,"enl":7968,"ento":7969,"encompass":7970,"revi":7971,"reign":7972,"rebu":7973,"retri":7974,"reproduction":7975,"relying":7976,"reports":7977,"replacing":7978,"revenue":7979,"alive":7980,"alleged":7981,"esp":7982,"tid":7983,"tireless":7984,"isite":7985,"issing":7986,"asant":7987,"lexible":7988,"outr":7989,"accompany":7990,"itter":7991,"stall":7992,"stunt":7993,"stamp":7994,"staining":7995,"ros":7996,"heap":7997,"vet":7998,"sumed":7999,"cease":8000,"bean":8001,"defi":8002,"demean":8003,"degrad":8004,"conforming":8005,"confined":8006,"ultimate":8007,"usal":8008,"ilib":8009,"unfavorable":8010,"uncontrolled":8011,"unyielding":8012,"abbre":8013,"absent":8014,"igner":8015,"trash":8016,"exceeding":8017,"extract":8018,"exert":8019,"exceedingly":8020,"exterior":8021,"urance":8022,"impair":8023,"imitate":8024,"impartial":8025,"imitated":8026,"imparting":8027,"provoc":8028,"plaus":8029,"frank":8030,"fried":8031,"frustr":8032,"avan":8033,"paras":8034,"parliament":8035,"ird":8036,"iry":8037,"resin":8038,"commemor":8039,"diagno":8040,"ama":8041,"amine":8042,"ample":8043,"sher":8044,"emission":8045,"eligible":8046,"discard":8047,"discord":8048,"disconcert":8049,"iché":8050,"motivated":8051,"oppose":8052,"gran":8053,"grav":8054,"maker":8055,"owing":8056,"neat":8057,"ardent":8058,"ested":8059,"estation":8060,"observing":8061,"observe":8062,"assault":8063,"ularly":8064,"cliché":8065,"tedious":8066,"blan":8067,"fulfill":8068,"pharm":8069,"genitals":8070,"scrap":8071,"scoring":8072,"scores":8073,"porno":8074,"presum":8075,"preeminent":8076,"prejudice":8077,"iped":8078,"morals":8079,"brisk":8080,"submit":8081,"subservi":8082,"colon":8083,"coating":8084,"interrup":8085,"international":8086,"curse":8087,"crum":8088,"crank":8089,"redden":8090,"computers":8091,"corruption":8092,"aston":8093,"consol":8094,"epic":8095,"deceas":8096,"deciding":8097,"income":8098,"surrep":8099,"marry":8100,"caravan":8101,"underwear":8102,"cane":8103,"ears":8104,"encumber":8105,"visor":8106,"pursu":8107,"supplied":8108,"pierce":8109,"bug":8110,"affair":8111,"employing":8112,"matic":8113,"backward":8114,"months":8115,"requently":8116,"sulph":8117,"waters":8118,"passages":8119,"passions":8120,"cultiv":8121,"hyper":8122,"transform":8123,"transgender":8124,"ashes":8125,"ponder":8126,"humanity":8127,"amounts":8128,"maintaining":8129,"advancing":8130,"ruin":8131,"ictor":8132,"electrom":8133,"viewing":8134,"quantitative":8135,"actively":8136,"dominate":8137,"Behind":8138,"mildly":8139,"equilib":8140,"furtive":8141,"resting":8142,"profits":8143,"profuse":8144,"females":8145,"runner":8146,"knowingly":8147,"eastern":8148,"description":8149,"defining":8150,"azed":8151,"ontally":8152,"protected":8153,"rapper":8154,"influenced":8155,"reflection":8156,"hardship":8157,"atched":8158,"writes":8159,"loyal":8160,"attraction":8161,"winds":8162,"countryside":8163,"rooms":8164,"paired":8165,"identifying":8166,"ballo":8167,"treaty":8168,"warn":8169,"hairy":8170,"inflexible":8171,"injured":8172,"breaks":8173,"specializes":8174,"spoil":8175,"copious":8176,"needles":8177,"programming":8178,"cede":8179,"fourth":8180,"damnation":8181,"employer":8182,"friendship":8183,"kills":8184,"arrows":8185,"looks":8186,"snob":8187,"sweeping":8188,"sleeves":8189,"halt":8190,"punc":8191,"punk":8192,"Disgust":8193,"exclamation":8194,"radiate":8195,"humor":8196,"humiliation":8197,"attering":8198,"valued":8199,"impudent":8200,"steadily":8201,"zzy":8202,"sailor":8203,"learn":8204,"bulk":8205,"educational":8206,"Appropri":8207,"brows":8208,"songs":8209,"introspec":8210,"accomplishment":8211,"conveying":8212,"Poor":8213,"mount":8214,"seasoned":8215,"solete":8216,"license":8217,"categor":8218,"hypocr":8219,"accurately":8220,"believing":8221,"believable":8222,"Work":8223,"Worthy":8224,"wiki":8225,"wilder":8226,"boxing":8227,"Shaped":8228,"companion":8229,"candle":8230,"economy":8231,"discuss":8232,"continuing":8233,"inserted":8234,"belly":8235,"uncouth":8236,"horizontally":8237,"radioactive":8238,"Special":8239,"While":8240,"label":8241,"launch":8242,"penetrating":8243,"calculate":8244,"fights":8245,"familiarity":8246,"approximation":8247,"frolic":8248,"specimen":8249,"inherit":8250,"cooling":8251,"contradiction":8252,"customer":8253,"Empire":8254,"Strong":8255,"sells":8256,"adulter":8257,"neutral":8258,"consequential":8259,"idiom":8260,"16th":8261,"linen":8262,"fantastic":8263,"assumption":8264,"spheric":8265,"candidates":8266,"rhythm":8267,"administration":8268,"peaceful":8269,"discreet":8270,"visitors":8271,"advertise":8272,"neighbour":8273,"summoning":8274,"gallons":8275,"fields":8276,"constituent":8277,"syllable":8278,"embellish":8279,"cautious":8280,"nominal":8281,"ambiguous":8282,"diminish":8283,"Pleasing":8284,"talented":8285,"Harsh":8286,"mystical":8287,"enjoys":8288,"competitor":8289,"mollus":8290,"pendicular":8291,"classification":8292,"Originally":8293,"Closely":8294,"Widely":8295,"disorientate":8296,"begins":8297,"amateur":8298,"feminine":8299,"nutri":8300,"independently":8301,"pretentious":8302,"vertebrates":8303,"spike":8304,"Devoid":8305,"reconciliation":8306,"ambition":8307,"indigenous":8308,"Portuguese":8309,"challenging":8310,"carnivorous":8311,"remorse":8312,"distasteful":8313,"baptism":8314,"conjecture":8315,"likeness":8316,"narcotic":8317,"reproach":8318,"recipient":8319,"labyrinth":8320,"infrastructure":8321,"Distingu":8322,"Jesus":8323,"Partially":8324,"kitchen":8325,"mundane":8326,"plausible":8327,"subservient":8328,"deceased":8329,"equilibrium":8330,"Appropriate":8331,"introspection":8332,"24":8333,"30":8334,"60":8335,"70s":8336,"Agent":8337,"Bus":8338,"Budd":8339,"Cut":8340,"Cast":8341,"Dr":8342,"Den":8343,"Danger":8344,"Each":8345,"Ess":8346,"Either":8347,"Fam":8348,"Furn":8349,"His":8350,"Hem":8351,"Hind":8352,"Less":8353,"Last":8354,"Min":8355,"Mer":8356,"Mel":8357,"Must":8358,"Nec":8359,"Pers":8360,"Sus":8361,"Smo":8362,"Sign":8363,"Sci":8364,"Sever":8365,"Ven":8366,"Vir":8367,"York":8368,"aque":8369,"bation":8370,"bure":8371,"bite":8372,"bust":8373,"buck":8374,"cad":8375,"cree":8376,"cater":8377,"dual":8378,"dinary":8379,"fret":8380,"gang":8381,"ius":8382,"iju":8383,"jab":8384,"jew":8385,"ka":8386,"lump":8387,"mph":8388,"nause":8389,"piv":8390,"rons":8391,"rays":8392,"sway":8393,"sane":8394,"torn":8395,"tape":8396,"upl":8397,"uated":8398,"uble":8399,"vated":8400,"your":8401,"incess":8402,"inations":8403,"inately":8404,"incomplete":8405,"instances":8406,"intimate":8407,"inadequ":8408,"indistinguishable":8409,"orge":8410,"anor":8411,"anatom":8412,"attitudes":8413,"enor":8414,"enlar":8415,"reproducing":8416,"repreh":8417,"reproductive":8418,"alche":8419,"toll":8420,"edges":8421,"aromatic":8422,"tilled":8423,"tiliz":8424,"lynes":8425,"icide":8426,"assur":8427,"assets":8428,"Towards":8429,"stuck":8430,"stub":8431,"seating":8432,"andise":8433,"rogen":8434,"heir":8435,"veil":8436,"forge":8437,"dear":8438,"deities":8439,"perpendicular":8440,"chor":8441,"champ":8442,"chandise":8443,"conical":8444,"consul":8445,"condim":8446,"console":8447,"contribute":8448,"connotation":8449,"ulates":8450,"ilty":8451,"uncle":8452,"unreal":8453,"unrelated":8454,"untrue":8455,"unnecessarily":8456,"unmarried":8457,"uncultivated":8458,"unpredictable":8459,"terrain":8460,"meter":8461,"loo":8462,"lover":8463,"exchanged":8464,"urated":8465,"impe":8466,"immer":8467,"imposed":8468,"impose":8469,"immen":8470,"impersonal":8471,"projection":8472,"prohib":8473,"idian":8474,"otation":8475,"appl":8476,"apho":8477,"ticket":8478,"quet":8479,"friction":8480,"parted":8481,"Angry":8482,"comic":8483,"comment":8484,"composure":8485,"dire":8486,"tenure":8487,"peer":8488,"keel":8489,"odes":8490,"odour":8491,"shaking":8492,"shrew":8493,"emper":8494,"embody":8495,"lif":8496,"likes":8497,"lized":8498,"dispen":8499,"disbelief":8500,"disrupt":8501,"motions":8502,"mock":8503,"aller":8504,"Into":8505,"Inten":8506,"Infl":8507,"Information":8508,"Intense":8509,"Insincere":8510,"umps":8511,"notor":8512,"ocal":8513,"oblique":8514,"obsolete":8515,"assent":8516,"overl":8517,"relinqu":8518,"authentic":8519,"clade":8520,"clubs":8521,"bery":8522,"endow":8523,"twenty":8524,"prescri":8525,"blad":8526,"feeds":8527,"pho":8528,"scan":8529,"prey":8530,"fiery":8531,"flaws":8532,"brace":8533,"evade":8534,"specify":8535,"submer":8536,"subculture":8537,"subjective":8538,"anyone":8539,"contemporary":8540,"drying":8541,"soon":8542,"interruption":8543,"partly":8544,"cracy":8545,"extinct":8546,"dose":8547,"cords":8548,"declar":8549,"lessening":8550,"udence":8551,"periph":8552,"longed":8553,"aky":8554,"canon":8555,"wrink":8556,"cepts":8557,"ceptive":8558,"knit":8559,"knob":8560,"Unwilling":8561,"purify":8562,"dense":8563,"credi":8564,"athy":8565,"elling":8566,"lesbian":8567,"affle":8568,"mush":8569,"handic":8570,"talks":8571,"varied":8572,"monstr":8573,"puzz":8574,"couraging":8575,"solve":8576,"herbal":8577,"hyte":8578,"Constant":8579,"differing":8580,"differently":8581,"physician":8582,"eleph":8583,"ugal":8584,"maintenance":8585,"pleased":8586,"approve":8587,"slack":8588,"sliding":8589,"ruff":8590,"headed":8591,"operator":8592,"casting":8593,"guy":8594,"guess":8595,"bush":8596,"Relatively":8597,"sumac":8598,"garlic":8599,"grape":8600,"getting":8601,"subjected":8602,"osity":8603,"osomes":8604,"letting":8605,"successive":8606,"ibility":8607,"transc":8608,"transported":8609,"undy":8610,"descriptive":8611,"referred":8612,"references":8613,"defective":8614,"azing":8615,"drip":8616,"facil":8617,"agreeing":8618,"uterus":8619,"cycl":8620,"sheets":8621,"crimson":8622,"repeti":8623,"respectful":8624,"Attr":8625,"190":8626,"complaining":8627,"bald":8628,"rites":8629,"torture":8630,"entered":8631,"midday":8632,"infant":8633,"infect":8634,"breakdown":8635,"tooth":8636,"logically":8637,"copper":8638,"risky":8639,"storm":8640,"spores":8641,"conducted":8642,"Euro":8643,"damaging":8644,"expan":8645,"errand":8646,"snakes":8647,"failed":8648,"mastery":8649,"iliary":8650,"comfortably":8651,"ridicul":8652,"homeless":8653,"argumentative":8654,"falsely":8655,"schools":8656,"humoured":8657,"joyous":8658,"onomical":8659,"fearful":8660,"machinery":8661,"variant":8662,"smoking":8663,"smoked":8664,"seemly":8665,"motorcycle":8666,"temperate":8667,"sails":8668,"touched":8669,"bonds":8670,"hesitation":8671,"Also":8672,"Always":8673,"squander":8674,"shoes":8675,"Liable":8676,"favoring":8677,"articulate":8678,"imentary":8679,"sensational":8680,"passageway":8681,"Polynes":8682,"transferred":8683,"catching":8684,"concerns":8685,"laboratory":8686,"namic":8687,"hypothesis":8688,"Trans":8689,"crosses":8690,"memorial":8691,"Ordinary":8692,"agonal":8693,"photographic":8694,"demonstrate":8695,"climate":8696,"straightforward":8697,"rigged":8698,"consumes":8699,"vaginal":8700,"tributive":8701,"greenish":8702,"expertise":8703,"quarter":8704,"finding":8705,"asym":8706,"palate":8707,"institutions":8708,"resistant":8709,"pronoun":8710,"Cloth":8711,"White":8712,"integer":8713,"shrinking":8714,"crowded":8715,"pastry":8716,"reserve":8717,"observations":8718,"introducing":8719,"molecular":8720,"molecules":8721,"soldiers":8722,"hydrogen":8723,"accumulate":8724,"annoyed":8725,"rumbling":8726,"tumour":8727,"hammer":8728,"deviate":8729,"initiate":8730,"consumer":8731,"coupled":8732,"absorbed":8733,"tanner":8734,"tactics":8735,"evolution":8736,"cousins":8737,"ceremonial":8738,"withdrawal":8739,"irritated":8740,"mathematics":8741,"assuming":8742,"earnestly":8743,"ogenic":8744,"sickness":8745,"atmospheric":8746,"astronomical":8747,"eliminate":8748,"encourages":8749,"vibration":8750,"compassionate":8751,"assertion":8752,"delicate":8753,"Subject":8754,"secreted":8755,"Concerning":8756,"stuffed":8757,"vanish":8758,"tillation":8759,"embellishment":8760,"descendant":8761,"Turk":8762,"Turned":8763,"stabbed":8764,"parameters":8765,"melody":8766,"exaggerated":8767,"enjoying":8768,"bricks":8769,"discernment":8770,"Scotland":8771,"applicable":8772,"magnetic":8773,"Precise":8774,"repugn":8775,"reluctant":8776,"incidental":8777,"insincere":8778,"sprinkling":8779,"discipline":8780,"enclosure":8781,"dioxide":8782,"greedy":8783,"tranquil":8784,"inhabiting":8785,"poisonous":8786,"motives":8787,"Speaking":8788,"narrative":8789,"eruption":8790,"ineffective":8791,"Completely":8792,"Semitic":8793,"Commun":8794,"physiological":8795,"acknowledged":8796,"Britain":8797,"cigaret":8798,"imprisonment":8799,"strategic":8800,"auxiliary":8801,"distorted":8802,"promotion":8803,"Canadian":8804,"intricate":8805,"confirmation":8806,"amorphous":8807,"alkaline":8808,"gangrene":8809,"bucket":8810,"dinosaur":8811,"sketch":8812,"soothing":8813,"piercing":8814,"finesse":8815,"bizarre":8816,"cubic":8817,"gouge":8818,"grotesque":8819,"pencil":8820,"degradation":8821,"balloon":8822,"Mustel":8823,"Necess":8824,"ijuana":8825,"stubborn":8826,"embodying":8827,"..":8828,"1000":8829,"200":8830,"20s":8831,"Au":8832,"Av":8833,"Away":8834,"Abs":8835,"BB":8836,"Ev":8837,"Ele":8838,"Emotion":8839,"Food":8840,"Fitted":8841,"Ge":8842,"Hon":8843,"Hom":8844,"Jup":8845,"Lag":8846,"Low":8847,"Lying":8848,"Living":8849,"Mis":8850,"Mad":8851,"May":8852,"Nearly":8853,"O2":8854,"Other":8855,"Pres":8856,"Radi":8857,"Ste":8858,"Significant":8859,"Soft":8860,"Ver":8861,"Wil":8862,"Youn":8863,"Zeal":8864,"bis":8865,"bable":8866,"bree":8867,"bony":8868,"bastard":8869,"cables":8870,"cattle":8871,"dating":8872,"dub":8873,"dancing":8874,"dancer":8875,"fits":8876,"fake":8877,"frog":8878,"hog":8879,"hides":8880,"haugh":8881,"jug":8882,"kid":8883,"kir":8884,"kiss":8885,"lun":8886,"lace":8887,"lender":8888,"lakes":8889,"lasts":8890,"mous":8891,"mint":8892,"migr":8893,"nity":8894,"oes":8895,"osome":8896,"pap":8897,"puck":8898,"rave":8899,"san":8900,"sap":8901,"sav":8902,"saving":8903,"sest":8904,"sour":8905,"sob":8906,"sake":8907,"sidae":8908,"savour":8909,"uge":8910,"uish":8911,"vy":8912,"wart":8913,"wolf":8914,"zil":8915,"insp":8916,"intru":8917,"inhal":8918,"inches":8919,"indiscrim":8920,"inconsequential":8921,"ori":8922,"thief":8923,"erotic":8924,"erapho":8925,"onset":8926,"anity":8927,"attended":8928,"ensu":8929,"enry":8930,"rea":8931,"really":8932,"react":8933,"reply":8934,"reactions":8935,"returned":8936,"retire":8937,"alarm":8938,"alert":8939,"toy":8940,"arouse":8941,"tides":8942,"theless":8943,"oming":8944,"omni":8945,"isive":8946,"icate":8947,"lemon":8948,"accommod":8949,"Too":8950,"segreg":8951,"roles":8952,"heated":8953,"ceeds":8954,"cephal":8955,"beef":8956,"deer":8957,"detr":8958,"peril":8959,"chal":8960,"chim":8961,"chop":8962,"chick":8963,"connot":8964,"condom":8965,"converted":8966,"ults":8967,"ushy":8968,"iles":8969,"unate":8970,"unsound":8971,"unlaw":8972,"unjust":8973,"unsuitable":8974,"uneven":8975,"uncomfortable":8976,"unstable":8977,"uncontroll":8978,"abide":8979,"abash":8980,"meg":8981,"trusive":8982,"pole":8983,"exal":8984,"exemp":8985,"gelat":8986,"ura":8987,"urning":8988,"imy":8989,"iminary":8990,"immature":8991,"proto":8992,"prostit":8993,"fruits":8994,"irregularly":8995,"irrational":8996,"resisting":8997,"diame":8998,"peak":8999,"ames":9000,"amorous":9001,"amazing":9002,"sham":9003,"shrub":9004,"shift":9005,"email":9006,"eline":9007,"elbow":9008,"maneu":9009,"lize":9010,"liked":9011,"sile":9012,"sities":9013,"distribut":9014,"disruption":9015,"disapproval":9016,"outcry":9017,"outburst":9018,"riol":9019,"ritical":9020,"rifle":9021,"motive":9022,"mohair":9023,"agus":9024,"agend":9025,"agony":9026,"optim":9027,"tained":9028,"maid":9029,"alluring":9030,"Inf":9031,"Independent":9032,"umen":9033,"obsequ":9034,"nerves":9035,"spat":9036,"spite":9037,"spider":9038,"inept":9039,"overthrow":9040,"aug":9041,"endurance":9042,"plets":9043,"blame":9044,"bluish":9045,"feast":9046,"tear":9047,"teous":9048,"scored":9049,"scales":9050,"predetermined":9051,"premature":9052,"awful":9053,"fiable":9054,"desir":9055,"desires":9056,"fles":9057,"flick":9058,"bric":9059,"braz":9060,"angled":9061,"taut":9062,"duct":9063,"syrup":9064,"contam":9065,"collar":9066,"colony":9067,"coins":9068,"Sometimes":9069,"intersection":9070,"intersect":9071,"istan":9072,"airy":9073,"rown":9074,"cordial":9075,"playfully":9076,"owning":9077,"larva":9078,"fers":9079,"ferment":9080,"ference":9081,"closer":9082,"lesson":9083,"valent":9084,"undertaking":9085,"ordering":9086,"struck":9087,"canal":9088,"harvest":9089,"holid":9090,"viscous":9091,"Therapho":9092,"became":9093,"voltage":9094,"goat":9095,"goose":9096,"director":9097,"secured":9098,"supplies":9099,"denote":9100,"skirt":9101,"affix":9102,"merchandise":9103,"putref":9104,"wherein":9105,"seduc":9106,"monster":9107,"caus":9108,"inspect":9109,"goodwill":9110,"passes":9111,"courteous":9112,"covers":9113,"venge":9114,"priest":9115,"offender":9116,"heresy":9117,"socket":9118,"norms":9119,"foli":9120,"Conn":9121,"Conforming":9122,"Contro":9123,"Contin":9124,"differences":9125,"semen":9126,"ponent":9127,"completion":9128,"originated":9129,"Performed":9130,"malicious":9131,"shapes":9132,"slut":9133,"slice":9134,"signing":9135,"fox":9136,"foam":9137,"informed":9138,"incline":9139,"headlines":9140,"archae":9141,"behaviors":9142,"spiral":9143,"difficulties":9144,"lawsuit":9145,"steward":9146,"summar":9147,"summer":9148,"measures":9149,"oses":9150,"career":9151,"cellaneous":9152,"worthiness":9153,"profitable":9154,"attending":9155,"grounds":9156,"promp":9157,"promin":9158,"queue":9159,"violation":9160,"violate":9161,"depiction":9162,"childish":9163,"influences":9164,"agreeably":9165,"thinly":9166,"unition":9167,"textbook":9168,"refuge":9169,"deterior":9170,"travell":9171,"possessed":9172,"communist":9173,"increases":9174,"barbar":9175,"menstr":9176,"films":9177,"restriction":9178,"Entire":9179,"strips":9180,"respectable":9181,"1970s":9182,"pathetic":9183,"multiplied":9184,"inflection":9185,"infantry":9186,"copies":9187,"benzo":9188,"bribe":9189,"destiny":9190,"colours":9191,"distinctly":9192,"ruler":9193,"storing":9194,"stories":9195,"Action":9196,"Across":9197,"Proto":9198,"falsi":9199,"conducting":9200,"employees":9201,"knowledgeable":9202,"primitive":9203,"governmental":9204,"doub":9205,"worldly":9206,"cardinal":9207,"punch":9208,"circumc":9209,"drops":9210,"droplets":9211,"alongside":9212,"communicated":9213,"initially":9214,"convention":9215,"rendering":9216,"onomic":9217,"obligations":9218,"obligatory":9219,"floating":9220,"executive":9221,"claimed":9222,"surroundings":9223,"tasked":9224,"lateral":9225,"wanting":9226,"touches":9227,"hesitant":9228,"satisfactory":9229,"slightest":9230,"imagined":9231,"scream":9232,"contented":9233,"Northern":9234,"accessory":9235,"potency":9236,"avoidable":9237,"stupe":9238,"Once":9239,"alley":9240,"fluids":9241,"favouring":9242,"starts":9243,"Super":9244,"splash":9245,"slopes":9246,"disturbing":9247,"believes":9248,"Oral":9249,"alternating":9250,"tricks":9251,"witted":9252,"bigger":9253,"fairly":9254,"walkway":9255,"demons":9256,"explosive":9257,"explains":9258,"blows":9259,"Adorned":9260,"cleaner":9261,"cleaning":9262,"minority":9263,"financially":9264,"courageous":9265,"connects":9266,"continuously":9267,"genetically":9268,"dedicated":9269,"juven":9270,"invested":9271,"tracks":9272,"marketplace":9273,"pronounce":9274,"celebrated":9275,"Ability":9276,"assembling":9277,"suspect":9278,"concise":9279,"loosely":9280,"recurrent":9281,"descended":9282,"adjusted":9283,"approximate":9284,"Prim":9285,"tools":9286,"comprises":9287,"hopeless":9288,"endeavour":9289,"endeavor":9290,"terminal":9291,"accumulated":9292,"Christianity":9293,"stripes":9294,"emphasize":9295,"20th":9296,"Outside":9297,"victim":9298,"impulsive":9299,"obstacles":9300,"customs":9301,"initiating":9302,"hurry":9303,"shorter":9304,"timbers":9305,"Strange":9306,"Strength":9307,"comprehend":9308,"elongated":9309,"dilute":9310,"tactic":9311,"tangible":9312,"adherent":9313,"tenderness":9314,"dishonestly":9315,"mythical":9316,"innermost":9317,"overwhelm":9318,"elegance":9319,"rocking":9320,"translation":9321,"Weak":9322,"sentiment":9323,"vestment":9324,"conflicting":9325,"Irritable":9326,"infraction":9327,"forcing":9328,"forcible":9329,"chromosomes":9330,"chromosome":9331,"gentleman":9332,"melting":9333,"cinem":9334,"links":9335,"fragile":9336,"suggesting":9337,"swimming":9338,"refrain":9339,"plainly":9340,"fielders":9341,"secretion":9342,"Class":9343,"Islamic":9344,"cabinet":9345,"department":9346,"fungus":9347,"illumination":9348,"crustace":9349,"sperm":9350,"tubercul":9351,"Confused":9352,"unreasonably":9353,"dissolved":9354,"vigorously":9355,"deficient":9356,"discovery":9357,"Russia":9358,"Collec":9359,"channel":9360,"channels":9361,"confrontation":9362,"sanction":9363,"repudi":9364,"whims":9365,"emergency":9366,"astrological":9367,"defects":9368,"bait":9369,"daily":9370,"ascertained":9371,"nucleus":9372,"Foolish":9373,"dessert":9374,"gauge":9375,"extremes":9376,"Broken":9377,"dainty":9378,"daughters":9379,"shifting":9380,"antagonistic":9381,"stereotypical":9382,"Damned":9383,"whiskey":9384,"geometric":9385,"Exactly":9386,"Providing":9387,"Repu":9388,"hobby":9389,"explanation":9390,"phonograph":9391,"website":9392,"voyage":9393,"aggregate":9394,"Suffering":9395,"Emotional":9396,"amphib":9397,"agnetic":9398,"Brazil":9399,"Viol":9400,"sponsor":9401,"secluded":9402,"swindle":9403,"Caucasian":9404,"extravagant":9405,"Southern":9406,"thousand":9407,"congruous":9408,"overpowering":9409,"crisp":9410,"matrix":9411,"saucy":9412,"Operating":9413,"pilot":9414,"encompassing":9415,"rebuke":9416,"electromagnetic":9417,"neighbourhood":9418,"Business":9419,"Mercury":9420,"Sciento":9421,"bureauc":9422,"nausea":9423,"shrewd":9424,"bladder":9425,"Eurozone":9426,"ridiculous":9427,"Available":9428,"Jupiter":9429,"prostitutes":9430,"Theraphosidae":9431,"13":9432,"22":9433,"31":9434,"90":9435,"Adam":9436,"Bre":9437,"Cra":9438,"Cali":9439,"DS":9440,"Doc":9441,"Egy":9442,"Eager":9443,"Fin":9444,"Fine":9445,"Fair":9446,"Fashion":9447,"Grand":9448,"Ill":9449,"Isol":9450,"Kind":9451,"Little":9452,"Mal":9453,"Mil":9454,"Main":9455,"Ninten":9456,"Neither":9457,"Ost":9458,"Pak":9459,"Prom":9460,"Partic":9461,"Sen":9462,"Sol":9463,"Ti":9464,"Tri":9465,"Temporary":9466,"Truth":9467,"Ur":9468,"Vis":9469,"Vol":9470,"Victor":9471,"Will":9472,"Water":9473,"apost":9474,"bay":9475,"bits":9476,"baking":9477,"bought":9478,"clow":9479,"cking":9480,"cavi":9481,"cakes":9482,"dus":9483,"dors":9484,"dressed":9485,"dazz":9486,"dairy":9487,"ejac":9488,"eternal":9489,"fis":9490,"fop":9491,"fence":9492,"fist":9493,"gown":9494,"gers":9495,"gments":9496,"hen":9497,"haps":9498,"iver":9499,"iating":9500,"ifies":9501,"kary":9502,"kissing":9503,"kiped":9504,"lac":9505,"lur":9506,"lers":9507,"lining":9508,"mpt":9509,"noc":9510,"oor":9511,"ole":9512,"pis":9513,"pence":9514,"ptions":9515,"pants":9516,"ration":9517,"rav":9518,"rates":9519,"rising":9520,"sation":9521,"saw":9522,"swelling":9523,"sighs":9524,"tinc":9525,"tles":9526,"tink":9527,"tank":9528,"tonic":9529,"tinent":9530,"testic":9531,"taught":9532,"uing":9533,"uate":9534,"upro":9535,"uary":9536,"wider":9537,"wished":9538,"wavy":9539,"yadd":9540,"inward":9541,"infin":9542,"indifferent":9543,"inexperienced":9544,"inexpensive":9545,"orable":9546,"orish":9547,"orough":9548,"thunder":9549,"thwart":9550,"ered":9551,"ench":9552,"enables":9553,"revel":9554,"retail":9555,"reprob":9556,"revoke":9557,"alli":9558,"toon":9559,"tower":9560,"editing":9561,"ara":9562,"arter":9563,"arant":9564,"arted":9565,"arousing":9566,"theast":9567,"omer":9568,"omit":9569,"lysis":9570,"ico":9571,"iced":9572,"lever":9573,"leep":9574,"accomp":9575,"itar":9576,"itual":9577,"itates":9578,"eccentric":9579,"Toward":9580,"entangle":9581,"seas":9582,"sement":9583,"seated":9584,"seaw":9585,"seiz":9586,"sewing":9587,"sealed":9588,"rol":9589,"roit":9590,"rose":9591,"robe":9592,"heal":9593,"sull":9594,"forec":9595,"fording":9596,"fornia":9597,"beard":9598,"beating":9599,"deeds":9600,"degrade":9601,"deeper":9602,"perhaps":9603,"chin":9604,"chic":9605,"chatter":9606,"chlor":9607,"cone":9608,"conspir":9609,"ultimately":9610,"usc":9611,"uss":9612,"undo":9613,"unconscious":9614,"unmixed":9615,"unintentionally":9616,"unacceptable":9617,"uneasy":9618,"unlucky":9619,"unorthodox":9620,"unmatched":9621,"unavoidable":9622,"abhor":9623,"abroad":9624,"abode":9625,"igor":9626,"igrate":9627,"lobe":9628,"loid":9629,"loach":9630,"trache":9631,"poon":9632,"exual":9633,"exped":9634,"exempl":9635,"byproduct":9636,"urgent":9637,"impart":9638,"adroit":9639,"progen":9640,"prosec":9641,"procal":9642,"proponent":9643,"ida":9644,"apy":9645,"apid":9646,"apathy":9647,"vertices":9648,"quill":9649,"quaint":9650,"frugal":9651,"parad":9652,"irical":9653,"ironic":9654,"residing":9655,"rescue":9656,"comed":9657,"compose":9658,"commotion":9659,"compression":9660,"tens":9661,"kempt":9662,"shod":9663,"ember":9664,"elite":9665,"elastic":9666,"manually":9667,"sift":9668,"dispos":9669,"disgrace":9670,"discredit":9671,"disarray":9672,"etus":9673,"personnel":9674,"outdoors":9675,"ighing":9676,"moths":9677,"antine":9678,"optical":9679,"gras":9680,"dermic":9681,"deriving":9682,"arel":9683,"strands":9684,"umes":9685,"neural":9686,"negl":9687,"worried":9688,"printer":9689,"prick":9690,"prices":9691,"obli":9692,"oblong":9693,"assass":9694,"spending":9695,"spicy":9696,"spiny":9697,"upwards":9698,"recl":9699,"rection":9700,"recru":9701,"recoil":9702,"rela":9703,"lowering":9704,"claws":9705,"fictitious":9706,"twig":9707,"viet":9708,"illa":9709,"blical":9710,"feit":9711,"phere":9712,"tea":9713,"teas":9714,"scent":9715,"scant":9716,"scolding":9717,"porter":9718,"ackle":9719,"pretend":9720,"fibers":9721,"deserve":9722,"deserved":9723,"izable":9724,"flatten":9725,"morph":9726,"mortal":9727,"brav":9728,"brings":9729,"braid":9730,"evoking":9731,"amel":9732,"suborder":9733,"serial":9734,"lecting":9735,"cerity":9736,"collabor":9737,"coag":9738,"costu":9739,"bohydr":9740,"Somebody":9741,"interview":9742,"curl":9743,"curled":9744,"istor":9745,"weas":9746,"comply":9747,"smug":9748,"intui":9749,"regulate":9750,"moveable":9751,"fertiliz":9752,"setback":9753,"timony":9754,"worked":9755,"incar":9756,"survi":9757,"surpass":9758,"surprising":9759,"marijuana":9760,"likelihood":9761,"cart":9762,"carbohydr":9763,"underwater":9764,"hastily":9765,"wrap":9766,"ersed":9767,"apparel":9768,"turb":9769,"holly":9770,"vism":9771,"activeness":9772,"Thorough":9773,"simply":9774,"simulate":9775,"lightning":9776,"secrecy":9777,"denounce":9778,"tubes":9779,"buzz":9780,"skull":9781,"creed":9782,"standardi":9783,"animent":9784,"misconduct":9785,"instig":9786,"characteristically":9787,"capsu":9788,"horri":9789,"prize":9790,"priests":9791,"distressing":9792,"hered":9793,"trified":9794,"systematic":9795,"readiness":9796,"transitory":9797,"differenti":9798,"pointless":9799,"hoop":9800,"electoral":9801,"divides":9802,"considering":9803,"cheek":9804,"forethought":9805,"forebod":9806,"fluff":9807,"litter":9808,"mala":9809,"malice":9810,"penal":9811,"officers":9812,"slave":9813,"fortunate":9814,"circles":9815,"signed":9816,"ruly":9817,"intensive":9818,"headlong":9819,"opera":9820,"collected":9821,"gluc":9822,"guile":9823,"guilty":9824,"config":9825,"confection":9826,"followers":9827,"openings":9828,"velvet":9829,"retch":9830,"Cha":9831,"Chil":9832,"nony":9833,"electron":9834,"measurable":9835,"garments":9836,"pedic":9837,"ankle":9838,"meanings":9839,"mium":9840,"mired":9841,"temple":9842,"turnal":9843,"representatives":9844,"swamp":9845,"bolted":9846,"cuts":9847,"willingly":9848,"fills":9849,"ensis":9850,"laying":9851,"softly":9852,"defec":9853,"drift":9854,"concerted":9855,"minded":9856,"allowance":9857,"dock":9858,"influential":9859,"indicator":9860,"unior":9861,"unified":9862,"reflected":9863,"reasonable":9864,"bloody":9865,"ancestral":9866,"angered":9867,"traveling":9868,"artificially":9869,"traditions":9870,"versary":9871,"judged":9872,"woody":9873,"rotten":9874,"rotting":9875,"attractiveness":9876,"Composed":9877,"continually":9878,"sheath":9879,"plying":9880,"seek":9881,"nearer":9882,"necessity":9883,"195":9884,"foundation":9885,"idential":9886,"complaint":9887,"metabol":9888,"correction":9889,"ucked":9890,"multiplication":9891,"Caused":9892,"skinny":9893,"romance":9894,"saturated":9895,"uttering":9896,"Proper":9897,"sportive":9898,"flatter":9899,"gging":9900,"expressions":9901,"killed":9902,"fruitful":9903,"sweat":9904,"fullest":9905,"darkness":9906,"faulty":9907,"pathology":9908,"attempting":9909,"horseback":9910,"walks":9911,"dealt":9912,"dealer":9913,"betes":9914,"betting":9915,"behavioral":9916,"farthest":9917,"radiation":9918,"perceiving":9919,"questioning":9920,"Real":9921,"invas":9922,"varie":9923,"variables":9924,"claiming":9925,"audibly":9926,"conceived":9927,"diges":9928,"messaging":9929,"taxes":9930,"taxonomic":9931,"sinister":9932,"occasions":9933,"Forming":9934,"progressive":9935,"spreads":9936,"altering":9937,"imagery":9938,"ophagus":9939,"Appall":9940,"detection":9941,"detective":9942,"uppermost":9943,"racial":9944,"troubled":9945,"Army":9946,"favored":9947,"avoiding":9948,"engagement":9949,"vulva":9950,"alleviation":9951,"equipped":9952,"disorders":9953,"advancement":9954,"bodied":9955,"fatty":9956,"splitting":9957,"planets":9958,"creatures":9959,"weakness":9960,"hypodermic":9961,"Deviation":9962,"nationalist":9963,"banned":9964,"witty":9965,"photosynthesis":9966,"reducing":9967,"exploitation":9968,"testing":9969,"blowjob":9970,"barren":9971,"listens":9972,"extends":9973,"lubric":9974,"girlfriend":9975,"eukary":9976,"pushing":9977,"insertion":9978,"recognizable":9979,"microorganisms":9980,"complexity":9981,"protecting":9982,"Likely":9983,"Soviet":9984,"seriousness":9985,"corporeal":9986,"streets":9987,"intellectually":9988,"Moon":9989,"assemble":9990,"rodents":9991,"concave":9992,"glasses":9993,"calculating":9994,"Opposing":9995,"revealed":9996,"commanding":9997,"staying":9998,"discriminating":9999,"grime":10000,"apartment":10001,"intelligible":10002,"tumult":10003,"manipulation":10004,"branded":10005,"Generous":10006,"ominous":10007,"ominable":10008,"stationary":10009,"resolution":10010,"reciproc":10011,"customed":10012,"costs":10013,"justi":10014,"enjoyable":10015,"answerable":10016,"aperture":10017,"issful":10018,"adhering":10019,"mythology":10020,"Leading":10021,"dignified":10022,"telling":10023,"adultery":10024,"harmonize":10025,"constantly":10026,"territories":10027,"composing":10028,"ammunition":10029,"irritation":10030,"interpret":10031,"testimony":10032,"conference":10033,"gratification":10034,"reckon":10035,"integrity":10036,"bags":10037,"journal":10038,"residue":10039,"compensate":10040,"earnest":10041,"reptile":10042,"knees":10043,"elimination":10044,"Placed":10045,"inquis":10046,"probability":10047,"dialogue":10048,"clerk":10049,"clients":10050,"neighbor":10051,"spinning":10052,"vibrating":10053,"flourish":10054,"insects":10055,"Italy":10056,"budget":10057,"Substance":10058,"capitalism":10059,"brilliance":10060,"accomplishments":10061,"intimidating":10062,"administered":10063,"liberal":10064,"pounds":10065,"complementary":10066,"lamb":10067,"competitive":10068,"warfare":10069,"Hawaii":10070,"Distinc":10071,"Scottish":10072,"hills":10073,"rugged":10074,"insurrection":10075,"applications":10076,"plucked":10077,"zealous":10078,"fussy":10079,"orchestra":10080,"reluctance":10081,"glee":10082,"halluc":10083,"dioxin":10084,"reflects":10085,"Employing":10086,"protruding":10087,"propels":10088,"buyer":10089,"neurological":10090,"guardianship":10091,"enzyme":10092,"manuscript":10093,"manuscripts":10094,"nevertheless":10095,"indecorous":10096,"feudalism":10097,"intoxicated":10098,"Exceptional":10099,"Exceptionally":10100,"Wikiped":10101,"villain":10102,"tapered":10103,"intervention":10104,"ordinarily":10105,"Certain":10106,"mirror":10107,"mourn":10108,"leisurely":10109,"projections":10110,"buttons":10111,"encircles":10112,"turbulent":10113,"athletic":10114,"symmetry":10115,"heavenly":10116,"vulnerability":10117,"warranted":10118,"Human":10119,"vitriol":10120,"frightening":10121,"portraying":10122,"mysterious":10123,"mimic":10124,"preliminary":10125,"deemed":10126,"clinic":10127,"genitalia":10128,"destroying":10129,"False":10130,"Friend":10131,"oscill":10132,"protuberance":10133,"combustion":10134,"disseminate":10135,"grateful":10136,"refinement":10137,"rhetor":10138,"accompanying":10139,"abbrevi":10140,"diagnosis":10141,"blanket":10142,"sulphur":10143,"hypocrisy":10144,"Distinguished":10145,"Essential":10146,"Furnished":10147,"Hispanic":10148,"Severe":10149,"Venus":10150,"Virgin":10151,"incessantly":10152,"enlarged":10153,"immense":10154,"phosp":10155,"Attractive":10156,"cigarette":10157,"Necessary":10158,"Emotionally":10159,"Radiant":10160,"Zealand":10161,"sober":10162,"savoury":10163,"chimney":10164,"brazen":10165,"foliage":10166,"circumcised":10167,"juvenile":10168,"Collectively":10169,"California":10170,"Fashionably":10171,"Nintendo":10172,"Pakistan":10173,"dorsal":10174,"yadda":10175,"accompaniment":10176,"seawater":10177,"sullen":10178,"trachea":10179,"costume":10180,"standardized":10181,"Appalling":10182,"eukaryotic":10183,"Wikipedia":10184,"25":10185,"38":10186,"65":10187,"83":10188,"86":10189,"Abo":10190,"Along":10191,"Ages":10192,"Avoid":10193,"Area":10194,"Bh":10195,"Ben":10196,"Bes":10197,"Bel":10198,"Bound":10199,"CD":10200,"CO":10201,"Cu":10202,"City":10203,"Cel":10204,"Cant":10205,"Cub":10206,"During":10207,"Drun":10208,"Ener":10209,"Favor":10210,"Gu":10211,"Gover":10212,"ID":10213,"IS":10214,"Mass":10215,"Nep":10216,"Naz":10217,"Pot":10218,"Pred":10219,"Prac":10220,"Qur":10221,"Ru":10222,"Slo":10223,"Said":10224,"Spain":10225,"Swed":10226,"Slav":10227,"Text":10228,"Tired":10229,"Techn":10230,"Tradi":10231,"Writ":10232,"Yi":10233,"aver":10234,"afr":10235,"aunt":10236,"bic":10237,"bout":10238,"bats":10239,"bisc":10240,"cing":10241,"cure":10242,"cough":10243,"cave":10244,"cident":10245,"caught":10246,"dau":10247,"dough":10248,"denti":10249,"daring":10250,"ego":10251,"eats":10252,"fed":10253,"fences":10254,"flip":10255,"fading":10256,"gal":10257,"ggy":10258,"gorge":10259,"hits":10260,"hint":10261,"hilt":10262,"hipp":10263,"ioc":10264,"itions":10265,"iors":10266,"ifier":10267,"jig":10268,"jam":10269,"junior":10270,"kle":10271,"lish":10272,"latter":10273,"leness":10274,"lugg":10275,"lighter":10276,"muc":10277,"mater":10278,"mits":10279,"mist":10280,"mason":10281,"muff":10282,"nude":10283,"nels":10284,"ov":10285,"oke":10286,"ography":10287,"ogetic":10288,"obey":10289,"pone":10290,"ptic":10291,"pious":10292,"panc":10293,"pings":10294,"ral":10295,"ray":10296,"rating":10297,"rust":10298,"rings":10299,"rouse":10300,"rasp":10301,"sly":10302,"sate":10303,"tg":10304,"tual":10305,"tuse":10306,"tucked":10307,"vass":10308,"vise":10309,"waving":10310,"wattle":10311,"zig":10312,"indirectly":10313,"indifference":10314,"incompatible":10315,"onions":10316,"inge":10317,"atism":10318,"atio":10319,"attainment":10320,"ention":10321,"enum":10322,"ensure":10323,"envelo":10324,"entices":10325,"retic":10326,"republic":10327,"replic":10328,"reproduced":10329,"reprim":10330,"rejection":10331,"remarks":10332,"reprove":10333,"altitude":10334,"toe":10335,"topi":10336,"toile":10337,"edition":10338,"arity":10339,"arise":10340,"arians":10341,"tivar":10342,"tiously":10343,"tips":10344,"theart":10345,"theology":10346,"theories":10347,"omission":10348,"isdom":10349,"lymph":10350,"icule":10351,"asc":10352,"ashy":10353,"astery":10354,"asleep":10355,"accoun":10356,"accustomed":10357,"ecd":10358,"ecst":10359,"ectively":10360,"Total":10361,"stur":10362,"stare":10363,"stature":10364,"seized":10365,"segments":10366,"roving":10367,"forear":10368,"foresh":10369,"fortification":10370,"ceiling":10371,"bewilder":10372,"dele":10373,"depr":10374,"depos":10375,"deleg":10376,"deprec":10377,"delect":10378,"devoid":10379,"defraud":10380,"perse":10381,"perme":10382,"perine":10383,"percent":10384,"persever":10385,"whit":10386,"ometer":10387,"cher":10388,"chol":10389,"conqu":10390,"contend":10391,"concord":10392,"condescending":10393,"uled":10394,"ully":10395,"ulli":10396,"ulsion":10397,"ulator":10398,"withstand":10399,"iler":10400,"unity":10401,"unlike":10402,"unwell":10403,"unfit":10404,"uncovered":10405,"unions":10406,"unattractive":10407,"undetermined":10408,"unrefined":10409,"unsophisticated":10410,"unstructured":10411,"unkempt":10412,"terity":10413,"olden":10414,"abominable":10415,"metric":10416,"metrical":10417,"loom":10418,"loot":10419,"loving":10420,"tram":10421,"traction":10422,"pods":10423,"exile":10424,"exposure":10425,"gems":10426,"urg":10427,"implicit":10428,"imprudent":10429,"adj":10430,"adic":10431,"adhere":10432,"prospect":10433,"prolonged":10434,"idance":10435,"essay":10436,"verd":10437,"versities":10438,"plag":10439,"plaster":10440,"plasm":10441,"plendent":10442,"quite":10443,"therm":10444,"avail":10445,"parade":10446,"pardon":10447,"irrelevant":10448,"reson":10449,"resplendent":10450,"commodi":10451,"tenant":10452,"amic":10453,"shaving":10454,"emits":10455,"emblem":10456,"emulsion":10457,"elds":10458,"managed":10459,"liver":10460,"liability":10461,"persistently":10462,"disab":10463,"dismis":10464,"dispose":10465,"displeasure":10466,"discourage":10467,"disinclined":10468,"distilled":10469,"disperse":10470,"outlet":10471,"outwards":10472,"utmost":10473,"rily":10474,"agged":10475,"agitate":10476,"gray":10477,"grudge":10478,"allus":10479,"strang":10480,"strung":10481,"Insignificant":10482,"Intel":10483,"Insane":10484,"ffs":10485,"umble":10486,"prag":10487,"estone":10488,"obtuse":10489,"spas":10490,"spout":10491,"spice":10492,"overhanging":10493,"relatives":10494,"kingdom":10495,"clue":10496,"presses":10497,"preserving":10498,"blues":10499,"blaze":10500,"feign":10501,"phan":10502,"mannered":10503,"tears":10504,"scroll":10505,"pork":10506,"pores":10507,"porcel":10508,"presumed":10509,"premium":10510,"stately":10511,"awning":10512,"fiber":10513,"fired":10514,"fierce":10515,"deser":10516,"nosy":10517,"notification":10518,"charity":10519,"charism":10520,"charges":10521,"flap":10522,"flush":10523,"flinch":10524,"mortg":10525,"bron":10526,"brake":10527,"brides":10528,"evap":10529,"evokes":10530,"angible":10531,"subdue":10532,"substandard":10533,"subatomic":10534,"synony":10535,"contag":10536,"qualifying":10537,"qualification":10538,"drill":10539,"cooperate":10540,"cohesive":10541,"boot":10542,"boson":10543,"boisterous":10544,"soap":10545,"soaking":10546,"internet":10547,"cru":10548,"cran":10549,"criter":10550,"weep":10551,"rows":10552,"smash":10553,"intact":10554,"intangible":10555,"consonant":10556,"feroc":10557,"decrep":10558,"incing":10559,"surplus":10560,"marke":10561,"entia":10562,"producer":10563,"cartoon":10564,"underside":10565,"undergone":10566,"ideally":10567,"hasty":10568,"sensi":10569,"sensed":10570,"aks":10571,"cannon":10572,"leges":10573,"minuti":10574,"minutes":10575,"harness":10576,"vison":10577,"viscer":10578,"highway":10579,"Three":10580,"knoc":10581,"Unseemly":10582,"secular":10583,"denotes":10584,"locks":10585,"Exh":10586,"Extending":10587,"ski":10588,"skil":10589,"spelling":10590,"adept":10591,"animous":10592,"affled":10593,"eches":10594,"mercury":10595,"meridian":10596,"matches":10597,"backup":10598,"brew":10599,"breach":10600,"mislead":10601,"mischief":10602,"misstep":10603,"missile":10604,"monitor":10605,"putrid":10606,"cultivar":10607,"capturing":10608,"horn":10609,"vention":10610,"solving":10611,"prime":10612,"folded":10613,"Confined":10614,"transformation":10615,"currencies":10616,"anguish":10617,"humane":10618,"changeable":10619,"topped":10620,"chew":10621,"cheon":10622,"cheater":10623,"chewing":10624,"orean":10625,"ologic":10626,"Permission":10627,"forever":10628,"foreigner":10629,"approbation":10630,"slaves":10631,"slushy":10632,"advise":10633,"planted":10634,"ietal":10635,"downwards":10636,"joke":10637,"intentions":10638,"heads":10639,"cask":10640,"collecting":10641,"glor":10642,"confusing":10643,"foods":10644,"kindly":10645,"voices":10646,"authorized":10647,"steering":10648,"garbage":10649,"regards":10650,"domine":10651,"addiction":10652,"Below":10653,"tempo":10654,"freehold":10655,"severity":10656,"commonplace":10657,"carefree":10658,"equiv":10659,"furious":10660,"furthest":10661,"musician":10662,"encyclo":10663,"calam":10664,"knowing":10665,"resemblance":10666,"describes":10667,"defender":10668,"defended":10669,"promotes":10670,"Americas":10671,"grammar":10672,"politically":10673,"rape":10674,"virus":10675,"virgin":10676,"virtuous":10677,"univers":10678,"universities":10679,"suffoc":10680,"venture":10681,"painted":10682,"hardy":10683,"modes":10684,"artifice":10685,"cyber":10686,"chiat":10687,"versa":10688,"rotational":10689,"bike":10690,"Comfort":10691,"payments":10692,"compelled":10693,"continent":10694,"fillip":10695,"restrict":10696,"End":10697,"199":10698,"metaph":10699,"torso":10700,"excites":10701,"injection":10702,"injurious":10703,"breakable":10704,"logs":10705,"fishes":10706,"lengthy":10707,"speeches":10708,"sticky":10709,"anchor":10710,"postpone":10711,"utterly":10712,"behaviours":10713,"ruled":10714,"stores":10715,"Accompanied":10716,"determinate":10717,"appropriated":10718,"thoughtful":10719,"dyed":10720,"anni":10721,"announced":10722,"doubling":10723,"everyone":10724,"snap":10725,"snake":10726,"urchin":10727,"countable":10728,"sleet":10729,"faults":10730,"oxid":10731,"pathogen":10732,"masses":10733,"roads":10734,"hitter":10735,"ridicule":10736,"sunrise":10737,"Displaying":10738,"falsehood":10739,"farther":10740,"racetrack":10741,"childhood":10742,"humid":10743,"humble":10744,"panels":10745,"machines":10746,"perfume":10747,"loading":10748,"branching":10749,"smoke":10750,"attacks":10751,"devise":10752,"helping":10753,"conceited":10754,"temperament":10755,"correctness":10756,"homo":10757,"beside":10758,"wanton":10759,"petrole":10760,"temporal":10761,"Almost":10762,"improved":10763,"focal":10764,"squash":10765,"imagin":10766,"ophone":10767,"achievements":10768,"environmental":10769,"Norse":10770,"raced":10771,"inferiors":10772,"middleman":10773,"fleeting":10774,"suspending":10775,"furnished":10776,"allevi":10777,"tighten":10778,"yields":10779,"licen":10780,"firmness":10781,"tractable":10782,"Easy":10783,"fatal":10784,"psychiat":10785,"philanthro":10786,"creator":10787,"suitably":10788,"Trou":10789,"smelling":10790,"exhibits":10791,"exhibition":10792,"nationalistic":10793,"wires":10794,"crooked":10795,"bellig":10796,"assignment":10797,"climbing":10798,"climax":10799,"preferences":10800,"sandy":10801,"exploration":10802,"companies":10803,"demands":10804,"vocalisation":10805,"advocacy":10806,"exceptionally":10807,"manageable":10808,"outermost":10809,"concentrate":10810,"recognized":10811,"smoothly":10812,"latest":10813,"sparing":10814,"conclusive":10815,"complexion":10816,"psychic":10817,"attends":10818,"attendant":10819,"comparable":10820,"comparatively":10821,"corporation":10822,"inflated":10823,"approaching":10824,"assembled":10825,"paste":10826,"cereal":10827,"earliest":10828,"rhyme":10829,"reservation":10830,"accepting":10831,"models":10832,"cookery":10833,"borders":10834,"bordering":10835,"remarkably":10836,"stays":10837,"Higher":10838,"terminating":10839,"hydrocarbon":10840,"honourable":10841,"billion":10842,"inherently":10843,"mountains":10844,"emphasizes":10845,"mammon":10846,"vacation":10847,"initiative":10848,"manifestations":10849,"neyed":10850,"costly":10851,"timberline":10852,"homosexuality":10853,"justice":10854,"imperial":10855,"prisoner":10856,"tanning":10857,"issance":10858,"adheres":10859,"supposedly":10860,"Lean":10861,"adulterous":10862,"harmonious":10863,"criticisms":10864,"furnishings":10865,"immigr":10866,"composer":10867,"phylum":10868,"aggressively":10869,"exerting":10870,"irritating":10871,"wealthy":10872,"philosopher":10873,"arrived":10874,"convince":10875,"stilt":10876,"drags":10877,"spotted":10878,"alienation":10879,"lapse":10880,"issues":10881,"Designating":10882,"fellowship":10883,"vaguely":10884,"chromatic":10885,"gracefully":10886,"priority":10887,"opportunities":10888,"inquiry":10889,"plugs":10890,"clockwise":10891,"decaying":10892,"decayed":10893,"linked":10894,"lizard":10895,"neighboring":10896,"domesticated":10897,"accidental":10898,"delicacy":10899,"constitution":10900,"predicate":10901,"Canis":10902,"codom":10903,"adowing":10904,"coastal":10905,"legitimacy":10906,"Completed":10907,"demonstrates":10908,"shopping":10909,"greyish":10910,"descendants":10911,"Corpor":10912,"Sym":10913,"ennial":10914,"wholesome":10915,"illuminate":10916,"ancestors":10917,"installed":10918,"intrins":10919,"intimidate":10920,"scooping":10921,"Australia":10922,"witches":10923,"stamping":10924,"impede":10925,"commendation":10926,"virtual":10927,"throaty":10928,"hospitality":10929,"blocking":10930,"tempest":10931,"tempting":10932,"youthful":10933,"isolation":10934,"deficiency":10935,"chanting":10936,"feedback":10937,"evaluation":10938,"citizenship":10939,"Satan":10940,"Termin":10941,"vastly":10942,"insurance":10943,"instantly":10944,"instantaneously":10945,"implying":10946,"hackneyed":10947,"tolerate":10948,"amateurs":10949,"reflecting":10950,"invalidate":10951,"abatement":10952,"eliciting":10953,"motif":10954,"scenes":10955,"commodity":10956,"extrem":10957,"decrease":10958,"ruthlessly":10959,"synchronization":10960,"daughter":10961,"futile":10962,"recycl":10963,"Spir":10964,"packet":10965,"pallid":10966,"tapes":10967,"village":10968,"disguise":10969,"tapering":10970,"Agree":10971,"Basic":10972,"algae":10973,"foreseen":10974,"crucial":10975,"appendage":10976,"Regarded":10977,"Boisterous":10978,"Firmly":10979,"jolly":10980,"lustful":10981,"vomiting":10982,"consecutive":10983,"mercenary":10984,"Standing":10985,"arithmetical":10986,"acceleration":10987,"Created":10988,"Courage":10989,"utensil":10990,"reinforce":10991,"propelled":10992,"diacritical":10993,"Experiencing":10994,"malignant":10995,"pedestrian":10996,"Deeply":10997,"pincushion":10998,"rascal":10999,"inscribed":11000,"thrive":11001,"prosperity":11002,"apologetic":11003,"diplom":11004,"computation":11005,"intuitive":11006,"affliction":11007,"venomous":11008,"quarrelsome":11009,"sacrifice":11010,"Absolutely":11011,"Calm":11012,"Casually":11013,"aesthetic":11014,"euphor":11015,"lucre":11016,"defiance":11017,"provocation":11018,"discordant":11019,"pornography":11020,"snobbish":11021,"punctual":11022,"Disgusting":11023,"inheritance":11024,"Smooth":11025,"upland":11026,"alchemy":11027,"overlapping":11028,"mushroom":11029,"monstrous":11030,"puzzling":11031,"elephant":11032,"expanse":11033,"Precisely":11034,"repugnance":11035,"Elevated":11036,"cephalo":11037,"exemption":11038,"diameter":11039,"maneuver":11040,"Control":11041,"travellers":11042,"cinema":11043,"Republic":11044,"Crazy":11045,"nocturnal":11046,"tincture":11047,"uproar":11048,"forecast":11049,"abhorrence":11050,"intuitively":11051,"incarnation":11052,"carbohydrates":11053,"inquisitive":11054,"neighborhood":11055,"mournful":11056,"abbreviated":11057,"Above":11058,"Avoidance":11059,"Swedish":11060,"Slavic":11061,"Written":11062,"Yielding":11063,"afraid":11064,"biscuit":11065,"hippies":11066,"zigz":11067,"ecstasy":11068,"foreshadowing":11069,"delectable":11070,"perineum":11071,"percentage":11072,"porcelain":11073,"charismatic":11074,"decrepit":11075,"minutiae":11076,"metaphys":11077,"petroleum":11078,"--":11079,"37":11080,"Ama":11081,"Austri":11082,"Abra":11083,"Born":11084,"Bold":11085,"Boring":11086,"Boo":11087,"Div":11088,"Deli":11089,"Every":11090,"Fil":11091,"Fear":11092,"Fully":11093,"Her":11094,"House":11095,"Henry":11096,"Jo":11097,"Jud":11098,"Line":11099,"Love":11100,"Loud":11101,"Mic":11102,"Mag":11103,"Mong":11104,"Moral":11105,"Net":11106,"Near":11107,"Neat":11108,"Pen":11109,"Pain":11110,"President":11111,"Rich":11112,"Sugg":11113,"Solar":11114,"Tw":11115,"Tre":11116,"Tall":11117,"Uk":11118,"VID":11119,"Wal":11120,"Wood":11121,"Worn":11122,"Whyte":11123,"athe":11124,"bil":11125,"boun":11126,"bass":11127,"bred":11128,"bathing":11129,"dor":11130,"dent":11131,"dand":11132,"dick":11133,"dying":11134,"dwell":11135,"eer":11136,"eously":11137,"fell":11138,"font":11139,"flies":11140,"gum":11141,"gase":11142,"golden":11143,"hed":11144,"hay":11145,"hare":11146,"hedge":11147,"hagg":11148,"hiding":11149,"hazard":11150,"iation":11151,"iform":11152,"ients":11153,"ique":11154,"joc":11155,"jaws":11156,"jumping":11157,"ku":11158,"kan":11159,"kink":11160,"lure":11161,"listing":11162,"lore":11163,"lush":11164,"lists":11165,"mu":11166,"mac":11167,"mish":11168,"mold":11169,"mould":11170,"maph":11171,"nx":11172,"nous":11173,"nant":11174,"nest":11175,"nual":11176,"nomin":11177,"nulli":11178,"oat":11179,"oven":11180,"pir":11181,"pag":11182,"pine":11183,"pater":11184,"pump":11185,"rin":11186,"rine":11187,"rice":11188,"rade":11189,"raft":11190,"som":11191,"sash":11192,"sided":11193,"saved":11194,"tex":11195,"tut":11196,"tables":11197,"vance":11198,"vence":11199,"vative":11200,"votes":11201,"wages":11202,"wake":11203,"wandering":11204,"xom":11205,"yer":11206,"zip":11207,"zither":11208,"indi":11209,"inno":11210,"inue":11211,"intend":11212,"inability":11213,"inversion":11214,"inconsistent":11215,"inscr":11216,"insubstantial":11217,"invoking":11218,"intransitive":11219,"inconvenience":11220,"inconsiderate":11221,"incongruous":11222,"indeterminate":11223,"onal":11224,"anecd":11225,"ingest":11226,"atural":11227,"attribu":11228,"attire":11229,"enable":11230,"enched":11231,"rely":11232,"revision":11233,"rearing":11234,"reception":11235,"rebel":11236,"reestablishment":11237,"repaired":11238,"reincarnation":11239,"alb":11240,"alar":11241,"alab":11242,"allot":11243,"tomat":11244,"today":11245,"toki":11246,"edit":11247,"edged":11248,"editor":11249,"arious":11250,"argu":11251,"arises":11252,"tige":11253,"tific":11254,"tigu":11255,"titiously":11256,"theor":11257,"theas":11258,"theft":11259,"oms":11260,"omial":11261,"isome":11262,"icts":11263,"icket":11264,"asset":11265,"lees":11266,"league":11267,"accent":11268,"acardi":11269,"acrim":11270,"itone":11271,"itud":11272,"itational":11273,"stack":11274,"stages":11275,"stroll":11276,"entreat":11277,"seaf":11278,"roam":11279,"rods":11280,"rolling":11281,"ropod":11282,"hex":11283,"sues":11284,"suits":11285,"forem":11286,"foref":11287,"forgiven":11288,"forget":11289,"fortitude":11290,"forbear":11291,"cegen":11292,"beig":11293,"beet":11294,"began":11295,"defe":11296,"depress":11297,"degenerate":11298,"departed":11299,"perished":11300,"perverse":11301,"perverted":11302,"whist":11303,"whining":11304,"chaf":11305,"chord":11306,"chalk":11307,"ithm":11308,"cony":11309,"confir":11310,"contribut":11311,"contribution":11312,"contention":11313,"congreg":11314,"concede":11315,"contigu":11316,"unco":11317,"unkind":11318,"uneas":11319,"unequal":11320,"unworthy":11321,"untruth":11322,"unspar":11323,"unbroken":11324,"unconcerned":11325,"unparalle":11326,"unhappy":11327,"unusable":11328,"uncivilized":11329,"unhealthy":11330,"ola":11331,"oli":11332,"meku":11333,"lotion":11334,"lobin":11335,"trance":11336,"tricted":11337,"traded":11338,"expe":11339,"existen":11340,"extracted":11341,"urities":11342,"atever":11343,"impet":11344,"implication":11345,"ada":11346,"advis":11347,"adds":11348,"adjoining":11349,"propos":11350,"procr":11351,"provis":11352,"propi":11353,"provoke":11354,"essive":11355,"apes":11356,"verages":11357,"pling":11358,"plen":11359,"quoted":11360,"quotation":11361,"ava":11362,"aven":11363,"parish":11364,"parody":11365,"parcel":11366,"irting":11367,"irritable":11368,"Anacardi":11369,"reside":11370,"comical":11371,"compress":11372,"diverse":11373,"dibenzo":11374,"amper":11375,"amour":11376,"shit":11377,"shun":11378,"shag":11379,"shaken":11380,"shabby":11381,"emulation":11382,"ellip":11383,"managing":11384,"lipo":11385,"lieu":11386,"sian":11387,"sized":11388,"disappear":11389,"disclose":11390,"disagree":11391,"discovered":11392,"distract":11393,"disadvantage":11394,"displeasing":11395,"disaster":11396,"disastr":11397,"disproportion":11398,"rioto":11399,"moth":11400,"anta":11401,"opath":11402,"opium":11403,"oppressive":11404,"grit":11405,"grimy":11406,"alling":11407,"alline":11408,"allusion":11409,"arest":11410,"strap":11411,"Infer":11412,"Instruc":11413,"Influ":11414,"Intimate":11415,"Intoxic":11416,"needing":11417,"nearest":11418,"worries":11419,"octop":11420,"ards":11421,"prying":11422,"proud":11423,"estant":11424,"obsession":11425,"obtrusive":11426,"assic":11427,"assert":11428,"ishes":11429,"spun":11430,"spices":11431,"upsetting":11432,"overextended":11433,"overcoming":11434,"relent":11435,"clan":11436,"clicking":11437,"indoor":11438,"endowed":11439,"twisting":11440,"twitch":11441,"preser":11442,"prescribed":11443,"tedly":11444,"illity":11445,"bland":11446,"blush":11447,"phic":11448,"phleg":11449,"genes":11450,"posite":11451,"scold":11452,"scatter":11453,"scallo":11454,"portive":11455,"portrait":11456,"preposition":11457,"preoccupied":11458,"aryons":11459,"arynx":11460,"awake":11461,"fib":11462,"fires":11463,"fizz":11464,"desk":11465,"desper":11466,"despair":11467,"desolate":11468,"ipino":11469,"notify":11470,"charitable":11471,"ignoring":11472,"subs":11473,"subfamily":11474,"submission":11475,"substitution":11476,"syl":11477,"qualitative":11478,"qualifies":11479,"dragging":11480,"cope":11481,"coax":11482,"cooperation":11483,"boss":11484,"boasting":11485,"boorish":11486,"soot":11487,"intermedi":11488,"interjection":11489,"crat":11490,"istant":11491,"weaving":11492,"extant":11493,"regiment":11494,"coron":11495,"owns":11496,"consistently":11497,"fertile":11498,"thank":11499,"grouped":11500,"timonious":11501,"closure":11502,"closest":11503,"decimal":11504,"surly":11505,"surreal":11506,"survive":11507,"march":11508,"marily":11509,"entieth":11510,"ereal":11511,"icker":11512,"enger":11513,"ideals":11514,"sensible":11515,"sensibilities":11516,"angels":11517,"canvas":11518,"wry":11519,"wrapped":11520,"legend":11521,"legible":11522,"minerals":11523,"harmed":11524,"earthen":11525,"procession":11526,"afts":11527,"sideboard":11528,"visiting":11529,"visually":11530,"visibly":11531,"activate":11532,"shipping":11533,"generating":11534,"knitted":11535,"lights":11536,"voluntarily":11537,"directional":11538,"largely":11539,"oglobin":11540,"Uncomfortable":11541,"county":11542,"counsel":11543,"denial":11544,"pie":11545,"buying":11546,"buxom":11547,"locking":11548,"Exagger":11549,"spear":11550,"appeals":11551,"affe":11552,"affections":11553,"empirical":11554,"backs":11555,"handsome":11556,"conditional":11557,"stems":11558,"mistaken":11559,"miscellaneous":11560,"miscegen":11561,"varies":11562,"monop":11563,"cares":11564,"insistence":11565,"rying":11566,"requent":11567,"waterproof":11568,"capric":11569,"capabilities":11570,"solar":11571,"solved":11572,"solitary":11573,"solicit":11574,"soluble":11575,"offend":11576,"offended":11577,"herd":11578,"behaves":11579,"effic":11580,"efface":11581,"efficiency":11582,"effectively":11583,"hug":11584,"tribal":11585,"antiqu":11586,"Construc":11587,"semian":11588,"periodical":11589,"conditioning":11590,"humanoid":11591,"ologies":11592,"sequential":11593,"forceful":11594,"womanize":11595,"onesty":11596,"penit":11597,"righteously":11598,"slat":11599,"slap":11600,"signify":11601,"foe":11602,"typing":11603,"patches":11604,"heading":11605,"headache":11606,"casin":11607,"casts":11608,"collects":11609,"glance":11610,"glory":11611,"guarant":11612,"confid":11613,"choir":11614,"arches":11615,"designation":11616,"retinue":11617,"involuntarily":11618,"liquor":11619,"Chief":11620,"nonchal":11621,"lawyer":11622,"garian":11623,"gynous":11624,"peduncle":11625,"broker":11626,"sucking":11627,"daylight":11628,"armour":11629,"raises":11630,"equitable":11631,"equator":11632,"precision":11633,"swallowing":11634,"restoring":11635,"calabash":11636,"measurements":11637,"practising":11638,"promoted":11639,"proton":11640,"faced":11641,"depict":11642,"businesses":11643,"universal":11644,"sufficiency":11645,"regional":11646,"Restricted":11647,"pays":11648,"menacing":11649,"mottled":11650,"aiming":11651,"calling":11652,"functionally":11653,"governed":11654,"identified":11655,"balcony":11656,"treatise":11657,"warri":11658,"metres":11659,"hairs":11660,"hairstyle":11661,"negation":11662,"negatively":11663,"injections":11664,"logging":11665,"provider":11666,"specialist":11667,"lengthen":11668,"treas":11669,"treach":11670,"destined":11671,"bloodletting":11672,"supercil":11673,"stormy":11674,"Proceeding":11675,"Provence":11676,"metals":11677,"decorations":11678,"spray":11679,"cloths":11680,"annual":11681,"howl":11682,"moderation":11683,"sleeve":11684,"sleazy":11685,"releases":11686,"bounded":11687,"removable":11688,"accused":11689,"attempted":11690,"horseman":11691,"puny":11692,"sunset":11693,"Discouraging":11694,"gained":11695,"youngest":11696,"fabricated":11697,"performances":11698,"osting":11699,"synthes":11700,"communicating":11701,"farms":11702,"speaks":11703,"humili":11704,"officials":11705,"sorry":11706,"Desc":11707,"mechanically":11708,"participates":11709,"wafers":11710,"invited":11711,"loads":11712,"boarding":11713,"sales":11714,"saliva":11715,"stocking":11716,"impudence":11717,"modifier":11718,"seeming":11719,"offers":11720,"helmet":11721,"digits":11722,"digging":11723,"searched":11724,"occupies":11725,"Alone":11726,"gentry":11727,"improving":11728,"improvis":11729,"improbable":11730,"satisfying":11731,"squirm":11732,"imagine":11733,"browser":11734,"18th":11735,"Arab":11736,"flex":11737,"unpleasantly":11738,"stitched":11739,"avoids":11740,"suspension":11741,"advantages":11742,"Only":11743,"vulsion":11744,"accomplishing":11745,"catches":11746,"straighten":11747,"Easter":11748,"psycho":11749,"splend":11750,"splashing":11751,"acids":11752,"preventing":11753,"wearied":11754,"slosh":11755,"thirsty":11756,"weaker":11757,"compounded":11758,"Trave":11759,"gnaw":11760,"aphorisms":11761,"earthly":11762,"goddess":11763,"wildly":11764,"reduces":11765,"preferential":11766,"dresses":11767,"gambling":11768,"sandstone":11769,"titute":11770,"thicker":11771,"platitude":11772,"duel":11773,"companions":11774,"concealment":11775,"gases":11776,"advocated":11777,"constraints":11778,"exactness":11779,"girls":11780,"connections":11781,"quarters":11782,"manufacturing":11783,"sacra":11784,"microbes":11785,"asylum":11786,"polygon":11787,"binds":11788,"latent":11789,"palli":11790,"sparse":11791,"concluded":11792,"copyright":11793,"crediting":11794,"attendance":11795,"harshly":11796,"significantly":11797,"rainian":11798,"inflation":11799,"delaying":11800,"celebrate":11801,"rodite":11802,"calculation":11803,"calculated":11804,"troublemaker":11805,"flavoured":11806,"rhyming":11807,"validity":11808,"Opposite":11809,"brownish":11810,"hunger":11811,"fixture":11812,"frost":11813,"frozen":11814,"termination":11815,"sweetheart":11816,"embarrassing":11817,"gloves":11818,"manipulated":11819,"manipulating":11820,"requested":11821,"General":11822,"obstruct":11823,"deviates":11824,"obstinate":11825,"reciprocal":11826,"heroin":11827,"customarily":11828,"hurried":11829,"renting":11830,"legislation":11831,"delivering":11832,"Greatly":11833,"imperceptible":11834,"comprehension":11835,"luminous":11836,"tacit":11837,"tangent":11838,"adoption":11839,"crystalline":11840,"ceremonious":11841,"Recur":11842,"entrust":11843,"immune":11844,"Web":11845,"Weary":11846,"vested":11847,"ightenment":11848,"patiently":11849,"arrival":11850,"gratuitous":11851,"assumes":11852,"disputes":11853,"dragline":11854,"stimulus":11855,"stimulating":11856,"alienated":11857,"bacterium":11858,"improperly":11859,"adorns":11860,"awkwardness":11861,"samples":11862,"inventory":11863,"astride":11864,"strokes":11865,"functionality":11866,"15th":11867,"Affecting":11868,"batting":11869,"batted":11870,"melt":11871,"probable":11872,"strangely":11873,"recreation":11874,"columns":11875,"cinders":11876,"toughness":11877,"chaos":11878,"buds":11879,"buddy":11880,"assertive":11881,"delicately":11882,"December":11883,"refraining":11884,"pregnancy":11885,"fielder":11886,"Appealing":11887,"festivities":11888,"departure":11889,"renewed":11890,"luxurious":11891,"Second":11892,"arousal":11893,"dexterity":11894,"podcast":11895,"obedient":11896,"settlement":11897,"bubble":11898,"ennium":11899,"pillar":11900,"pillion":11901,"pillage":11902,"gravel":11903,"ghosts":11904,"encountered":11905,"Ample":11906,"unsteadily":11907,"impediment":11908,"dissolve":11909,"deceptive":11910,"hoped":11911,"trimming":11912,"switches":11913,"Muslims":11914,"Terri":11915,"eagerness":11916,"scarf":11917,"harassment":11918,"spells":11919,"fuss":11920,"sanctimonious":11921,"clarity":11922,"folklore":11923,"possesses":11924,"detectable":11925,"Physically":11926,"Maori":11927,"cancel":11928,"trumpet":11929,"procure":11930,"tennis":11931,"tranquillity":11932,"cryptic":11933,"flavouring":11934,"Empty":11935,"Philippine":11936,"Foot":11937,"autonomy":11938,"kook":11939,"nitrogen":11940,"inhabited":11941,"independence":11942,"protrudes":11943,"proceedings":11944,"Depending":11945,"Typically":11946,"eminence":11947,"augmentative":11948,"analyze":11949,"Blunt":11950,"Protestant":11951,"enlargement":11952,"gemstone":11953,"dipping":11954,"intestines":11955,"slanting":11956,"Provided":11957,"Hungarian":11958,"Modern":11959,"darling":11960,"chapter":11961,"lodging":11962,"provinc":11963,"province":11964,"embracing":11965,"scrupulous":11966,"corrupting":11967,"corrupted":11968,"turbulence":11969,"simpler":11970,"supplement":11971,"trembling":11972,"vulnerable":11973,"Brutal":11974,"Harmful":11975,"Queen":11976,"Wrong":11977,"rudiments":11978,"wrestling":11979,"omorphism":11980,"lethal":11981,"conservative":11982,"Indicating":11983,"noticing":11984,"noticed":11985,"mercenaries":11986,"insolent":11987,"expenditure":11988,"Quickly":11989,"arithmetic":11990,"Hypo":11991,"alphabet":11992,"survey":11993,"surveill":11994,"excavator":11995,"Regular":11996,"townsperson":11997,"diligent":11998,"Direct":11999,"sustainable":12000,"conduit":12001,"poverty":12002,"divinity":12003,"curtains":12004,"mitigated":12005,"microscopic":12006,"hierarchy":12007,"Habitually":12008,"Social":12009,"censor":12010,"vapor":12011,"revival":12012,"demeanor":12013,"sheriff":12014,"discarded":12015,"gravitational":12016,"pharmac":12017,"cranky":12018,"epicene":12019,"surreptitiously":12020,"advertisement":12021,"Denoting":12022,"Signs":12023,"catering":12024,"pivot":12025,"inadequately":12026,"reprehensible":12027,"champion":12028,"lifted":12029,"submerged":12030,"peripheral":12031,"handicap":12032,"Constantly":12033,"facilitate":12034,"repetitive":12035,"Polynesian":12036,"evolutionary":12037,"dinosaurs":12038,"Mustela":12039,"Wild":12040,"Young":12041,"dubious":12042,"haughty":12043,"kirtle":12044,"omnibus":12045,"connotations":12046,"unlawful":12047,"agenda":12048,"prematurely":12049,"intersecting":12050,"holiday":12051,"caustic":12052,"Connected":12053,"Continuing":12054,"menstrual":12055,"endeavours":12056,"tuberculosis":12057,"Violent":12058,"bureaucr":12059,"Egypt":12060,"Ostent":12061,"Sensitive":12062,"Tibet":12063,"Voluntary":12064,"cavities":12065,"dusk":12066,"dazzling":12067,"fissure":12068,"testicles":12069,"alliance":12070,"seizure":12071,"conspiracy":12072,"exemplifying":12073,"progenitor":12074,"negligible":12075,"relaxed":12076,"hereditary":12077,"foreboding":12078,"configuration":12079,"swampy":12080,"Property":12081,"lubricant":12082,"reciprocating":12083,"Distinctive":12084,"COVID":12085,"Drunk":12086,"batsman":12087,"vassal":12088,"toilet":12089,"availability":12090,"resonance":12091,"commodities":12092,"phantom":12093,"contagious":12094,"cranium":12095,"Exhaust":12096,"cultivars":12097,"calamity":12098,"imaginative":12099,"alleviate":12100,"codomain":12101,"Terminating":12102,"recycled":12103,"tapestry":12104,"Abraham":12105,"Boolean":12106,"Filipino":12107,"Network":12108,"Suggesting":12109,"Ukrainian":12110,"fellatio":12111,"gaseous":12112,"inscrutable":12113,"alabaster":12114,"tokimeku":12115,"theastern":12116,"beige":12117,"confirmed":12118,"uneasiness":12119,"unsparingly":12120,"unparalleled":12121,"impetus":12122,"procrast":12123,"proviso":12124,"disastrous":12125,"riotous":12126,"Inferior":12127,"phlegm":12128,"intermediary":12129,"Exaggerated":12130,"miscegenation":12131,"capricious":12132,"semiannual":12133,"supercilious":12134,"11":12135,"2O":12136,"300":12137,"42":12138,"43":12139,"48":12140,"40s":12141,"53":12142,"55":12143,"58":12144,"61":12145,"77":12146,"AN":12147,"Athen":12148,"Aware":12149,"BM":12150,"Bu":12151,"Beng":12152,"Bright":12153,"Boy":12154,"Bordering":12155,"Baffled":12156,"Cab":12157,"Canal":12158,"Der":12159,"Dex":12160,"Dish":12161,"Dread":12162,"Doing":12163,"Dressed":12164,"Dirty":12165,"El":12166,"Ear":12167,"Fa":12168,"Fu":12169,"Fab":12170,"Fav":12171,"Four":12172,"Found":12173,"Fast":12174,"Fail":12175,"Fore":12176,"Final":12177,"Facts":12178,"Fresh":12179,"Facing":12180,"Favour":12181,"Frequently":12182,"Gent":12183,"Grace":12184,"Gek":12185,"Hat":12186,"Has":12187,"Hol":12188,"Hot":12189,"Holding":12190,"II":12191,"Ice":12192,"Jan":12193,"Late":12194,"Long":12195,"Link":12196,"Length":12197,"Lusc":12198,"Mere":12199,"Meas":12200,"Manch":12201,"Na":12202,"Nove":12203,"OM":12204,"Ow":12205,"Obl":12206,"Pan":12207,"Pom":12208,"Pac":12209,"Pay":12210,"Pop":12211,"Pos":12212,"RA":12213,"Ret":12214,"Rail":12215,"Reduc":12216,"Rapid":12217,"ST":12218,"Sly":12219,"Spo":12220,"Sam":12221,"Suc":12222,"Sue":12223,"Sug":12224,"Swit":12225,"Simple":12226,"Strait":12227,"Twit":12228,"Testic":12229,"Temper":12230,"Ve":12231,"Wind":12232,"Warm":12233,"Wales":12234,"Waste":12235,"Wholly":12236,"Youth":12237,"aorder":12238,"aments":12239,"athetic":12240,"bale":12241,"bail":12242,"bility":12243,"backing":12244,"bore":12245,"bitch":12246,"bake":12247,"bump":12248,"bival":12249,"billi":12250,"barely":12251,"buster":12252,"baryons":12253,"cim":12254,"cum":12255,"cise":12256,"citation":12257,"cumul":12258,"ccasin":12259,"dome":12260,"dul":12261,"dun":12262,"did":12263,"dop":12264,"dare":12265,"dood":12266,"dles":12267,"dates":12268,"dining":12269,"dastard":12270,"eed":12271,"fid":12272,"fag":12273,"fts":12274,"fought":12275,"foment":12276,"freck":12277,"gs":12278,"gid":12279,"gated":12280,"gative":12281,"gies":12282,"gian":12283,"gaps":12284,"golf":12285,"hoc":12286,"hiz":12287,"hick":12288,"hale":12289,"hism":12290,"havi":12291,"ifer":12292,"ibles":12293,"ji":12294,"jot":12295,"jne":12296,"jest":12297,"jarg":12298,"junk":12299,"kar":12300,"kist":12301,"lan":12302,"lion":12303,"lut":12304,"lair":12305,"lash":12306,"lute":12307,"laser":12308,"mber":12309,"mend":12310,"nun":12311,"nour":12312,"nished":12313,"ninth":12314,"oon":12315,"pent":12316,"pion":12317,"pad":12318,"pact":12319,"pave":12320,"padd":12321,"poul":12322,"pests":12323,"pinn":12324,"ppy":12325,"rally":12326,"rous":12327,"rated":12328,"ranch":12329,"rhiz":12330,"sop":12331,"sack":12332,"ssy":12333,"ssed":12334,"snat":12335,"snor":12336,"sister":12337,"saints":12338,"tres":12339,"tact":12340,"tory":12341,"tread":12342,"tangle":12343,"uly":12344,"uiting":12345,"vil":12346,"vod":12347,"vist":12348,"wad":12349,"wag":12350,"wax":12351,"wishing":12352,"wager":12353,"wander":12354,"waffle":12355,"you":12356,"zh":12357,"iner":12358,"inad":12359,"inously":12360,"infill":12361,"inae":12362,"infield":12363,"invisible":12364,"infamous":12365,"indisposed":12366,"inspire":12367,"invertebrates":12368,"inhale":12369,"orah":12370,"orithm":12371,"thong":12372,"thood":12373,"thra":12374,"threes":12375,"erated":12376,"onants":12377,"anous":12378,"anonym":12379,"ingrat":12380,"atop":12381,"atical":12382,"engr":12383,"endish":12384,"enlist":12385,"enthr":12386,"rehe":12387,"repar":12388,"reform":12389,"reposit":12390,"recond":12391,"receptive":12392,"replen":12393,"alis":12394,"alge":12395,"alleg":12396,"alog":12397,"although":12398,"tox":12399,"tour":12400,"tosis":12401,"tourn":12402,"esters":12403,"edent":12404,"edited":12405,"arche":12406,"arseness":12407,"tier":12408,"tires":12409,"tiff":12410,"thetically":12411,"omb":12412,"omas":12413,"omitted":12414,"isel":12415,"isters":12416,"istible":12417,"isphere":12418,"asto":12419,"asis":12420,"ascar":12421,"ascri":12422,"assive":12423,"assure":12424,"lew":12425,"ectious":12426,"ecoming":12427,"stair":12428,"stale":12429,"stony":12430,"staged":12431,"stains":12432,"stairs":12433,"sees":12434,"seep":12435,"anding":12436,"andom":12437,"anders":12438,"rox":12439,"rogu":12440,"roasted":12441,"hement":12442,"heli":12443,"heath":12444,"vehement":12445,"fork":12446,"fortified":12447,"ceased":12448,"bef":12449,"bets":12450,"beak":12451,"beverages":12452,"deaf":12453,"deface":12454,"defile":12455,"perv":12456,"perpe":12457,"percussion":12458,"whine":12459,"chir":12460,"chances":12461,"churning":12462,"concepts":12463,"ulic":12464,"ululating":12465,"unfor":12466,"unts":12467,"unless":12468,"unclear":12469,"unseen":12470,"unaffected":12471,"unskilled":12472,"unfriendly":12473,"unsubtle":12474,"unmovable":12475,"unfold":12476,"unbelievable":12477,"unmanageable":12478,"unobtrusive":12479,"tered":12480,"tertainment":12481,"olum":12482,"abst":12483,"abular":12484,"abolic":12485,"meth":12486,"methy":12487,"sometime":12488,"tration":12489,"trite":12490,"trif":12491,"trends":12492,"trape":12493,"posh":12494,"pointer":12495,"extingu":12496,"exotic":12497,"expecting":12498,"geon":12499,"geoc":12500,"urb":12501,"uric":12502,"atel":12503,"imbu":12504,"impel":12505,"imitating":12506,"imposing":12507,"impotent":12508,"immortal":12509,"ador":12510,"adam":12511,"adjudge":12512,"prose":12513,"proportions":12514,"iduous":12515,"appr":12516,"verge":12517,"versed":12518,"verbs":12519,"vertically":12520,"plenti":12521,"ticle":12522,"ticoat":12523,"qui":12524,"qué":12525,"quid":12526,"quake":12527,"thermal":12528,"fract":12529,"frater":12530,"fraction":12531,"paraly":12532,"irts":12533,"irrever":12534,"respective":12535,"resonant":12536,"comings":12537,"divul":12538,"diagonal":12539,"tentious":12540,"petition":12541,"aming":12542,"amino":12543,"oding":12544,"shri":12545,"emingly":12546,"emitted":12547,"embod":12548,"embodied":12549,"elder":12550,"manly":12551,"manages":12552,"liking":12553,"libr":12554,"sia":12555,"sily":12556,"disrup":12557,"discount":12558,"dissent":12559,"disorganized":12560,"dismiss":12561,"distracted":12562,"disadvantageous":12563,"disbelieving":12564,"ette":12565,"othered":12566,"outcomes":12567,"outdated":12568,"uts":12569,"ria":12570,"ripe":12571,"ighthe":12572,"mop":12573,"moil":12574,"moccasin":12575,"agwan":12576,"agascar":12577,"anting":12578,"opy":12579,"urethra":12580,"grained":12581,"derog":12582,"derives":12583,"mailing":12584,"alls":12585,"allure":12586,"straw":12587,"Install":12588,"tyr":12589,"owl":12590,"umbo":12591,"uminously":12592,"neo":12593,"neur":12594,"nefar":12595,"worst":12596,"notch":12597,"ocy":12598,"prong":12599,"pricked":12600,"estine":12601,"obi":12602,"obia":12603,"obviously":12604,"nerd":12605,"ners":12606,"neroli":12607,"assort":12608,"ishness":12609,"spy":12610,"spac":12611,"spind":12612,"spill":12613,"spends":12614,"spattering":12615,"uphold":12616,"recti":12617,"overbo":12618,"overtype":12619,"overtake":12620,"overhead":12621,"overflow":12622,"overturn":12623,"overlook":12624,"cling":12625,"clash":12626,"berg":12627,"berate":12628,"fictive":12629,"fications":12630,"twined":12631,"twentieth":12632,"pressu":12633,"prestige":12634,"viating":12635,"tedium":12636,"pleated":12637,"blast":12638,"blissful":12639,"fulfil":12640,"fulfilling":12641,"feas":12642,"fetish":12643,"phones":12644,"pharynx":12645,"scour":12646,"scalar":12647,"bleached":12648,"pretern":12649,"pretext":12650,"pretense":12651,"pretends":12652,"awls":12653,"fibr":12654,"fiendish":12655,"cessation":12656,"ipped":12657,"ippet":12658,"noises":12659,"achment":12660,"chart":12661,"charist":12662,"charming":12663,"charcoal":12664,"flint":12665,"flirt":12666,"floral":12667,"uality":12668,"brim":12669,"eved":12670,"evac":12671,"angling":12672,"angrily":12673,"subgenre":12674,"subsets":12675,"subjug":12676,"particularity":12677,"ller":12678,"llite":12679,"qualific":12680,"qualify":12681,"drastic":12682,"certification":12683,"colloqu":12684,"cox":12685,"coy":12686,"cosme":12687,"coordinate":12688,"boar":12689,"boast":12690,"boots":12691,"soaked":12692,"soggy":12693,"interrog":12694,"curry":12695,"curling":12696,"crap":12697,"craving":12698,"crouch":12699,"weird":12700,"weighing":12701,"airline":12702,"characterizing":12703,"extor":12704,"smith":12705,"smile":12706,"coristic":12707,"coriar":12708,"largest":12709,"consonants":12710,"epis":12711,"epide":12712,"settling":12713,"decree":12714,"decency":12715,"incision":12716,"lessen":12717,"markets":12718,"entials":12719,"smallness":12720,"likeable":12721,"carpet":12722,"valve":12723,"icky":12724,"sensibility":12725,"longitud":12726,"numbered":12727,"ifted":12728,"iftly":12729,"cepted":12730,"minks":12731,"turmoil":12732,"yses":12733,"Through":12734,"Thai":12735,"beckon":12736,"generator":12737,"generosity":12738,"simplic":12739,"voluminously":12740,"crib":12741,"directs":12742,"Unrelated":12743,"Unsophisticated":12744,"Unimpressed":12745,"purported":12746,"securities":12747,"supposition":12748,"attles":12749,"dened":12750,"denoting":12751,"tuft":12752,"pix":12753,"piti":12754,"piano":12755,"buoy":12756,"Existence":12757,"skim":12758,"crepe":12759,"appease":12760,"merit":12761,"backbone":12762,"mistry":12763,"talents":12764,"powerless":12765,"powerfully":12766,"monastic":12767,"monastery":12768,"sively":12769,"requisite":12770,"waterfall":12771,"gooder":12772,"polar":12773,"polog":12774,"polished":12775,"password":12776,"cape":12777,"captures":12778,"coverage":12779,"hore":12780,"itudes":12781,"solvent":12782,"priv":12783,"basil":12784,"hermaph":12785,"societal":12786,"hyp":12787,"hub":12788,"triangle":12789,"triangles":12790,"folding":12791,"ledger":12792,"antigen":12793,"Condi":12794,"Content":12795,"Contained":12796,"Concise":12797,"elect":12798,"famil":12799,"originate":12800,"topping":12801,"toppings":12802,"chemistry":12803,"mainmast":12804,"stice":12805,"stipul":12806,"stipend":12807,"malfunction":12808,"malaria":12809,"malevolent":12810,"righteous":12811,"slab":12812,"slighting":12813,"advances":12814,"signboard":12815,"signifying":12816,"informally":12817,"patients":12818,"joined":12819,"intending":12820,"operational":12821,"casually":12822,"contrasting":12823,"guiding":12824,"guitar":12825,"guidance":12826,"inescence":12827,"choo":12828,"chooses":12829,"Reluct":12830,"designs":12831,"designing":12832,"voters":12833,"Changing":12834,"electrons":12835,"limp":12836,"limestone":12837,"shortcomings":12838,"pedness":12839,"brooch":12840,"domed":12841,"renowned":12842,"Behavi":12843,"Charming":12844,"pulsion":12845,"pulls":12846,"suction":12847,"grease":12848,"armoured":12849,"eaching":12850,"socialist":12851,"swiftly":12852,"restless":12853,"profound":12854,"professed":12855,"bolt":12856,"attentively":12857,"plicable":12858,"calend":12859,"calci":12860,"undam":12861,"associates":12862,"referee":12863,"tomb":12864,"default":12865,"promul":12866,"promising":12867,"prompt":12868,"circuits":12869,"protesters":12870,"violin":12871,"facias":12872,"silicate":12873,"depicting":12874,"virtually":12875,"burying":12876,"indicative":12877,"refusing":12878,"mitting":12879,"mitted":12880,"bloom":12881,"bloss":12882,"favors":12883,"studying":12884,"cyto":12885,"Resources":12886,"judging":12887,"woodland":12888,"opposes":12889,"biology":12890,"biotic":12891,"biologically":12892,"attracts":12893,"Comprising":12894,"competen":12895,"bars":12896,"barns":12897,"calls":12898,"repell":12899,"repealed":12900,"Enthus":12901,"Entertainment":12902,"strive":12903,"delivers":12904,"Attended":12905,"Attest":12906,"Attributive":12907,"1946":12908,"1920s":12909,"identities":12910,"weights":12911,"balanced":12912,"metro":12913,"magis":12914,"torch":12915,"tortill":12916,"multiplic":12917,"infusion":12918,"infants":12919,"inflected":12920,"infections":12921,"infrequently":12922,"infrequent":12923,"infectious":12924,"ethno":12925,"injunction":12926,"spool":12927,"lengthwise":12928,"benz":12929,"saturation":12930,"sticism":12931,"posted":12932,"sciences":12933,"supervise":12934,"programs":12935,"colourful":12936,"cups":12937,"throws":12938,"footing":12939,"Eucharist":12940,"damp":12941,"decoratively":12942,"formality":12943,"sprout":12944,"arrowroot":12945,"governance":12946,"governments":12947,"dynasty":12948,"snippet":12949,"sweep":12950,"truly":12951,"oxide":12952,"constructions":12953,"bounden":12954,"paths":12955,"accuse":12956,"halogen":12957,"pungent":12958,"committing":12959,"ridden":12960,"ridges":12961,"circumference":12962,"homeland":12963,"Disbelief":12964,"patterns":12965,"methodical":12966,"acquis":12967,"excluded":12968,"communicates":12969,"popularity":12970,"borate":12971,"borne":12972,"radiant":12973,"livelihood":12974,"medicinally":12975,"speakers":12976,"broader":12977,"broadcasting":12978,"bottles":12979,"goalkeeper":12980,"participating":12981,"Import":12982,"Refr":12983,"invite":12984,"variance":12985,"variations":12986,"statue":12987,"obligate":12988,"fasc":12989,"float":12990,"salty":12991,"executable":12992,"bowstring":12993,"surrounds":12994,"steadfast":12995,"picious":12996,"vocabular":12997,"predicted":12998,"wrongly":12999,"petticoat":13000,"experienceable":13001,"occupying":13002,"Formed":13003,"chemicals":13004,"conductors":13005,"shovel":13006,"shooting":13007,"lippedness":13008,"prehistor":13009,"tissues":13010,"ophany":13011,"detest":13012,"screech":13013,"inferred":13014,"infertile":13015,"accessories":13016,"secretary":13017,"Occup":13018,"Arti":13019,"tableware":13020,"tility":13021,"avoidance":13022,"Indies":13023,"sensical":13024,"furnace":13025,"losses":13026,"prince":13027,"favourably":13028,"Posi":13029,"Point":13030,"nouns":13031,"licence":13032,"Superior":13033,"jobs":13034,"projected":13035,"phonetic":13036,"laborer":13037,"wearisome":13038,"sloth":13039,"sloped":13040,"thirteen":13041,"arthropod":13042,"weaken":13043,"hypocoristic":13044,"limitations":13045,"Deviating":13046,"blocked":13047,"deadline":13048,"memorable":13049,"brightness":13050,"eyebrows":13051,"Working":13052,"gestive":13053,"nationalism":13054,"Orthodox":13055,"alternately":13056,"banana":13057,"witting":13058,"winner":13059,"demonic":13060,"listlessness":13061,"countercultural":13062,"packed":13063,"packaging":13064,"sausage":13065,"tested":13066,"thickness":13067,"suggests":13068,"explaining":13069,"exercises":13070,"respiration":13071,"expressly":13072,"severely":13073,"Shree":13074,"duplic":13075,"centered":13076,"talkative":13077,"graphics":13078,"listener":13079,"Adap":13080,"luent":13081,"advocating":13082,"practicing":13083,"candles":13084,"constriction":13085,"connective":13086,"transmitting":13087,"microscope":13088,"geneous":13089,"partnership":13090,"latitude":13091,"mutation":13092,"instruct":13093,"psychology":13094,"Sovie":13095,"corporate":13096,"institutional":13097,"Brief":13098,"maintains":13099,"inflict":13100,"manifold":13101,"Clothing":13102,"When":13103,"laure":13104,"rodon":13105,"concavity":13106,"populace":13107,"recurrence":13108,"penetration":13109,"penetrable":13110,"penetrates":13111,"fanatical":13112,"woolen":13113,"woollen":13114,"evergreen":13115,"adjusting":13116,"adjustment":13117,"familiaris":13118,"Germanic":13119,"Opposition":13120,"accepts":13121,"hungry":13122,"endemic":13123,"discrimin":13124,"purchases":13125,"Refuse":13126,"instinc":13127,"terminate":13128,"hydrolysis":13129,"speculation":13130,"spectrum":13131,"tumble":13132,"inherited":13133,"emphasizing":13134,"hammock":13135,"obstructed":13136,"obstructions":13137,"conveyed":13138,"Previously":13139,"Prevalent":13140,"indulge":13141,"contradict":13142,"initiated":13143,"Offering":13144,"Offspring":13145,"nobility":13146,"shorts":13147,"beneficial":13148,"mesons":13149,"southeast":13150,"impertin":13151,"millennium":13152,"hearted":13153,"silkworms":13154,"mythological":13155,"investigating":13156,"Heterosexual":13157,"Hebrew":13158,"tells":13159,"Reck":13160,"babies":13161,"industries":13162,"industrious":13163,"Latino":13164,"asteroid":13165,"exerted":13166,"irritate":13167,"magnific":13168,"Medioc":13169,"Remote":13170,"integrate":13171,"Seemingly":13172,"cuff":13173,"infraorder":13174,"revolve":13175,"unchy":13176,"Obst":13177,"grasses":13178,"surgically":13179,"lateen":13180,"delightful":13181,"Mostly":13182,"spectacle":13183,"sovereignty":13184,"probably":13185,"fraudulent":13186,"finishes":13187,"propriet":13188,"blindingly":13189,"summons":13190,"accidentally":13191,"photographs":13192,"suggested":13193,"Marx":13194,"safely":13195,"gallery":13196,"utiliz":13197,"utilized":13198,"replacement":13199,"permitting":13200,"permitted":13201,"cracks":13202,"cracker":13203,"constituents":13204,"predicts":13205,"cabin":13206,"weekly":13207,"renewal":13208,"demonstrating":13209,"Secret":13210,"catastro":13211,"tongues":13212,"dexterous":13213,"judiced":13214,"Cool":13215,"gait":13216,"ennui":13217,"transient":13218,"randomly":13219,"Pleas":13220,"Pleasant":13221,"intimidation":13222,"stabbing":13223,"spiced":13224,"inducing":13225,"nasal":13226,"stamen":13227,"semantically":13228,"exaggeration":13229,"irresistible":13230,"monuments":13231,"experimental":13232,"dictionary":13233,"hopes":13234,"mystified":13235,"rejected":13236,"robbery":13237,"trimmed":13238,"collude":13239,"frequented":13240,"anticipated":13241,"140":13242,"Saturn":13243,"kinship":13244,"pouring":13245,"swelled":13246,"receptor":13247,"intensify":13248,"magnetically":13249,"Originating":13250,"Skillful":13251,"fountain":13252,"arresting":13253,"relaxing":13254,"clarifying":13255,"disciplined":13256,"negotiating":13257,"Poli":13258,"enclosing":13259,"compartments":13260,"crypto":13261,"Rajne":13262,"gauze":13263,"agnosticism":13264,"scenery":13265,"pretence":13266,"interferes":13267,"dovelike":13268,"decreased":13269,"volcanic":13270,"Dependent":13271,"Efficient":13272,"Puer":13273,"Type":13274,"narration":13275,"enzymes":13276,"provisions":13277,"ribbed":13278,"feudal":13279,"adventure":13280,"stereotypically":13281,"softened":13282,"seaman":13283,"vexatious":13284,"trigger":13285,"triggers":13286,"disguised":13287,"clickbait":13288,"illustrate":13289,"intervening":13290,"1930s":13291,"Formerly":13292,"navigation":13293,"Agkist":13294,"Prior":13295,"Passion":13296,"fondness":13297,"algorithm":13298,"lodge":13299,"dispersing":13300,"dispersion":13301,"indentation":13302,"cognitive":13303,"Unpleasantly":13304,"swinging":13305,"symmetric":13306,"assimilationism":13307,"fucker":13308,"vomit":13309,"resentment":13310,"subscribe":13311,"swiftness":13312,"Standard":13313,"sandwiches":13314,"Fierce":13315,"Surrounded":13316,"himself":13317,"repulsive":13318,"aristocracy":13319,"substituted":13320,"crafted":13321,"commissioned":13322,"pedestrians":13323,"Utterly":13324,"pincushions":13325,"Biblical":13326,"Isra":13327,"Mean":13328,"konidae":13329,"nurse":13330,"pipes":13331,"piston":13332,"zerland":13333,"inhibits":13334,"whirl":13335,"abreast":13336,"prolifer":13337,"pearl":13338,"stratage":13339,"recalled":13340,"doomed":13341,"miserly":13342,"miserable":13343,"publisher":13344,"1980s":13345,"borrowed":13346,"hierarchical":13347,"Holy":13348,"Limited":13349,"knots":13350,"pita":13351,"vaccination":13352,"enlightenment":13353,"parasites":13354,"parasitic":13355,"crumbs":13356,"astonishment":13357,"profusely":13358,"Buddhism":13359,"Cutting":13360,"Familiar":13361,"Hemisphere":13362,"Hindu":13363,"enormous":13364,"assuring":13365,"condiments":13366,"impeaching":13367,"Inflammation":13368,"notoriously":13369,"obliquely":13370,"relinquish":13371,"prescription":13372,"declaration":13373,"wrinkled":13374,"credible":13375,"asymmetrical":13376,"Turkish":13377,"Communist":13378,"Author":13379,"luncheon":13380,"inspired":13381,"detriment":13382,"chicken":13383,"uncontrollable":13384,"distributed":13385,"optimistic":13386,"obsequiously":13387,"spatial":13388,"fermented":13389,"prominently":13390,"doubts":13391,"Primary":13392,"crustacean":13393,"amphibian":13394,"Scientology":13395,"Isolated":13396,"clownish":13397,"towering":13398,"expedient":13399,"paradox":13400,"comedy":13401,"twigs":13402,"teaspoon":13403,"scanty":13404,"bravado":13405,"buzzing":13406,"malaise":13407,"Childish":13408,"metabolism":13409,"invasion":13410,"clinicopath":13411,"Friendly":13412,"rhetoric":13413,"Virginity":13414,"Bhagwan":13415,"Celtic":13416,"Energetic":13417,"daub":13418,"masonry":13419,"pancake":13420,"reprimand":13421,"forearm":13422,"verdure":13423,"disabled":13424,"dismissed":13425,"Intellectually":13426,"evaporation":13427,"sensitivity":13428,"universally":13429,"anniversary":13430,"licensed":13431,"philanthropist":13432,"belligerent":13433,"Corporation":13434,"extremity":13435,"euphoria":13436,"Austria":13437,"Micro":13438,"Walking":13439,"dandy":13440,"haggard":13441,"attributively":13442,"tificate":13443,"seafood":13444,"forgiveness":13445,"contiguous":13446,"unequaled":13447,"expelled":13448,"existential":13449,"propitious":13450,"Anacardiaceae":13451,"fibres":13452,"thankful":13453,"efficacy":13454,"Constructed":13455,"Chiefly":13456,"warrior":13457,"treacherous":13458,"Descended":13459,"sacrament":13460,"Hypocritically":13461,"surveillance":13462,"Cabinet":13463,"Derived":13464,"Dreadful":13465,"Faith":13466,"Fuzh":13467,"Gentle":13468,"Gekkonidae":13469,"Hatred":13470,"Iceland":13471,"January":13472,"Linked":13473,"Luscious":13474,"Manchester":13475,"November":13476,"Oblig":13477,"Pacific":13478,"Suez":13479,"Suggestive":13480,"Switzerland":13481,"Twitter":13482,"Veget":13483,"dulcim":13484,"freckles":13485,"hickory":13486,"jargon":13487,"lantern":13488,"laird":13489,"vodka":13490,"inadvert":13491,"threesome":13492,"repository":13493,"recondite":13494,"algebra":13495,"tournament":13496,"oluminescence":13497,"methyl":13498,"trifle":13499,"apprentice":13500,"embodiment":13501,"elderly":13502,"nefarious":13503,"preternatural":13504,"qualifications":13505,"coriaria":13506,"Reluctant":13507,"calcium":13508,"Attestation":13509,"tortilla":13510,"vocabulary":13511,"prehistoric":13512,"Mediocre":13513,"Rajneesh":13514,"Agkistrodon":13515,"21":13516,"28":13517,"45":13518,"49":13519,"56":13520,"89":13521,"800":13522,"AA":13523,"AD":13524,"AI":13525,"Ath":13526,"Aus":13527,"Aust":13528,"Agg":13529,"Averse":13530,"Alive":13531,"Aband":13532,"Bor":13533,"Bent":13534,"Band":13535,"Best":13536,"Bef":13537,"Bost":13538,"Both":13539,"Bitter":13540,"BDS":13541,"Bothered":13542,"Dom":13543,"Dou":13544,"Det":13545,"Due":13546,"Down":13547,"Dear":13548,"Dia":13549,"Dull":13550,"Duty":13551,"Dung":13552,"Dirt":13553,"Domin":13554,"Data":13555,"Emin":13556,"Egg":13557,"Evalu":13558,"Fr":13559,"Fas":13560,"Fit":13561,"Fun":13562,"Fur":13563,"Fucking":13564,"Gar":13565,"Grad":13566,"Going":13567,"Hand":13568,"Hel":13569,"Have":13570,"Hidden":13571,"H15":13572,"Half":13573,"IP":13574,"Il":13575,"Item":13576,"Imit":13577,"Jack":13578,"Jane":13579,"Joy":13580,"Lu":13581,"Lew":13582,"Langu":13583,"Loy":13584,"Lenor":13585,"Mas":13586,"Mand":13587,"Mess":13588,"Mill":13589,"Mee":13590,"Ner":13591,"Num":13592,"Naked":13593,"Psy":13594,"Preg":13595,"Pale":13596,"Plat":13597,"Rh":13598,"Rol":13599,"Right":13600,"Rough":13601,"Rak":13602,"Reaching":13603,"Sa":13604,"Sw":13605,"Sin":13606,"Sof":13607,"Sul":13608,"Sil":13609,"Sel":13610,"Slow":13611,"Stri":13612,"Stra":13613,"Shit":13614,"Supper":13615,"Scand":13616,"Space":13617,"Sounding":13618,"Tu":13619,"Tele":13620,"Telling":13621,"Truly":13622,"Vig":13623,"Weight":13624,"Wishes":13625,"You":13626,"Zion":13627,"aforethought":13628,"aulic":13629,"bip":13630,"baff":13631,"bbish":13632,"bunk":13633,"cs":13634,"cass":13635,"cite":13636,"cages":13637,"caves":13638,"cured":13639,"caffe":13640,"dum":13641,"dled":13642,"dash":13643,"dude":13644,"durable":13645,"dumps":13646,"ether":13647,"equality":13648,"eks":13649,"ejection":13650,"fod":13651,"fect":13652,"fame":13653,"fog":13654,"fagg":13655,"fists":13656,"fandom":13657,"gil":13658,"gill":13659,"giz":13660,"glar":13661,"garr":13662,"ginal":13663,"gutter":13664,"han":13665,"hire":13666,"hung":13667,"hawk":13668,"hinged":13669,"iple":13670,"iers":13671,"ixed":13672,"iances":13673,"jung":13674,"km":13675,"kit":13676,"kine":13677,"kles":13678,"kins":13679,"kicking":13680,"lof":13681,"lis":13682,"las":13683,"lone":13684,"lau":13685,"lary":13686,"laz":13687,"lament":13688,"lager":13689,"lunch":13690,"lighting":13691,"lanes":13692,"matt":13693,"mesh":13694,"nou":13695,"nig":13696,"nave":13697,"nails":13698,"oors":13699,"oars":13700,"otides":13701,"pate":13702,"pable":13703,"pud":13704,"pitu":13705,"pink":13706,"psum":13707,"poured":13708,"padded":13709,"paced":13710,"padding":13711,"paddle":13712,"pouch":13713,"ratic":13714,"ragg":13715,"ranged":13716,"rarity":13717,"sine":13718,"swer":13719,"sory":13720,"sworn":13721,"tat":13722,"tally":13723,"tance":13724,"tau":13725,"tale":13726,"tapping":13727,"uation":13728,"uber":13729,"udo":13730,"utions":13731,"utical":13732,"uously":13733,"utopi":13734,"vin":13735,"voci":13736,"wol":13737,"wrough":13738,"wants":13739,"wretch":13740,"wisdom":13741,"yach":13742,"ylic":13743,"yoke":13744,"za":13745,"zones":13746,"₁₂":13747,"inant":13748,"inlet":13749,"incrim":13750,"inoid":13751,"inattentive":13752,"inanimate":13753,"inconsistency":13754,"intimacy":13755,"orth":13756,"orch":13757,"orine":13758,"orie":13759,"thal":13760,"thand":13761,"thigh":13762,"thug":13763,"erun":13764,"erection":13765,"erva":13766,"ermine":13767,"onome":13768,"onous":13769,"onstr":13770,"antive":13771,"ancho":13772,"anthus":13773,"atone":13774,"attaining":13775,"atures":13776,"enell":13777,"ofar":13778,"rev":13779,"reel":13780,"reused":13781,"retaining":13782,"rebuilding":13783,"rewrite":13784,"rewish":13785,"reared":13786,"retribution":13787,"reproof":13788,"revive":13789,"reoffender":13790,"reporter":13791,"altru":13792,"allocated":13793,"altoc":13794,"alga":13795,"allocate":13796,"tome":13797,"toman":13798,"told":13799,"toss":13800,"esis":13801,"escor":13802,"escent":13803,"espous":13804,"esophagus":13805,"aro":13806,"arance":13807,"armor":13808,"argy":13809,"arbox":13810,"tithes":13811,"thel":13812,"omed":13813,"isomer":13814,"lyrical":13815,"icle":13816,"icol":13817,"icir":13818,"icose":13819,"asia":13820,"asexual":13821,"lem":13822,"lemur":13823,"aco":13824,"acies":13825,"itus":13826,"itri":13827,"itage":13828,"itatively":13829,"eces":13830,"ectile":13831,"ecraft":13832,"ston":13833,"stal":13834,"stap":13835,"stag":13836,"stery":13837,"stunning":13838,"sturge":13839,"entrap":13840,"entangled":13841,"sew":13842,"seaco":13843,"andro":13844,"rop":13845,"ropes":13846,"hew":13847,"heter":13848,"hearth":13849,"heels":13850,"veter":13851,"velled":13852,"sual":13853,"superson":13854,"suicide":13855,"foret":13856,"ceasing":13857,"bee":13858,"beans":13859,"beast":13860,"belit":13861,"befit":13862,"belittle":13863,"beats":13864,"bezzle":13865,"defer":13866,"deposition":13867,"deput":13868,"deals":13869,"detract":13870,"depressed":13871,"devious":13872,"depressing":13873,"deaux":13874,"perceptive":13875,"pertinent":13876,"whale":13877,"whatever":13878,"chit":13879,"chess":13880,"chill":13881,"chaff":13882,"chery":13883,"choked":13884,"chasm":13885,"const":13886,"conden":13887,"congl":13888,"congest":13889,"conspire":13890,"ulously":13891,"ultuous":13892,"ila":13893,"ilant":13894,"una":13895,"unic":13896,"uncover":13897,"unken":13898,"unrest":13899,"unwise":13900,"unintended":13901,"unofficial":13902,"unison":13903,"unoriginal":13904,"unalter":13905,"unavailable":13906,"unfamiliar":13907,"uncool":13908,"unlimited":13909,"unchanged":13910,"uninteresting":13911,
[...]
