{"version":"1.0","truncation":null,"padding":null,"added_tokens":[{"id":0,"special":true,"content":"<pad/>","single_word":false,"lstrip":false,"rstrip":false,"normalized":false},{"id":1,"special":true,"content":"</seq>","single_word":false,"lstrip":false,"rstrip":false,"normalized":false},{"id":2,"special":true,"content":"<seq>","single_word":false,"lstrip":false,"rstrip":false,"normalized":false},{"id":3,"special":true,"content":"<unk/>","single_word":false,"lstrip":false,"rstrip":false,"normalized":false},{"id":4,"special":true,"content":"<en>","single_word":false,"lstrip":false,"rstrip":false,"normalized":false},{"id":5,"special":true,"content":"<es>","single_word":false,"lstrip":false,"rstrip":false,"normalized":false},{"id":6,"special":true,"content":"<fr>","single_word":false,"lstrip":false,"rstrip":false,"normalized":false},{"id":7,"special":true,"content":"<it>","single_word":false,"lstrip":false,"rstrip":false,"normalized":false},{"id":8,"special":true,"content":"<ru>","single_word":false,"lstrip":false,"rstrip":false,"normalized":false}],"normalizer":null,"pre_tokenizer":{"type":"Whitespace"},"post_processor":null,"decoder":null,"model":{"type":"Unigram","unk_id":3,"vocab":[["<pad/>",0.0],["</seq>",0.0],["<seq>",0.0],["<unk/>",0.0],["<en>",0.0],["<es>",0.0],["<fr>",0.0],["<it>",0.0],["<ru>",0.0],[".",-2.8560757252942626],["o",-3.0930284006366993],["s",-3.2862069620062915],["a",-3.2920235134768063],[",",-3.2989464528917853],["or",-3.5719013577504253],[";",-3.8547611893184612],["t",-3.9092112669868673],["f",-3.9511779558433293],["ing",-3.9704980691586],["e",-4.002302866287884],["the",-4.012154501017065],["A",-4.1858362108088],["of",-4.3234970599785445],["y",-4.333831747300877],["ly",-4.371569807244997],["d",-4.372824746849268],["r",-4.388260783771038],["in",-4.440948969173075],["n",-4.498628013416088],["to",-4.611423144958517],["ed",-4.84771167351624],["and",-4.953167658606812],["T",-4.9577707683859575],["with",-5.13515001985137],["The",-5.136218821519934],[")",-5.177926776666959],["(",-5.177926776666959],["an",-5.266021081088754],["i",-5.291177283406704],["To",-5.31466622857706],["some",-5.3548382966395955],["by",-5.439726863939493],["that",-5.447111785455659],["thing",-5.452073145312518],["one",-5.505130167429211],["for",-5.7039172976947645],["-",-5.708479063801867],["on",-5.804696306566117],["be",-5.845320230519945],["is",-5.852080963826584],["rom",-5.882176421399321],["person",-5.894946279522746],["other",-5.905714491630278],["ch",-5.911548988058189],["whi",-5.941755794143671],["b",-5.961419091931684],["special",-5.994660965554019],["l",-6.0036135950031415],["as",-6.005864856867962],["'",-6.018231592988412],["c",-6.022484219062595],["who",-6.046637472591],["m",-6.099398687505958],["out",-6.250789057136869],["Of",-6.296489426075455],["being",-6.327285384488523],["h",-6.3669293816020245],["not",-6.378479777865554],["act",-6.386028092324364],["In",-6.3980289116183044],["used",-6.445185786796504],["An",-6.5425790630670555],["such",-6.560731244711043],["manner",-6.5830380463967195],["etc",-6.616369536498435],["ally",-6.64207565796094],["part",-6.67919847375284],["state",-6.686213363345599],["w",-6.717977921594092],["g",-6.73943882312705],["able",-6.745729485001591],["ity",-6.75135332661348],["make",-6.76992546603382],["form",-6.7837894301554895],["particular",-6.806015942060681],["p",-6.841584212668553],["Not",-6.844927138222765],["u",-6.848624462652411],["place",-6.879086127810024],["Hav",-6.891381119189047],["ment",-6.892341308118809],["time",-6.894368583012474],["having",-6.901760301025672],["Any",-6.902852788077005],["way",-6.921424474332601],["ness",-6.950365923098017],["usual",-6.9526188492157805],["al",-6.970394965713334],[":",-6.971532698942509],["often",-6.9746065699446405],["up",-6.988348706179794],["cause",-6.996436666944652],["at",-6.997588039094518],["un",-7.059306531237808],["One",-7.077073555344926],["qualit",-7.1534107808850225],["it",-7.15834439808065],["pertain",-7.163141522919974],["group",-7.163682702691332],["Some",-7.164811627232365],["into",-7.171220923684516],["ies",-7.175431307809587],["es",-7.18407356280272],["more",-7.190032942459422],["ation",-7.191729224096835],["are",-7.229922852014778],["than",-7.231415416644679],["like",-7.236570877260305],["large",-7.239243648438195],["ion",-7.251454247418309],["th",-7.258766658553894],["any",-7.27683048700294],["its",-7.280959444642892],["small",-7.295987365753017],["number",-7.297444923011973],["action",-7.301028057271897],["over",-7.301702005476561],["body",-7.31863802658533],["object",-7.327012036464314],["use",-7.329719419929568],["people",-7.341567175383017],["speci",-7.345928118006898],["made",-7.378394588761117],["two",-7.379589785221511],["position",-7.383578174463544],["hing",-7.416638708466481],["when",-7.430219757828894],["process",-7.44126165375124],["twee",-7.459269658569805],["ce",-7.480798326389676],["self",-7.485799592984114],["man",-7.498826449925382],["less",-7.504874702340624],["but",-7.511983752673084],["work",-7.54245435754193],["has",-7.547972633454611],["through",-7.551139306642349],["le",-7.55406441092087],["all",-7.561228047347057],["point",-7.564945347153712],["re",-7.567933202018934],["can",-7.569414830054601],["order",-7.5750436098677465],["specific",-7.579012313941632],["sound",-7.589499417575106],["have",-7.591718736189401],["where",-7.604117755753718],["`",-7.605783287031015],["condition",-7.606472170301594],["relat",-7.618092843508852],["With",-7.618167910459873],["us",-7.625099240886908],["light",-7.63880902802692],["move",-7.647556585478788],["P",-7.652399630256645],["water",-7.666730816440426],["characteristic",-7.669455627591612],["animal",-7.686175240425964],["word",-7.688459694784667],["good",-7.6943191382187415],["ous",-7.695400784084331],["long",-7.7004428625360895],["event",-7.702655715457469],["high",-7.703745651739448],["great",-7.706115979510714],["ic",-7.706702186319724],["side",-7.708434429776211],["H",-7.715256690369849],["type",-7.715832945022188],["ble",-7.716629572352804],["S",-7.727623428463131],["very",-7.730585518551401],["O",-7.750306629332574],["That",-7.759702080423483],["give",-7.770688309944073],["back",-7.781155768090779],["similar",-7.781709995053916],["system",-7.798887333541949],["using",-7.81029166407529],["power",-7.818521587466997],["take",-7.819404559429357],["he",-7.827848338897845],["under",-7.829122371772038],["about",-7.8303091861230625],["play",-7.835400809998282],["period",-7.865477487608493],["become",-7.870993919603012],["material",-7.871246984032653],["v",-7.8829208068203585],["physical",-7.883919354964311],["produce",-7.8929809956096335],["given",-7.893239963507277],["force",-7.8998105328823875],["music",-7.90366442493166],["human",-7.908515149255363],["amount",-7.910745822754604],["end",-7.911130524319667],["change",-7.918300103892449],["certain",-7.918517544952769],["structure",-7.923725383495618],["C",-7.925612964927537],["sense",-7.93046330218856],["again",-7.933746731957574],["mean",-7.937683309377843],["member",-7.938219712019582],["purpose",-7.938407113569521],["language",-7.945493636219552],["show",-7.956413884526185],["result",-7.958630726105856],["woman",-7.959940544895853],["ve",-7.966135923620403],["general",-7.970302752934215],["set",-7.976895468265203],["value",-7.979857939625536],["activit",-7.987525296243081],["ance",-7.9895122105605285],["ive",-7.990041577952882],["surface",-7.992039965857234],["ship",-7.994054900097948],["game",-7.996568972427337],["put",-7.997334856850251],["line",-8.000187515856908],["propert",-8.005793101928155],["device",-8.009849512897764],["right",-8.013882744443286],["most",-8.014803764808352],["ame",-8.019096020426716],["shape",-8.020509878986948],["somet",-8.022071619797352],["degree",-8.024685126498252],["piece",-8.028085539571867],["aving",-8.031777993278979],["plant",-8.033243314460684],["common",-8.040494413622643],["hold",-8.047112184549075],["en",-8.05231823288743],["air",-8.054000045049207],["base",-8.060518473717245],["direction",-8.062658851749962],["different",-8.071665168308577],["sexual",-8.073251705382539],["k",-8.075849935897454],["lack",-8.077224176458195],["ne",-8.077956643030902],["area",-8.084297288147368],["perform",-8.08485685003065],["what",-8.087911183109615],["ng",-8.09265865347758],["substance",-8.099787676296367],["low",-8.110557702091441],["food",-8.115735470211778],["style",-8.120352798098182],["this",-8.128461410404666],["contain",-8.128681991809993],["close",-8.13455939333383],["after",-8.13466446040433],["difficult",-8.139318341158017],["ither",-8.140941361427593],["/",-8.143199106012425],["E",-8.143625400051565],["short",-8.144984562481431],["together",-8.158021210953388],["kind",-8.167305846508912],["element",-8.168067103550392],["se",-8.176153445592945],["support",-8.187648443205536],["subject",-8.189116281867115],["B",-8.190576829042383],["name",-8.194292691368817],["I",-8.19608927238022],["effect",-8.19678717548588],["ful",-8.20403632062081],["er",-8.204771510460656],["motion",-8.20786128702268],["famil",-8.2090627670119],["character",-8.212753530414268],["interest",-8.213252902536166],["head",-8.213265027441917],["down",-8.213785884691877],["age",-8.21416672015621],["R",-8.21845979001092],["quantit",-8.220068074232223],["social",-8.220234603882318],["individual",-8.222970634085543],["Be",-8.223770039195529],["ary",-8.224044536246932],["extreme",-8.224551915185867],["F",-8.231511794552453],["typical",-8.237831953677716],["item",-8.241505737646357],["ball",-8.245321616308166],["wh",-8.246130330432683],["natural",-8.246821184065025],["liquid",-8.250208316697284],["class",-8.25032650875335],["grow",-8.250637289055211],["fro",-8.251505162584152],["each",-8.251740307157176],["male",-8.25593805529899],["consider",-8.25863865459386],["complete",-8.262129570226472],["toward",-8.262864852858188],["control",-8.263306804177335],["situation",-8.26544806913273],["provide",-8.266814511093248],["Un",-8.271385594950452],["first",-8.279180909546715],["instance",-8.279309954412795],["strong",-8.279786228814896],["service",-8.279834121684623],["information",-8.295232274248894],["ertain",-8.296037315539518],["land",-8.302250418859053],["regard",-8.305060860780152],["abilit",-8.308977063250957],["practice",-8.31930604242361],["ry",-8.320297182007863],["aking",-8.328800575575794],["space",-8.335900405811202],["D",-8.337045918700728],["view",-8.338536260493585],["well",-8.341381045565043],["term",-8.34262076281015],["movement",-8.344035269864644],["building",-8.344082395782165],["remove",-8.34455362757158],["als",-8.347074177265466],["free",-8.35072265754868],["sometime",-8.355027287057052],["public",-8.35551215899598],["life",-8.35609454949782],["Relat",-8.361632655721635],["appearance",-8.3624534888616],["treat",-8.364618276150491],["unit",-8.36837231584665],["know",-8.370868114110536],["player",-8.372796799524298],["feeling",-8.372923243937695],["day",-8.385498348877888],["own",-8.387449625368559],["vehicle",-8.390313892928836],["tion",-8.39524840995658],["new",-8.411997745516558],["pposed",-8.41528709441472],["Ver",-8.420203531231657],["exten",-8.423307535689712],["open",-8.432688188487075],["follow",-8.441455387323767],["carry",-8.441527419887677],["legal",-8.444305101980287],["course",-8.445612739357824],["business",-8.44613323936349],["belief",-8.447082032044719],["break",-8.447276658503903],["level",-8.447395575173989],["cover",-8.45061637031872],["consist",-8.4507978548464],["female",-8.452223487968745],["three",-8.453778531410286],["law",-8.459852071668475],["soft",-8.46244240003789],["instrument",-8.469565229782809],["ground",-8.470087873950652],["quick",-8.470503803306919],["turn",-8.474230755841017],["ence",-8.475630037749017],["original",-8.479844831400506],["wise",-8.480616612485827],["respect",-8.486254316925375],["ent",-8.48629224615886],["direct",-8.487917597135123],["computer",-8.489451569267699],["hat",-8.498873242631223],["off",-8.500752676635935],["normal",-8.50832311549493],["dis",-8.50998448524161],["standard",-8.51403781315926],["product",-8.5143939172679],["clear",-8.51691484544627],["function",-8.518305438459302],["dur",-8.528135240855638],["drink",-8.530735681471475],["uch",-8.53192424545794],["M",-8.532475338059447],["color",-8.533354004996003],["real",-8.535769306813673],["child",-8.536072848289855],["mind",-8.536856822016972],["rule",-8.538170803203183],["around",-8.54272030977236],["worth",-8.5468963544097],["ish",-8.547499677385712],["whole",-8.547563833363107],["Somet",-8.55312644649121],["disease",-8.554236567059808],["colour",-8.555647627601823],["influence",-8.560658946672984],["bring",-8.56699406210814],["resembl",-8.567698314464815],["ting",-8.567753934596073],["cut",-8.56775587700961],["create",-8.568410828472446],["N",-8.572633769331558],["region",-8.574513540612585],["face",-8.574977953854177],["ar",-8.575380442603649],["sudden",-8.575425893244248],["example",-8.576127049217202],["present",-8.576438351532616],["field",-8.580258385808367],["arious",-8.582044812526997],["hose",-8.5847284818307],["ted",-8.590371210174412],["due",-8.591290065016988],["concern",-8.592303102672883],["country",-8.594002407868288],["ich",-8.595444314415165],["accept",-8.60095060219577],["before",-8.605948196850665],["authorit",-8.6061741435322],["genu",-8.607418866127357],["hand",-8.607548556289835],["intende",-8.616635431794926],["associate",-8.619455818079686],["represent",-8.621543892089466],["ather",-8.622716096711187],["exist",-8.624005435090133],["bad",-8.625819954935764],["relationship",-8.627245585097594],["organization",-8.6302094423868],["de",-8.632578498400804],["ical",-8.63576588053104],["st",-8.635917944266918],["sequence",-8.636238958602421],["ther",-8.639523618443992],["weight",-8.639741322603737],["singl",-8.643459446363767],["year",-8.64349223357212],["cloth",-8.643531029133474],["skill",-8.64809445851833],["second",-8.648694900134977],["measure",-8.651853206258659],["Lack",-8.65227729665742],["flow",-8.652672797056942],["ty",-8.656966395986561],["wide",-8.657911572665213],["separate",-8.65976611275731],["speak",-8.659822188235804],["wood",-8.66507104635848],["may",-8.668490571905767],["connect",-8.669136785100058],["location",-8.672148619962282],["full",-8.672191667221373],["limit",-8.675232339291579],["keep",-8.676293887547981],["political",-8.678774295939427],["specifie",-8.681321210394259],["house",-8.688318348163634],["desire",-8.690799996804884],["writing",-8.692986493500927],["else",-8.696191536569476],["fruit",-8.697657442579683],["main",-8.702728542488977],["meaning",-8.704953523474677],["text",-8.706247046092425],["source",-8.707228828757898],["ten",-8.711921206914603],["speech",-8.71321205576341],["his",-8.713684027273464],["x",-8.713976869476314],["culture",-8.714782427338776],["hair",-8.715030977354985],["relative",-8.716998174610202],["equal",-8.718315232799053],["blood",-8.7197528837021],["um",-8.721699051535484],["obtain",-8.723081942917648],["nature",-8.726466055487649],["wor",-8.727051257374466],["size",-8.729192465417102],["hard",-8.732751395671837],["near",-8.732833620714928],["religious",-8.735840649085224],["travel",-8.739194116170786],["design",-8.740448469982695],["lating",-8.74255318705994],["look",-8.743496814886123],["draw",-8.744169659773018],["white",-8.744454909570267],["traditional",-8.74576183836394],["appear",-8.749562740523448],["behaviour",-8.75014446025118],["will",-8.751187013902795],["round",-8.752459678532944],["book",-8.754991411781102],["goal",-8.755719852993241],["rank",-8.757195862615479],["data",-8.757417160134072],["happen",-8.759060883667457],["allow",-8.764028721004637],["metal",-8.764925726871349],["thought",-8.766299051868117],["increase",-8.767014869518652],["live",-8.767900494290757],["leave",-8.7711828466826],["skin",-8.771226041890685],["several",-8.775376968098684],["case",-8.775428408773514],["involv",-8.77767737239984],["opinion",-8.779272701128388],["sharp",-8.779335426279118],["receive",-8.7803031287326],["idea",-8.780499146966324],["American",-8.784972863679574],["length",-8.787327932171298],["office",-8.787579203678089],["ove",-8.789756724364306],["both",-8.795005051860919],["possibl",-8.795949011696349],["past",-8.796736788803639],["sex",-8.797068919202903],["wheel",-8.799322227488181],["expression",-8.800649962792313],["moral",-8.8013460552337],["stand",-8.802278670088945],["found",-8.802406243833012],["ring",-8.803254109575912],["call",-8.803393437742965],["aid",-8.803628015295775],["energ",-8.805559118598982],["formal",-8.80628425130267],["sign",-8.80733755067282],["effort",-8.80816197285369],["matter",-8.809001793935188],["rough",-8.811411480191829],["feature",-8.812593461196037],["official",-8.813707522849299],["fact",-8.81780774710781],["distinguish",-8.819061475654669],["thin",-8.81992769889045],["describ",-8.820499510460373],["apply",-8.82140362425428],["nd",-8.82141079750523],["knowledge",-8.82199428205315],["ism",-8.827012273925282],["previous",-8.830147431544894],["spirit",-8.831244296177955],["pass",-8.832518639133653],["ware",-8.832975735265482],["car",-8.833185486512434],["come",-8.83543475265087],["mone",-8.83644789525373],["tic",-8.837775400524938],["room",-8.838573401561277],["lower",-8.839525532926157],["excessive",-8.842253725122028],["plan",-8.842415706029543],["caus",-8.843272537361724],["distance",-8.843790044398867],["includ",-8.844990614329895],["Caus",-8.84774272460183],["version",-8.848516355428092],["highe",-8.852747474015597],["bird",-8.85351533552468],["express",-8.854701336031953],["mark",-8.85569973807915],["world",-8.855819519962687],["opposite",-8.856937644416568],["craft",-8.857014607054548],["task",-8.85985021506751],["statement",-8.861522017493888],["strength",-8.865118966696585],["U",-8.86525102555095],["behavior",-8.866188235318285],["front",-8.869380965877024],["image",-8.870969135588592],["range",-8.8710111601164],["experience",-8.871295990197567],["sub",-8.87224792269716],["red",-8.875165612122796],["fish",-8.8751925497222],["tru",-8.875214287329312],["throw",-8.879348059073529],["engage",-8.880208458465592],["race",-8.88093002811345],["ize",-8.882473327092516],["1",-8.887462412508597],["raise",-8.887689114673373],["dark",-8.888014121214896],["drug",-8.892519117015024],["operation",-8.894620326892861],["attack",-8.897967895584664],["little",-8.900371561178483],["attempt",-8.901551570759928],["active",-8.901857377306463],["wind",-8.906217345421352],["regular",-8.90946715565936],["rapid",-8.910461851617132],["government",-8.910617009051503],["important",-8.91111879143585],["serve",-8.911147137262287],["collection",-8.917973943574353],["violent",-8.919086998878539],["fail",-8.919196631234033],["ving",-8.919570757882463],["emotion",-8.919890422473788],["produc",-8.920666264627698],["edge",-8.921036089763522],["whil",-8.928627342271458],["mass",-8.928761827757533],["phrase",-8.931030098062735],["fire",-8.931335593403379],["conduct",-8.933686779002684],["fill",-8.935040256110018],["them",-8.936349133404919],["care",-8.936412577937435],["table",-8.938195019606997],["art",-8.938220979835133],["fall",-8.938910792846556],["require",-8.939801232816956],["black",-8.940613875488125],["negative",-8.941492075220449],["relate",-8.943778321024135],["question",-8.944856384559772],["alcohol",-8.948012348015837],["left",-8.94964488790679],["charge",-8.9535360746653],["principle",-8.954732273134535],["necessar",-8.95540007175575],["chief",-8.955686613408734],["pattern",-8.956305680524604],["occur",-8.956709750377817],["tree",-8.958588618993595],["Re",-8.959827755226616],["heat",-8.960187168036327],["tention",-8.960561268195871],["young",-8.96073762036588],["liv",-8.961432116260427],["harm",-8.96153881946966],["men",-8.965865182156339],["spread",-8.965900739406603],["four",-8.966201484570915],["train",-8.969153836137334],["no",-8.969173234964947],["taken",-8.971040462143073],["top",-8.971255268178993],["arrange",-8.973581163159817],["extend",-8.973819466323045],["performance",-8.974412280206632],["current",-8.975256389330571],["transport",-8.9757363774516],["horse",-8.976478296328445],["letter",-8.97761118159822],["read",-8.978066900141098],["utter",-8.978897383109611],["argument",-8.979778126922842],["leg",-8.979981646434682],["false",-8.98100395631107],["content",-8.983183756929702],["collective",-8.983619318054856],["deep",-8.98382622015972],["school",-8.984281838441511],["cell",-8.984364320261408],["stone",-8.985620136401671],["document",-8.986999535050098],["portion",-8.988222986608363],["mental",-8.990069528355043],["reason",-8.991677985144516],["company",-8.992995628781863],["every",-8.993092822922744],["gain",-8.995192421098263],["ated",-8.997833328816423],["method",-9.001984420688071],["Extreme",-9.00325114699082],["return",-9.006185586649043],["du",-9.007753636667395],["ure",-9.008220302414916],["divide",-9.009466175700352],["foot",-9.011399353423275],["walk",-9.018163851849188],["advance",-9.018836960943034],["stage",-9.02382157954505],["film",-9.025243940079918],["militar",-9.02592760269832],["study",-9.026292123868938],["ear",-9.027213405954651],["old",-9.02741813055364],["ries",-9.029577434006697],["detail",-9.034975458675294],["actual",-9.035483351819149],["program",-9.035600244717518],["correct",-9.036822328742401],["ill",-9.039431310484566],["home",-9.042282773258059],["kill",-9.043598707329428],["voice",-9.043898165840837],["display",-9.045283957147173],["believe",-9.051311127884077],["writ",-9.05290840399648],["understand",-9.055838615391876],["tha",-9.059191992994126],["record",-9.061426563173873],["talk",-9.062439349759181],["symbol",-9.062789144040812],["death",-9.06286244864729],["nding",-9.0665509254911],["frequent",-9.067075398160164],["branch",-9.068783038946066],["popular",-9.06988889206583],["organism",-9.070636111695634],["existence",-9.073386692936573],["brief",-9.076170775517042],["characterize",-9.078517297562218],["sport",-9.079946099385923],["production",-9.080758279640623],["om",-9.082560012414142],["was",-9.083117461349751],["proper",-9.088064414347265],["fabric",-9.09173821876382],["unning",-9.0919801303191],["con",-9.092306151695414],["pre",-9.094761446694736],["road",-9.094800899452176],["vessel",-9.097064593742314],["machine",-9.097179971812455],["chemical",-9.097259233153592],["half",-9.1004128003731],["flat",-9.100864849403965],["variet",-9.101076818754166],["parent",-9.104764908908544],["serv",-9.10685608909265],["bee",-9.108726114587169],["State",-9.109214389922789],["wall",-9.11351343226248],["inter",-9.114156969066151],["deal",-9.115744499720893],["taste",-9.11729069785277],["visibl",-9.11929510659489],["heav",-9.120528599694037],["board",-9.122304631222615],["secret",-9.124904208487608],["involve",-9.128182857418821],["reference",-9.129634031063038],["court",-9.130136140794404],["problem",-9.130403934674723],["Characteristic",-9.130448870172195],["context",-9.130630589301285],["passage",-9.130804368763934],["origin",-9.130856725477715],["electronic",-9.133495443317715],["ut",-9.136187480589188],["members",-9.13634917960077],["loud",-9.136643629148882],["ything",-9.13727303195544],["primar",-9.138630145109776],["ha",-9.140204893572635],["former",-9.140247306136734],["destroy",-9.141924080250064],["possession",-9.142934229829539],["card",-9.144708712791328],["emotional",-9.148865936491873],["share",-9.15054047562242],["multiple",-9.151219237376779],["cap",-9.157420766295427],["slow",-9.157991090332633],["ating",-9.1595048101466],["carrie",-9.159814599076306],["et",-9.161774560424309],["claim",-9.163147450685093],["een",-9.163496380666587],["need",-9.1636980029185],["done",-9.165804033170922],["superior",-9.166381814573809],["attach",-9.16662105756901],["narrow",-9.167499650350523],["outside",-9.167838772257507],["intense",-9.168877920876632],["covering",-9.171020321364871],["nce",-9.174180301938787],["now",-9.177003472488927],["along",-9.178038294058634],["post",-9.178670700256436],["genre",-9.179734346838263],["Mad",-9.1798178388065],["curve",-9.180737384707744],["perceive",-9.186435905960732],["native",-9.187416601787161],["pitch",-9.189589798454717],["ingle",-9.19123167018436],["bey",-9.191411747013003],["pressure",-9.19381376173924],["designe",-9.195318595021003],["friend",-9.196207125889497],["offer",-9.199622529741927],["upper",-9.200581793575397],["paper",-9.201055183058713],["L",-9.201598404620356],["expected",-9.203065904282692],["appropriate",-9.20636318085478],["team",-9.20640278448432],["just",-9.206453060835964],["ould",-9.209906486746167],["hence",-9.21028499034729],["church",-9.212992769793757],["contrast",-9.213736693978538],["middle",-9.214163321401447],["motor",-9.214334414136879],["societ",-9.214501131444583],["attractive",-9.21457116993862],["war",-9.214972925039465],["reduce",-9.216253596616689],["lead",-9.217052311693777],["giv",-9.218036808758464],["remain",-9.219961776181378],["easi",-9.220916985757082],["fashion",-9.221181069086988],["string",-9.22510833971361],["component",-9.225178763145738],["account",-9.226147415981046],["int",-9.227560658810471],["love",-9.227702665379555],["prevent",-9.22872537668893],["gender",-9.230345997899992],["establish",-9.230473041980073],["speed",-9.23184176466556],["central",-9.236863746403724],["print",-9.237735789968117],["drive",-9.23783468480024],["unpleasant",-9.237999170887305],["times",-9.238987129592914],["success",-9.239158309648682],["mixture",-9.239172701565483],["derive",-9.24204694367378],["affect",-9.24255508919082],["sail",-9.243867088399913],["ative",-9.246122311231776],["once",-9.249528884611271],["circumstance",-9.250618443221345],["centur",-9.251870560688012],["super",-9.25299396674761],["sleep",-9.254789061705642],["block",-9.255250589738159],["trouble",-9.256055887133236],["role",-9.25633163257503],["stream",-9.25690542781658],["there",-9.259064928692446],["ancient",-9.2594463417405],["me",-9.259902921320377],["noise",-9.260095689911505],["cross",-9.261959294710563],["major",-9.263217904092997],["beginning",-9.263413291741337],["supply",-9.266215892715248],["achieve",-9.266531356497655],["dance",-9.26714070194086],["distinct",-9.267916476460119],["start",-9.268784040685766],["fear",-9.271864600340354],["fluid",-9.276390989572908],["essential",-9.278400372295504],["render",-9.279957178819],["even",-9.282023612336118],["Unit",-9.284262614611855],["evil",-9.285971436724871],["avoid",-9.2881675760983],["release",-9.28887413187319],["disorder",-9.29028127498847],["concept",-9.292513714545525],["environment",-9.293391324186235],["organ",-9.294901825934424],["poor",-9.299965560460834],["indicate",-9.302488198500988],["contact",-9.302961318762165],["greate",-9.304195337272638],["cy",-9.307996940058871],["pay",-9.309241004226497],["store",-9.309788283974571],["belonging",-9.309988683022484],["taking",-9.310982230589584],["king",-9.311095643834232],["later",-9.312899882127416],["pleasure",-9.313646193877812],["modern",-9.31449505457414],["slight",-9.315712226166742],["Contain",-9.31611897105807],["wear",-9.316142026305391],["careful",-9.316790409116617],["powerful",-9.317071704773927],["personal",-9.317581850978375],["litera",-9.318263354714507],["yield",-9.318398209191749],["convey",-9.320446336171557],["resource",-9.321631854234091],["W",-9.323348444277661],["rea",-9.32708251381076],["consequence",-9.330241519354514],["composition",-9.330773386828785],["dress",-9.330873513576119],["job",-9.332647448605783],["makes",-9.334183915682111],["ca",-9.336274268345814],["add",-9.336434340501006],["nation",-9.337719100509254],["ma",-9.33807804395929],["feel",-9.339566935293433],["behave",-9.340590928160971],["noun",-9.341774522109866],["night",-9.341868404038667],["section",-9.342667585974052],["behind",-9.344423009814586],["path",-9.345248528401022],["European",-9.3454768928788],["suffer",-9.347059599412457],["meat",-9.348040150705046],["project",-9.348156397047433],["future",-9.34830299177774],["bright",-9.348441683981559],["pain",-9.351230713947263],["manage",-9.351297210452689],["rest",-9.351442465908367],["fiction",-9.351717129649138],["stick",-9.356071092943168],["loss",-9.357607070291788],["compound",-9.357895751652526],["heir",-9.35953249588956],["help",-9.361059883791231],["serious",-9.361959345214283],["last",-9.362485273104063],["touch",-9.36282720091061],["planet",-9.365476531605932],["esembl",-9.365917433000241],["her",-9.365923005333226],["issue",-9.367321014118387],["lines",-9.367913493745938],["get",-9.369892969650449],["arm",-9.370371081594655],["accord",-9.371978961475726],["Capab",-9.372056258039747],["suitabl",-9.374719647960358],["agreement",-9.374994965804412],["think",-9.375117303383822],["catch",-9.376049741121504],["Involv",-9.376061514132056],["deliberate",-9.3786908420136],["earth",-9.380223688564843],["excite",-9.381250039354494],["scale",-9.38200300050666],["convert",-9.383768587424742],["electric",-9.385513836511995],["medium",-9.387141021896579],["mouth",-9.387176315872793],["polic",-9.388157462796826],["doing",-9.389117013050338],["ling",-9.389721551987988],["vertical",-9.390548253939746],["potential",-9.392931921901177],["injur",-9.394099399144697],["trade",-9.394116208753532],["rock",-9.394473632984672],["importan",-9.394688136264225],["working",-9.395389337489867],["crime",-9.397137370534594],["score",-9.399730424758872],["doubt",-9.399771617846177],["choice",-9.401671503935997],["uncertain",-9.403640388675235],["forward",-9.404782562637644],["write",-9.405904679399912],["ur",-9.406765311177995],["criminal",-9.40818844361496],["attache",-9.409042690474884],["frame",-9.409934077597512],["inside",-9.410361088894525],["broad",-9.410400337391522],["progress",-9.41053336703631],["Occurr",-9.413485784892178],["figurative",-9.41672227379988],["plural",-9.416884562798568],["error",-9.418422390307256],["eviden",-9.41909619071696],["science",-9.419188946540622],["owner",-9.420049856898613],["equip",-9.421504636863823],["occasion",-9.422509404678674],["capacit",-9.423049045055045],["meal",-9.426197224855917],["V",-9.428313341752666],["acid",-9.429664872342038],["fixe",-9.430680256411854],["market",-9.430963546778365],["neck",-9.431569120338075],["conceal",-9.431740123319557],["hi",-9.43230923517362],["verb",-9.433184429293494],["religion",-9.4346416229093],["works",-9.43521802366411],["prepar",-9.435617808626496],["focus",-9.438376649244038],["join",-9.438550275137096],["affected",-9.439070328715703],["rdinal",-9.44008402791145],["local",-9.440448705935157],["medicine",-9.44125082721412],["damage",-9.442908740233463],["angle",-9.443409605112514],["ification",-9.445660399668704],["iness",-9.446045773141753],["maintain",-9.44687209127649],["flower",-9.447056236239435],["thus",-9.447408502223894],["wine",-9.453102156283073],["est",-9.453259557125843],["spring",-9.453506400994778],["construct",-9.454031702290301],["step",-9.455886103897594],["season",-9.45967276615944],["statu",-9.460815582185916],["hood",-9.461983839517321],["ide",-9.462689724868007],["pair",-9.463764946109649],["dish",-9.463790741174101],["development",-9.464094752675898],["forth",-9.464117988381581],["repeated",-9.465819264921818],["gather",-9.466340577806616],["payment",-9.466698487889627],["figure",-9.466904777087244],["network",-9.466968975618986],["transfer",-9.468867551486976],["key",-9.47041400541671],["marked",-9.470553122966628],["exact",-9.470553432485922],["message",-9.472832325962008],["exchange",-9.47296804722351],["want",-9.474297667198282],["reach",-9.476987681655102],["3",-9.477516501032657],["marriage",-9.478599422991945],["opponent",-9.480785686030885],["attitude",-9.481472477446946],["include",-9.481549966473729],["compose",-9.481664831399051],["star",-9.48207204827239],["Th",-9.483521333648515],["protect",-9.48372388067134],["entertain",-9.484613220058307],["trick",-9.48497173717164],["habit",-9.485299717413715],["song",-9.486219849023062],["chance",-9.487243261813736],["response",-9.488491355015181],["list",-9.488641143969836],["phone",-9.489095277131273],["handle",-9.489180799068231],["strict",-9.491818030082696],["German",-9.494429581764445],["born",-9.494530697461503],["twist",-9.494634779232799],["enjoy",-9.494687143974838],["deliver",-9.495454929662053],["sugar",-9.495458788613993],["finger",-9.495578070613192],["hands",-9.496224241412262],["layer",-9.496441816256699],["foolish",-9.497606907578612],["positive",-9.498414898170143],["commit",-9.499062349477805],["demand",-9.500430720399388],["solid",-9.501863019812031],["listen",-9.502549278198952],["pull",-9.504714046820268],["coming",-9.505220048616401],["id",-9.505759021378744],["girl",-9.506441489952692],["ying",-9.5090372726376],["2",-9.510837299013641],["entire",-9.511246662189789],["aspect",-9.511411519774434],["technique",-9.511822283439582],["media",-9.511901194355366],["enter",-9.512557701475364],["prepare",-9.515191499606864],["truth",-9.516853156329013],["significant",-9.51737492592146],["illegal",-9.51738643353674],["penis",-9.519550052879147],["topic",-9.519851630618168],["burn",-9.523016626387351],["enem",-9.523443771776751],["confidence",-9.527546037562148],["title",-9.527846254210695],["student",-9.52822821777303],["successful",-9.528784984851592],["inferior",-9.529109904570749],["if",-9.53066243497225],["lay",-9.531314439779198],["eight",-9.533472749842515],["19",-9.534267566728191],["Brit",-9.53461146345585],["price",-9.536182410987717],["ate",-9.537325895490767],["blow",-9.53787283042956],["creat",-9.537907710689339],["fight",-9.538671938916341],["bound",-9.541119987411836],["G",-9.542410384552316],["weapon",-9.544359193107738],["mak",-9.544441309171274],["interval",-9.544774282588905],["inhabitant",-9.544783534350444],["severe",-9.545500407180374],["Full",-9.545558860958575],["defeat",-9.545876425490754],["how",-9.545909733374819],["better",-9.546731379808469],["bitter",-9.546961763515888],["division",-9.547150097993722],["obligation",-9.547155009082633],["code",-9.54730197189225],["tight",-9.548445722151218],["lly",-9.548931881903439],["indicat",-9.55023331450577],["visual",-9.550662227252179],["haracterize",-9.551452165820944],["ge",-9.5515119051172],["enclose",-9.551961127508726],["sky",-9.552088801991365],["breath",-9.554163302022907],["firm",-9.554386936268909],["stop",-9.55458722854544],["li",-9.555810618783905],["tissue",-9.555862862927956],["green",-9.556145726368733],["longe",-9.556234726178051],["agent",-9.557296957078934],["mis",-9.56036629397375],["video",-9.562495378708817],["cold",-9.563298182770183],["rance",-9.566201550287543],["basi",-9.56638956977104],["broke",-9.57036042158166],["America",-9.57047779294972],["trans",-9.57528288568289],["ond",-9.576896658915933],["conscious",-9.578727773883749],["North",-9.579121267460167],["Japan",-9.579179399962495],["Like",-9.57919792921233],["milk",-9.579766375185041],["health",-9.580124663558657],["improve",-9.580209624466772],["smooth",-9.580369991334848],["consideration",-9.581392926463625],["comfort",-9.581425154857406],["grant",-9.581443484504927],["mechanical",-9.582150060081384],["unusual",-9.583318961027583],["exhibit",-9.583481624015004],["combine",-9.583508365371122],["benefit",-9.58405177961262],["employ",-9.58425215458811],["anger",-9.584433724291795],["basic",-9.584552501939918],["assign",-9.585055007746707],["weak",-9.586247123600488],["cloud",-9.586964261976743],["resident",-9.589704544386084],["ight",-9.590388997605155],["precise",-9.591762772256361],["di",-9.592166231574767],["ice",-9.5931197156509],["load",-9.595826659246203],["must",-9.596906465100346],["immediate",-9.59779875224854],["unexpected",-9.597807874945993],["critical",-9.59793976981781],["protection",-9.597948935342194],["center",-9.598879248438635],["street",-9.599008879406597],["Us",-9.599131216731621],["possess",-9.601957712085202],["meeting",-9.602246389476841],["ture",-9.603554709062863],["inspir",-9.603672607062105],["attribute",-9.603889379660512],["professional",-9.604684258085696],["run",-9.60557332746001],["coat",-9.605591651271457],["televis",-9.60882203623239],["attend",-9.609353469802295],["ver",-9.60957659468947],["push",-9.60963364643549],["whe",-9.610789575857606],["Roman",-9.612055354811552],["box",-9.613142266210673],["applie",-9.613603008558371],["–",-9.61515273933092],["bottom",-9.615189086674125],["application",-9.616406318098836],["occurr",-9.617955507484051],["particle",-9.618556911803058],["access",-9.618682359550473],["risk",-9.61945878859052],["covere",-9.620123497714498],["philosoph",-9.62264007644702],["permanent",-9.62265219608237],["representation",-9.624210266326347],["Chin",-9.624333484600086],["roll",-9.625257974796199],["te",-9.626416818197928],["Gree",-9.628278517227933],["medical",-9.628543166138558],["loose",-9.628869030544173],["opening",-9.63093022508342],["straight",-9.632906091667598],["cycle",-9.63319644686396],["z",-9.63367160603417],["muscle",-9.633854416212719],["garment",-9.63393958833582],["accomplish",-9.634482801307055],["sufficient",-9.63453835659246],["difference",-9.634613070360519],["decision",-9.634721346054285],["model",-9.634853841549091],["harsh",-9.635206208806569],["private",-9.636437456617713],["unknow",-9.636839933914203],["extension",-9.637025389390336],["categor",-9.637537105306084],["quiet",-9.637926794620666],["cast",-9.639188700466711],["alter",-9.639292201700101],["empty",-9.640981280001894],["surrounding",-9.64374867646131],["addition",-9.646679838530229],["identit",-9.646974157544143],["4",-9.647095967330147],["via",-9.647186796130125],["hear",-9.648423588806219],["develop",-9.649548441137647],["descen",-9.650446023608605],["outer",-9.652932961240694],["cry",-9.65315936607293],["commercial",-9.653182888847002],["attract",-9.654260227249349],["thorough",-9.654933096366818],["volume",-9.65508075612685],["operate",-9.656420190230754],["procedure",-9.656769227162123],["effective",-9.6567935483992],["usu",-9.657347247814304],["eld",-9.65745414985513],["among",-9.658335081087925],["glass",-9.658886650464167],["dead",-9.660872992809933],["ory",-9.660911083355195],["clean",-9.66224405558642],["hit",-9.663835842200918],["wrong",-9.665746435364941],["determined",-9.665901763202315],["provid",-9.666430606908147],["boat",-9.668006429287836],["spoke",-9.668860678518346],["thick",-9.671412683409086],["Excessive",-9.671853553681926],["responsibilit",-9.673248562078498],["container",-9.673252596427798],["cook",-9.673555903479409],["impression",-9.673652139951349],["delay",-9.674109326937131],["trust",-9.674275253362662],["wave",-9.674492842310299],["mistake",-9.674817096307782],["restrain",-9.675895316102968],["ious",-9.675897563085954],["omen",-9.676460271337408],["ir",-9.676604716247997],["calm",-9.67710612309813],["partner",-9.677637647687588],["occurrence",-9.678631618985623],["slender",-9.679110761676483],["electrical",-9.680624630165834],["financial",-9.68089675400934],["recent",-9.682495776135365],["countri",-9.68316753476536],["non",-9.683549708150792],["address",-9.683817319707275],["tail",-9.684827843991084],["hel",-9.687280692961716],["across",-9.688213005199179],["fine",-9.68876994273032],["assume",-9.688916686533158],["judge",-9.689558225007625],["heart",-9.690322169803071],["simple",-9.690687348174507],["bearing",-9.69073658964898],["pleasant",-9.690748278359326],["competition",-9.691447226370652],["disturb",-9.69162124940581],["combination",-9.691868349334598],["election",-9.692013920155063],["profit",-9.692309815211987],["late",-9.692510447108642],["measurement",-9.693243195042815],["hang",-9.694133509540446],["construction",-9.696543169077575],["fitting",-9.69692972681475],["station",-9.698676330817653],["partial",-9.69894661200735],["dden",-9.699849438798436],["user",-9.699876263612378],["pipe",-9.700445375230167],["acquire",-9.70132083446052],["fit",-9.704326008135903],["labor",-9.707022328127664],["radio",-9.707727785565677],["arms",-9.708637584269379],["seem",-9.70876091664218],["English",-9.711447549319164],["romantic",-9.712669790782487],["exceptional",-9.712683851935243],["per",-9.71362731694246],["connection",-9.714028206107423],["earlie",-9.71528137345407],["grain",-9.715810121694169],["adjust",-9.716417938630634],["su",-9.717998492704695],["aware",-9.718349889741088],["eye",-9.719255615424974],["outward",-9.719356871238832],["suggest",-9.720573447267196],["ried",-9.72058854081349],["20",-9.720839514731706],["thread",-9.722414444078833],["smalle",-9.72254863451898],["spiritual",-9.722761349050016],["execute",-9.723652295438507],["brown",-9.723810502905323],["availab",-9.726428138403193],["copy",-9.726731048595115],["8",-9.72785023594766],["article",-9.7305079288662],["page",-9.730552221907756],["foreign",-9.731187691478992],["formation",-9.731481027385659],["contract",-9.731571270635326],["corrupt",-9.732816642101147],["perception",-9.733991950293358],["continuous",-9.734303885305904],["semi",-9.735248283492203],["prepared",-9.735318481887788],["institution",-9.736611767443641],["Jew",-9.73762157564013],["istic",-9.738361599690522],["logical",-9.738879264430093],["complex",-9.740252758175387],["danger",-9.740733480999854],["6",-9.74163994251764],["angerous",-9.742157509729674],["confine",-9.743567172542743],["manufacture",-9.7443843516597],["independent",-9.746840336536952],["currenc",-9.747453844664768],["approach",-9.747460744405837],["courage",-9.748382822469226],["honour",-9.750213527405972],["clothes",-9.752017102955955],["search",-9.752156782283809],["Christian",-9.752644549912535],["fault",-9.75273201184395],["advantage",-9.753173761305371],["relation",-9.754263952975341],["affair",-9.754708458884497],["exercise",-9.757133200972254],["inner",-9.758030062900186],["grade",-9.759780361772552],["fix",-9.759985592316712],["ome",-9.761819650922481],["match",-9.762245131062816],["bold",-9.762568031529417],["sweet",-9.762773463041118],["ess",-9.768828092179145],["sensation",-9.768984690958428],["border",-9.771182972681114],["lives",-9.771335119267226],["drawing",-9.772765677711496],["attenti",-9.773629075777636],["purchase",-9.773911145348219],["communication",-9.774015325515478],["decorative",-9.774312620965938],["ding",-9.774442474728955],["preced",-9.77466052979283],["reveal",-9.775262928202489],["insert",-9.775754365377214],["architectur",-9.776062911050836],["strike",-9.776570599734182],["Free",-9.776936278819424],["request",-9.777757981471764],["modifie",-9.778281571610076],["Serv",-9.778784378126435],["Happ",-9.779225895404643],["silver",-9.779838742113833],["sports",-9.779885486169448],["fast",-9.780139553201096],["ab",-9.782513552617866],["circular",-9.782689552740974],["minor",-9.78335279914305],["nough",-9.784053705320744],["ible",-9.78595271407717],["habitual",-9.786968574534118],["Tend",-9.787640789762426],["watch",-9.788394877115696],["waste",-9.789186139105075],["gains",-9.790867396739134],["bar",-9.790884009660505],["temporar",-9.791217688186297],["followe",-9.792014817192015],["see",-9.794139228090774],["parallel",-9.795656158628338],["sentence",-9.79637480708562],["fresh",-9.796522852724786],["photograph",-9.796824426475025],["soldier",-9.797082971688269],["embarrass",-9.797169285880951],["story",-9.797422964795963],["economic",-9.798040890239987],["intention",-9.798326452276305],["ant",-9.798435236847006],["reflect",-9.798523813147003],["signal",-9.799955995274532],["factor",-9.800646410101077],["union",-9.800660005658319],["thei",-9.801751720206106],["restrict",-9.802558020918202],["joy",-9.802791707693174],["track",-9.803528476425363],["favor",-9.80670645504008],["nose",-9.807145509595014],["eather",-9.808131985820571],["mixe",-9.809270656858958],["god",-9.810044778586379],["ou",-9.810893268526167],["spot",-9.811659508858611],["audi",-9.81187017841291],["verbal",-9.813614902203117],["distress",-9.81498358142884],["advocate",-9.81565632620091],["No",-9.816966250052282],["0",-9.81700969120579],["were",-9.817902756245351],["setting",-9.818468289857982],["casual",-9.818530495445462],["circle",-9.81875717512991],["flesh",-9.819376809131716],["ium",-9.819736053003872],["metaphorical",-9.820515821305328],["abnormal",-9.821423029894671],["artistic",-9.822745714077797],["learn",-9.822869702392028],["requir",-9.824262579924277],["deceive",-9.825036152440976],["For",-9.825431653375746],["though",-9.82588168440951],["further",-9.82595932793625],["moment",-9.826824453593222],["5",-9.827179976107795],["warm",-9.827419618379308],["go",-9.828508106150728],["ordinar",-9.828920400641145],["detect",-9.83024586420141],["wish",-9.830265551727846],["boundar",-9.832942265039845],["initial",-9.833552985987899],["appeal",-9.834686723008089],["ter",-9.835164938199563],["command",-9.835189733044352],["ideal",-9.835458623925977],["hope",-9.836021671643575],["favour",-9.836244165512248],["mention",-9.836306685094256],["try",-9.836563572037228],["arrow",-9.838233234043356],["refer",-9.841384837822574],["square",-9.841461434183463],["operat",-9.841524819032816],["ingredient",-9.841700165258016],["beverage",-9.84185783997671],["mor",-9.84227406356775],["Produc",-9.843446926644138],["Dis",-9.844987569891748],["wool",-9.84514798167142],["vision",-9.846055052186571],["outcome",-9.846514962440205],["picture",-9.847272679402543],["total",-9.850519820594855],["absolute",-9.85119250931834],["objection",-9.855862176366783],["phenomeno",-9.856641619051072],["Cover",-9.857520537445804],["j",-9.859289306696182],["accurate",-9.859852311017697],["il",-9.86132094158009],["agree",-9.862269113516515],["void",-9.863529960383083],["biological",-9.864114652703478],["contest",-9.864219619435872],["birth",-9.864633257598724],["kept",-9.864888544205321],["plate",-9.865052110719844],["answer",-9.865134915345688],["co",-9.865165960418567],["target",-9.866520197505999],["mid",-9.868206516079113],["next",-9.868639572984392],["presen",-9.869544520329018],["joint",-9.870922359120453],["leader",-9.871509876083262],["Ear",-9.87165648220315],["Show",-9.872694859856805],["hide",-9.873069670880069],["On",-9.873718417606794],["broadcast",-9.873724613811266],["bear",-9.874538797309569],["final",-9.875232066366978],["gradual",-9.875487770266501],["press",-9.875587501562668],["9",-9.875779705227457],["lock",-9.87602410465613],["vocal",-9.876476364010394],["floor",-9.877061118608568],["Ma",-9.87746767200623],["strip",-9.879165441822455],["Mone",-9.880702559077939],["iron",-9.880736779736019],["suit",-9.881013339378901],["repair",-9.881958669751388],["meet",-9.88252456856797],["secure",-9.88267759600856],["informal",-9.885356897600607],["continue",-9.885839327647165],["dimension",-9.886702449583304],["hole",-9.886877771536641],["platform",-9.887813242917122],["wild",-9.887887521580758],["homosexual",-9.88808744372016],["Latin",-9.888223373253217],["rise",-9.888588795196311],["memor",-9.888635314469632],["Great",-9.88866925331145],["undergo",-9.89011601067565],["timber",-9.8903830067049],["eaten",-9.892194558544979],["threaten",-9.892942212907863],["remote",-9.89294550895626],["instruction",-9.893108146260747],["describe",-9.893354426351094],["indefinite",-9.893589694448432],["declare",-9.893808432976584],["shed",-9.894958428270407],["sembl",-9.895042965307958],["engineer",-9.89545293283538],["ex",-9.896314400126528],["heaven",-9.896644222026293],["ho",-9.897483783880812],["blade",-9.898104987128187],["sphere",-9.898138908488841],["tool",-9.898429073540543],["ers",-9.89873784851784],["ever",-9.900745645386872],["praise",-9.90162036980386],["replace",-9.90286133567108],["logic",-9.903513398501772],["solution",-9.904411696630016],["safe",-9.905182206251201],["brain",-9.90643547772854],["pleasing",-9.906638451682298],["South",-9.906644422568904],["breed",-9.90758970956339],["river",-9.907761994035216],["escape",-9.909831519703356],["author",-9.910479264522918],["sell",-9.910909932396432],["familiar",-9.911093080758915],["temper",-9.911382484900672],["reaction",-9.911508228621015],["communit",-9.912206391972731],["horizontal",-9.91309160411559],["By",-9.914113982862617],["patient",-9.914378993326263],["artificial",-9.914477354878311],["excess",-9.915013380002563],["uses",-9.915092503090467],["publication",-9.91513834633126],["apparent",-9.915196641080007],["exclusive",-9.915575275646416],["notice",-9.9157578224328],["affection",-9.917824017363122],["mode",-9.918421036098],["variable",-9.920859152933303],["referr",-9.920866299600142],["tendenc",-9.921357056727054],["pen",-9.921426634733752],["employe",-9.921622567050298],["mov",-9.92318289086759],["stock",-9.923452563626391],["dull",-9.923596743815773],["brand",-9.924602111964305],["intentional",-9.925519816259014],["Uni",-9.925742934071494],["itting",-9.926235253501506],["participate",-9.926427130443011],["profession",-9.926613383995303],["mix",-9.92725067562029],["obscure",-9.92759748625115],["report",-9.928383502091439],["estimate",-9.92844590641565],["ocean",-9.92900253906434],["incorrect",-9.929645715387194],["organize",-9.93189957313331],["select",-9.932346519348174],["predict",-9.936272396360222],["spend",-9.936967518172139],["collect",-9.93699801211678],["coarse",-9.93727731224729],["Ne",-9.937573489370493],["determin",-9.937706115889512],["Under",-9.938958967955463],["aggressive",-9.939170850083695],["irregular",-9.939636146133513],["remov",-9.940696507210376],["extraordinar",-9.941398959408968],["espec",-9.941839178993288],["climb",-9.942548599436677],["rope",-9.942588024138706],["offensive",-9.94313888146551],["corresponding",-9.943438221025783],["pale",-9.943830548210027],["test",-9.944213749499188],["guard",-9.944743889602742],["persistent",-9.944830371931499],["rising",-9.945566448613636],["incline",-9.946695710633351],["double",-9.94733395514736],["willing",-9.948174541339341],["perfect",-9.948480660943396],["communicate",-9.948950438440514],["supposed",-9.94897619011554],["conventional",-9.949350427478915],["confused",-9.950940675176234],["sides",-9.951488314730474],["drop",-9.951546835441546],["surround",-9.95181182012863],["furnish",-9.952688391866443],["establishe",-9.953121621731787],["steal",-9.953726566532564],["cool",-9.95462315589366],["might",-9.955134642263976],["Giv",-9.955422383229056],["Per",-9.95595291110337],["tax",-9.956543310068778],["protein",-9.957026410142873],["Mark",-9.957655111694121],["De",-9.958422008439312],["zero",-9.960289157122217],["dwell",-9.960875426057083],["ceremon",-9.96148727698864],["conversation",-9.96296400836362],["creature",-9.962977502511126],["locate",-9.963131435323657],["Specific",-9.963138068387158],["criticism",-9.963432571107155],["intellectual",-9.963565503463013],["downward",-9.963803495150696],["hour",-9.964794584923295],["observation",-9.965469751261832],["atom",-9.96553396071004],["consume",-9.966454366052803],["undesirable",-9.966862314668905],["desirable",-9.96687100331206],["generation",-9.967058474189383],["stretch",-9.96773969352095],["efined",-9.967923348197905],["Intern",-9.968279773877548],["entit",-9.968393618517654],["residence",-9.968729799940862],["remarkabl",-9.970992937835609],["screen",-9.971258492795393],["continu",-9.971504547326745],["sale",-9.971781124982336],["begin",-9.972905783682236],["stress",-9.972958985682748],["Suit",-9.97551292435618],["worker",-9.976618877724228],["gun",-9.978828031057626],["sight",-9.979617129051064],["adorn",-9.979622268759721],["settle",-9.980215834186748],["laws",-9.980317923597129],["cost",-9.981220272268706],["tender",-9.98259981456024],["fold",-9.983820824431312],["Asian",-9.985285650547464],["acial",-9.98558755491343],["engine",-9.987894310734713],["cord",-9.987949738831395],["intend",-9.98798080654727],["mechanism",-9.989001511725695],["beautiful",-9.989165332528811],["punishment",-9.989446121767354],["breast",-9.990053768907982],["texture",-9.99034001361808],["discussion",-9.990941857247073],["Africa",-9.991940100423614],["boy",-9.99278766046928],["tupid",-9.993009620275384],["constant",-9.993168584390837],["decorate",-9.99372386214711],["sing",-9.99392771868913],["suspend",-9.994475794993729],["beat",-9.995353632203367],["illness",-9.996568260220263],["becom",-9.996673333184301],["port",-9.997484080914834],["find",-10.000118624105765],["still",-10.00049847821689],["mountain",-10.000778018612664],["wing",-10.003372911874326],["gen",-10.004836685949158],["ends",-10.00617047134935],["served",-10.006487741921443],["ural",-10.007563181679046],["our",-10.009354061978483],["India",-10.009391392700895],["induce",-10.010085142087831],["scene",-10.010115458718502],["manual",-10.010175492605134],["fasten",-10.010521753738168],["custom",-10.010540091556866],["cal",-10.01057829455223],["oving",-10.010616250243986],["determine",-10.011978892512328],["ake",-10.012827593296832],["five",-10.01353939948805],["ian",-10.013579230108638],["blue",-10.013804736343644],["destin",-10.01550302194165],["disagree",-10.016033025558484],["jump",-10.016171205536702],["judgment",-10.016195024658902],["wealth",-10.016631556271431],["fundamental",-10.016804746276176],["relevan",-10.01787135386819],["identify",-10.018521369193422],["smell",-10.019033694593924],["el",-10.019081195397852],["external",-10.019370332646876],["seek",-10.019962946650198],["ature",-10.019975125040867],["ac",-10.020070789058796],["carbon",-10.022352426656077],["equivalent",-10.02250204133237],["happ",-10.024117785277005],["definite",-10.02472570900183],["Eas",-10.024814127730204],["win",-10.025532446732537],["ask",-10.02890169790016],["stor",-10.030806759111451],["miss",-10.031268141529933],["gas",-10.032001918324413],["anti",-10.033201651847252],["research",-10.033555507650778],["web",-10.03456804674416],["stay",-10.035434591298943],["shock",-10.035776266108336],["Asia",-10.03594394414645],["comfortabl",-10.03632495978523],["im",-10.038254941683157],["deck",-10.039615274909501],["ometh",-10.04014470373511],["unique",-10.043957689182532],["debt",-10.0440418224232],["civil",-10.044279175460442],["mutual",-10.044281988243812],["fair",-10.04440489807056],["consistent",-10.04480471782817],["grasp",-10.04492982349337],["limb",-10.04520886955948],["depression",-10.045261878370678],["contradict",-10.045315809010528],["slope",-10.045360047061994],["bodie",-10.046303535410969],["despi",-10.046613192246081],["fille",-10.047561439394592],["extra",-10.04881538597797],["adopt",-10.049239776635524],["ti",-10.049386036045387],["seed",-10.04977706020911],["doctrine",-10.050336989923602],["minute",-10.050808367277618],["weather",-10.05084289951216],["sum",-10.051362894805198],["kick",-10.051587265395312],["technical",-10.051698132927173],["debate",-10.051817538801988],["trip",-10.052399455349716],["universit",-10.053009615839041],["pon",-10.053125323540328],["shin",-10.055264923567648],["spin",-10.056134466379572],["promise",-10.056433025085232],["propose",-10.05860047788017],["couple",-10.062577157239486],["salt",-10.064232513416409],["molecule",-10.06435752222616],["centre",-10.065489881974658],["ological",-10.067329121115826],["Indian",-10.06804040718155],["nucle",-10.069915100552146],["date",-10.070012739876029],["concret",-10.07105597333146],["assembl",-10.07108430598485],["rench",-10.072093317999618],["powder",-10.072414299712614],["vague",-10.072453530551225],["conclusion",-10.0724697219139],["dishonest",-10.072923188303655],["transmit",-10.073097014131232],["Consist",-10.073291905854393],["uniform",-10.073490950748669],["explain",-10.073986325002105],["sed",-10.074612833521499],["finish",-10.075298771547759],["leas",-10.076703015313214],["silk",-10.076708072601761],["distant",-10.077082268513273],["count",-10.078102382097226],["do",-10.078768689205425],["adapt",-10.079100986545205],["discharge",-10.07990916677871],["wait",-10.081243195944669],["situate",-10.084094715346993],["cable",-10.085139433529912],["shade",-10.086139122185386],["stem",-10.086547398647577],["coast",-10.086661371624484],["repeat",-10.087470308565539],["national",-10.088484731375717],["generate",-10.089128102001494],["qualifie",-10.089513759361385],["favorabl",-10.089698165353486],["shoot",-10.091114022672803],["magic",-10.092155391289705],["paint",-10.092309015101142],["rate",-10.09237976395238],["bi",-10.092408985068584],["intelligen",-10.09242948388287],["passion",-10.092627809340902],["putation",-10.092679815466218],["bit",-10.093656356723695],["trail",-10.093802396936633],["pro",-10.09514828947816],["tell",-10.09558554053122],["exhaust",-10.096030345206767],["approximate",-10.09735951549186],["Europe",-10.097988024353995],["develope",-10.098143534366429],["la",-10.098447523119956],["oppos",-10.099394019431127],["ial",-10.099750030705335],["va",-10.101615447317736],["Sexual",-10.101955426298076],["dramatic",-10.101995893093214],["vigorous",-10.102039948506844],["mammal",-10.10256369135687],["improper",-10.103341343351765],["fellow",-10.103404487089094],["Easter",-10.103514582640555],["obstacle",-10.103904426798707],["Use",-10.104216221474767],["awkward",-10.104456984067685],["education",-10.105095591910493],["atmospher",-10.10512457990903],["domain",-10.105521610338076],["shoulder",-10.105845480993642],["conform",-10.10631631480638],["saying",-10.106956534133388],["faith",-10.107279816470186],["flight",-10.107687867483458],["practical",-10.10835617926493],["ze",-10.109709206070525],["six",-10.110199257881174],["split",-10.112349833875482],["bind",-10.112400904102854],["shot",-10.114542009117935],["dirt",-10.114650243815912],["penalt",-10.114983463456987],["grass",-10.11536489817518],["technolog",-10.11549884119566],["employee",-10.115675177571935],["vote",-10.11592064850492],["bill",-10.11705797025776],["receiv",-10.11712053675653],["seeming",-10.11723157406691],["pack",-10.117462691156568],["moon",-10.118058311935085],["inappropriate",-10.119435150576622],["mild",-10.120338132901951],["unspecifi",-10.121367565075174],["depend",-10.121780378358089],["lift",-10.123705826207466],["favourabl",-10.12428267532723],["strange",-10.124504366482618],["bodi",-10.124511416575443],["10",-10.124642457641002],["bet",-10.124841129210676],["ride",-10.125389673531398],["plug",-10.1285399446196],["plane",-10.12867359010359],["abundan",-10.128851155284794],["note",-10.129142395414894],["Fro",-10.130271773464369],["See",-10.130808978722317],["18",-10.13092414958347],["file",-10.131750536227429],["passenger",-10.132132056928839],["mineral",-10.13218254053457],["conflict",-10.13225833696336],["yellow",-10.133049396562518],["genuine",-10.133946013599148],["transaction",-10.133982982430755],["restriction",-10.134640113973587],["impulse",-10.134901262703895],["requirement",-10.134930412841397],["symptom",-10.13518138026151],["dislike",-10.135489452083474],["rail",-10.135782126822708],["combat",-10.136329927526367],["resemble",-10.136716322038161],["Mars",-10.137236689446677],["obvious",-10.137315698751692],["internal",-10.13833869307464],["God",-10.139107675541354],["ornament",-10.139199453022895],["hunt",-10.139721202433616],["bond",-10.140560208303981],["insect",-10.143669961354119],["fur",-10.143716730802854],["delight",-10.144874992945683],["prior",-10.144883208357793],["shake",-10.145533966182693],["eeth",-10.146669038741436],["additional",-10.14732038687897],["credit",-10.14797035941386],["atomic",-10.148547951228643],["alternate",-10.150703205378706],["wash",-10.150867936268526],["flexib",-10.151444870343635],["plain",-10.151455242339523],["fic",-10.151606689088545],["capab",-10.152137817016497],["compris",-10.15331798341683],["formula",-10.153327847625496],["Ha",-10.153748815417519],["shore",-10.154848722459668],["rain",-10.155366538772965],["Engl",-10.156388025477598],["grand",-10.157875624172027],["clock",-10.158497618253818],["impossib",-10.158790155610717],["proof",-10.158937434972007],["publishe",-10.159502908248076],["African",-10.160110539954777],["pure",-10.160610138503026],["angr",-10.162286078347638],["rude",-10.162470034943455],["sect",-10.162666926079517],["tense",-10.16309218171115],["column",-10.163349469158291],["candidate",-10.163380525072],["confuse",-10.163594797589449],["participant",-10.163681164906343],["privilege",-10.163694430479628],["sovereign",-10.165401158483265],["anxiet",-10.165601975298527],["abrupt",-10.165629909226475],["impact",-10.165774778531176],["tradition",-10.165861406631713],["college",-10.166419441314922],["seat",-10.166470212173051],["snack",-10.166565010634034],["satisfy",-10.166882132658065],["police",-10.167264827386555],["battle",-10.16731629729931],["decay",-10.167644830344724],["intent",-10.16928293251775],["Most",-10.16998128720997],["subtle",-10.170002631557951],["unti",-10.171153959893008],["dry",-10.17361327297839],["cream",-10.174161919951807],["bowl",-10.174782108598],["tube",-10.178440470954154],["teaching",-10.178912289173562],["prove",-10.181194761301239],["oney",-10.18171474051788],["adult",-10.185686215661354],["resist",-10.185748094721196],["literal",-10.186433188651382],["heavi",-10.188064963289746],["oil",-10.18861536068399],["rely",-10.190039682256813],["stilt",-10.192171068728186],["bone",-10.192744651811646],["genera",-10.192966880536837],["notabl",-10.1933982796789],["substitute",-10.193740289219493],["complain",-10.194369287215748],["dog",-10.194455153273838],["gent",-10.194922430424079],["bread",-10.19529790815876],["objective",-10.195523917200823],["—",-10.195596002154797],["facult",-10.195999909771025],["discover",-10.19607180671128],["sam",-10.196169525534339],["contemptibl",-10.197015487385935],["agricultur",-10.197074227411013],["scienti",-10.197305374068591],["summon",-10.197459139508021],["carriage",-10.197511508857598],["elaborate",-10.19765380824808],["wicked",-10.197912643746129],["tend",-10.1987612609068],["expectation",-10.198905017181074],["mail",-10.199849910913734],["souther",-10.20087085638108],["genetic",-10.200988432466431],["luck",-10.201251043855464],["sea",-10.201986298615694],["sick",-10.202449205838414],["thos",-10.202565077250346],["terrible",-10.203734197883595],["preference",-10.204374985303954],["belong",-10.204876397740827],["phenomen",-10.205732363030547],["shift",-10.206835408310337],["promote",-10.206903564869162],["excit",-10.208376788087357],["choose",-10.208514647136862],["playe",-10.20917653823897],["norm",-10.210532948262038],["visit",-10.211090413143188],["slide",-10.21121549739872],["movie",-10.211288805976642],["talent",-10.211514725649842],["ency",-10.21335763697233],["Exist",-10.215649817635693],["ied",-10.216184530894623],["sole",-10.218957182031794],["Intend",-10.21936330569025],["assist",-10.219504139598113],["separat",-10.219517588360171],["thir",-10.219909565459785],["ears",-10.222512767023064],["histor",-10.222571099021156],["digital",-10.222773968333847],["capture",-10.22282281909468],["territor",-10.223935252618716],["drag",-10.224320166871511],["worm",-10.224723644597516],["servant",-10.226230252743115],["should",-10.226608709986213],["ening",-10.226857678215206],["exploit",-10.227150023636057],["abstract",-10.228677003124128],["xis",-10.228941988347446],["comparison",-10.228966746485511],["Follow",-10.228977045166793],["extende",-10.22997073100745],["wedding",-10.23021983166348],["academic",-10.23024844601308],["clever",-10.230713481529278],["responsibl",-10.230739456768237],["tired",-10.23113608475531],["rigid",-10.231144499562436],["ought",-10.231720249679979],["upward",-10.23205412762237],["compos",-10.233852438628695],["cha",-10.234563684808396],["best",-10.234755861629969],["marri",-10.234797884323658],["crowd",-10.236550647433578],["reasoning",-10.237729248634551],["prominent",-10.237994599725901],["defense",-10.238267142687846],["themsel",-10.239084477616746],["counter",-10.239125067682643],["officer",-10.239167408253117],["rmed",-10.239493273035968],["wrongdo",-10.239662738475353],["cavit",-10.239899363083556],["zone",-10.240041541596995],["noble",-10.240558788257166],["crystal",-10.241057251265502],["impress",-10.241097375604172],["send",-10.241633210193534],["jack",-10.24195321329773],["acing",-10.242031949115107],["occupation",-10.242166963499448],["dispute",-10.242724507281789],["exert",-10.24276599926359],["roof",-10.243062042330271],["scope",-10.244044722672097],["pick",-10.244333121932026],["expert",-10.24434361282076],["violen",-10.244518481310722],["All",-10.244711566567684],["engag",-10.245455200516494],["divine",-10.245681448659909],["encourage",-10.245714828821418],["helter",-10.246945052083424],["introduce",-10.24705784274131],["ro",-10.248719628675602],["blind",-10.250741667969216],["ned",-10.251441675019171],["ist",-10.251482566542274],["height",-10.251834076520476],["endure",-10.252297022147612],["West",-10.252428385660604],["option",-10.252566203809709],["puzzle",-10.253090318716374],["reverse",-10.25313442684157],["rush",-10.25390858383669],["band",-10.254233627843492],["mo",-10.254333464502627],["ound",-10.254437815173183],["stead",-10.255882269205781],["ethnic",-10.256065854352514],["withdraw",-10.25852247118097],["govern",-10.258885972310589],["pa",-10.258974998748158],["functional",-10.259083446008807],["worse",-10.261378033039552],["award",-10.261452300459565],["consum",-10.262181759854153],["vulgar",-10.263188975747587],["ad",-10.263412241546888],["Concern",-10.26358304992346],["vowel",-10.263644320235098],["illicit",-10.263684004210782],["cotton",-10.264072814357437],["writer",-10.264681094867985],["expose",-10.264717947454557],["dimensional",-10.264901711173998],["oxygen",-10.265336001558621],["bow",-10.265404990370175],["temperature",-10.266210124938437],["unwa",-10.266265560354785],["enthusias",-10.266371720258752],["freedom",-10.266384356652688],["grammatical",-10.26642326462877],["appetite",-10.266481298286923],["stuff",-10.266778178694715],["contempt",-10.266820990030643],["scoop",-10.266833677711995],["trait",-10.267020087170442],["artist",-10.26767021470961],["link",-10.267784052887478],["usage",-10.268005069890883],["truck",-10.26824004443052],["designate",-10.268454463007886],["indication",-10.26845791967786],["reward",-10.268599961383272],["contrive",-10.269031942603515],["7",-10.26906672128441],["arrogant",-10.269264509111474],["burden",-10.269359211007819],["characteris",-10.269587255273072],["dignit",-10.269807020658757],["plann",-10.269927786405542],["belo",-10.270504579029954],["geographical",-10.272901306662835],["Whi",-10.272953936537933],["mount",-10.273134436365437],["nstead",-10.273718042201974],["Out",-10.273807609874972],["burst",-10.273990596136755],["nerve",-10.274791323718201],["sauce",-10.276815101037618],["Ital",-10.276925431331119],["ink",-10.277848539822852],["imply",-10.278780001865488],["cultural",-10.27907181866883],["welf",-10.279162792237365],["studie",-10.279591858010562],["constrain",-10.279896330511512],["attain",-10.28036619260073],["medicinal",-10.280518089989025],["greed",-10.281509982954105],["topping",-10.28151300314104],["excellent",-10.282280161759232],["iddle",-10.282468045020037],["contrar",-10.282943518908835],["tele",-10.283002915737228],["valid",-10.283464606772222],["wit",-10.28364262005016],["cutt",-10.283845200158302],["far",-10.285161100874934],["staff",-10.285311155497816],["hook",-10.28559177853733],["bilit",-10.287577461586531],["master",-10.288587862050548],["distribute",-10.28875197366988],["soil",-10.288918369319521],["bias",-10.289338686509867],["excellen",-10.28963196672614],["nonsens",-10.289934421144165],["announce",-10.29253394344187],["industr",-10.292645778542225],["had",-10.292842612910796],["upo",-10.294307812111729],["wo",-10.296008939035808],["honest",-10.296360502575467],["vegetable",-10.299327551707542],["rid",-10.299489220490386],["subordinat",-10.299597830594962],["segment",-10.299684668682872],["circuit",-10.299790114128893],["define",-10.299904138712256],["impressive",-10.300179295253386],["effeminate",-10.300633503835801],["combin",-10.300884441195453],["organisation",-10.301338044754559],["week",-10.301606996877227],["interaction",-10.301665533336095],["happi",-10.301674117187126],["adjacent",-10.302260503785966],["recurring",-10.302589795504396],["mood",-10.303485089096467],["subsequent",-10.30351745527754],["shadow",-10.304395312167829],["tough",-10.304672088469431],["50",-10.304884954566377],["backward",-10.304997545275961],["import",-10.305609971243102],["obstruction",-10.30584978201085],["trial",-10.306405065778705],["ning",-10.306788972471303],["map",-10.30731810542843],["guilt",-10.307906140812257],["feed",-10.308042497011636],["Central",-10.308554919778869],["opportunit",-10.309305354049297],["speaker",-10.309411795708392],["pai",-10.310399110781683],["we",-10.310491729610128],["phase",-10.310913415634719],["aim",-10.310956139050438],["cious",-10.311451605439078],["unimportan",-10.31247164164705],["lake",-10.313497679483813],["infant",-10.314379797810917],["feather",-10.31445047263672],["reading",-10.314699490141464],["driv",-10.315052854947396],["resistan",-10.315719145827687],["Close",-10.31687255524172],["winter",-10.31690685310458],["bas",-10.316985990692224],["cultivate",-10.317068149561484],["customar",-10.317143532768553],["cu",-10.318921688297932],["emit",-10.318933875060248],["panish",-10.319208929271133],["Cap",-10.31975371385633],["lling",-10.319870516011717],["holes",-10.319896517841123],["cease",-10.320399236301473],["stimulate",-10.320548070195262],["accompanie",-10.320979773304332],["compare",-10.321686321336685],["ction",-10.321905416085395],["domestic",-10.32295135168635],["cup",-10.323316314581543],["insult",-10.323377610688578],["terior",-10.323897740666888],["strand",-10.32511833734627],["ery",-10.325287060174892],["unk",-10.325779236966975],["comes",-10.325833928539716],["refuse",-10.326602163438674],["owing",-10.32686149573355],["bend",-10.328473752680438],["cheat",-10.33014315961541],["assistan",-10.330644730847645],["complicate",-10.331287367974078],["Don",-10.332680987080751],["father",-10.333767530418385],["itter",-10.335663113436414],["omach",-10.336030782078446],["celestial",-10.33616409362678],["haphazard",-10.33616615376701],["Difficult",-10.336206588186542],["vagina",-10.336277893415602],["flavour",-10.336485312665703],["stroke",-10.336785358757508],["cheek",-10.336831241375403],["indulgence",-10.336922786520184],["decoration",-10.337233314830515],["tongue",-10.337374333043773],["administer",-10.337593676074837],["rotate",-10.33761482049286],["flame",-10.337686275780497],["educate",-10.337913857046527],["agenc",-10.338010905986359],["crop",-10.338313206175053],["absorb",-10.338320515968098],["playful",-10.33998597695473],["pluck",-10.340607859275574],["tip",-10.341107687427078],["hic",-10.341348049570051],["achievement",-10.341357096514692],["ining",-10.341799149295614],["frequenc",-10.342180591101023],["par",-10.342545875088668],["gift",-10.342709485178041],["examination",-10.34319703529005],["invent",-10.343440559531091],["elect",-10.344191371238583],["proceeding",-10.344202411168514],["wire",-10.345516746166432],["oppose",-10.345647167909632],["month",-10.345831223345272],["intermedia",-10.346577000399506],["random",-10.346583434275399],["ritual",-10.34755461527256],["earing",-10.347576842397094],["session",-10.348790467266369],["novel",-10.348898198045552],["rich",-10.349017171705697],["aster",-10.350250743461531],["vice",-10.351220062702634],["batter",-10.352925000781749],["moderate",-10.35316111084742],["ba",-10.354260759664957],["examine",-10.354332834088844],["manipulate",-10.354841940725757],["sun",-10.354970859787787],["bacteria",-10.355565468952408],["stable",-10.35583595210972],["baby",-10.356530333797384],["older",-10.357693208605669],["passing",-10.359167161352431],["creation",-10.360398985577486],["performe",-10.361094212844943],["verse",-10.361407029356247],["temporari",-10.361478629604788],["ception",-10.362798221202665],["ilit",-10.362798621532423],["gentle",-10.364105068482647],["exceed",-10.365060056439155],["grey",-10.365345149596898],["ornamental",-10.366059629846596],["seven",-10.368098951877155],["passe",-10.368181042477017],["Characteris",-10.36953453701444],["guide",-10.369695233604858],["chees",-10.370386724220493],["tension",-10.371174108351562],["holder",-10.371232998365667],["K",-10.37250438797405],["prone",-10.373731167996468],["Last",-10.37424823926445],["Possess",-10.374494616899831],["perspective",-10.374637806216034],["Church",-10.374651314360207],["underst",-10.374798303256219],["mislead",-10.374833111558935],["groove",-10.374897636643544],["syllable",-10.375160672731539],["Complete",-10.375267330850424],["variation",-10.375444051297656],["percepti",-10.37545558109057],["few",-10.375633033350082],["annoyance",-10.37564089165247],["imperfect",-10.375656562194468],["op",-10.375706259069666],["regulation",-10.375763367800717],["bag",-10.375887197156644],["War",-10.37604120130858],["upset",-10.376250952338106],["unnecessar",-10.376684062364452],["Common",-10.37671169292718],["patroniz",-10.376863197704147],["simultaneous",-10.376878894638786],["click",-10.376888043789094],["barrel",-10.377039308047221],["bestow",-10.377205584569184],["ambigu",-10.377694818094678],["accusation",-10.378238239452049],["stiff",-10.378255167277842],["surprise",-10.378335912754917],["genital",-10.378501580779755],["useful",-10.378608195408074],["ancestor",-10.378708020621414],["clause",-10.378731337976742],["garden",-10.378898102077514],["fence",-10.37987263200402],["psycholog",-10.379972725191625],["follower",-10.381088109188076],["warning",-10.381402211105051],["overwhelming",-10.38242595441804],["prostitute",-10.383020587245412],["customer",-10.383059646734296],["sh",-10.383745934556437],["tain",-10.385654572015577],["proportion",-10.386321900659638],["wi",-10.386432851433277],["Support",-10.387250600916392],["sting",-10.388037884766764],["horses",-10.388224801537248],["Describ",-10.389142212311274],["defect",-10.389774225565773],["fool",-10.390104295381509],["ag",-10.390778455716013],["Medi",-10.391376079419357],["mon",-10.392124965545992],["myth",-10.392209192366192],["waist",-10.392541429342193],["mink",-10.392993068326478],["ensure",-10.39393950615196],["sample",-10.395571415769943],["pour",-10.395571447853005],["keen",-10.396110570482353],["vari",-10.39643928285182],["16",-10.396808920094841],["presentation",-10.397100753221016],["crack",-10.397871207327352],["please",-10.398201629163383],["popula",-10.399752758998856],["les",-10.400188181693473],["so",-10.400696047606974],["flatter",-10.40109940120976],["eath",-10.401842656517008],["passive",-10.401980454394074],["shine",-10.402169455798552],["beaut",-10.402389070955824],["enlarge",-10.403546341052177],["leap",-10.40355621938257],["invest",-10.403642815987002],["significan",-10.405060739594798],["otic",-10.405401373938004],["observe",-10.405414104825391],["loop",-10.40551028577969],["com",-10.407089829174287],["rational",-10.407991345175432],["elegant",-10.410789384113128],["reject",-10.411943333707882],["injure",-10.411975360118381],["rear",-10.411984500760074],["penetrate",-10.413529052410325],["explosi",-10.41412771864757],["usceptib",-10.414154847094403],["ren",-10.414263218044955],["Australia",-10.414625090295955],["basketball",-10.414744960504466],["restaurant",-10.415070134304335],["shrub",-10.415078387029935],["painful",-10.415242258997733],["bottle",-10.41536295958496],["sculptur",-10.41546019044259],["implement",-10.415499101450111],["agitate",-10.415547739379484],["root",-10.415564725483854],["forcibl",-10.415793403211511],["generous",-10.415852033019267],["distributi",-10.415887745943774],["discern",-10.415975314705943],["recording",-10.416611292950883],["nervous",-10.416939012308136],["ghost",-10.417149339351571],["encounter",-10.417590982132722],["accordan",-10.417815766965699],["club",-10.417831612286516],["eduction",-10.418111326351212],["famous",-10.418680985053028],["respective",-10.419325972570274],["stamp",-10.419376521316924],["gesture",-10.41950460093154],["corner",-10.4198901307564],["muc",-10.419955937325227],["sarcas",-10.420854431111705],["log",-10.422152815917144],["snow",-10.422214011456855],["association",-10.4229163316818],["polish",-10.423031943672349],["lway",-10.423595416081454],["Open",-10.42497097949142],["big",-10.425401492662829],["satisfie",-10.425539585595864],["input",-10.426236156738177],["farm",-10.427830414262427],["rotation",-10.428514467405162],["shell",-10.428775817292324],["painting",-10.429716334034948],["deprive",-10.429985801198365],["witch",-10.43088445969888],["swell",-10.430921319670285],["sold",-10.431149773512908],["hostil",-10.431348121644888],["tra",-10.431468552776039],["sheet",-10.431845789611266],["extract",-10.433643065837192],["loan",-10.4340465673715],["kin",-10.4352893581139],["balance",-10.435695949376747],["site",-10.43617964700671],["unite",-10.436484737201209],["imitate",-10.437221111730903],["pe",-10.437301281111898],["flag",-10.43814215459508],["constitute",-10.43890129150304],["coin",-10.440260884601031],["imaginati",-10.44086916602869],["measur",-10.442252198960897],["fund",-10.442397635185262],["ese",-10.443559034210622],["ves",-10.443837652538287],["concentrate",-10.443962626777019],["steps",-10.444244962114425],["convention",-10.444457315996996],["Part",-10.445036736752568],["pound",-10.44649377052704],["eople",-10.447098697279776],["izing",-10.447124647650899],["efficient",-10.447280864830152],["crude",-10.447802287704508],["eggs",-10.447961696910916],["erect",-10.449505504148881],["worship",-10.450185580164773],["bu",-10.45064244811762],["grind",-10.451541029993415],["theme",-10.452045108708742],["shop",-10.4522493120106],["strateg",-10.4525411161756],["bent",-10.452631250562698],["arrive",-10.452908947858829],["knee",-10.452958505230296],["brave",-10.453067159439799],["permit",-10.453075195379666],["ood",-10.453592365626678],["mission",-10.454066519368968],["longing",-10.454176332956699],["welcom",-10.456120045914927],["storm",-10.456172983270354],["shame",-10.45627300052933],["criticize",-10.45630243842692],["cylind",-10.45634260868282],["World",-10.456345609190992],["pepper",-10.456354952858106],["monument",-10.456493067186955],["curl",-10.456534313161049],["vital",-10.456572690205267],["struggle",-10.456653904988315],["mast",-10.456656370367902],["semantic",-10.456659539908772],["complement",-10.45667598857668],["newspaper",-10.456750492703504],["decisive",-10.456765679480828],["register",-10.456793347082813],["spider",-10.45688267459386],["cruel",-10.457063660774693],["automobile",-10.457087601770402],["inherent",-10.457095075935392],["manifestation",-10.457111306795536],["hospital",-10.457160660734822],["dollar",-10.457372926749477],["gloom",-10.457431425321277],["shrink",-10.458033830365853],["finishe",-10.458128868268192],["Nonsens",-10.458174355627339],["honor",-10.458187719615314],["vi",-10.458836184994826],["throat",-10.458907418115079],["fraud",-10.459148796132947],["cousin",-10.45933016690913],["los",-10.459394708687965],["forest",-10.459860116295546],["deed",-10.459890384342163],["shrill",-10.46002781938477],["dependent",-10.460302758919639],["dept",-10.460339343576658],["abandon",-10.461008036901951],["steep",-10.461875013086221],["sophistica",-10.462348402431354],["maximu",-10.462539515284297],["indirect",-10.462577320338607],["vein",-10.462689492191908],["virus",-10.463063494088582],["increasing",-10.463289606180542],["beam",-10.46349554843641],["committe",-10.464277477817353],["chain",-10.46531128876596],["types",-10.466079683922922],["nted",-10.466180186360084],["ded",-10.466922267903989],["annoy",-10.46749331376628],["Sel",-10.468402768450343],["buil",-10.46875453706943],["lung",-10.468939651098648],["abundant",-10.46927606991536],["mal",-10.469742809277285],["noticeabl",-10.470107779098068],["absen",-10.471402595100482],["scholar",-10.471478865563878],["bed",-10.471901934969765],["cake",-10.47229218729512],["exceeding",-10.472680187756866],["gravit",-10.473118711560158],["productiv",-10.473316925715567],["patron",-10.474378979030547],["iable",-10.47452871804747],["securit",-10.475106195995009],["impart",-10.477432088092073],["ise",-10.47750462447991],["ften",-10.477540563739895],["audio",-10.478998851525834],["outline",-10.479438229961726],["overcome",-10.479934788269937],["terra",-10.481444774531719],["amuse",-10.482223815002198],["check",-10.482228217331393],["Express",-10.48233213237323],["politic",-10.483920742414877],["supplie",-10.484846100223647],["ocket",-10.485158854585375],["implie",-10.485362383570187],["sixt",-10.485511945329076],["token",-10.48894087467956],["inclin",-10.488946541202399],["cle",-10.490575033922926],["ine",-10.49098844126827],["mother",-10.492986011569663],["organi",-10.493161323103338],["pping",-10.493476510170046],["permissi",-10.49492721689642],["alien",-10.495919090216942],["sweeten",-10.496261943500848],["synthetic",-10.496808551662077],["ridge",-10.496915507752124],["General",-10.496979729376518],["town",-10.497510519174302],["bomb",-10.497780504839533],["finite",-10.497948442719547],["arouse",-10.499557469841317],["chest",-10.499765851437036],["Hawaii",-10.499772047219345],["Muslim",-10.499776788284315],["Russia",-10.499799572269612],["peculiar",-10.49988113397805],["masculin",-10.499935242693887],["surrender",-10.50019068598733],["Du",-10.500370339746139],["ration",-10.500384799434343],["theoretical",-10.50052941114074],["explicit",-10.501087551259735],["judgement",-10.501208119748945],["valuable",-10.501254377641251],["suspicion",-10.501273202569015],["window",-10.501922363855293],["heroic",-10.502084106923785],["flavor",-10.502092924045034],["wa",-10.502272179344741],["acknowledge",-10.502432538764204],["elevate",-10.502606116554322],["ffected",-10.502701226502047],["enthusiastic",-10.50317284367701],["industrial",-10.503525304473872],["sumption",-10.503538943763132],["camp",-10.50435609734518],["timid",-10.50442689967993],["routine",-10.504447732518134],["investment",-10.504531739481047],["controlled",-10.50477755698413],["enclos",-10.504992433007803],["chang",-10.505619909250376],["specialize",-10.506182311696517],["Over",-10.50654887703882],["Mor",-10.506599975352117],["ext",-10.506627905558855],["hinder",-10.507247497334081],["principal",-10.50836765938717],["Design",-10.50839019147731],["experiment",-10.508537135829638],["etting",-10.508713094805952],["expand",-10.508849973977389],["exit",-10.50929623369699],["sta",-10.509356744849583],["online",-10.509751703366632],["embellish",-10.510097915350087],["motive",-10.510186904677589],["adhesi",-10.510639314197833],["teams",-10.511054804464857],["ancestr",-10.511851623947795],["citizen",-10.512331379839047],["adde",-10.512600184954595],["craz",-10.513641476771872],["nable",-10.516308627933537],["threat",-10.516337566533515],["slip",-10.517279341708036],["Bibl",-10.517790100080457],["eading",-10.518478315673528],["correspond",-10.519271150487125],["outdoor",-10.520934033798174],["trad",-10.523027462720567],["review",-10.524120719544223],["Small",-10.524142144799017],["orbit",-10.524355758361617],["wrist",-10.524570011758229],["sensitive",-10.525236459614009],["destructi",-10.525316324769793],["wound",-10.528169196915139],["Se",-10.52819068597337],["deriv",-10.52865479201768],["crew",-10.528856821230766],["bank",-10.52909322288887],["considerabl",-10.529512689530662],["multi",-10.531120235623211],["po",-10.532057089766454],["lose",-10.532597696611155],["forme",-10.533160303290195],["tive",-10.533169093365991],["am",-10.533307099091846],["disgust",-10.533510287402034],["news",-10.533915098286542],["min",-10.535250837206995],["shar",-10.536033667578675],["nt",-10.536743319985924],["accura",-10.537013567382996],["uck",-10.537501591926613],["parameter",-10.537716712002446],["Fr",-10.538225637781037],["tting",-10.539065774098017],["pace",-10.54227193150596],["bacc",-10.54241943060287],["minimal",-10.542443333715235],["brick",-10.542858949250494],["switch",-10.544753274554864],["\\",-10.54522442831246],["jerk",-10.545234975839495],["journey",-10.545245364437793],["vault",-10.545308572239941],["deceitful",-10.545335142534446],["landscape",-10.545336691628965],["Similar",-10.54543326401685],["preserve",-10.545463843374348],["client",-10.54552310403717],["pompous",-10.545587761540304],["Offensive",-10.545839770377102],["capabilit",-10.54615895115264],["doctor",-10.54622499170622],["harass",-10.546324724586912],["processe",-10.546401332300118],["railway",-10.546479390144547],["modest",-10.546563994954223],["generic",-10.546614069920109],["confirm",-10.546980067392399],["representative",-10.547185449752124],["panel",-10.547917711717826],["scatter",-10.548295289676854],["symbolic",-10.548404492556255],["dominant",-10.549305880406369],["recreational",-10.549595120825952],["US",-10.54970579061043],["legislati",-10.550236867845378],["scheme",-10.550411935070626],["possibilit",-10.550435773375163],["verage",-10.551132247869555],["exception",-10.551490465531902],["cheap",-10.551638389909519],["dealing",-10.551679751058357],["sorrow",-10.553480546582009],["involuntar",-10.553888936800764],["smart",-10.554532900646802],["smear",-10.554992344161851],["medi",-10.555081038640044],["flood",-10.555215306032954],["Scot",-10.556349172164955],["subset",-10.556562057343214],["res",-10.556929672715777],["rubb",-10.557542999663124],["spell",-10.557702889165203],["Lea",-10.557894661612591],["nois",-10.558490264684805],["rash",-10.560145653118282],["overall",-10.56042911460532],["bubble",-10.56208823576869],["eminent",-10.562105017963999],["soul",-10.563129852424066],["insufficient",-10.563157633102229],["herb",-10.563324697705845],["expect",-10.56379517164891],["flash",-10.563948439738278],["eager",-10.564036616948162],["adhere",-10.564930659241828],["popul",-10.565981484413705],["pursue",-10.566281329135581],["bell",-10.566585425648384],["concentrat",-10.56665322889509],["faint",-10.566911631685283],["grave",-10.567240475584315],["recognize",-10.567946176692868],["dvice",-10.569565622757423],["yard",-10.570496148317737],["accumulate",-10.571006212273716],["row",-10.571075892471594],["wishe",-10.571306617712974],["analog",-10.573426897642868],["admit",-10.574715835428712],["screw",-10.575150045616729],["challenge",-10.575944541048976],["denote",-10.576726394762112],["rical",-10.577031116557139],["vast",-10.577415672112348],["stern",-10.5775019143402],["Ra",-10.577639390091687],["approva",-10.578073626716701],["decided",-10.579370321038137],["package",-10.580674213373975],["instant",-10.580927114371764],["ose",-10.582092453530693],["pause",-10.58283360117578],["seize",-10.582864574994288],["illing",-10.583217558698227],["minim",-10.584276867419106],["bridge",-10.5846473383294],["ones",-10.5854497939415],["pr",-10.585776465119991],["ra",-10.585815809869437],["promis",-10.586332456313636],["hydro",-10.586586735196061],["deposit",-10.586694934411778],["devil",-10.586773298267499],["restore",-10.589524468414776],["originat",-10.589747924894896],["stain",-10.59044750880975],["val",-10.590763543322144],["separati",-10.59131299833356],["wee",-10.591899005875225],["manifest",-10.591992382182514],["siastical",-10.592071677224386],["commerc",-10.592500764412321],["punish",-10.592628846463056],["locomotive",-10.592844381123445],["gossip",-10.592844844265652],["ultimate",-10.592851519550475],["Physical",-10.592910443630284],["Careful",-10.592969730461586],["precious",-10.593070619326841],["diminish",-10.59324703804015],["discipline",-10.593400229794092],["succeed",-10.593446693505076],["devotion",-10.59346714227448],["sleeve",-10.593573506809959],["decade",-10.593646537306146],["labour",-10.593758693898856],["sentimental",-10.593870712547135],["enterprise",-10.594006112709927],["inherit",-10.59402009541431],["swift",-10.594362041388033],["folk",-10.594475639039562],["Inclin",-10.594512368141404],["ard",-10.595234392547326],["spontaneous",-10.595301496396342],["humorous",-10.595317856602476],["accomplishment",-10.595383598442092],["attentive",-10.59541520104354],["Wide",-10.595499579944713],["pursuit",-10.595680029342349],["wagon",-10.595759600498935],["distinction",-10.595932457476692],["oven",-10.596098267539682],["emphasis",-10.596108578332172],["occupy",-10.596729864766326],["Work",-10.596856748232678],["hollow",-10.59702372007352],["pitche",-10.59706778196941],["modify",-10.597188016812002],["mischie",-10.597199233807011],["mature",-10.597750939474837],["fulfill",-10.598823537148494],["appoint",-10.598927640914676],["surgical",-10.599123801763543],["pretend",-10.599716879508119],["flour",-10.599872908310445],["witness",-10.600474278064606],["steam",-10.601510240152678],["defend",-10.60167540749864],["theatre",-10.602023051400504],["resolve",-10.60208884096706],["etic",-10.602563863825342],["arrest",-10.60347011342483],["mad",-10.603669584930836],["graphic",-10.603721883582931],["celebrit",-10.60420226365609],["expresse",-10.605041481413974],["predominant",-10.605325805081385],["south",-10.605534301864852],["featur",-10.605583795258914],["disgusting",-10.60622465160846],["ot",-10.607306911862754],["thi",-10.607476601781245],["hot",-10.607613114160358],["revolution",-10.608000447063578],["uous",-10.608634921179085],["inhabit",-10.60877515809131],["gged",-10.608969638614806],["lo",-10.609342366921215],["otten",-10.609658437952284],["guest",-10.61047088057619],["prefer",-10.61212416416856],["poet",-10.614456244295225],["north",-10.614769668828105],["rous",-10.614829554982254],["ster",-10.616455469911752],["channel",-10.61665023319626],["lean",-10.61781153797755],["route",-10.617895790122065],["polite",-10.617954653235483],["triking",-10.620103055259754],["brother",-10.620298458119185],["Wi",-10.620554854330516],["Excell",-10.62103235841169],["relax",-10.621697398859855],["demonstrate",-10.624685026862542],["pronounce",-10.625092146461713],["erry",-10.625688673914768],["Sun",-10.626243605556263],["agreeable",-10.62780374240549],["enabl",-10.629240114172585],["pped",-10.630196771538516],["15",-10.631311422138413],["pile",-10.631466590508678],["lyric",-10.632263537432227],["impose",-10.632626182942305],["poly",-10.63322451642414],["suppose",-10.633571842089045],["dut",-10.633801124399827],["Wear",-10.63388127947249],["xhibit",-10.633956909465228],["ite",-10.634180968288586],["ratio",-10.634300282255005],["consen",-10.634822611116007],["Act",-10.634985305719189],["ascertain",-10.635405467084155],["observ",-10.635472304603725],["hind",-10.637005409517336],["legislat",-10.637453741593212],["accident",-10.63894306587035],["protest",-10.639580149124178],["door",-10.640433018546945],["olog",-10.641036514123673],["fantas",-10.64127834974875],["nevitabl",-10.641950092699357],["occasional",-10.642215401780623],["Base",-10.642267019822608],["vacu",-10.642678415611371],["Philippine",-10.642843842567718],["campaign",-10.642844045912145],["chromosome",-10.64286393082495],["compartment",-10.642880705305288],["Requir",-10.642898215673386],["linguistic",-10.642933586965196],["condemn",-10.64302840680319],["discuss",-10.643028622431881],["Large",-10.643075998320418],["festival",-10.643083851371289],["amateur",-10.64346967044779],["translucen",-10.643493922725563],["wonderful",-10.643570021847655],["suprem",-10.643669374617778],["remedy",-10.643713635592848],["unfair",-10.643985808794602],["counterpart",-10.64416472231124],["esteem",-10.644215354596067],["specifi",-10.644276301238143],["disturbance",-10.644285593892658],["barrier",-10.644479839172057],["calculation",-10.644745203252322],["distinctive",-10.645037976611128],["constraint",-10.645099639159902],["superficial",-10.645184684991648],["furni",-10.645229188562148],["dogs",-10.645236823266046],["thrust",-10.645381070028247],["J",-10.64548848314248],["background",-10.645612488656084],["kiss",-10.646067902009127],["transitive",-10.646135026615218],["winning",-10.6465282211552],["ju",-10.646628169216006],["convenient",-10.64702371088062],["initiate",-10.647435059372311],["deny",-10.647955716861347],["projection",-10.648074567406805],["football",-10.648328091495035],["High",-10.64850494669358],["intens",-10.649374446527734],["perplex",-10.649583053985301],["adjective",-10.650376847697714],["poem",-10.650663505191261],["tranquil",-10.65081386480241],["intensi",-10.651756647146703],["earnest",-10.651907229384284],["ung",-10.652740898211363],["Read",-10.653136007902827],["deserv",-10.653203180601627],["counters",-10.65340931490067],["radi",-10.653527003887318],["gold",-10.65388247647307],["gener",-10.653894870885562],["license",-10.654184956508615],["vary",-10.654278354677851],["enhance",-10.654723257299981],["energetic",-10.655070798810689],["gap",-10.655452319935378],["abo",-10.658031620359784],["install",-10.658224497129266],["imagina",-10.659547012583996],["universe",-10.659646010156616],["mathematical",-10.65991541335133],["meter",-10.660697064154835],["rel",-10.661398484631015],["orientation",-10.661595988917338],["rium",-10.661693836032978],["lic",-10.663239320968954],["renew",-10.663544468382621],["margin",-10.663706447916676],["Ju",-10.663989167931856],["postur",-10.664192503463305],["devote",-10.665573257644464],["slant",-10.666829283707084],["shocking",-10.667407780886968],["marks",-10.667643859174389],["friends",-10.667716061874462],["infra",-10.66791315485408],["norther",-10.66801900844589],["enforce",-10.669377339868046],["wif",-10.670600241928522],["Y",-10.670777211423257],["recorde",-10.67091885204254],["tuck",-10.671893436080772],["fee",-10.672002839336365],["ering",-10.672220169103765],["hip",-10.673752508544338],["rite",-10.67382418926593],["attle",-10.674875875971546],["relations",-10.67501484197468],["ark",-10.675530492761599],["elonging",-10.676183101236525],["ri",-10.676555714347359],["loyal",-10.677182225727236],["sustain",-10.678079455125456],["propel",-10.67925337672406],["spoil",-10.679442735116513],["squeeze",-10.680556340423825],["ow",-10.680935863865253],["ement",-10.681685080153057],["historical",-10.682004972980696],["relati",-10.68200559940062],["complian",-10.682495651298272],["swim",-10.682553030088954],["ignore",-10.682736489423183],["hurt",-10.683715366130306],["shoe",-10.683766184827359],["coffe",-10.683915864242877],["supporter",-10.684188305816814],["nsignificant",-10.684278279675707],["ely",-10.684427163291378],["eat",-10.686232331213947],["sent",-10.68679355733571],["tropic",-10.687204504523645],["X",-10.689447155259499],["occupie",-10.689482190474711],["corn",-10.689865278078297],["western",-10.690027714757651],["friendl",-10.69103810228816],["tone",-10.691382872489733],["dread",-10.691678605051429],["stew",-10.69179275060976],["heel",-10.691888066308026],["ile",-10.693152126943417],["Shar",-10.693854273196527],["Toward",-10.694085005342883],["statistic",-10.694253599291292],["aneous",-10.69433590678727],["sis",-10.694384799708256],["adulter",-10.694506238828287],["Mak",-10.694545999593183],["conspicuous",-10.695475259227573],["magazine",-10.695476405565323],["propriet",-10.695477365835679],["hundred",-10.695494615605964],["Catholic",-10.695500578062042],["Exceeding",-10.69550673838137],["ypothetical",-10.695511366546633],["bundle",-10.695547260548322],["murder",-10.695595486281471],["descendant",-10.695656961149215],["compassion",-10.695722860557117],["neglect",-10.6957610312947],["ridicul",-10.695796841732113],["shield",-10.695829939344494],["build",-10.695942962423898],["definition",-10.695950485306183],["hormone",-10.696075470001055],["lavish",-10.696087860402063],["passionate",-10.696211836291422],["splash",-10.69626640230345],["priest",-10.69637129771819],["poison",-10.69643369332077],["automatic",-10.696449705282982],["protective",-10.696710847166123],["redundan",-10.696838451130551],["destructive",-10.696845759722937],["bullet",-10.697010029447139],["sheep",-10.697321587779168],["proposition",-10.697412296705226],["alternative",-10.69754162228772],["roots",-10.697567576996924],["commitment",-10.697597536641634],["pledge",-10.697619446381246],["exertion",-10.697795624135233],["gging",-10.697854511941868],["pig",-10.69792476667897],["inflammat",-10.697944999660724],["clums",-10.697953999786039],["innocen",-10.69798130740733],["peace",-10.698059916643206],["identical",-10.698227179602751],["disregard",-10.698231396156809],["tangibl",-10.698813019759863],["calculate",-10.698822350559697],["deviation",-10.699120731876976],["jaw",-10.69974453714051],["execution",-10.69997571253806],["shaft",-10.700434064247986],["dream",-10.700768170254191],["extensive",-10.70126287243715],["inadequate",-10.70153664872651],["underhand",-10.701576073765914],["infection",-10.703542130108069],["Emp",-10.70380359753003],["physic",-10.704376394704443],["let",-10.705232419674935],["divert",-10.70748821153232],["aked",-10.70781776779452],["composit",-10.707941280591065],["deviate",-10.708147515953463],["titude",-10.709218242136853],["purpl",-10.709277484256454],["14",-10.709284866734198],["ntry",-10.709305585640086],["arbitrar",-10.7096193546593],["taxon",-10.710276457605369],["led",-10.710486626119643],["fi",-10.710574437668402],["Com",-10.71156530253025],["actor",-10.712594768045935],["ector",-10.712843539533255],["singer",-10.713469967022874],["precede",-10.71537829995387],["say",-10.716541843595579],["argue",-10.717289629707084],["fensive",-10.717553798820598],["reserve",-10.718413730754971],["raffi",-10.718476700569042],["dispose",-10.719032688761722],["ke",-10.719464451897325],["virtue",-10.719491489831888],["uneas",-10.719514031892558],["spice",-10.719980743981443],["Near",-10.720830825233339],["exclude",-10.72089814186196],["han",-10.721134430131764],["schedule",-10.721339014962139],["animate",-10.723060664854536],["regret",-10.72338142076244],["aught",-10.723539418765094],["Old",-10.72392882441326],["lastic",-10.724517714518482],["mu",-10.725596056376112],["entice",-10.72649335274886],["guardian",-10.727485970546175],["divid",-10.728968377496251],["drain",-10.730832003980018],["ffic",-10.731613981830236],["readi",-10.73174644271643],["explore",-10.732991978855162],["fortun",-10.733388281144325],["pictures",-10.734726219543226],["facilit",-10.73476263250371],["mus",-10.734916732936814],["refined",-10.735066515299104],["tall",-10.736250927404857],["merit",-10.737345833301225],["observer",-10.738059857268883],["sort",-10.739209387595947],["float",-10.739321109152078],["snake",-10.740849110403055],["remova",-10.741283062151938],["cks",-10.742113901469358],["lassical",-10.74280487976954],["assess",-10.743708366317122],["isolate",-10.743853048686644],["Rema",-10.745777970683196],["clos",-10.74602819093952],["plot",-10.747860210945518],["stat",-10.7481662841337],["plac",-10.74874705177823],["spark",-10.750200383373333],["=",-10.751030610434434],["%",-10.751030610434434],["jurisdiction",-10.751030621477847],["council",-10.751033833326066],["manuscript",-10.751039257487296],["Material",-10.751097025132683],["delicate",-10.751109983016168],["vulnerab",-10.751119342054004],["calle",-10.751199212043648],["monarch",-10.751247188883003],["connotation",-10.7512655410148],["comprehensive",-10.751468019768076],["daughter",-10.751544339213002],["interpretation",-10.751727867588235],["introduction",-10.751867830385056],["provision",-10.751967665395668],["utterance",-10.752214750611483],["cking",-10.752367906809836],["refrain",-10.752713553832592],["singular",-10.752851769848563],["lifestyle",-10.752877380645318],["reas",-10.753038623926201],["advers",-10.753078741321403],["repetition",-10.753410089827032],["cluster",-10.753467039271271],["solicit",-10.753707718204094],["intersection",-10.753732941465108],["immoral",-10.753951710474],["constituent",-10.754092250481271],["notation",-10.754126890082391],["glad",-10.754401741815903],["urge",-10.755254771365754],["vegetati",-10.755541557576231],["crescent",-10.755592941649649],["fuel",-10.756060706626101],["Impossi",-10.756108540029738],["alteration",-10.756916929814608],["humb",-10.75718652823384],["eces",-10.757287675145362],["Perform",-10.757462957947315],["compete",-10.757906049811208],["queen",-10.759410754603822],["matur",-10.759717563917409],["skillful",-10.759955736619892],["excuse",-10.760548386112003],["cheer",-10.761084282253591],["probabl",-10.761485961257959],["und",-10.761668330267202],["Emotional",-10.762229643105327],["pal",-10.762340321195492],["obedien",-10.764195300830728],["estate",-10.764432214421205],["ired",-10.764628803021402],["stic",-10.764745010497599],["reckless",-10.765458764377781],["audibl",-10.766672453115008],["ail",-10.766897103679117],["insan",-10.766932462241396],["000",-10.76696294091262],["recover",-10.76715943537461],["persuade",-10.768428814737547],["brush",-10.768723121709922],["eaching",-10.768838041209644],["expense",-10.769229875138425],["membrane",-10.769271132363667],["discriminati",-10.76978481672527],["fusion",-10.770101884745813],["elevat",-10.770431365882738],["ncy",-10.770564639242577],["ngular",-10.770611969438317],["charm",-10.770837235099782],["abdom",-10.771273968905405],["colon",-10.771944168809771],["amusing",-10.77264649885289],["discriminat",-10.77322532712681],["magical",-10.77339290929364],["brilliant",-10.77429807816908],["emphasize",-10.774356819116925],["confer",-10.774681181695488],["ell",-10.775093633289426],["troop",-10.775419148315708],["varie",-10.775423381210974],["endow",-10.775995786936372],["sweep",-10.776070636273214],["magnetic",-10.776308443422867],["spouse",-10.77647254317106],["ches",-10.776598860039234],["insur",-10.776976149094768],["depress",-10.778269387547166],["twel",-10.779111186307379],["solve",-10.779473012394309],["fever",-10.779599300287979],["eliminate",-10.779832599319185],["slave",-10.780549860760749],["associat",-10.781150643678643],["harmon",-10.781416635370096],["compensati",-10.781586456659868],["melt",-10.781772075046819],["saddle",-10.78277988044262],["wid",-10.782963536648603],["robot",-10.784492183077539],["miser",-10.784840052665956],["respond",-10.785576983199642],["abuse",-10.786405976398507],["compel",-10.786851879946479],["theater",-10.787936062920384],["pit",-10.788117472152724],["cre",-10.788151346994672],["odd",-10.788423172299119],["que",-10.78864831683294],["Islam",-10.78885793229305],["ul",-10.789731342872596],["disrupt",-10.790632034129853],["core",-10.790784784224732],["depict",-10.791218832120595],["Exceptional",-10.792187566658715],["itten",-10.792628911093766],["performer",-10.79311151978599],["ap",-10.794978241044365],["ncient",-10.795356111000515],["ki",-10.795847868026527],["ny",-10.796755960574549],["keeps",-10.797195966393993],["ping",-10.797813801997908],["proceed",-10.798257684243014],["mi",-10.798941088969176],["Overl",-10.799218259900606],["achiev",-10.800860151919409],["retain",-10.803570172062953],["den",-10.803810868653148],["rect",-10.804413159252249],["thirt",-10.804425304521335],["interrupt",-10.804840410968644],["adverse",-10.805140252392473],["numer",-10.807771987911584],["mud",-10.808324770400015],["movabl",-10.808669165399449],["skinn",-10.809047178971223],["drunk",-10.809527450849144],["cushion",-10.809826032305054],["88",-10.809843665098526],["practitioner",-10.809854330283288],["luxur",-10.809883556953679],["differ",-10.809890975503906],["100",-10.809925522955407],["Feeling",-10.809933786811147],["husband",-10.809956306364825],["juice",-10.809967457836162],["pronunciation",-10.809995456373038],["cheerful",-10.810076008200744],["politician",-10.810171121926118],["Portug",-10.810196671200405],["copious",-10.8102101949472],["pigment",-10.810216249785327],["faithful",-10.810269768526776],["retire",-10.81037598257555],["Irish",-10.810512298359539],["triangula",-10.810523174358707],["intuitive",-10.81065056001318],["prayer",-10.810724836540754],["investigation",-10.810809424146392],["filter",-10.811126009364347],["Exact",-10.81116665429169],["authoritative",-10.81120040434318],["sympath",-10.811371462942816],["bus",-10.811448027636981],["circum",-10.811900723034608],["illusion",-10.81197585436006],["suspect",-10.812002962408428],["continent",-10.812025712965314],["transition",-10.812067260849824],["grumbl",-10.8121661042385],["quant",-10.812341717765175],["Dut",-10.812355121970363],["careless",-10.812520278247337],["raid",-10.812639823263103],["Good",-10.812663282163312],["sediment",-10.812664296632025],["numeral",-10.812967463526142],["mobile",-10.813088515686674],["international",-10.813343009685],["reproduc",-10.8136305746322],["Mental",-10.813640077509197],["assumption",-10.81369915902735],["ascribe",-10.81376723254712],["heterosexual",-10.81384173294576],["solemn",-10.813934428362783],["annex",-10.813950463921891],["dissolve",-10.814168383165683],["radical",-10.814417992349247],["fore",-10.814453905279573],["presse",-10.814781512217069],["excrement",-10.815345326281596],["panic",-10.815547500609082],["apprehensi",-10.81607984291341],["discret",-10.81614171867639],["xious",-10.816160073240066],["obscene",-10.816302368966866],["Provid",-10.81634384920488],["silent",-10.817034882248574],["irritate",-10.817065297644],["fiber",-10.817370739522241],["rolled",-10.817477893506627],["habitation",-10.81807433184021],["script",-10.818519022717155],["wander",-10.818665280122758],["ru",-10.818681989246745],["ga",-10.81889043756546],["judicial",-10.819006676633288],["stabb",-10.819441604270708],["ease",-10.819453836944778],["disparage",-10.819456839808975],["saint",-10.819928443557743],["Accord",-10.820099130305223],["reconcil",-10.82035268744312],["pruden",-10.82051031233336],["marine",-10.820544987548683],["relieve",-10.82057602697408],["drama",-10.82062217180993],["pu",-10.820922081662541],["decline",-10.820923276916513],["sword",-10.820990486866075],["trivia",-10.821239921090536],["Former",-10.822660006345373],["debase",-10.823471839608692],["digit",-10.825297392511303],["evident",-10.82571721139164],["quark",-10.826012547475242],["driver",-10.826682385550331],["smoke",-10.827441530635703],["visitor",-10.827613801161583],["surge",-10.827630658699666],["Character",-10.827858803350692],["arch",-10.828219516496361],["rhythmic",-10.828498016042042],["17",-10.828542783819833],["graph",-10.829664920599106],["pins",-10.830282836433254],["huge",-10.830774068557343],["ident",-10.832038542778353],["It",-10.832114464575788],["ave",-10.83308204070951],["escent",-10.8338435453594],["tune",-10.835238825010208],["lime",-10.83562148228092],["twent",-10.83588410779547],["axi",-10.835897370058216],["cuous",-10.83596917940928],["programme",-10.836692896070057],["charg",-10.836797834484692],["preparat",-10.838348857199907],["younge",-10.838378996355255],["guess",-10.838807563089123],["Indo",-10.838835877303653],["drum",-10.840060190234897],["riche",-10.840826714464407],["orthodox",-10.84214970263062],["busy",-10.842649340945485],["scar",-10.842691704166818],["Situat",-10.84294692454898],["binar",-10.84368835528353],["leaf",-10.843697848523837],["motivate",-10.844608198413809],["funn",-10.844999387804648],["idle",-10.84534357040583],["psycho",-10.845382613264146],["distract",-10.84620933466485],["So",-10.846364474567217],["hell",-10.847227977429036],["butto",-10.847692426327177],["tract",-10.8482141575089],["tire",-10.848432885234965],["bored",-10.848464150427045],["grim",-10.849362717814929],["ignoran",-10.84938273522721],["substantial",-10.8504959000175],["ough",-10.850560705938836],["akes",-10.851196313508916],["patch",-10.853240445034618],["Bad",-10.85335294801264],["travell",-10.853493017207214],["dioxi",-10.854006950826289],["depart",-10.855143395577135],["ideolog",-10.856417451647513],["pin",-10.856631552457333],["overly",-10.85697472450475],["asset",-10.857235312424782],["remark",-10.857346594552574],["introduc",-10.858286340464712],["brass",-10.858956562530778],["affle",-10.85937570178947],["transmitte",-10.859395870738966],["Arous",-10.859930840921326],["refresh",-10.860923226420523],["plasti",-10.86127830800196],["fraction",-10.86233976276333],["sulting",-10.863915926201603],["cannabi",-10.86565033950034],["Contra",-10.866770504319934],["pool",-10.867420764719828],["rela",-10.867851854873264],["acute",-10.868803250036688],["oblige",-10.869111298221224],["infect",-10.8692494968723],["gra",-10.869498629654089],["pet",-10.87010175530468],["ll",-10.870184891086835],["prison",-10.87066781487575],["hung",-10.870917980738037],["advertis",-10.871870464553536],["fatigue",-10.872355097460012],["Cheerful",-10.872365803552514],["racquet",-10.872367218960736],["basket",-10.872384013963167],["Christmas",-10.872386423368566],["competitor",-10.872389389924752],["stereotypical",-10.87239859159123],["1960",-10.872400813376899],["premise",-10.87240123147413],["Regard",-10.872535634363835],["leisure",-10.872635800385112],["imprison",-10.8726403080491],["denomination",-10.872774803559043],["turbulen",-10.872855262326466],["Unpleasant",-10.872910684264562],["appointment",-10.87291196753735],["discretion",-10.873004203512533],["wonder",-10.873025569384723],["cautious",-10.873127666010962],["except",-10.873260680850745],["sure",-10.87341677825666],["obstruct",-10.873490093113785],["cons",-10.87356986624809],["confident",-10.873757374873563],["theatrical",-10.87409100955687],["absurd",-10.87413246057457],["scientist",-10.874309567316097],["confrontation",-10.87438239685438],["Le",-10.874514797678515],["meaningful",-10.874525189786073],["swallow",-10.874631739493996],["prize",-10.874666429282387],["apparat",-10.874765629009019],["200",-10.875158839592924],["ea",-10.87519666762623],["ven",-10.875395902740966],["East",-10.875795936341657],["million",-10.875870345540019],["urban",-10.876248047663397],["affirm",-10.876405487191327],["ast",-10.876536253438848],["Deserv",-10.876788404383557],["Worth",-10.878029840852193],["accumulation",-10.87878175014115],["genome",-10.878875325381738],["muscular",-10.878887357059236],["ember",-10.878994105638117],["reliabl",-10.87969437176321],["personalit",-10.87973922572622],["boil",-10.880357156145568],["youth",-10.88078396211533],["offense",-10.881335716403159],["artwork",-10.881385886062088],["ticket",-10.88151494606775],["label",-10.882151906980912],["shrew",-10.882318698418798],["unload",-10.882914865809202],["stunt",-10.883240320671447],["disc",-10.883939430616472],["sion",-10.884057259100008],["tactic",-10.884397114443757],["impur",-10.884696032648005],["sweetene",-10.885127853377162],["ulous",-10.885340670059517],["é",-10.885496318987745],["decide",-10.88620655984097],["desir",-10.886539666208478],["augment",-10.886599102957732],["yarn",-10.888518153481293],["electro",-10.888646135642661],["incapa",-10.888863928368465],["characteriz",-10.889059419903898],["ethnicit",-10.889384025693735],["fragment",-10.889514555065318],["experienc",-10.891120888358675],["flee",-10.891705975274268],["buy",-10.89171633600398],["China",-10.89180663161284],["summar",-10.891987196917983],["Locat",-10.892000874348788],["skirt",-10.892162123705406],["smok",-10.892614206629132],["anus",-10.893019253672573],["promotion",-10.893369353771323],["Tru",-10.893398859142408],["decrease",-10.894446370632071],["marking",-10.89522644042618],["micro",-10.895545018598026],["mystic",-10.895945167541038],["endear",-10.896027327081264],["programm",-10.89606891538454],["royal",-10.896308777561988],["slice",-10.896364367783507],["demon",-10.897285416563179],["crown",-10.898257076385411],["inhibit",-10.898643999647021],["ski",-10.899845335352904],["sive",-10.899894838917158],["terror",-10.900023284175308],["ct",-10.900541506641781],["Highl",-10.900844188813272],["diagram",-10.901045914368964],["fielder",-10.90126180443294],["whiske",-10.901606318690451],["infinite",-10.90181847021245],["cred",-10.901958589231883],["earl",-10.903517042706223],["fuss",-10.903555203739854],["Su",-10.90365913972595],["crust",-10.904017966516435],["liter",-10.904272692610373],["sal",-10.904438637437892],["abate",-10.904535036632964],["vous",-10.904975774680112],["excel",-10.905849713433748],["comprise",-10.906217569594123],["ida",-10.90673002520105],["Original",-10.907335995558379],["investigate",-10.90865458231054],["bride",-10.909563290561552],["cork",-10.909756343311113],["rum",-10.910000922534143],["farthe",-10.910704363760638],["gentl",-10.910737887325382],["Appear",-10.910997400371697],["reservation",-10.912438893635361],["varian",-10.912591168526673],["decid",-10.912683635415792],["imp",-10.913193164990982],["splend",-10.9145466975082],["ime",-10.915053515554426],["compar",-10.915190386875302],["worrie",-10.916208562530237],["bully",-10.91670598368344],["Fill",-10.917418791994422],["dominate",-10.917836115784066],["crim",-10.919262001491832],["cooke",-10.919732248101152],["structural",-10.91975028239978],["shorten",-10.921881663499468],["confusi",-10.922782243588788],["island",-10.922789502987875],["lamp",-10.92313709880896],["nife",-10.923223341320526],["celebrate",-10.923980949079805],["apple",-10.924591220012978],["forbidd",-10.924885730099057],["restraint",-10.92607236192378],["Short",-10.92648735082193],["disadvantage",-10.927049782915514],["trifl",-10.928303469724902],["laz",-10.930362098305705],["crossing",-10.93056240212871],["sevent",-10.930788074922042],["dom",-10.932424099845088],["eval",-10.932637289874375],["exercis",-10.93312675593975],["needles",-10.933402228246738],["eous",-10.934471593726009],["strain",-10.93520265986356],["lence",-10.935571453478936],["cute",-10.935746010325568],["itation",-10.937207985543727],["rhythm",-10.938361473156567],["cumul",-10.939004652843023],["voyage",-10.93903680754731],["mercenar",-10.939045135054439],["Quick",-10.939045472499174],["delineate",-10.939075517186001],["gangren",-10.939096193660806],["receptacle",-10.939136543639247],["moist",-10.939137936440984],["burglar",-10.939145248461124],["submissive",-10.93917877061066],["Harm",-10.939203690538847],["motivation",-10.939239192328357],["bulk",-10.93930172159341],["brittle",-10.939374509919908],["conviction",-10.939443675216594],["scold",-10.939444893597656],["chamber",-10.9395202336238],["arithmetic",-10.939523205651867],["camera",-10.93955394387127],["Scout",-10.939628567100954],["firearm",-10.939751929986942],["enzyme",-10.939927889622632],["civiliz",-10.93997997575413],["Utter",-10.940048233320207],["Shape",-10.940126381411284],["Firm",-10.940354449713144],["senior",-10.940392203524741],["fr",-10.940466524777426],["portray",-10.940545843200814],["unwilling",-10.940604850937444],["defence",-10.94067347385681],["merchan",-10.940790063086865],["egg",-10.941003922008315],["index",-10.941372838417896],["diet",-10.941395710265395],["knight",-10.941797894106273],["articulate",-10.94197866267984],["controvers",-10.942330208869187],["launch",-10.942426542079492],["concav",-10.943031460748518],["trustworth",-10.94331359257517],["Mov",-10.943320011829801],["ostentatious",-10.943421705366339],["knob",-10.943640958197431],["hesitating",-10.943843409011507],["impregnate",-10.943951780323252],["Cloth",-10.944156813444547],["hotel",-10.944306441142189],["lush",-10.9449924119452],["fastidious",-10.945150744571398],["injection",-10.945643123052246],["Soft",-10.946040026672682],["indigen",-10.946088320539118],["iling",-10.946159446530723],["haste",-10.94644706462262],["commodit",-10.946999353528106],["impurit",-10.947034380434907],["prob",-10.947041193766253],["department",-10.947049110257176],["annual",-10.947275785563882],["obnoxious",-10.94734480447268],["shallow",-10.947750088909004],["intimate",-10.948208541336832],["prejudice",-10.948244495707012],["offende",-10.948732661233882],["nationalist",-10.94927551631399],["fantastic",-10.949320068716037],["stimul",-10.950090909294268],["accessor",-10.950243185053196],["Associat",-10.950594079358975],["antagonist",-10.951024840266985],["runner",-10.951087209204152],["70",-10.951137404970249],["perceiv",-10.951463821484538],["buffe",-10.951548704083113],["thorn",-10.951557207292572],["overpower",-10.952072528549357],["spike",-10.952180773097282],["fourth",-10.952816600664308],["react",-10.952869466808304],["capitalis",-10.953285863791102],["TV",-10.953345607341918],["sensor",-10.953743687578584],["appreciati",-10.954030047876106],["advantageous",-10.954180244240877],["stray",-10.9546337081707],["inspect",-10.955070145236563],["worry",-10.955424986394931],["Ca",-10.956859452739701],["tur",-10.956983884008089],["exclusi",-10.957138584119315],["graceful",-10.957149844541926],["flaw",-10.957501312175676],["rac",-10.957698899880043],["recogni",-10.957862470115078],["adapte",-10.95793725575254],["ped",-10.957977625503382],["contribute",-10.958163868384023],["vow",-10.958343766360853],["voluntar",-10.958521292744205],["Hard",-10.959765141999377],["Form",-10.961015220534827],["ograph",-10.9611623297411],["tenanc",-10.961554972246732],["corresponden",-10.961602935337774],["pett",-10.96202289888501],["Spe",-10.962827232182637],["ully",-10.963018499528152],["evaluate",-10.963177395044422],["errand",-10.963461550195662],["adequate",-10.964843280454211],["itude",-10.96489309199918],["constitut",-10.966614384330768],["bush",-10.966706958946698],["matri",-10.96679019972085],["disbelieve",-10.967436956789024],["obscurit",-10.96791043284409],["simulate",-10.967915709572862],["defin",-10.96828520077463],["gene",-10.968642951773809],["aring",-10.968659432563417],["lip",-10.969009264340826],["Allow",-10.969293460390963],["gland",-10.969473436542373],["mourn",-10.970250265572737],["cur",-10.97088890623715],["needle",-10.971062191341682],["invite",-10.971359088714706],["sparing",-10.9720602640054],["admir",-10.973021334742343],["here",-10.973312001108326],["violat",-10.973882578626815],["host",-10.975041903983868],["unstead",-10.975866599370564],["tory",-10.976546682214305],["Pre",-10.976805409189508],["feudal",-10.977415380623674],["vine",-10.978106957498117],["nes",-10.978777443845438],["rage",-10.979146455587927],["uisin",-10.979273960615583],["trous",-10.97946261297629],["parti",-10.979938135036589],["lessen",-10.98022955690164],["printe",-10.980313067945536],["park",-10.980639973901205],["groom",-10.981673579662946],["spheric",-10.982036869877138],["handed",-10.982601109379363],["lump",-10.983287827157302],["coal",-10.983688012372582],["grape",-10.984075633188466],["stands",-10.985386158065532],["colat",-10.986217209832267],["tre",-10.986817250072681],["Br",-10.986864949261793],["bath",-10.987010789224538],["peer",-10.987034177955248],["regulate",-10.987552444643937],["exclud",-10.989009350932694],["imitation",-10.989050907500523],["advanc",-10.989463586127592],["integra",-10.98972844706146],["oral",-10.990455580961502],["teric",-10.9921806819264],["knowing",-10.992228468969474],["never",-10.995340354489262],["chew",-10.997575533277086],["gar",-10.999067885096375],["capital",-11.00000781746511],["propaga",-11.000997476325352],["renounc",-11.001184954782122],["app",-11.001509141333322],["utilit",-11.00160886882298],["rul",-11.001922001056426],["heap",-11.001995178577886],["format",-11.003699822783851],["dding",-11.004716184090592],["wheat",-11.00544632302875],["pitcher",-11.005512902183225],["matche",-11.005700369734226],["chronic",-11.006579482471798],["specify",-11.007833653551751],["conservati",-11.008196444720987],["ulsion",-11.008903067359519],["Oppos",-11.009229536998248],["sentiment",-11.009589301946011],["founde",-11.010305332933104],["+",-11.010449377941471],["pedestrian",-11.010449685546146],["Caucasian",-11.010449985117653],["narcotic",-11.010450603938523],["conjectur",-11.010452072287638],["curiosit",-11.01045436446575],["consonant",-11.01045552975387],["cocktail",-11.01045659560883],["lesbian",-11.010460219436325],["tumult",-11.010467022519745],["metaboli",-11.010491046045132],["pincushion",-11.010511469311883],["originate",-11.010590771212282],["juke",-11.010617703573203],["assault",-11.010623082299215],["Direct",-11.010635203331256],["integer",-11.010647402782837],["magnitude",-11.010680656661835],["motorcycle",-11.01070913335042],["qualification",-11.010769814668611],["vomit",-11.011111422384994],["classification",-11.01113768468931],["Dark",-11.011143393750563],["potato",-11.011167167992532],["interface",-11.01123060122437],["dismiss",-11.011299173168053],["acquaint",-11.011460852202228],["impair",-11.0115229392208],["discontent",-11.011801156387929],["Never",-11.012042890621299],["hardship",-11.012101544853772],["victor",-11.012316936991771],["comprehend",-11.012431135712502],["intermittent",-11.013184084332176],["moistur",-11.013508883565542],["honey",-11.013533439221305],["humour",-11.01360698414593],["trace",-11.013693565435496],["sketch",-11.013745037067464],["revenue",-11.013805992455097],["Deep",-11.014305322177387],["ts",-11.01436394448441],["Willing",-11.014416475203888],["description",-11.014514736086173],["since",-11.014556244946391],["fearful",-11.014605494586695],["extinct",-11.01477798164451],["reminiscen",-11.015736756276507],["questionabl",-11.015795327809226],["gross",-11.016325745983991],["climate",-11.016797842069966],["devise",-11.017102430288627],["moth",-11.017324427363146],["interpret",-11.017387427375267],["hypo",-11.017517176505494],["apartment",-11.017679259302916],["disconcert",-11.017693751239866],["manoeuvre",-11.017949515373639],["mpulsive",-11.018144918979983],["piercing",-11.01833154768211],["puff",-11.018469147489983],["dexter",-11.018491617837245],["incompetent",-11.018686737165556],["administration",-11.018768954391561],["strategi",-11.0189832614743],["dwarf",-11.019213759942804],["blame",-11.019426087828137],["weari",-11.019538516703886],["Deviati",-11.02001828040957],["promot",-11.020179684963708],["starch",-11.020483245243387],["bl",-11.020606459422453],["lands",-11.020610733889885],["tribe",-11.021062951277994],["adherent",-11.0222164501088],["180",-11.02230736397716],["geometric",-11.022622685691285],["Refus",-11.022721631327444],["corporation",-11.0234954627019],["mill",-11.023499789673938],["cash",-11.024156285297362],["30",-11.024323160725256],["bene",-11.024665763558039],["fift",-11.025955418909895],["alabas",-11.02639457838866],["tie",-11.027046984341279],["profuse",-11.027547019065484],["feminin",-11.028321872822062],["ugly",-11.028553828755683],["append",-11.028863780095474],["chair",-11.028874439457809],["fungi",-11.02904197862367],["raw",-11.029253921735803],["brut",-11.029255169374961],["usive",-11.029255653018073],["admirabl",-11.030389987710391],["alarm",-11.030451834434135],["surpass",-11.03149309179423],["arous",-11.031783899866506],["console",-11.03180099046008],["ardent",-11.03187826953579],["crush",-11.032059293945432],["uns",-11.032219840105276],["Relati",-11.034217769310121],["dove",-11.034600579265055],["replac",-11.035165995133246],["discour",-11.036454598318354],["assum",-11.03732693354656],["ghetto",-11.037351964565765],["bo",-11.037783147205515],["lit",-11.038784645394458],["perative",-11.038918319319887],["imagine",-11.040242438518343],["alga",-11.040282976981423],["fanci",-11.040385868961277],["fare",-11.040504313387476],["anner",-11.041128356309905],["rider",-11.04252310134283],["unreasonable",-11.042870813202597],["liberal",-11.043298567135398],["intensif",-11.045175735284857],["gall",-11.04671636472171],["Compar",-11.04772722925981],["disorientat",-11.047939227636952],["hesitan",-11.048325011514038],["00",-11.048674462820754],["analys",-11.048953570114449],["eal",-11.049498750215374],["interfere",-11.049888005218897],["idio",-11.050312549298534],["laughter",-11.051003405222252],["fashionabl",-11.051019822804692],["boast",-11.051190948426505],["taper",-11.051633555433368],["endur",-11.05164622115879],["aux",-11.0540987737349],["likel",-11.054247337757579],["itche",-11.055470434279307],["lady",-11.05581450336935],["monitor",-11.056062688948305],["pun",-11.056235116097596],["ortune",-11.056901626900325],["oxide",-11.057038893352804],["rifle",-11.057136288005019],["ked",-11.05738762231702],["disguise",-11.057480028284454],["penetrat",-11.058122673197596],["ization",-11.058781135558279],["copie",-11.058929888102286],["Depend",-11.059025843146078],["Man",-11.05953395632104],["coward",-11.05977666416527],["tification",-11.06028207190252],["stalk",-11.060505685806021],["em",-11.060626625841294],["bake",-11.060916213366113],["Partial",-11.060995299420357],["eject",-11.061834952028855],["vigor",-11.063999466497432],["naked",-11.064092824425915],["necessit",-11.06481346092396],["System",-11.065424007709662],["entiti",-11.065608004244073],["geographic",-11.066372890663988],["rouse",-11.066808315267604],["eas",-11.066961341303585],["expel",-11.067338104975065],["Mexica",-11.068435656323935],["ordina",-11.068608497403362],["ulation",-11.07129657525334],["avail",-11.071389117297883],["transform",-11.071550422608297],["earn",-11.071606144832126],["soup",-11.072649466030958],["prompt",-11.07376731119749],["reign",-11.073922652147187],["transit",-11.075397862233842],["grip",-11.076254563096843],["concentr",-11.076459485516319],["allocate",-11.076747008775953],["disappear",-11.076790402837215],["ceremonial",-11.076824766578845],["bel",-11.07732750758274],["melod",-11.077790533682526],["gree",-11.078792658809922],["Wal",-11.07886685823647],["peri",-11.079411535763922],["steer",-11.081901160253121],["jet",-11.081937133586464],["rhym",-11.082777431007733],["horr",-11.083082439208141],["lled",-11.083370825836985],["overwhelm",-11.08343548973949],["merc",-11.083604265810202],["scent",-11.085007178727826],["glob",-11.086274448917319],["Christ",-11.087246036599868],["vigo",-11.087252008951062],["concur",-11.087282328956094],["proxim",-11.087372261578935],["}",-11.08737245486459],["recipient",-11.087372460746074],["labyrinth",-11.087372563654569],["hierarch",-11.087373539552301],["sacrifice",-11.087374291389224],["reproach",-11.087375037872555],["Genuine",-11.087375811272667],["artillery",-11.087392500531973],["sensibilit",-11.087400762912598],["primitiv",-11.087409597145346],["distasteful",-11.087421873984857],["combusti",-11.087424820602324],["quarrel",-11.08743118591913],["swagger",-11.087475897687845],["Employ",-11.08749665916004],["vivid",-11.087509509771873],["clergy",-11.08753399550778],["transmission",-11.087541083138909],["Suggesti",-11.087555084721288],["larva",-11.087582702883678],["peaceful",-11.087618747265658],["Power",-11.087626476144692],["morbid",-11.087776180448195],["zealous",-11.08778730992193],["unpredictabl",-11.087822482309221],["pretentious",-11.087879048493887],["approximation",-11.087905717629871],["contemporar",-11.088233107514968],["bucket",-11.088342449929737],["assertion",-11.088468968533231],["irrational",-11.088510564538833],["Experienc",-11.088518226996934],["rival",-11.088525494855952],["intricate",-11.088557927781192],["textbook",-11.088616449131532],["exclamat",-11.088639590204775],["armour",-11.088650214039715],["plunder",-11.088743498535298],["thousand",-11.088922242774968],["distill",-11.089244958672525],["lation",-11.089353662059231],["Absolute",-11.089466705486174],["computation",-11.089720529367062],["palat",-11.089911261742305],["deceit",-11.089960422534784],["prosper",-11.090214773696168],["curtain",-11.090523780648509],["corruption",-11.090745738181646],["systematic",-11.09081997344658],["ambition",-11.090862057174586],["stir",-11.091309026830896],["inflection",-11.09135378308683],["rodent",-11.091633389279174],["practic",-11.091682318669484],["athletic",-11.091696177739845],["selfish",-11.091832252188905],["attraction",-11.0926888044554],["sibling",-11.093295753745355],["harp",-11.093669551515141],["Z",-11.093696456784784],["secretion",-11.093915406267374],["nominal",-11.09399081103259],["grid",-11.094047350853812],["rection",-11.094181098712808],["foundation",-11.094313999688284],["righteous",-11.094616351299793],["residu",-11.094648220946036],["outlook",-11.09578433027201],["sloping",-11.096082428532329],["190",-11.09609369314934],["venue",-11.096133546761447],["radiate",-11.096957063340515],["lap",-11.097288900842067],["veil",-11.097339257431207],["fung",-11.09806753761681],["cow",-11.09831386004862],["resolute",-11.098583264920364],["Pleas",-11.098928618828392],["cirr",-11.09894197837367],["ligibl",-11.099039252938018],["signify",-11.099239508581478],["venom",-11.099747798501939],["uncover",-11.099955194017816],["Confus",-11.100524019856397],["greet",-11.100658102932963],["byproduct",-11.10144282293451],["tonic",-11.101905969560635],["mytholog",-11.10195021957692],["lips",-11.102384581134736],["publish",-11.102906519443687],["tw",-11.103761332720607],["fuck",-11.10378531551096],["virtual",-11.105449313828544],["brake",-11.10650013094861],["guns",-11.10674264882567],["Whit",-11.107150005917042],["predetermine",-11.107440276496312],["qualify",-11.107793793583912],["chord",-11.108100191156726],["damag",-11.108200964619506],["smash",-11.108658191945791],["After",-11.108736344944816],["mate",-11.108821579275187],["molecul",-11.111088278942184],["procure",-11.111420850247082],["swimm",-11.111767247281442],["impede",-11.111845391867426],["haul",-11.111854742573426],["apping",-11.111932651645255],["assemble",-11.112033154448625],["idol",-11.112456621880954],["recall",-11.113489936750486],["elicit",-11.114427971433201],["impudent",-11.114669783620513],["towns",-11.11471544682109],["nforcement",-11.115577034387115],["styl",-11.115604332121649],["challeng",-11.115724245461312],["dilute",-11.115750018592855],["essay",-11.116482299568693],["liabilit",-11.116513714723837],["Freed",-11.117049739146733],["ppropriate",-11.117380171614897],["highl",-11.11881871665457],["gear",-11.119061527552319],["microscop",-11.120469218800658],["angel",-11.120495096066408],["ach",-11.120548432389466],["rais",-11.12250166759202],["jun",-11.123515895345768],["pot",-11.124663842345324],["graphical",-11.125131477704219],["watche",-11.125175872136808],["justificat",-11.12522596308029],["hill",-11.126604869416058],["knit",-11.127283239466363],["volcano",-11.12900400116015],["steadi",-11.129580744792698],["whirl",-11.12964417601278],["cancel",-11.130159143964278],["notion",-11.130982455725032],["pop",-11.131328160432767],["Blood",-11.132582719379858],["indistinct",-11.13325443445624],["remember",-11.133258604542783],["carnivor",-11.133417212406213],["annul",-11.134071493585427],["Pro",-11.134145169463594],["damn",-11.134513175265472],["cautio",-11.134745522764563],["lin",-11.135005818278799],["12",-11.135631672581521],["candle",-11.13729358903247],["spic",-11.13762516355772],["bare",-11.138122683115512],["thresh",-11.138147257119012],["assert",-11.138420681287608],["bud",-11.139059472719488],["propelle",-11.140415042745714],["Hell",-11.140644291947702],["ward",-11.14066352289899],["inform",-11.14105660283487],["determinat",-11.141133444527645],["izar",-11.142181725899109],["accompani",-11.14260872662735],["vul",-11.143645332896625],["Conform",-11.14388189392498],["sp",-11.144609527219012],["ay",-11.145193981330731],["altering",-11.145336275645978],["harden",-11.145730683409129],["itie",-11.145989739731872],["Wel",-11.146241645952546],["butter",-11.1465160612356],["sprinkl",-11.146609180588182],["wed",-11.148331384633995],["temporal",-11.149363051143308],["deserve",-11.150045437227707],["ounding",-11.150086392557832],["curse",-11.150554010579388],["classe",-11.150766873994014],["mimic",-11.150884764012888],["accuse",-11.150977933962407],["lea",-11.151322871764862],["clothe",-11.152469663340693],["expens",-11.153208534821198],["charit",-11.153710469484418],["crucia",-11.15380758657112],["der",-11.154184672171866],["comp",-11.15657384592817],["stretche",-11.157096057287934],["resonan",-11.157593187827187],["Suff",-11.158076957497984],["maste",-11.159549758447781],["submit",-11.161016452043757],["forge",-11.161268262349932],["amine",-11.161390557629804],["ading",-11.161530897919992],["sponsor",-11.161584771444389],["trospecti",-11.162300447206317],["estern",-11.162587115497697],["Mo",-11.162782370719073],["mit",-11.163240413248072],["livel",-11.16335091519134],["vestment",-11.16362816958765],["lesson",-11.165635779092169],["lobe",-11.166003449818772],["har",-11.166618902612973],["censor",-11.167792368126372],["horizon",-11.169269338366213],["brows",-11.169353963720724],["array",-11.1696514597249],["orchestra",-11.1696874791652],["eacher",-11.169701762498395],["[",-11.170705788198028],["]",-11.170705788198028],["surreptitious",-11.170705789274615],["cliché",-11.170705828206493],["grotesque",-11.17070627192109],["prevail",-11.170724956680282],["rudiment",-11.170725709901088],["pencil",-11.170726908245804],["neighbour",-11.170734879714969],["Distinguish",-11.17074257099632],["Canadian",-11.170748772270127],["rebuke",-11.170758229895103],["Habitual",-11.170764160286055],["sulph",-11.170815002860559],["malicious",-11.170820239065389],["satisfact",-11.170887116463248],["baptism",-11.170935743175969],["triangle",-11.170963582318631],["pornograph",-11.17096364916976],["Strong",-11.1709831528259],["elief",-11.170992517190875],["multiplication",-11.171044747532534],["discreet",-11.171056919771832],["transgender",-11.171058291095243],["lawsuit",-11.1710600683802],["costum",-11.171068681978472],["microorganism",-11.171124289199291],["Queen",-11.171196980243426],["Harsh",-11.171351212832388],["compassionate",-11.171357842297779],["parasit",-11.17138225840034],["purify",-11.171413250798707],["econom",-11.17148093411656],["blanket",-11.17148493280181],["thrill",-11.171667888160158],["subculture",-11.17167419668906],["pan",-11.171695039156567],["uncontrolled",-11.171736347803048],["awful",-11.17178948211686],["website",-11.171976509919642],["interruption",-11.171984579472921],["remorse",-11.17201385308845],["streak",-11.172123159576495],["impartial",-11.172208204346386],["executive",-11.172223173879496],["platitude",-11.172232533525928],["discard",-11.17223862223838],["Disgust",-11.17236687279576],["trigger",-11.172430000676947],["encumber",-11.172529801674795],["crook",-11.172662670188634],["Light",-11.172703996835569],["drift",-11.17276046133263],["vibration",-11.17285123809448],["discord",-11.17288075380713],["alleged",-11.173070239231272],["reptile",-11.173102544821806],["provocati",-11.173147023569278],["musician",-11.173163255864058],["unconscious",-11.173453201837344],["refinement",-11.173530387644863],["explanation",-11.173576679290274],["uncomfortabl",-11.17362628685255],["withdrawal",-11.174191248104496],["zy",-11.174228282965215],["oken",-11.174252619468184],["terminal",-11.174401600858335],["persever",-11.174432595852807],["harvest",-11.174526627801608],["inding",-11.174667476904817],["uncle",-11.174844856084203],["tones",-11.174887282579832],["ntage",-11.175012169668912],["prohibit",-11.175269453850483],["outlet",-11.175321420940005],["solvent",-11.17534021116527],["encompass",-11.175463919697007],["disapprov",-11.17553867243566],["thwart",-11.175762513843987],["scrupulous",-11.175821298730803],["illuminate",-11.175929885875199],["parliament",-11.175940114123932],["idiom",-11.17644620689967],["arise",-11.17670603834342],["comic",-11.176768675782746],["universal",-11.17693008974464],["frolic",-11.177223702152245],["successi",-11.177524583816622],["focuse",-11.17756507149402],["aesthetic",-11.177737817247861],["incur",-11.177749963244523],["Pron",-11.178015406833575],["empir",-11.178061613663806],["seeing",-11.178226628366058],["dig",-11.17858878168493],["advise",-11.178991197482741],["unsuitabl",-11.179026993884914],["director",-11.179100295384071],["companion",-11.179305961335679],["swindle",-11.179355636056622],["Spa",-11.179633307457],["budget",-11.179816372637594],["reless",-11.179959037482096],["titious",-11.180036759582618],["redden",-11.180051536291446],["lust",-11.180495565494825],["exhibition",-11.180553735385395],["Yor",-11.180613831361391],["eruption",-11.180967554315542],["metall",-11.181203963554136],["gate",-11.181556503741096],["disseminate",-11.182467465786655],["fier",-11.182576685769977],["electora",-11.183500262132021],["eated",-11.183564793831573],["ang",-11.184578338381394],["resent",-11.184878883516717],["accompany",-11.185062565351723],["ceremoni",-11.185700574486095],["lus",-11.18635789856275],["accidental",-11.186552586645373],["pi",-11.18751760559188],["sperm",-11.188714853120747],["bleach",-11.18910373413084],["integr",-11.189582249017956],["cation",-11.18960446778052],["Limit",-11.190005965058255],["chap",-11.190808779282545],["scor",-11.190979898064132],["attendant",-11.191451767765116],["reveren",-11.192005783758074],["impersonal",-11.192317914438224],["incomplete",-11.192512705687154],["prospect",-11.192687386315585],["contend",-11.193112932328376],["meri",-11.193274172294158],["reviv",-11.193386012869553],["exhausti",-11.19342200458117],["cla",-11.193918554602536],["income",-11.194450979387483],["physiologic",-11.19456466614567],["vertic",-11.194944813284364],["isk",-11.195296604907039],["feast",-11.19539532338716],["identifie",-11.195516191382168],["mile",-11.195688712391288],["coordinate",-11.19569285944652],["afford",-11.197495213000552],["unlike",-11.197508744179377],["dictate",-11.197565639855512],["processor",-11.197599834039288],["inches",-11.197863174061144],["grace",-11.1991469595044],["rdinar",-11.199998723222997],["pervert",-11.200021317600791],["unrel",-11.200602747687022],["Operati",-11.200734474702314],["brisk",-11.200853559531662],["som",-11.200863836274733],["humble",-11.202356832156832],["anticipate",-11.20263742882678],["prick",-11.202875198696095],["weaken",-11.203128932294373],["scorn",-11.204177935636935],["halt",-11.204284568982443],["intestine",-11.204430500869034],["ubber",-11.204664869679696],["Bear",-11.204738378115104],["courtes",-11.204866410338557],["exteri",-11.205364109629027],["encircle",-11.205442097878747],["participati",-11.20545968524719],["servi",-11.205506277494127],["mer",-11.205825531191264],["inspire",-11.206286560571586],["alkali",-11.206317668074387],["Mar",-11.206965874981956],["pregnan",-11.207211829992655],["sink",-11.207576246340636],["weigh",-11.207855309901516],["Poor",-11.207932945311894],["munition",-11.208073347806657],["electron",-11.208394858731793],["La",-11.208412631839572],["aying",-11.208545610414193],["Bare",-11.20930422747047],["cris",-11.209352579006486],["withstand",-11.210560875190684],["reduc",-11.21074339640912],["erie",-11.211788455995725],["guid",-11.212087996430519],["manipulat",-11.212977052581751],["Relative",-11.21301502658074],["opera",-11.213518813171019],["pierc",-11.21424304442517],["lacks",-11.214254907114395],["complet",-11.216234832318191],["headline",-11.216290925074034],["iki",-11.21640278415416],["Pr",-11.21683201196988],["degrad",-11.217393298709073],["Li",-11.217803980248462],["reluctant",-11.217855618022385],["ference",-11.21800922912154],["seri",-11.218505003843628],["communi",-11.218788249356166],["defile",-11.218820691599577],["arche",-11.219056978790276],["horn",-11.219331527494118],["fanc",-11.219801525925673],["Before",-11.220180564484906],["guy",-11.220232949808459],["lot",-11.220399264609288],["edious",-11.220433771800407],["uni",-11.221393942773766],["ix",-11.221713621334606],["qua",-11.221840009594636],["swing",-11.221942205038363],["circulat",-11.22200280230434],["undan",-11.2231013142335],["Sea",-11.223269847791975],["ggy",-11.223967953051403],["beach",-11.224063670468324],["awe",-11.224922809289879],["placement",-11.225353256395206],["punch",-11.226611692974531],["incident",-11.227101558529018],["hobb",-11.227510695863188],["knot",-11.227787581237415],["crank",-11.227819808245465],["instruct",-11.227911651525899],["daint",-11.22829479819315],["coating",-11.228384824873345],["infrequent",-11.228577145683042],["alogue",-11.228577852662331],["xed",-11.228621494554206],["compass",-11.228827155978541],["button",-11.228980745420213],["Rom",-11.229389867489791],["canal",-11.230511094738164],["mathematic",-11.230901774252661],["grie",-11.231171891628456],["compensate",-11.233547387607482],["west",-11.234969547053407],["latter",-11.235187163203978],["airpla",-11.235334380826425],["opping",-11.235578090162278],["discourage",-11.23565721358664],["quarter",-11.236578599865197],["tly",-11.236887123567831],["Thin",-11.237542116303315],["emerge",-11.237615679701634],["pole",-11.237650211917],["uncou",-11.238658740961078],["transferr",-11.23890536118304],["Place",-11.23958434419308],["astonish",-11.240508184691146],["confus",-11.24100335531271],["rap",-11.241038095644598],["addict",-11.241231765486567],["eclude",-11.241560125126231],["omni",-11.242978601233602],["forehand",-11.243222059370568],["utilize",-11.243949187970108],["periodical",-11.24630627510379],["imagin",-11.24651140624953],["spaces",-11.247583073246778],["diagnos",-11.247742810275307],["adventure",-11.248010178985744],["east",-11.248336415624134],["wig",-11.249132733478568],["lum",-11.249796433555323],["conceive",-11.249852233806312],["Cas",-11.250077806429017],["bald",-11.250450460458982],["jection",-11.251467329790854],["stitche",-11.251639574695105],["clad",-11.251841664126355],["awn",-11.252238218715974],["emission",-11.252343473310638],["lens",-11.253130868426725],["beside",-11.253960835576212],["untru",-11.254443321710685],["disast",-11.25595788038779],["endorse",-11.25639493259598],["rod",-11.256545101833433],["Up",-11.256681483020646],["dragg",-11.257688527438647],["headed",-11.260064499786068],["nction",-11.260301601122796],["cent",-11.260341877391658],["apolog",-11.260353951149945],["wrap",-11.260693092065875],["toxic",-11.26095333366349],["email",-11.261080956361344],["racial",-11.261152260836418],["metaphor",-11.26119188508658],["perish",-11.261552253419598],["₄",-11.261614879107388],["₂",-11.261614879107388],["{",-11.261614879107388],["relinquish",-11.261615016225882],["cigarette",-11.26161762512129],["competitive",-11.26162031170982],["immense",-11.261630470185189],["squander",-11.261638284561903],["perfume",-11.26164342000217],["Constant",-11.26165463542769],["Mustel",-11.261656117618378],["bladder",-11.261663969746047],["Precise",-11.261676151310468],["hypothesi",-11.26168013498937],["peripher",-11.261684600022187],["condiment",-11.261689842551297],["gauge",-11.261691065530972],["prescribe",-11.26171698849066],["intellect",-11.261726237216514],["Necessar",-11.26173797344365],["velvet",-11.261743315299285],["mysterious",-11.261771193667858],["condescend",-11.261785254248391],["perpendicular",-11.261788474478207],["viscera",-11.261792417547714],["repugnan",-11.261801933101909],["interjection",-11.26181752859831],["fragil",-11.261819121711014],["Friend",-11.261821854519438],["pivot",-11.261837270936399],["appendage",-11.26183859061313],["sleaz",-11.261904382280017],["Skillful",-11.261920983156195],["dinosaur",-11.261979628613444],["Semitic",-11.261986702378621],["comparative",-11.262049754328762],["delicac",-11.262058855166044],["Subject",-11.262073352788361],["translation",-11.26211844385029],["ined",-11.262232089009556],["bishop",-11.262241956582828],["Back",-11.2622681320588],["expans",-11.262271939208619],["Unwilling",-11.26229700587866],["elephant",-11.262316286438246],["memorial",-11.262436159008407],["wrinkle",-11.262561001840874],["hopeless",-11.262578007730546],["Insincere",-11.262595735492331],["spasm",-11.262652279565431],["stubborn",-11.26269173186022],["detach",-11.26269410553459],["petrol",-11.262731684191488],["concise",-11.262755195130163],["straightforward",-11.262764570972601],["inflict",-11.262849161621885],["reckon",-11.262916660469301],["cubic",-11.262942311199946],["endeavor",-11.262995381083597],["copper",-11.26309738019393],["distorted",-11.263296408974885],["bull",-11.2633702742975],["trimming",-11.263609399095564],["incessant",-11.264018148084315],["clarify",-11.26402829313857],["restless",-11.264064402193384],["hammer",-11.26419139227213],["unintentional",-11.264300936774239],["warrant",-11.264316522968908],["theor",-11.264318788045378],["notorious",-11.26462801215574],["subdue",-11.264810750684763],["submerge",-11.264826401868127],["embrac",-11.264961483711733],["successive",-11.264964993606544],["romatic",-11.26530632555563],["dust",-11.265354326016972],["ons",-11.26557992629854],["horseman",-11.26576793640183],["creep",-11.265889341809054],["Protest",-11.265898317593045],["then",-11.266053208277725],["Ba",-11.266160921663612],["vexatio",-11.266758464103727],["astronomic",-11.267258734027017],["paddle",-11.267691245678952],["bribe",-11.26794818520438],["Cast",-11.267956047316886],["cult",-11.268037009615995],["repeal",-11.268049657255933],["igger",-11.268139074878155],["resin",-11.26820765166871],["Furni",-11.268614681661855],["Dirt",-11.268626633496801],["neighbor",-11.268825993819224],["controll",-11.268912517096584],["pla",-11.269548619960036],["accustom",-11.26957256502903],["deepe",-11.269676194255467],["portend",-11.269784992400695],["taut",-11.269799452520864],["forceful",-11.270219783192502],["Irrita",-11.270248971948527],["grouping",-11.270262943025905],["authentic",-11.270734440108766],["aborti",-11.271194230727144],["flexi",-11.271570725064981],["denounce",-11.271639551535383],["nausea",-11.271866857358734],["Typical",-11.272646325694486],["si",-11.273488569278319],["implicit",-11.273901724025055],["argo",-11.274263513749027],["ominous",-11.274431254776408],["jur",-11.274691752908963],["Extend",-11.274806787221634],["rumbl",-11.275096431934788],["annoyed",-11.2751366897066],["tumour",-11.27561044390526],["keel",-11.275692242500346],["overthrow",-11.276437101636711],["inept",-11.276644255099729],["jo",-11.277082888362981],["oblique",-11.277298352557525],["finding",-11.277445738648709],["spect",-11.278492146915642],["entered",-11.279055711893374],["diligent",-11.279124036339343],["fertil",-11.279664411834677],["descend",-11.27978952702179],["alism",-11.279939718099442],["elongate",-11.280000308742522],["aggregate",-11.280013127895467],["ordain",-11.280436499077734],["lace",-11.28051901503201],["whip",-11.280774928554736],["Intense",-11.280910351684913],["stimulati",-11.282241213014071],["velo",-11.282749470110458],["hippie",-11.282757093580534],["Euro",-11.283027110475148],["extravagant",-11.283135157730266],["supplement",-11.283772679004812],["nook",-11.283803865401396],["concert",-11.283951992381292],["bait",-11.283984922680428],["compile",-11.285019567515793],["summe",-11.285316473013781],["eans",-11.285569460398882],["Compos",-11.286168644376467],["revoke",-11.287492076829336],["compresse",-11.288009650969988],["tem",-11.288714329854685],["comment",-11.28938743285912],["facilitat",-11.289659762004971],["assent",-11.289833088329267],["Land",-11.28984902383694],["shout",-11.289870346967191],["fibre",-11.290185132256152],["trend",-11.292207440236664],["die",-11.292860173796484],["para",-11.292965978721272],["satisfactor",-11.293502494279938],["enable",-11.29353689770786],["ging",-11.293851824281134],["Merc",-11.294013645332027],["cave",-11.294171765234564],["ruin",-11.29461235548852],["obligat",-11.294944652399405],["ddish",-11.295507767177794],["Islami",-11.29563681592311],["fie",-11.296125850321332],["insincere",-11.296181142103997],["pearl",-11.296247123059725],["blu",-11.296253066103608],["tuft",-11.29639084875917],["synchroniz",-11.296433784747622],["peak",-11.29749302246056],["ade",-11.297850953156837],["dour",-11.29885141030041],["90",-11.300762649713896],["conclude",-11.301554533076587],["laborat",-11.301727923209848],["temperat",-11.301809785453143],["categori",-11.302002425429789],["mony",-11.303040789064806],["dedicate",-11.30319207033195],["hous",-11.30371764844573],["reprehensi",-11.30446849416361],["affix",-11.304511601053393],["tc",-11.305718078810749],["shoes",-11.305777899157107],["forbid",-11.306415756895612],["neuro",-11.307189318194968],["lowe",-11.30764840044211],["believ",-11.309163267395279],["limitation",-11.309504884282934],["cidental",-11.31067845235371],["dat",-11.311264991475038],["celebrati",-11.311334481689494],["approve",-11.311459516277358],["quili",-11.312034875132436],["ensive",-11.312189539156076],["blun",-11.31262835136539],["electromagnet",-11.314534105254015],["tile",-11.314699191736054],["hus",-11.314820156508944],["Je",-11.31491866073257],["riction",-11.315118920410843],["monious",-11.315926713285036],["inconsequent",-11.316096940343249],["lie",-11.316100723800366],["tial",-11.316301562192463],["Fi",-11.317378497089045],["recogniz",-11.31784398051518],["unreasonabl",-11.317989397393598],["measurabl",-11.318134021393771],["somewh",-11.318496719282294],["entangle",-11.31901749469582],["Avoid",-11.319106747319287],["bal",-11.319243554443887],["metre",-11.319287623472126],["menia",-11.319553686333025],["flap",-11.319712674683544],["bug",-11.320534548768572],["trength",-11.32132633265778],["Ru",-11.321542560611661],["ledge",-11.32205297933707],["thank",-11.322074516199663],["conju",-11.32332885930399],["empt",-11.32377583749528],["administrati",-11.324416893952717],["Highe",-11.32471626406164],["touche",-11.325421818475204],["agreeabl",-11.327198331191276],["anal",-11.327750716851709],["pus",-11.328796155005495],["therap",-11.329800609174184],["assur",-11.329888403323615],["Sp",-11.330543424757293],["initiat",-11.330704134491569],["disbelie",-11.333263399500956],["Co",-11.334280542626633],["visco",-11.334293277129646],["sequential",-11.334410908622912],["Lu",-11.335245455059978],["fleet",-11.335898896054843],["distribut",-11.33595421851864],["symmetr",-11.33685298932511],["adher",-11.337011533679732],["viol",-11.337806098340799],["cooperat",-11.33801288958312],["possesse",-11.339994280466247],["194",-11.340399300103677],["corpor",-11.341025688181395],["travers",-11.341056581631772],["tes",-11.341695032554139],["hin",-11.341977444354814],["ber",-11.343076004451214],["interact",-11.343147772901542],["fright",-11.343531478753036],["ards",-11.343938947751221],["sacr",-11.344104819172607],["ache",-11.34460858619099],["sauc",-11.34487177823733],["bolte",-11.344988466661274],["chat",-11.345313821428235],["lunch",-11.346836096684498],["rotat",-11.347072308486544],["cit",-11.3478308135024],["deliberati",-11.347921490822873],["preoccup",-11.34827637177864],["neurologic",-11.348419225475759],["lding",-11.348816456040018],["pur",-11.348847195804945],["uter",-11.349019700629091],["herbal",-11.349182181906308],["dump",-11.351145425140514],["24",-11.35130513122653],["acea",-11.351397460505211],["med",-11.35171171185176],["plaus",-11.352114505799989],["unjust",-11.352413565923841],["authorize",-11.353093026974756],["My",-11.353992193373433],["refus",-11.354223179961517],["Cl",-11.354680906588504],["disperse",-11.355058064167268],["ain",-11.355336599457186],["Suc",-11.35579868745727],["pronoun",-11.356569283776384],["humiliati",-11.357065546229663],["curv",-11.357885689013788],["rubbi",-11.358839858003419],["ferment",-11.35934034883512],["eworth",-11.35992672329662],["Capa",-11.360650375382427],["arth",-11.360733277630272],["drill",-11.36081634124333],["borrow",-11.360850627475063],["frighten",-11.3611099663788],["ential",-11.36129024448217],["1000",-11.361590455596431],["Brazil",-11.36161510543027],["amphibian",-11.361615195608515],["crustacean",-11.361616180213481],["maneuver",-11.36161645437217],["tubercul",-11.36161664670687],["repetitive",-11.361622610786526],["Zealand",-11.361623143087831],["endeavour",-11.361638346940657],["scratch",-11.361676905029196],["victim",-11.361684325498596],["Significant",-11.361689194857167],["Scientolog",-11.361694995356668],["Far",-11.361703054954678],["uncontrollabl",-11.361710772756535],["Damned",-11.361712458394507],["clerk",-11.361712617829367],["menstrua",-11.361722743579373],["Regular",-11.361727950923868],["minister",-11.361734880167658],["malevolen",-11.361735990310114],["Essential",-11.361759336877249],["eserved",-11.36176406188265],["glacier",-11.361785496614552],["protuberance",-11.361786471770825],["juven",-11.361798474706163],["gemstone",-11.361812001523692],["unlawful",-11.361820631814172],["harmonize",-11.361831226327366],["premature",-11.36183169953334],["cordial",-11.36186272155917],["swamp",-11.361872070068397],["funeral",-11.361886406914705],["ruthless",-11.361902012807901],["cinema",-11.36194009109786],["flourish",-11.36198324018252],["prestig",-11.362016335530361],["refuge",-11.362020427325778],["circumcis",-11.362028831451706],["forg",-11.36208499681316],["Generous",-11.36215533252764],["Entire",-11.362305815219592],["affliction",-11.36240062719891],["steward",-11.362427402284434],["elimination",-11.362429868219996],["bastard",-11.362442426799571],["holiday",-11.362448126036279],["impetu",-11.36249031078388],["Wild",-11.362537333166127],["Liv",-11.362546120162126],["missile",-11.362604898551536],["gentleman",-11.362730320410362],["grateful",-11.362781020808702],["legitimate",-11.362804302396011],["Basic",-11.3628135226014],["exalt",-11.3628822039972],["Weak",-11.36304262291857],["wage",-11.363229173304001],["venge",-11.363370596696205],["competent",-11.36338232227671],["cardinal",-11.363524377664973],["detective",-11.363582114899263],["listless",-11.363598784528463],["gelatin",-11.363674455724976],["egation",-11.363736178652042],["buyer",-11.363764416487886],["Radia",-11.363779040657409],["chromatic",-11.363781881064531],["pri",-11.363846231489962],["inward",-11.363952782591111],["pathogen",-11.363971561449624],["orous",-11.364046603950623],["fortunate",-11.36407438339704],["valve",-11.36412890953244],["urgent",-11.364261333268914],["discredit",-11.364328238479173],["perfection",-11.364423275705317],["childish",-11.364502108659908],["Young",-11.364596941000615],["Connect",-11.364602145425646],["Skill",-11.364846609073064],["indiscriminate",-11.36496816408874],["exposure",-11.36513085928473],["prisoner",-11.365277721057495],["biscu",-11.365282491515602],["agenda",-11.365524066063026],["elbow",-11.365608212247016],["uneven",-11.365792899946518],["incite",-11.365808705096505],["cabinet",-11.36599551525514],["incompatib",-11.366207046488736],["insertion",-11.366222801655832],["scream",-11.366347335186905],["pump",-11.366496487276802],["frugal",-11.36672154662283],["enlighten",-11.366759781163037],["server",-11.366876244028589],["prolong",-11.36716163924536],["ironic",-11.367352494855892],["hurry",-11.367449869617518],["calorie",-11.36747394635745],["Attractive",-11.36780671431774],["collar",-11.368038521362188],["voter",-11.368063315774053],["btrusive",-11.368094465570461],["woodland",-11.368105225873586],["tri",-11.368283458335702],["mazing",-11.368632108254523],["alleviat",-11.368774704979147],["improv",-11.368810122948801],["Sometime",-11.36905239741375],["inscribe",-11.369277386969337],["elf",-11.369354235344819],["charisma",-11.369371539333851],["nomial",-11.369400226658641],["Unusual",-11.369417867230094],["apart",-11.369703886479698],["Strange",-11.370131071341415],["sanction",-11.370298073836839],["liveli",-11.370327269797096],["spray",-11.370952382970584],["weep",-11.370959285511882],["photosynthe",-11.371092803835309],["desk",-11.37121794438418],["rever",-11.371292521598928],["xcellent",-11.371452832740353],["deficien",-11.371736054646743],["exp",-11.371790466841395],["chatter",-11.371821749840798],["overlapp",-11.371962747205814],["expend",-11.371973898737558],["hop",-11.372007855058573],["handl",-11.372502488814135],["shovel",-11.372545701203272],["unus",-11.37273120218758],["Temporar",-11.37274097184963],["undy",-11.372867457066338],["conference",-11.373134298865288],["rug",-11.373300546496118],["frightening",-11.373700835979491],["alternating",-11.3738552148805],["hurri",-11.374030366985595],["facia",-11.37443971248815],["erotic",-11.37452082195281],["unkind",-11.374544585949595],["dependenc",-11.374692944034436],["evoke",-11.37479562572448],["queu",-11.375187391198686],["multipli",-11.375436600526028],["bloc",-11.375478658713938],["wav",-11.37554431399699],["conductor",-11.375768169393629],["province",-11.37584728048665],["traveller",-11.37597941727184],["sincere",-11.376098630445892],["anchor",-11.376107034678029],["respirat",-11.376273512263769],["savour",-11.376323015926605],["uphold",-11.376512336170173],["traine",-11.377031070029004],["equi",-11.377129910621049],["telep",-11.377152063928914],["bra",-11.377260304072124],["straw",-11.377808887071174],["ssert",-11.377854708460562],["stora",-11.377957291129556],["Pri",-11.378094560543143],["parade",-11.378636477412392],["ample",-11.378723643626495],["inspecti",-11.379079849558957],["dire",-11.379364426168896],["incarnat",-11.381881584574163],["ption",-11.382341333634447],["sol",-11.383387763294145],["oid",-11.383428271926526],["venture",-11.383602357838011],["diction",-11.38385889136903],["Bor",-11.383970841267619],["pose",-11.384366515465203],["immature",-11.384665683931251],["tape",-11.386090756915394],["strive",-11.386318162711465],["Continu",-11.386900640809156],["pier",-11.387439810165304],["monast",-11.38745243726194],["accessib",-11.387552848622974],["steroid",-11.388680212306605],["carbonate",-11.388729469063682],["allur",-11.388837003613753],["estation",-11.389709334732299],["usiness",-11.390300849363015],["arrang",-11.390412268878483],["intersect",-11.390437722741662],["Lag",-11.390529919627383],["exaggerate",-11.390591436357912],["ruler",-11.390752319645912],["St",-11.390849412005354],["carv",-11.39155976725888],["enti",-11.391611527807338],["grill",-11.39181341097834],["constitution",-11.391863705434364],["invalid",-11.392136873570614],["inju",-11.392208130327324],["airline",-11.392355810449523],["ser",-11.393397920011521],["stripe",-11.39350776047501],["eats",-11.39627597270473],["Indicat",-11.396383852153606],["immun",-11.39664911058722],["rabi",-11.396723761551243],["taxonomi",-11.396757461756149],["historic",-11.397060133925187],["Fail",-11.397307200330024],["refore",-11.397482470559144],["hyper",-11.39834660908599],["patholog",-11.398381172157233],["poke",-11.398452049644089],["optical",-11.3990747603715],["pedia",-11.399593121635903],["survive",-11.399696790057643],["messag",-11.399956302729105],["loading",-11.40004779476415],["slid",-11.40027416815036],["intimidate",-11.400678591883395],["reali",-11.400887020281216],["vol",-11.402249757434666],["align",-11.402396367712516],["flop",-11.402491875417928],["reache",-11.40250018213757],["Special",-11.402533500057267],["alert",-11.402605460065242],["sneak",-11.40260577794583],["circulati",-11.403006792812349],["edition",-11.403570550117378],["manufactur",-11.404351187290697],["potent",-11.404924081871584],["Proto",-11.405202639625962],["iation",-11.406232513286218],["disrupti",-11.406510228697881],["pres",-11.406650034767623],["lateral",-11.40736817329123],["ense",-11.40744385513424],["divers",-11.407575532968584],["mitigate",-11.40838144107801],["gorge",-11.40911740288983],["haught",-11.409329833258006],["diverge",-11.409492479456244],["Hungar",-11.409643376131703],["gi",-11.409805637306475],["linea",-11.410042438128672],["creed",-11.410061495658619],["Sola",-11.41017131882259],["ew",-11.410837081522274],["execut",-11.411018963139167],["demons",-11.411414853536758],["eternal",-11.411998756745565],["calculat",-11.412260214045142],["furnishing",-11.412821967632544],["sift",-11.41282475922564],["gang",-11.412955009889156],["reply",-11.41315158398823],["joke",-11.413618864757929],["Cut",-11.414655287207792],["secre",-11.414925881343306],["elve",-11.416172155287976],["protrud",-11.416239541742957],["nice",-11.416374174450471],["lies",-11.416480378649023],["frank",-11.416534604966815],["ations",-11.416932342649412],["disrep",-11.416960826385662],["ignifie",-11.417001532838952],["40",-11.417591317370357],["degrade",-11.41796656112043],["ompact",-11.417993769111058],["psych",-11.418000902084703],["sigh",-11.418085079512664],["ace",-11.418140106688472],["prop",-11.418181641810518],["compress",-11.418205233824082],["qual",-11.419022851553647],["fond",-11.419191851148899],["protrude",-11.419319732092116],["qu",-11.4197264256476],["convenien",-11.421445183261799],["breach",-11.421563812354975],["brav",-11.422266366129328],["char",-11.423401698323353],["servil",-11.424026682839425],["Fine",-11.424195596353604],["Low",-11.424316641631812],["rigge",-11.424421807985286],["hypocri",-11.424699872410976],["minorit",-11.424734650485838],["spite",-11.42485462098014],["gu",-11.424885740951717],["inactiv",-11.425320869508862],["ifying",-11.425412227679052],["conceit",-11.426668456461673],["rees",-11.426675885862489],["drip",-11.426833923910587],["semen",-11.426930481257287],["brillian",-11.427387379451787],["narrati",-11.427495664740334],["ste",-11.428492310320618],["riot",-11.428548973050184],["reluctan",-11.428590712724688],["vibrat",-11.428705791078979],["pil",-11.428973703626516],["unsteadi",-11.428976896793671],["gle",-11.429120216928816],["refract",-11.430241046067096],["tempt",-11.43030093863971],["unmar",-11.430897307682145],["preserv",-11.431758886466179],["emerg",-11.431782499982496],["Cha",-11.432378788641103],["inconsisten",-11.43302817293559],["clima",-11.434014119322413],["glyce",-11.434341259493987],["cure",-11.434490639480474],["ral",-11.4360665165994],["Hemi",-11.436122276445435],["punctua",-11.43656500337779],["browse",-11.438071641507705],["BB",-11.438367453383359],["van",-11.438405008879972],["dishe",-11.438503541742563],["peril",-11.438777072868785],["60",-11.43887135955627],["bead",-11.440084427359361],["propos",-11.441640228504067],["evolution",-11.441853503923795],["pian",-11.442295557551354],["reserv",-11.44255786190354],["resid",-11.44263121391342],["offend",-11.442802390539054],["ankle",-11.44308473933878],["knitt",-11.443506295596606],["Stand",-11.444494194398326],["pos",-11.444907083884537],["decre",-11.445306326129877],["uitar",-11.445483162799231],["danc",-11.446662601543917],["induc",-11.447060961728305],["Creat",-11.447657472534189],["cas",-11.447706774500894],["Control",-11.447749680732063],["equipp",-11.448688260938123],["shut",-11.449559377547981],["Devo",-11.450436671281796],["dispos",-11.450578027712742],["avan",-11.451480990814396],["ong",-11.451727873453084],["wards",-11.452039589210111],["inexperience",-11.452145212243591],["Fitt",-11.453707044539566],["ened",-11.45582722897978],["citi",-11.457432976426576],["ication",-11.458125458047785],["discomf",-11.458399983511685],["colli",-11.460106811985156],["ashionabl",-11.460360191783215],["glove",-11.460485501295258],["Moral",-11.460692684040104],["ple",-11.46095852713486],["Soviet",-11.461038605162415],["spore",-11.46117449193087],["vanish",-11.461326292465417],["she",-11.461478263187818],["evok",-11.463207139642735],["mple",-11.463768831230457],["flora",-11.46406828807002],["ree",-11.464775637623921],["nida",-11.464914072853695],["serial",-11.465943640307806],["winds",-11.466642555023146],["chip",-11.466830024601329],["dispers",-11.46700014818337],["socialis",-11.4676739698403],["oolish",-11.46823499568554],["meant",-11.468418627518847],["Super",-11.46876054472979],["typ",-11.469075211215396],["scal",-11.469418803114193],["Affect",-11.469683415777192],["coherent",-11.470325766321972],["confront",-11.470983326449527],["absorbe",-11.47107458031881],["compute",-11.471263668410746],["excavat",-11.471967995095655],["pant",-11.471986404103756],["recommend",-11.472469875920856],["°",-11.472725990221747],["Pakistan",-11.472726010311934],["carbohydrate",-11.472726069152948],["Buddhis",-11.472726126608872],["Egypt",-11.472728319294932],["impediment",-11.472733876495091],["Victoria",-11.472734050858499],["mushroom",-11.47275442630255],["limp",-11.472760043636244],["furnace",-11.472762111671365],["precursor",-11.472769525428987],["seizure",-11.47277454606127],["vocalisation",-11.47277707460475],["hydrocarbon",-11.47279227940631],["diameter",-11.472792696933848],["collaborati",-11.472803966080363],["pupil",-11.472814550607794],["brazen",-11.472830672841875],["rescue",-11.472843950628572],["skull",-11.472861139320292],["counsel",-11.472906885621441],["tincture",-11.472934676088755],["Elevat",-11.472943199278244],["weasel",-11.472990478405428],["Moderate",-11.473010020261423],["mirror",-11.473060050919191],["Eager",-11.473112431497633],["intervention",-11.473119272280893],["derivative",-11.473176156875162],["handicap",-11.47319249431446],["advertisement",-11.473203309499235],["unbelievabl",-11.473204228355751],["sullen",-11.473230941655578],["ved",-11.473294157075863],["appliance",-11.47334566545147],["rhetoric",-11.47335294954729],["industrious",-11.47335436917682],["harmonious",-11.473388478638697],["initiative",-11.473445017962671],["contribution",-11.473447584013277],["Water",-11.4734499282238],["adroit",-11.47345682236838],["forecast",-11.473516812491896],["injurious",-11.47352676427799],["dishonor",-11.473641342186044],["disincline",-11.473731287069512],["villain",-11.473753469822507],["buzz",-11.473761012301708],["biolog",-11.473863557803295],["Display",-11.473886555159552],["transformation",-11.474016860920742],["pardon",-11.474039036989815],["urchin",-11.474095747823757],["Dangerous",-11.474112202533432],["recoil",-11.474168807098344],["testicle",-11.474182070883904],["inquisitive",-11.47420623988003],["malfunction",-11.474372312536918],["quill",-11.474423723900314],["mercur",-11.474501419149027],["configur",-11.474565957924831],["quiver",-11.474629658379593],["foreboding",-11.474637722686772],["illustration",-11.474790766905548],["remium",-11.474801011907381],["joyful",-11.474810347400979],["fac",-11.474832605273388],["garb",-11.474963628913978],["liquor",-11.47508335493259],["unfold",-11.475098576252096],["prime",-11.475371924186328],["analyz",-11.475372386494888],["tribute",-11.475375588471472],["wrongful",-11.475469582475876],["recommendation",-11.475529904456694],["blaze",-11.475666996723453],["dynamic",-11.47567242404581],["obstinate",-11.475732839518447],["stair",-11.47576901169775],["progressive",-11.475943720679025],["sens",-11.476022603055963],["ceiling",-11.47603688074178],["ether",-11.476075149360549],["alk",-11.476122735010005],["unhealth",-11.476397643643224],["wafer",-11.476496963576945],["fluff",-11.476503351628441],["deflect",-11.47690892433344],["Thorough",-11.477038889790277],["capsule",-11.477080933264675],["artifice",-11.477122300632413],["correlation",-11.477257488104808],["unhapp",-11.47761547955515],["Kind",-11.477749103501639],["legend",-11.47776480346148],["malignan",-11.478070652512605],["undertake",-11.47821939471843],["abhorren",-11.478298873220613],["Southe",-11.47855564572463],["Virgin",-11.478618126484914],["ejaculat",-11.478680373404664],["adjoin",-11.478848390390821],["Proper",-11.47889636128108],["boisterous",-11.478911251782659],["festivit",-11.478921244612883],["prediction",-11.478973354466673],["dim",-11.479018330278992],["bowel",-11.479156115745207],["Severe",-11.479274964817858],["heredit",-11.479395163936573],["participat",-11.479575685243834],["reprove",-11.479673066353387],["assignment",-11.479780306326846],["imperi",-11.479807010100032],["sinister",-11.479872355550814],["manag",-11.479886646120692],["Certain",-11.480079353846943],["coil",-11.480150509873589],["tolerate",-11.480208102055425],["hills",-11.480413145769262],["dian",-11.48060697418468],["pillage",-11.480709907913212],["marsh",-11.480943634014348],["billion",-11.481195988079481],["thoughtful",-11.481210655519394],["cereal",-11.481228888268026],["overflow",-11.481419685000661],["predicate",-11.481704726043745],["intrude",-11.481735899863857],["inquir",-11.481765857774706],["setback",-11.481787673549391],["peptide",-11.482133571282667],["chant",-11.482181564006817],["deficienc",-11.482354546259357],["tenant",-11.482616970102324],["cinder",-11.48285813106499],["iferous",-11.482920289781045],["stimulat",-11.483062999720074],["ire",-11.48354427006311],["assimilationis",-11.483697043994898],["surprising",-11.483712063061914],["invalidate",-11.48377455640191],["dium",-11.48384647523889],["twe",-11.48392630714883],["overturn",-11.48393901327211],["Isolat",-11.48417541905459],["Rh",-11.485333361450248],["disarra",-11.48536173203956],["crypti",-11.48564900833152],["southeast",-11.485694983276304],["fanatic",-11.485775667134883],["lous",-11.485866365060023],["degenerate",-11.485875154622423],["churn",-11.48599710055123],["pity",-11.486483395355434],["refut",-11.487096164171726],["warn",-11.487157124286961],["complaint",-11.487466094829582],["pious",-11.487946156018587],["him",-11.487952938451192],["fortification",-11.488198114926373],["reinforce",-11.48890172956944],["mini",-11.488969787724555],["ecutive",-11.489066436399993],["directional",-11.489237571066852],["sandwich",-11.489486195246421],["reestablish",-11.489633186762358],["ecsta",-11.490066316512438],["elimina",-11.490265787071616],["llen",-11.490302540998675],["grudg",-11.490867696400265],["lavic",-11.49088557937461],["Ven",-11.491153110165428],["shabb",-11.491380151314813],["ific",-11.491481177634055],["imitat",-11.491512238748623],["Fair",-11.492194403319912],["illuminati",-11.492644570934363],["commission",-11.493413215398336],["dysfunction",-11.493557545910846],["Total",-11.493689940984645],["dusk",-11.494138767398372],["subsid",-11.494713059417398],["fatal",-11.495104838434127],["undertak",-11.495191732687568],["hick",-11.495645300295392],["captur",-11.495746053553537],["saturate",-11.495851977727689],["packet",-11.495990600239793],["fami",-11.496224995342386],["bolt",-11.49643061624062],["permitt",-11.496538422313785],["laser",-11.496553770484814],["furious",-11.49683185007268],["oblong",-11.497289458351638],["commonplace",-11.49740617617211],["vitali",-11.49833465747106],["provoke",-11.498858143800842],["lique",-11.49898321515559],["certificat",-11.49927308350514],["progen",-11.499319913170961],["antenna",-11.499764449038507],["exil",-11.499788822348226],["ourage",-11.499930623242918],["sheath",-11.500084820495339],["False",-11.50017292062958],["Why",-11.500477127469779],["itch",-11.500495483853443],["demonstrat",-11.501071691275143],["unction",-11.501338714586408],["carpet",-11.501490787612088],["houses",-11.501542449082006],["freel",-11.502179977428764],["quali",-11.502278985462219],["slut",-11.502856791301115],["Other",-11.502866623844051],["unreal",-11.503329078593946],["gravitation",-11.503436072935747],["flatten",-11.503543446688989],["oppress",-11.503769911268064],["gour",-11.504008736029409],["canon",-11.504009498818355],["attributive",-11.504042531069015],["Characteri",-11.504209043965929],["assure",-11.504262454215382],["bite",-11.504841348702815],["Designat",-11.505352676163685],["oversee",-11.506092456030924],["ribal",-11.506280048754709],["sprinkle",-11.506315322947335],["dense",-11.506372294610326],["tim",-11.506519530176762],["braid",-11.506726120682707],["malic",-11.50674739361868],["spatter",-11.507477091980903],["inhal",-11.507497241568936],["update",-11.507555616149446],["slim",-11.50783995242855],["adulterate",-11.507965565754418],["puzzl",-11.508204223469203],["anatom",-11.508418158536102],["lat",-11.508434239533775],["strap",-11.509310865469512],["fox",-11.50936128709154],["reasonable",-11.511144263611412],["apt",-11.511845314298151],["rue",-11.511847460269891],["Attend",-11.512655510421505],["Chi",-11.513454517985686],["tumble",-11.513563104466401],["appare",-11.513778731395572],["administrat",-11.513886322994551],["reside",-11.514185378342269],["vailab",-11.514772888831686],["sti",-11.5150683573979],["indoor",-11.515145844910766],["brow",-11.515338064850493],["pillar",-11.515505574957894],["ben",-11.515760809473665],["sever",-11.515793980558906],["Ge",-11.515857507995895],["ign",-11.516596013993418],["viewe",-11.51714683300617],["fo",-11.51720302689369],["divin",-11.517302412367993],["Real",-11.517457074121385],["retail",-11.517914616747042],["thirst",-11.518039689934941],["pul",-11.518482394900499],["communicat",-11.518697376478368],["advoca",-11.518894682598773],["ath",-11.51922963061551],["activate",-11.520481047966438],["cask",-11.520494467819944],["King",-11.521016313371813],["procession",-11.522590404725864],["Sign",-11.52317262693015],["twig",-11.5233259324993],["supervis",-11.523489949433277],["prey",-11.524717602048929],["sm",-11.52473350420379],["stamen",-11.524994056945228],["pecial",-11.525659755853653],["His",-11.526486406339847],["Appal",-11.526800262048207],["dia",-11.526962237893574],["mari",-11.527021869409047],["fective",-11.52711256765417],["disclose",-11.527241070754505],["esque",-11.527776380955107],["blast",-11.52861113694414],["evolen",-11.52910569757144],["tracks",-11.529596752629253],["Adam",-11.52961534464708],["deface",-11.53045995668349],["loach",-11.53047737041519],["liance",-11.530573939615294],["ai",-11.53109759553816],["pulle",-11.531468993666174],["fe",-11.531663430403121],["Viol",-11.532123718156864],["gathere",-11.532146770023271],["Whol",-11.532672695939256],["hasti",-11.534106981665145],["minded",-11.534316588578669],["crosse",-11.534362768630299],["trim",-11.534587920351646],["bacteri",-11.535185677568512],["mating",-11.535695104427683],["quote",-11.535822642735646],["printer",-11.536250346019958],["compell",-11.536554351072759],["doom",-11.536646952474412],["bout",-11.53682592059159],["Wearin",-11.537736179432404],["ellatio",-11.537738506202803],["itriol",-11.537784574117302],["padd",-11.537831456509247],["May",-11.538076910810329],["voluntari",-11.538672831375418],["clu",-11.539376307465373],["marr",-11.54000002792135],["navigate",-11.54051549095216],["detest",-11.540620441476534],["swol",-11.540960713733813],["phant",-11.54117737211665],["bat",-11.541531506398847],["embod",-11.542125114454425],["patche",-11.542143691122803],["substitut",-11.542631310681605],["stride",-11.542821389053366],["pertur",-11.543611993187815],["Permissi",-11.543766719249062],["ender",-11.543844744791537],["barre",-11.54478017548179],["crap",-11.545246470324393],["lucr",-11.545402999782473],["Pass",-11.545699421879512],["demeano",-11.546096058216083],["phyl",-11.547587141739552],["arc",-11.547648854731387],["sham",-11.547689273109905],["ind",-11.548168203906227],["rious",-11.548691842440183],["intoxicate",-11.549568534100207],["nunciation",-11.54963865947922],["ctive",-11.550254291381773],["antine",-11.550945950156922],["mess",-11.550999761599396],["alchem",-11.551700332317603],["dy",-11.551765412151868],["hoop",-11.551877345663483],["iliar",-11.55218012067148],["deer",-11.552371828610221],["applicab",-11.552472067853696],["Swe",-11.553127863156117],["mar",-11.553183692012468],["rooms",-11.553972791799415],["ewing",-11.55530502171887],["analyse",-11.55598688716735],["presume",-11.556161270706044],["sati",-11.556205422552315],["containe",-11.556960297995298],["hea",-11.557187537808996],["conspira",-11.557968345527366],["jest",-11.557982197261893],["persist",-11.55837302657599],["stake",-11.558478528028196],["aria",-11.559341722733235],["slash",-11.56012852151319],["scant",-11.561041517765563],["Les",-11.56166017588853],["sweat",-11.561686912287886],["clo",-11.562055856402713],["thunder",-11.562116542299083],["amorpho",-11.562809026700323],["roast",-11.56375501020017],["stance",-11.563802288979328],["lever",-11.563843393878097],["Turki",-11.56405691668533],["elite",-11.5641715776013],["fabricate",-11.564543818458736],["Gra",-11.564970725894408],["rly",-11.565790776359764],["spen",-11.566709043240014],["zen",-11.567869519100231],["Cani",-11.568068119108869],["abbat",-11.568103735313327],["nate",-11.568828909322239],["numerical",-11.569653237553986],["wel",-11.569888299279562],["ull",-11.570082139909497],["dresse",-11.571152984534562],["lect",-11.571212640117917],["teach",-11.571265042154021],["indifferent",-11.571692339017805],["doubl",-11.57181914140282],["ury",-11.572595664205341],["utside",-11.573163400536648],["environmental",-11.573471260280883],["clash",-11.573511153931463],["learne",-11.574356103162232],["Ref",-11.574496273879877],["ie",-11.57458934582335],["finess",-11.57487113513974],["showin",-11.574951919224981],["iting",-11.575597698200376],["committ",-11.578047919212946],["genic",-11.578050495705696],["fizz",-11.578438001056673],["cooker",-11.578768697977878],["activ",-11.579394860727486],["elastic",-11.579945597695184],["ribbe",-11.58045598953761],["dic",-11.58056570320467],["urin",-11.58091020252433],["ower",-11.58104510389647],["inflate",-11.581193048980728],["Im",-11.582403665754867],["sit",-11.582692419639143],["ripe",-11.582850936588123],["noctu",-11.582902353861137],["nude",-11.58348294354161],["entric",-11.583877697152918],["brace",-11.58419532945306],["nguish",-11.584363763538743],["scrap",-11.584919694381774],["Di",-11.585136672663518],["convinc",-11.585538715625551],["dock",-11.585832249050792],["mainl",-11.585877489091732],["conic",-11.586837691484641],["outcr",-11.586841906703256],["elain",-11.586877456892548],["bury",-11.587684581246057],["chim",-11.58804533920874],["goat",-11.588395704778891],["ntimidating",-11.588506729854515],["spear",-11.58872191218134],["Bur",-11.589268428764937],["banne",-11.589468087770545],["Prov",-11.589487788089414],["diplomat",-11.589594892390485],["bject",-11.590192438167954],["sil",-11.59081755180073],["laugh",-11.590875530262272],["lure",-11.590952434415875],["Late",-11.59112251584885],["reput",-11.59199810649039],["atten",-11.592183519250788],["vertebrate",-11.592242717580039],["furthe",-11.593166957040793],["jewel",-11.593302970227302],["unset",-11.593613659336802],["glow",-11.59460874112123],["howl",-11.594937373447832],["theolog",-11.595156824467143],["chemist",-11.59570531678754],["commendation",-11.595761289791017],["oisterous",-11.595816924501307],["assive",-11.595910580054976],["legitima",-11.595965286487042],["Litt",-11.596666623509352],["recurren",-11.596695462810256],["abbreviat",-11.59672025938032],["afflict",-11.59687030687072],["ges",-11.596920021845186],["convict",-11.596980476087879],["explor",-11.59717405930981],["gown",-11.597622272513533],["zigzag",-11.597725991731489],["encyclopedi",-11.597726126343977],["philanthrop",-11.597726243118274],["bridesmaid",-11.597726605327415],["aphorism",-11.59772790225807],["utensil",-11.597734188063058],["teaspoon",-11.597734201751335],["reprimand",-11.59774165414052],["democra",-11.597749234935742],["diagonal",-11.59775807884508],["lubricant",-11.597803488574538],["neighborhood",-11.597812422643981],["Discourag",-11.59782020758292],["euphori",-11.5978230231026],["criteri",-11.59783247050438],["autonom",-11.597832885641239],["extrapolat",-11.597862983332137],["Smooth",-11.597876019972945],["1930",-11.597890424467188],["nightclub",-11.597897203887253],["Rapid",-11.597906429698773],["departure",-11.598004926656087],["vocalization",-11.59804437284301],["domineer",-11.598053232681607],["spectator",-11.598074754066761],["conclusive",-11.59808034716726],["silicate",-11.598099057135299],["portrait",-11.598140461233834],["diminuti",-11.598161181537819],["canvas",-11.598250812677364],["assertive",-11.598273715199012],["declaration",-11.598294320007192],["pelvi",-11.59835523180608],["rink",-11.598391240984073],["squash",-11.598395093880194],["intrinsic",-11.598440949743104],["Useful",-11.598498506503171],["tempest",-11.598590820117604],["proclaim",-11.598626438298215],["spatial",-11.59866855726772],["cat",-11.59870958128896],["flinch",-11.598898637088148],["licence",-11.598912772070648],["quaint",-11.59892146303078],["concord",-11.598968620205797],["bewilder",-11.598969624330138],["implication",-11.599018826255081],["interven",-11.599044801868192],["plaster",-11.599082345099461],["scroll",-11.599132390404328],["kingdom",-11.599206659975762],["knock",-11.599278960342087],["admitt",-11.599618909453163],["toilet",-11.599694899378274],["copyright",-11.599764453010106],["belligeren",-11.599914004141198],["fraudulent",-11.600004264834993],["unrefined",-11.600162122923486],["heedless",-11.600454972431702],["codomain",-11.600778035912175],["nish",-11.60078881231454],["menacing",-11.601001235913067],["karyo",-11.601193142420907],["Calm",-11.601246572711712],["rotational",-11.60129509867204],["Primar",-11.601325957076162],["asis",-11.601736133753343],["smug",-11.601739022582862],["disappoint",-11.601895596729921],["omit",-11.601948771211156],["tank",-11.601961244472013],["ised",-11.602011918136268],["renown",-11.602191719708209],["snobbish",-11.602231165680836],["Drunk",-11.602751757266446],["beard",-11.602877512517395],["Fuck",-11.602957982358683],["ponder",-11.603187656159108],["Trouble",-11.60323706114717],["unattractive",-11.603445478246481],["renewal",-11.603483318259752],["mortis",-11.603507857936297],["Bound",-11.603539701252684],["gray",-11.603591714461114],["gramma",-11.60364853979174],["vapor",-11.603753254355643],["illustrate",-11.603754338366594],["Terminati",-11.603921720532636],["inconsiderate",-11.603926047845588],["insolent",-11.604007329400854],["qualitative",-11.604369370607635],["tangle",-11.60457392926798],["pallid",-11.604692709417488],["forearm",-11.604756518255162],["clasp",-11.605065020414768],["skilful",-11.6051642886936],["countable",-11.605322137866535],["invertebrate",-11.605358059139384],["daub",-11.605554374621565],["replacement",-11.605725785969215],["terminate",-11.605970410412224],["Love",-11.605995209405867],["irritabl",-11.606015579513665],["minuti",-11.606071225139795],["neutral",-11.606311866879516],["contagio",-11.606371330129392],["blend",-11.60645099792885],["suppress",-11.606532087920124],["feign",-11.606667234033019],["contraction",-11.606667651292684],["irritating",-11.60691769152956],["Reflecti",-11.607000430755043],["Insignificant",-11.60722763755077],["protester",-11.607237813790135],["acknowledg",-11.607292039765486],["Polynesian",-11.607796099482316],["thrash",-11.608067502051526],["humanit",-11.608388417522276],["deceptive",-11.608536578779628],["Machi",-11.60856492060381],["obsequious",-11.609280451624803],["Hindu",-11.609623574343358],["rows",-11.609753892830996],["efficac",-11.609948682482306],["reciprocal",-11.60996548713128],["enlist",-11.610026533665039],["icide",-11.610028131431974],["ignor",-11.610265957711006],["unworth",-11.61030594605446],["impeach",-11.610344171234127],["phono",-11.610409420399009],["export",-11.610558463093094],["hirt",-11.610592512584908],["recite",-11.611126702563038],["Con",-11.611128751035032],["terminat",-11.611305653756183],["shackle",-11.611435175255911],["Web",-11.611553946367962],["Traditional",-11.611588294139667],["lethal",-11.612494897901033],["quati",-11.612696116572906],["robber",-11.612965681861263],["Red",-11.613356614672636],["sho",-11.613425686911615],["abid",-11.61355196367832],["quisite",-11.613559793008086],["desert",-11.614113410999147],["oxen",-11.614285325826529],["afterward",-11.614360299860625],["secular",-11.61439055099314],["tooth",-11.614436689607897],["foreigner",-11.614575182070599],["motif",-11.614648064608918],["suggestion",-11.614733254933903],["sprite",-11.614815519469401],["exud",-11.614986697353391],["Govern",-11.615378258900035],["fierce",-11.615551679917997],["trac",-11.615671289705919],["digest",-11.61588069063449],["trumpet",-11.616850161870081],["mat",-11.617361505796092],["cracker",-11.617677697732777],["cultivar",-11.617827153049495],["Accept",-11.617956650997126],["proton",-11.6180367949908],["whale",-11.618841792217372],["forgive",-11.61888841775764],["Mean",-11.619335484667916],["ock",-11.619452655305713],["regiment",-11.619586428609322],["xpenditure",-11.61964503364815],["epicen",-11.61974965387365],["humor",-11.62080351153661],["agnostic",-11.62099460301195],["melodi",-11.621000005401896],["spawn",-11.621070059147147],["capric",-11.621191123396766],["rewrite",-11.621638391234042],["enuous",-11.621909239061274],["clinic",-11.622034869072827],["onster",-11.622676395016953],["wipe",-11.622887269974287],["familiari",-11.623146196193524],["generator",-11.623233606645847],["ighten",-11.623695952776053],["mold",-11.624003420645062],["perce",-11.62403981651264],["loft",-11.62407896213458],["gallo",-11.624321083861888],["seless",-11.624804111525927],["escap",-11.625039790716974],["humid",-11.626245535820912],["domin",-11.62672524104278],["mes",-11.626743248970389],["Gr",-11.627658261757475],["unsee",-11.627664474470023],["defender",-11.627825656668247],["guile",-11.628224920204849],["ammon",-11.628234129906811],["entr",-11.628906179076012],["jam",-11.628919322921256],["Collecti",-11.629091123062256],["invok",-11.630004405218521],["awaken",-11.630476323807098],["lengthen",-11.630548308138266],["vici",-11.630682612130053],["choke",-11.631187855446184],["testi",-11.631230434688275],["appease",-11.631886491102861],["tub",-11.631980589681344],["lipped",-11.6321796843897],["tubul",-11.632292868812483],["plu",-11.632528126475435],["Cuba",-11.632692915041295],["entreat",-11.632777155389865],["da",-11.633026165699977],["leak",-11.633139172106446],["pervers",-11.633432774784364],["frog",-11.634147589986519],["mock",-11.636522894284724],["Communis",-11.637157520373986],["bump",-11.63744577420314],["scath",-11.637475988224178],["ale",-11.637672450921107],["Pale",-11.637845018162034],["kirt",-11.637845350371666],["gems",-11.637922990375696],["mason",-11.638067532496443],["recycl",-11.63808465884834],["luminous",-11.638246125223207],["flick",-11.63868137960311],["hen",-11.639111892201045],["revolve",-11.640001783199557],["ja",-11.640198482073764],["Swi",-11.640516410263917],["Qur",-11.640533116079444],["gutter",-11.640906786296574],["practis",-11.64120666987866],["spout",-11.64120799046366],["unchang",-11.641421184097608],["col",-11.642347563861902],["calam",-11.642801155086925],["proven",-11.64303345162548],["strengthen",-11.643266010085263],["virgin",-11.643733914928111],["folio",-11.644149460723456],["displeas",-11.644620343835763],["hall",-11.645180648198744],["conj",-11.64542472606175],["misce",-11.645562700644989],["microbe",-11.645961699008684],["depicti",-11.646486146792643],["revel",-11.646614828969152],["repudiate",-11.646685294821847],["cyber",-11.646809907088308],["asymmetric",-11.647651797244981],["liabl",-11.648187486045018],["Inter",-11.648555322804093],["Presiden",-11.648901934545341],["spine",-11.649057083032774],["anticipat",-11.649148890278536],["flush",-11.649293051666337],["Line",-11.649458775507131],["spire",-11.649469807210828],["amino",-11.650097168304965],["inconvenien",-11.65047091063113],["hesitati",-11.650515893695518],["fel",-11.650656893769233],["dens",-11.650800601223603],["trends",-11.650918668538322],["frustrate",-11.651104505246142],["Jud",-11.651296500041965],["toleran",-11.651382352130884],["entitle",-11.65179448755677],["inventor",-11.65183710072027],["61",-11.653079171796433],["eeding",-11.653103151638268],["storie",-11.653789891654503],["weir",-11.654487281108016],["dancer",-11.654655642788354],["neglig",-11.654938328396959],["valu",-11.655486653115242],["rape",-11.65548712325064],["otherw",-11.655930896132086],["verish",-11.656006641419083],["ld",-11.656427663373488],["believabl",-11.656569625772564],["Main",-11.656810368046731],["monstro",-11.657063177740216],["intercept",-11.65723537420261],["wake",-11.65765283751733],["tal",-11.657720435702567],["Offer",-11.658632278542429],["illion",-11.658888946446192],["speculati",-11.658944348197796],["reciprocat",-11.659334632939546],["uthful",-11.659610805101929],["specification",-11.659888316435383],["wrappe",-11.660322801342485],["Adapt",-11.660902629787989],["tensive",-11.660951257535476],["mination",-11.661319149861212],["cough",-11.661661964539377],["stri",-11.661760799692393],["rubbe",-11.662130429736603],["phon",-11.662613604686433],["accumulat",-11.663501730741242],["Cal",-11.663971430537599],["copulat",-11.66419151474039],["rasp",-11.66427444291353],["alphabet",-11.665244511417324],["structur",-11.666527822207398],["sparkl",-11.666630080150943],["sulf",-11.666753714386829],["99",-11.66697328494712],["receptor",-11.667263989251866],["ork",-11.667784781490118],["idde",-11.667920495957398],["precept",-11.668211802894156],["dible",-11.668829088273394],["tage",-11.670149179150409],["vic",-11.670858246891331],["cl",-11.67100360211996],["ack",-11.671077270334909],["65",-11.671583517334255],["influ",-11.672101812437024],["ude",-11.672488648975637],["ig",-11.672660311640382],["thre",-11.673269272278867],["Cel",-11.67369637062017],["ago",-11.673762230069462],["indec",-11.67403544950334],["cancell",-11.6744204288831],["particip",-11.67519538524004],["ore",-11.67594001209434],["pl",-11.676230739420589],["jab",-11.676924718710609],["unfi",-11.677315112019285],["ick",-11.677870607045438],["brewe",-11.678870525934418],["eaves",-11.679682995638819],["elegan",-11.679835981139389],["investigat",-11.680262741063697],["synonym",-11.680512141333972],["dazzl",-11.680579626485068],["chlori",-11.680710312868687],["mould",-11.680918014914942],["cleric",-11.681148222682648],["emble",-11.681188937782762],["negotiate",-11.681928173949313],["contra",-11.683077110840603],["waver",-11.684386105517028],["reproducti",-11.684399614862311],["mountains",-11.684787180845396],["els",-11.685208485370413],["ope",-11.68570069974648],["lash",-11.685750031633145],["tempo",-11.686540018052094],["ming",-11.687093189240686],["consult",-11.687952145227479],["erial",-11.688476510782426],["lso",-11.688727774762171],["Hung",-11.68903968531602],["83",-11.68913088175645],["unris",-11.689484257808722],["kni",-11.689667358891885],["En",-11.689820921082488],["dual",-11.690277826429801],["restor",-11.69065737360507],["span",-11.69084715118363],["draft",-11.690964216791162],["intact",-11.691418429314476],["struction",-11.692429674042835],["conced",-11.693096707453428],["mille",-11.6932781789958],["undu",-11.693631205448318],["Unrel",-11.69416644011127],["snap",-11.694329082411194],["hom",-11.694684757119708],["xaggerated",-11.694726841654987],["aristocra",-11.694829387989424],["celebrat",-11.69569455138649],["ays",-11.695811404062201],["fun",-11.696749241333281],["forget",-11.69695797993166],["ester",-11.69788561997413],["embodi",-11.698248392636145],["exemplif",-11.699170068433652],["wrestl",-11.699393350748796],["dart",-11.700535117000125],["disable",-11.700792500347523],["ponent",-11.70111866381512],["Distinct",-11.701310515699854],["Strai",-11.701594424832876],["impuden",-11.701871352534345],["efficien",-11.702122456389802],["squir",-11.702189388964127],["trembl",-11.702826016903403],["sancti",-11.70284424767215],["Writ",-11.703295591377339],["disgrace",-11.703500714416426],["grit",-11.70408162916726],["genes",-11.704613140691103],["ealing",-11.704709958126553],["templ",-11.704743619316275],["soap",-11.704854606457511],["joll",-11.705568653122771],["subscribe",-11.705824836976758],["lender",-11.706127681920558],["taxe",-11.706587090436546],["cted",-11.70682828627697],["lieu",-11.707918822123611],["lax",-11.7079848930345],["apper",-11.708085644350167],["vin",-11.708148902444805],["uction",-11.708207151750967],["pend",-11.708881502089593],["sad",-11.71075053078136],["rawn",-11.710793936741249],["psychi",-11.711528038383529],["garl",-11.712056444168196],["cho",-11.712191662061905],["rib",-11.712620590738508],["ensitive",-11.713784778934938],["reproduce",-11.713913699886673],["Rela",-11.714630351828763],["pollut",-11.714641675375711],["Live",-11.714690570693802],["vex",-11.715005291279862],["replay",-11.717323505782975],["totter",-11.717491442448132],["states",-11.718329940581443],["mulation",-11.71862393429904],["deit",-11.719168306243539],["contriv",-11.719309994702272],["conceptual",-11.719873664471896],["versa",-11.719998306252311],["symmetric",-11.721446182312643],["champion",-11.721509782802345],["bulls",-11.721894644663147],["lodg",-11.7221515908743],["impos",-11.722287885422746],["aw",-11.72252729157006],["loving",-11.723273729852236],["hief",-11.723735385529807],["Foo",-11.723872527056104],["lute",-11.724886489116406],["uric",-11.725186603876956],["tish",-11.725222465030951],["trifle",-11.725591345014253],["ook",-11.72583678947128],["justi",-11.72617971738451],["hingama",-11.726465217290897],["assimilation",-11.726490444297918],["Star",-11.726874349580696],["gambl",-11.726951100894581],["apath",-11.72699932986131],["gram",-11.727296320600257],["flirt",-11.72734886650344],["cape",-11.727682397721015],["companions",-11.728231460365352],["metaphysic",-11.728891202948613],["oul",-11.72920545166193],["predictabl",-11.729970579799236],["duel",-11.730596296744949],["destine",-11.730714407081202],["ishing",-11.731746411041131],["connectiv",-11.7320103559508],["witte",-11.732347339173176],["Arab",-11.732414026238532],["Hum",-11.732416377774475],["urious",-11.734086770441076],["trauma",-11.734961542109],["sake",-11.735074898335574],["ith",-11.735992479700347],["cran",-11.736645836744694],["pastr",-11.737345845414088],["nitrog",-11.738022335865434],["ritte",-11.739308351654868],["boot",-11.73939993636761],["fat",-11.73990685851066],["ank",-11.74024668370718],["mollusk",-11.740583257849735],["Abraham",-11.740584251303835],["surveill",-11.740586494175213],["arthropod",-11.740587411120469],["abstruse",-11.740589134621276],["gauze",-11.740589660621083],["fascinate",-11.740590965195269],["contigu",-11.74059179288551],["stupefy",-11.740597432562721],["disproportionate",-11.740600540528211],["cobweb",-11.740602360511819],["spectacle",-11.740602436692928],["pixel",-11.740602884503765],["ceramic",-11.740612374890489],["Austria",-11.740612737516717],["Hebrew",-11.740618048816664],["manifold",-11.740620636579052],["collude",-11.740621586026444],["luminescen",-11.74062225179145],["Frequent",-11.74062575102431],["letharg",-11.740626152389027],["kernel",-11.740634607637595],["Corporation",-11.740635215442513],["nonchalan",-11.740639228848574],["syntactic",-11.740648078608535],["Exhaust",-11.740657679926256],["Intoxicat",-11.740657733491355],["1980",-11.740662437895354],["Disobedien",-11.740670377539576],["cognitive",-11.740677181246532],["octopus",-11.740684467136319],["gratuitous",-11.740694017567032],["leaflet",-11.740699610080656],["Wrong",-11.740702757752807],["consecrat",-11.740708186710451],["synthesize",-11.74072045959537],["caffein",-11.740731385624997],["silkworm",-11.740733458949004],["dibenzo",-11.740734622060666],["Remote",-11.740767440748172],["blemish",-11.740774183539774],["goddess",-11.740785374757973],["survey",-11.740804625290632],["warrior",-11.740809136326646],["luxurious",-11.740810325424743],["submarine",-11.740814309470124],["postulate",-11.740867524145324],["Intellectual",-11.74088061755321],["Exaggerated",-11.74093466477833],["scallop",-11.741005479994016],["Anacardi",-11.741009439380864],["Pleasant",-11.7410564309601],["Second",-11.74106603075735],["malaria",-11.741098580415592],["spiteful",-11.741112325311668],["oppressive",-11.741142104143599],["indentation",-11.741167963036771],["Obvious",-11.741170234007447],["sacrament",-11.741176179434587],["chicken",-11.741208781775875],["dough",-11.741239629673116],["Particular",-11.741300066542887],["pragmatic",-11.741351573490572],["despair",-11.741368197816529],["descripti",-11.741578151130998],["league",-11.741625215887094],["vicious",-11.741632555402804],["Favor",-11.741804979599875],["phonetic",-11.741807130811804],["Influence",-11.741843213937724],["ribbon",-11.741885840820993],["incision",-11.741988551555314],["regional",-11.741994959211217],["interlock",-11.74203855868231],["reflex",-11.74211411310445],["Includ",-11.742294078330403],["Inflammat",-11.742341432440522],["Consistent",-11.742347538260306],["crouch",-11.742429854213816],["Surround",-11.742513414738125],["semitone",-11.742601470635396],["projectile",-11.742625700301236],["medication",-11.742637023557531],["brooch",-11.74281310847769],["parody",-11.742854155261071],["comprehensi",-11.742962453297267],["undergarment",-11.74298300527882],["sensual",-11.743211692545378],["wretch",-11.74322165954264],["corporate",-11.743312719703598],["incongruous",-11.743681132230297],["hazard",-11.7438367186285],["pagan",-11.74386756911864],["kook",-11.744022642413938],["nine",-11.744035960140026],["parish",-11.744247739549728],["Chief",-11.744347301243995],["piston",-11.744459899097182],["Tibet",-11.744537084040553],["adaptation",-11.744616961227447],["pleat",-11.744767323683702],["suspension",-11.744831046781105],["Wood",-11.744901601388595],["centri",-11.744988192788329],["audaci",-11.745071753875237],["compatib",-11.745094675755753],["duplicat",-11.745147301465142],["replicate",-11.74514996961642],["detract",-11.745493272065023],["sideboard",-11.745607329717775],["manipulati",-11.745722549984983],["innovati",-11.7461715065139],["nutrition",-11.746327567277602],["Bold",-11.74639383993773],["scient",-11.746488434514744],["inflect",-11.746528255259491],["gaze",-11.746542378592535],["upsetting",-11.746947701580485],["bulb",-11.74695848756266],["contort",-11.747054062623395],["rump",-11.747082680360442],["justifiabl",-11.747220686395805],["considerate",-11.747519837819214],["Dress",-11.74755335413436],["sausage",-11.747562365545022],["phoneme",-11.747563103407098],["default",-11.747699727651385],["exaggerat",-11.747714442928629],["Descend",-11.747894382495563],["defecat",-11.748047879205451],["whim",-11.748221330924133],["linen",-11.74822180250123],["impoten",-11.748253240862592],["hrive",-11.748322025533245],["Fa",-11.748506170402305],["fragran",-11.74852203100286],["gnaw",-11.748547900680068],["Favorabl",-11.748561534487315],["preposition",-11.749022216469408],["unequal",-11.749564020346806],["envelope",-11.749590197726858],["overlook",-11.74964738043677],["tunnel",-11.749654212559973],["preferr",-11.749686672250883],["borrowe",-11.749956426354723],["sensibl",-11.749982829582045],["ixture",-11.750213522485744],["adverb",-11.750523353411243],["hum",-11.751141150574231],["skate",-11.751186812484942],["percussi",-11.75135303447378],["infertil",-11.751483648447177],["clatter",-11.752631279083223],["oath",-11.75273707497377],["condu",-11.752749441800633],["Truth",-11.75288012043241],["bloom",-11.75331908783884],["editor",-11.753357690934218],["perturb",-11.753699112711612],["polyg",-11.754152609876147],["cor",-11.754336991964063],["choir",-11.754422586290165],["Simpl",-11.754629383739873],["300",-11.754808517195475],["pedal",-11.755162537150671],["misf",-11.75516891984111],["abridge",-11.755399692399475],["convincing",-11.755642896780392],["descende",-11.755753226570262],["bov",-11.755917005571183],["occer",-11.755986120393429],["farmer",-11.756089893127324],["relaxed",-11.756387697638344],["woode",-11.756600324721417],["hymn",-11.756881322287741],["chin",-11.756957787962762],["arrival",-11.757091282064057],["tr",-11.757216506335538],["rebellio",-11.757430609534655],["illage",-11.757447032149589],["Dec",-11.757501171990757],["tomato",-11.757796062995727],["aging",-11.757801313258721],["allusion",-11.757985874233125],["prescripti",-11.758351938548198],["entrust",-11.75851091065272],["treacherous",-11.75875023840559],["straighten",-11.758798182221568],["Secret",-11.758968965864856],["compressor",-11.759458274880132],["awake",-11.759467535526982],["chi",-11.759537756399663],["conduc",-11.759668899661927],["Moder",-11.760029409899268],["sidewa",-11.760122478610876],["Social",-11.76023708888314],["sparse",-11.760378074569584],["tapes",-11.76053857042476],["dec",-11.760597941236066],["fir",-11.760664362783835],["oluntar",-11.760690923337659],["kink",-11.761216262253647],["orchestrate",-11.761807775450864],["judg",-11.762256850904464],["falsifi",-11.762418941417511],["insubstantial",-11.762584466397797],["ipped",-11.76286962323398],["notic",-11.762998631207529],["Point",-11.763244338819224],["fist",-11.76346221069351],["issu",-11.763559262344925],["gut",-11.763730018394108],["dragon",-11.763948492759074],["stale",-11.76395602521095],["onical",-11.764069318905676],["solv",-11.764640133795147],["obey",-11.764649388669545],["pest",-11.764868421129544],["artful",-11.765011539856019],["ham",-11.765045435390558],["Opposite",-11.765568266998551],["ntil",-11.765658348546129],["tered",-11.765879388485638],["Fla",-11.76620107451417],["Mel",-11.766284640633945],["Weigh",-11.76681263129916],["delude",-11.766943112606064],["compromise",-11.766958343859864],["House",-11.766985025148493],["prou",-11.767309139527484],["Construct",-11.767351853888846],["forbear",-11.767366648162493],["workman",-11.767422396339402],["surreal",-11.767811197973387],["Slight",-11.76793117174554],["unclear",-11.76795500748493],["disorient",-11.76820259009716],["deco",-11.768323076271006],["emia",-11.768662406954116],["lex",-11.769075353077866],["roceeding",-11.769142769668772],["eventual",-11.769403944747104],["Lou",-11.769455067275782],["bunk",-11.769595121393802],["simulation",-11.770203332707181],["bbish",-11.770327926006463],["impertinent",-11.770502817409163],["converge",-11.770646483274291],["mottl",-11.772009006726265],["deprecat",-11.77223018572145],["blush",-11.772745591954937],["bustl",-11.773537769125463],["pouch",-11.773877882760729],["rent",-11.77512706389104],["heres",-11.775235371600532],["conformi",-11.775500661756237],["resort",-11.775676043989495],["quite",-11.775722324715845],["earthen",-11.775739958389336],["tation",-11.776067736168626],["temperament",-11.7763496482977],["ggard",-11.776457762981433],["surp",-11.776584770338609],["precis",-11.776834805554783],["188",-11.778189385035954],["kko",-11.77846308753097],["Athen",-11.778719578100702],["unseat",-11.778762476247934],["nurse",-11.778829018084998],["Pain",-11.778955755881091],["assort",-11.778980007092745],["Nov",-11.779578621883362],["archae",-11.780021100890579],["Every",-11.78121392595081],["21",-11.781230661156643],["trapping",-11.781324497007414],["ule",-11.781460117205029],["idealis",-11.782153490956652],["inted",
[...]
