{"version":"1.0","truncation":null,"padding":null,"added_tokens":[{"id":0,"special":true,"content":"<pad/>","single_word":false,"lstrip":false,"rstrip":false,"normalized":false},{"id":1,"special":true,"content":"</seq>","single_word":false,"lstrip":false,"rstrip":false,"normalized":false},{"id":2,"special":true,"content":"<seq>","single_word":false,"lstrip":false,"rstrip":false,"normalized":false},{"id":3,"special":true,"content":"<unk/>","single_word":false,"lstrip":false,"rstrip":false,"normalized":false},{"id":4,"special":true,"content":"<en>","single_word":false,"lstrip":false,"rstrip":false,"normalized":false},{"id":5,"special":true,"content":"<es>","single_word":false,"lstrip":false,"rstrip":false,"normalized":false},{"id":6,"special":true,"content":"<fr>","single_word":false,"lstrip":false,"rstrip":false,"normalized":false},{"id":7,"special":true,"content":"<it>","single_word":false,"lstrip":false,"rstrip":false,"normalized":false},{"id":8,"special":true,"content":"<ru>","single_word":false,"lstrip":false,"rstrip":false,"normalized":false}],"normalizer":null,"pre_tokenizer":{"type":"Whitespace"},"post_processor":null,"decoder":null,"model":{"type":"WordPiece","unk_token":"<unk/>","continuing_subword_prefix":"##","max_input_chars_per_word":100,"vocab":{"<pad/>":0,"</seq>":1,"<seq>":2,"<unk/>":3,"<en>":4,"<es>":5,"<fr>":6,"<it>":7,"<ru>":8,"!":9,"#":10,"$":11,"%":12,"&":13,"'":14,"(":15,")":16,"*":17,"+":18,",":19,"-":20,".":21,"/":22,"0":23,"1":24,"2":25,"3":26,"4":27,"5":28,"6":29,"7":30,"8":31,"9":32,":":33,";":34,"<":35,"=":36,">":37,"?":38,"@":39,"A":40,"B":41,"C":42,"D":43,"E":44,"F":45,"G":46,"H":47,"I":48,"J":49,"K":50,"L":51,"M":52,"N":53,"O":54,"P":55,"Q":56,"R":57,"S":58,"T":59,"U":60,"V":61,"W":62,"X":63,"Y":64,"Z":65,"[":66,"\\":67,"]":68,"^":69,"_":70,"`":71,"a":72,"b":73,"c":74,"d":75,"e":76,"f":77,"g":78,"h":79,"i":80,"j":81,"k":82,"l":83,"m":84,"n":85,"o":86,"p":87,"q":88,"r":89,"s":90,"t":91,"u":92,"v":93,"w":94,"x":95,"y":96,"z":97,"{":98,"|":99,"}":100,"~":101,"£":102,"¨":103,"¯":104,"°":105,"·":106,"½":107,"Á":108,"É":109,"×":110,"à":111,"á":112,"ä":113,"ç":114,"é":115,"ê":116,"í":117,"ï":118,"ñ":119,"ó":120,"ô":121,"ö":122,"ü":123,"ā":124,"œ":125,"ū":126,"ƒ":127,"ș":128,"ə":129,"ˌ":130,"Α":131,"Θ":132,"α":133,"β":134,"τ":135,"ḫ":136,"–":137,"—":138,"†":139,"′":140,"‾":141,"₁":142,"₂":143,"₄":144,"₈":145,"₨":146,"ℓ":147,"→":148,"∈":149,"−":150,"≈":151,"⊆":152,"⊇":153,"♭":154,"♯":155,"##a":156,"##b":157,"##y":158,"##o":159,"##l":160,"##m":161,"##t":162,"##h":163,"##e":164,"##f":165,"##i":166,"##s":167,"##u":168,"##n":169,"##g":170,"##p":171,"##r":172,"##d":173,"##c":174,"##j":175,"##é":176,"##z":177,"##k":178,"##x":179,"##v":180,"##w":181,"##7":182,"##9":183,"##4":184,"##3":185,"##6":186,"##S":187,"##q":188,"##H":189,"##C":190,"##R":191,"##8":192,"##1":193,"##0":194,"##K":195,"##5":196,"##G":197,"##B":198,"##T":199,"##2":200,"##O":201,"##I":202,"##P":203,"##D":204,"##N":205,"##F":206,"##ê":207,"##E":208,"##M":209,"##V":210,"##A":211,"##á":212,"##ç":213,"##₂":214,"##`":215,"##_":216,"##ū":217,"##.":218,"##X":219,"##ï":220,"##ä":221,"##L":222,"##œ":223,"##U":224,"##ô":225,"##ā":226,"##-":227,"##à":228,"##ñ":229,"##Q":230,"##ó":231,"##'":232,"##í":233,"##ș":234,"##−":235,"##W":236,"##ö":237,"##in":238,"##er":239,"##on":240,"##ing":241,"or":242,"##at":243,"##he":244,"of":245,"##en":246,"##al":247,"##es":248,"##ed":249,"##it":250,"##or":251,"to":252,"##ar":253,"##an":254,"in":255,"##ic":256,"the":257,"##om":258,"##ion":259,"##ly":260,"an":261,"##ec":262,"##is":263,"##ou":264,"##re":265,"##le":266,"##ent":267,"To":268,"##th":269,"##ac":270,"th":271,"##as":272,"##el":273,"##ro":274,"##iv":275,"##ome":276,"##ith":277,"and":278,"##ce":279,"##ul":280,"be":281,"wh":282,"st":283,"##ally":284,"##ot":285,"##st":286,"for":287,"on":288,"The":289,"as":290,"con":291,"with":292,"##ur":293,"##il":294,"##ation":295,"##ol":296,"##ig":297,"##ess":298,"##id":299,"##ect":300,"##se":301,"##ter":302,"per":303,"##em":304,"some":305,"##ct":306,"##im":307,"##av":308,"by":309,"su":310,"##et":311,"##ain":312,"##ate":313,"##ut":314,"##ir":315,"that":316,"##ow":317,"##thing":318,"ex":319,"##ab":320,"##ad":321,"##eci":322,"##ive":323,"##ge":324,"re":325,"pro":326,"##peci":327,"##nd":328,"##am":329,"##ch":330,"fr":331,"##od":332,"##ity":333,"##ist":334,"An":335,"##pp":336,"##us":337,"is":338,"##um":339,"##ther":340,"##ak":341,"##ay":342,"##art":343,"##os":344,"com":345,"us":346,"something":347,"##ver":348,"es":349,"##ous":350,"##ant":351,"from":352,"de":353,"pers":354,"act":355,"one":356,"pl":357,"##pecially":358,"##ich":359,"person":360,"##est":361,"especially":362,"##if":363,"ch":364,"un":365,"##igh":366,"which":367,"tr":368,"part":369,"##ap":370,"who":371,"at":372,"pr":373,"##ure":374,"##able":375,"sh":376,"##oc":377,"##tain":378,"##and":379,"##ual":380,"##aving":381,"##ten":382,"sp":383,"man":384,"##ance":385,"##op":386,"##one":387,"##ical":388,"##ort":389,"##ib":390,"not":391,"se":392,"##ment":393,"In":394,"##ard":395,"##qu":396,"it":397,"##ence":398,"Of":399,"dis":400,"##ace":401,"##all":402,"en":403,"##ight":404,"##ip":405,"other":406,"##rou":407,"##our":408,"##ated":409,"##un":410,"comp":411,"##ition":412,"al":413,"##mp":414,"being":415,"##ating":416,"##ial":417,"##act":418,"wor":419,"##ov":420,"##ner":421,"##ag":422,"##ack":423,"##ular":424,"##age":425,"##per":426,"##ake":427,"##ine":428,"##ff":429,"##out":430,"##cc":431,"rel":432,"cl":433,"##ast":434,"##ru":435,"##end":436,"##iz":437,"int":438,"##pt":439,"res":440,"ob":441,"ab":442,"used":443,"##orm":444,"le":445,"form":446,"ar":447,"ad":448,"##ie":449,"##ult":450,"##ong":451,"##ies":452,"##ish":453,"##du":454,"##ud":455,"##oun":456,"##ber":457,"##ide":458,"##tc":459,"##ill":460,"##ear":461,"such":462,"##ice":463,"##ious":464,"etc":465,"##ass":466,"##ood":467,"manner":468,"##ore":469,"cont":470,"##taining":471,"##ell":472,"app":473,"me":474,"##ject":475,"##ually":476,"##ary":477,"Having":478,"partic":479,"##gh":480,"##ans":481,"out":482,"##ound":483,"are":484,"imp":485,"##ose":486,"##acter":487,"##ind":488,"##ers":489,"fl":490,"##og":491,"##pr":492,"##ue":493,"##fic":494,"state":495,"tim":496,"##ree":497,"##aracter":498,"##ater":499,"##ry":500,"##fer":501,"sub":502,"##ful":503,"##ame":504,"str":505,"##au":506,"particular":507,"##erv":508,"make":509,"speci":510,"##ke":511,"##ign":512,"##ne":513,"Not":514,"##ade":515,"des":516,"co":517,"##ath":518,"##ang":519,"Any":520,"##form":521,"gen":522,"sm":523,"up":524,"att":525,"br":526,"##ative":527,"cons":528,"he":529,"into":530,"##ection":531,"sc":532,"li":533,"Some":534,"col":535,"ag":536,"dr":537,"having":538,"grou":539,"##ite":540,"over":541,"po":542,"##ere":543,"##bl":544,"time":545,"pos":546,"##yp":547,"ne":548,"##der":549,"thing":550,"##cess":551,"##ied":552,"often":553,"##ens":554,"car":555,"qu":556,"someone":557,"any":558,"##ase":559,"character":560,"usually":561,"pre":562,"##other":563,"ind":564,"##ick":565,"##ement":566,"##reat":567,"##ove":568,"##ise":569,"##ach":570,"inter":571,"its":572,"gr":573,"ph":574,"##int":575,"##hen":576,"comm":577,"bl":578,"tw":579,"so":580,"rec":581,"qual":582,"inc":583,"place":584,"ev":585,"##ust":586,"##ery":587,"und":588,"##row":589,"One":590,"##aw":591,"##we":592,"##ount":593,"sy":594,"##ions":595,"##hed":596,"##ave":597,"produ":598,"no":599,"another":600,"##istic":601,"##ily":602,"fe":603,"##ail":604,"##ict":605,"##pl":606,"##ep":607,"##ible":608,"##rit":609,"pe":610,"dist":611,"##ness":612,"than":613,"acc":614,"group":615,"more":616,"pertaining":617,"##ty":618,"##ding":619,"##ok":620,"el":621,"##ause":622,"##ark":623,"object":624,"num":625,"##ower":626,"##ward":627,"##ruct":628,"inst":629,"dec":630,"small":631,"lar":632,"typ":633,"reg":634,"##ations":635,"##ody":636,"without":637,"ext":638,"##low":639,"dev":640,"am":641,"dif":642,"bet":643,"##ale":644,"play":645,"##are":646,"do":647,"sur":648,"##xt":649,"work":650,"##ient":651,"set":652,"quality":653,"number":654,"two":655,"##pect":656,"te":657,"##elf":658,"ass":659,"##ople":660,"under":661,"can":662,"has":663,"bel":664,"bo":665,"##ism":666,"##own":667,"rem":668,"use":669,"##cr":670,"way":671,"##ically":672,"##les":673,"opp":674,"process":675,"people":676,"##ost":677,"##ning":678,"##ting":679,"##ire":680,"##dition":681,"made":682,"relating":683,"but":684,"##ian":685,"##ve":686,"ins":687,"Something":688,"##ween":689,"trans":690,"##ory":691,"like":692,"##ia":693,"##ange":694,"##ile":695,"##ys":696,"##ft":697,"##aking":698,"when":699,"##cept":700,"go":701,"Th":702,"eff":703,"##ple":704,"serv":705,"##ession":706,"bec":707,"##hes":708,"end":709,"##enc":710,"dir":711,"sim":712,"between":713,"##old":714,"em":715,"gener":716,"##ief":717,"##aus":718,"off":719,"##osed":720,"action":721,"##ents":722,"mem":723,"##rough":724,"sl":725,"Ch":726,"ac":727,"ro":728,"##ble":729,"##ord":730,"##ough":731,"##ock":732,"cause":733,"we":734,"rep":735,"inf":736,"##app":737,"##ons":738,"##otion":739,"cr":740,"##tend":741,"large":742,"supp":743,"##air":744,"##te":745,"inv":746,"id":747,"##me":748,"beh":749,"high":750,"pur":751,"##ond":752,"sk":753,"##gr":754,"body":755,"giv":756,"kn":757,"##ink":758,"##gan":759,"through":760,"##urr":761,"specific":762,"##par":763,"##ll":764,"all":765,"##ric":766,"##imal":767,"##ized":768,"##urn":769,"##ction":770,"##ates":771,"point":772,"def":773,"im":774,"##oy":775,"have":776,"long":777,"sound":778,"##ld":779,"##anc":780,"##ility":781,"##ense":782,"Un":783,"##ior":784,"##ural":785,"mus":786,"With":787,"##erm":788,"condition":789,"##ific":790,"hum":791,"cor":792,"op":793,"##esent":794,"##uc":795,"perform":796,"##cer":797,"##ech":798,"occ":799,"position":800,"lo":801,"order":802,"spe":803,"cer":804,"##ted":805,"##tern":806,"organ":807,"##ention":808,"member":809,"animal":810,"characteristic":811,"back":812,"var":813,"great":814,"##ilar":815,"good":816,"##cl":817,"##inal":818,"##ather":819,"val":820,"art":821,"##ract":822,"power":823,"where":824,"mov":825,"pass":826,"##way":827,"##stem":828,"##ute":829,"area":830,"proper":831,"##ities":832,"bu":833,"sex":834,"wom":835,"##hip":836,"word":837,"That":838,"pu":839,"bre":840,"prov":841,"sec":842,"##ider":843,"leg":844,"##eld":845,"##led":846,"##eng":847,"move":848,"pol":849,"bas":850,"##ature":851,"again":852,"hand":853,"conf":854,"system":855,"similar":856,"##ently":857,"ele":858,"med":859,"very":860,"##ix":861,"disc":862,"water":863,"##isting":864,"##olv":865,"##ize":866,"##iet":867,"##iness":868,"##ont":869,"##ected":870,"##ively":871,"phys":872,"##ument":873,"particularly":874,"type":875,"light":876,"subst":877,"##iod":878,"##arm":879,"##reme":880,"##olog":881,"period":882,"##bling":883,"##aph":884,"sing":885,"##less":886,"##aterial":887,"mod":888,"Ex":889,"soc":890,"##ced":891,"##ined":892,"##sion":893,"##uth":894,"##ivid":895,"cover":896,"about":897,"##ull":898,"ve":899,"##its":900,"differ":901,"appear":902,"caus":903,"##uring":904,"##ender":905,"coll":906,"del":907,"##ash":908,"air":909,"##ger":910,"##round":911,"given":912,"give":913,"##ished":914,"aff":915,"che":916,"poss":917,"material":918,"##ors":919,"using":920,"##acking":921,"pi":922,"amount":923,"purp":924,"##ings":925,"comple":926,"##angu":927,"cre":928,"##ub":929,"cap":930,"fol":931,"##iate":932,"##ild":933,"activ":934,"same":935,"##ron":936,"##ert":937,"orig":938,"certain":939,"##itu":940,"consider":941,"become":942,"langu":943,"writ":944,"##den":945,"##ited":946,"struct":947,"fam":948,"fir":949,"red":950,"result":951,"show":952,"adv":953,"if":954,"rest":955,"surf":956,"##tle":957,"##irc":958,"ent":959,"stand":960,"##rop":961,"ke":962,"##so":963,"##ination":964,"been":965,"##tended":966,"publ":967,"ow":968,"deg":969,"things":970,"##ool":971,"woman":972,"this":973,"shap":974,"cent":975,"pract":976,"cour":977,"mark":978,"Per":979,"loc":980,"effect":981,"side":982,"const":983,"common":984,"elect":985,"met":986,"put":987,"contro":988,"##up":989,"##arr":990,"plant":991,"fun":992,"##uit":993,"##ficult":994,"af":995,"ear":996,"emp":997,"their":998,"direction":999,"inform":1000,"mat":1001,"vis":1002,"##tim":1003,"##ines":1004,"expr":1005,"feel":1006,"sw":1007,"##ife":1008,"lit":1009,"sign":1010,"##ob":1011,"##ank":1012,"piec":1013,"take":1014,"##ying":1015,"circ":1016,"##ress":1017,"class":1018,"event":1019,"##ength":1020,"cle":1021,"human":1022,"##ither":1023,"behav":1024,"language":1025,"right":1026,"##ived":1027,"activity":1028,"sty":1029,"##crib":1030,"##iving":1031,"exc":1032,"incl":1033,"surface":1034,"food":1035,"down":1036,"pat":1037,"force":1038,"##mer":1039,"##uch":1040,"##embling":1041,"also":1042,"physical":1043,"different":1044,"situ":1045,"##ening":1046,"Without":1047,"infl":1048,"Rel":1049,"change":1050,"means":1051,"device":1052,"after":1053,"count":1054,"##ene":1055,"design":1056,"Someone":1057,"quant":1058,"##ental":1059,"##els":1060,"##ros":1061,"##ling":1062,"##ph":1063,"##ude":1064,"single":1065,"structure":1066,"Con":1067,"gl":1068,"##ield":1069,"##ra":1070,"requ":1071,"repr":1072,"##osition":1073,"degree":1074,"par":1075,"ret":1076,"##ience":1077,"##orn":1078,"parts":1079,"##und":1080,"##ret":1081,"##ution":1082,"difficult":1083,"##leas":1084,"element":1085,"##gether":1086,"public":1087,"##ency":1088,"##iew":1089,"auth":1090,"game":1091,"super":1092,"term":1093,"##alk":1094,"together":1095,"##ason":1096,"eng":1097,"kind":1098,"##read":1099,"short":1100,"new":1101,"support":1102,"oper":1103,"##uter":1104,"##als":1105,"ref":1106,"follow":1107,"St":1108,"est":1109,"others":1110,"Pertaining":1111,"prot":1112,"appro":1113,"liqu":1114,"wr":1115,"meas":1116,"subject":1117,"##inc":1118,"##ike":1119,"##res":1120,"contr":1121,"ide":1122,"author":1123,"##ired":1124,"##iss":1125,"##akes":1126,"##ending":1127,"prev":1128,"bus":1129,"##ier":1130,"##ane":1131,"##ices":1132,"family":1133,"##ug":1134,"item":1135,"individ":1136,"sense":1137,"tem":1138,"property":1139,"individual":1140,"law":1141,"##icle":1142,"##oss":1143,"interest":1144,"##iety":1145,"##ars":1146,"only":1147,"conn":1148,"exam":1149,"value":1150,"main":1151,"Be":1152,"land":1153,"min":1154,"buil":1155,"purpose":1156,"##fied":1157,"toward":1158,"stat":1159,"style":1160,"grow":1161,"sens":1162,"##az":1163,"##aid":1164,"##ised":1165,"##ision":1166,"progr":1167,"extreme":1168,"##ures":1169,"trad":1170,"substance":1171,"many":1172,"origin":1173,"##ts":1174,"##gy":1175,"##wor":1176,"liquid":1177,"ser":1178,"ones":1179,"import":1180,"ill":1181,"##ex":1182,"##ially":1183,"##iol":1184,"piece":1185,"cur":1186,"less":1187,"##ax":1188,"strong":1189,"head":1190,"control":1191,"bro":1192,"lim":1193,"##atural":1194,"involv":1195,"##oid":1196,"##abit":1197,"##oney":1198,"mean":1199,"##iated":1200,"##port":1201,"first":1202,"information":1203,"##times":1204,"''":1205,"``":1206,"each":1207,"line":1208,"male":1209,"##ned":1210,"rece":1211,"Character":1212,"gu":1213,"gre":1214,"##empt":1215,"##ages":1216,"regard":1217,"whe":1218,"fact":1219,"view":1220,"shar":1221,"obs":1222,"represent":1223,"det":1224,"free":1225,"her":1226,"motion":1227,"close":1228,"music":1229,"against":1230,"social":1231,"self":1232,"unc":1233,"sever":1234,"separ":1235,"relig":1236,"instance":1237,"##ational":1238,"prof":1239,"open":1240,"fem":1241,"hor":1242,"##ium":1243,"##erc":1244,"what":1245,"##quence":1246,"movement":1247,"sexual":1248,"ball":1249,"mor":1250,"nec":1251,"norm":1252,"sometimes":1253,"##oth":1254,"##ides":1255,"##ably":1256,"cut":1257,"cult":1258,"happ":1259,"##oot":1260,"stud":1261,"##ters":1262,"upon":1263,"either":1264,"##iev":1265,"assoc":1266,"situation":1267,"during":1268,"##ering":1269,"##rupt":1270,"quantity":1271,"##omp":1272,"building":1273,"non":1274,"##ulation":1275,"ste":1276,"plan":1277,"text":1278,"div":1279,"mon":1280,"##ury":1281,"##ization":1282,"dest":1283,"most":1284,"##vel":1285,"veh":1286,"appearance":1287,"complete":1288,"Relating":1289,"away":1290,"##ral":1291,"exper":1292,"product":1293,"##fore":1294,"them":1295,"##ential":1296,"real":1297,"##iction":1298,"##meric":1299,"Americ":1300,"life":1301,"##ately":1302,"arr":1303,"mot":1304,"##cent":1305,"pen":1306,"##mb":1307,"##atic":1308,"top":1309,"comb":1310,"know":1311,"##uck":1312,"hold":1313,"viol":1314,"##mit":1315,"##use":1316,"space":1317,"add":1318,"care":1319,"polit":1320,"##ross":1321,"equ":1322,"##iting":1323,"##ouse":1324,"present":1325,"spir":1326,"##aste":1327,"resp":1328,"##iously":1329,"draw":1330,"pleas":1331,"trav":1332,"##que":1333,"oneself":1334,"Re":1335,"name":1336,"##ising":1337,"##rodu":1338,"exp":1339,"carry":1340,"typically":1341,"extent":1342,"opposed":1343,"mind":1344,"##ives":1345,"dep":1346,"business":1347,"Fr":1348,"ver":1349,"##iation":1350,"##ces":1351,"##ird":1352,"exist":1353,"soft":1354,"influ":1355,"run":1356,"##ged":1357,"##rain":1358,"##outh":1359,"various":1360,"As":1361,"though":1362,"respect":1363,"quick":1364,"emotion":1365,"Very":1366,"bad":1367,"##lic":1368,"##co":1369,"three":1370,"instr":1371,"making":1372,"##por":1373,"##ush":1374,"well":1375,"##ured":1376,"neg":1377,"mil":1378,"containing":1379,"prom":1380,"computer":1381,"indic":1382,"belief":1383,"hard":1384,"ir":1385,"mis":1386,"##wise":1387,"##term":1388,"pres":1389,"relations":1390,"arm":1391,"specifically":1392,"around":1393,"low":1394,"port":1395,"within":1396,"refer":1397,"cal":1398,"due":1399,"##eding":1400,"##idence":1401,"expl":1402,"flow":1403,"pop":1404,"##get":1405,"heav":1406,"function":1407,"intended":1408,"succ":1409,"##illing":1410,"sn":1411,"child":1412,"generally":1413,"considered":1414,"female":1415,"dem":1416,"fre":1417,"may":1418,"sil":1419,"year":1420,"##io":1421,"drink":1422,"skill":1423,"shape":1424,"tradition":1425,"##gin":1426,"##raph":1427,"inh":1428,"describ":1429,"imm":1430,"Ind":1431,"ut":1432,"##rect":1433,"offic":1434,"concer":1435,"excess":1436,"species":1437,"##urring":1438,"own":1439,"sol":1440,"##land":1441,"ord":1442,"##oud":1443,"##ception":1444,"legal":1445,"vehicle":1446,"found":1447,"pain":1448,"##rib":1449,"##ony":1450,"##very":1451,"dise":1452,"worn":1453,"incre":1454,"oppos":1455,"##dden":1456,"##cing":1457,"##qual":1458,"##eness":1459,"char":1460,"enter":1461,"genus":1462,"clear":1463,"At":1464,"fin":1465,"rather":1466,"##uous":1467,"##arily":1468,"before":1469,"##amm":1470,"##ieve":1471,"colour":1472,"##ware":1473,"##inct":1474,"##itive":1475,"sudden":1476,"##ope":1477,"characteristics":1478,"much":1479,"near":1480,"##side":1481,"##aken":1482,"words":1483,"practice":1484,"includ":1485,"inten":1486,"color":1487,"standard":1488,"call":1489,"##man":1490,"whole":1491,"prec":1492,"specified":1493,"bring":1494,"ground":1495,"commun":1496,"country":1497,"measure":1498,"natural":1499,"##ould":1500,"##atively":1501,"player":1502,"crim":1503,"mult":1504,"##elop":1505,"##ograph":1506,"develop":1507,"example":1508,"##work":1509,"fac":1510,"money":1511,"she":1512,"##bo":1513,"accept":1514,"ident":1515,"based":1516,"Res":1517,"Sh":1518,"av":1519,"ra":1520,"##oph":1521,"ener":1522,"attract":1523,"##ixed":1524,"turn":1525,"##tic":1526,"##ified":1527,"press":1528,"produced":1529,"else":1530,"##pected":1531,"gover":1532,"direct":1533,"##ances":1534,"##echn":1535,"express":1536,"relationship":1537,"day":1538,"ed":1539,"##dle":1540,"##abl":1541,"worth":1542,"related":1543,"level":1544,"attention":1545,"curr":1546,"dat":1547,"##bs":1548,"##sy":1549,"##inary":1550,"##str":1551,"suff":1552,"lead":1553,"##fully":1554,"En":1555,"pay":1556,"wood":1557,"##loy":1558,"##inate":1559,"prop":1560,"remove":1561,"known":1562,"second":1563,"meaning":1564,"fav":1565,"wind":1566,"##br":1567,"##fort":1568,"##ingu":1569,"ang":1570,"##rug":1571,"##ification":1572,"past":1573,"treat":1574,"##apable":1575,"sport":1576,"disp":1577,"##iple":1578,"##ource":1579,"contin":1580,"##elling":1581,"general":1582,"instrument":1583,"resembling":1584,"consisting":1585,"19":1586,"field":1587,"##iend":1588,"sequence":1589,"abs":1590,"blood":1591,"harm":1592,"mid":1593,"##af":1594,"##ital":1595,"##itch":1596,"##stand":1597,"##ify":1598,"objects":1599,"fill":1600,"lacking":1601,"mag":1602,"##ipp":1603,"read":1604,"ability":1605,"region":1606,"collect":1607,"authority":1608,"success":1609,"fil":1610,"##ae":1611,"##hol":1612,"##ins":1613,"thin":1614,"those":1615,"while":1616,"##iding":1617,"##amp":1618,"##usion":1619,"uns":1620,"see":1621,"##ology":1622,"fit":1623,"fig":1624,"rap":1625,"tre":1626,"##red":1627,"##itary":1628,"##ask":1629,"##ident":1630,"otherwise":1631,"keep":1632,"influence":1633,"dom":1634,"##aft":1635,"##yond":1636,"##line":1637,"##iour":1638,"##any":1639,"conver":1640,"whose":1641,"special":1642,"associated":1643,"##over":1644,"##ring":1645,"##atch":1646,"##order":1647,"##iver":1648,"flat":1649,"##ledge":1650,"disease":1651,"der":1652,"sch":1653,"##thod":1654,"contain":1655,"##iber":1656,"allow":1657,"##duct":1658,"anything":1659,"techn":1660,"exh":1661,"need":1662,"animals":1663,"provide":1664,"political":1665,"hair":1666,"let":1667,"lack":1668,"plac":1669,"unit":1670,"enc":1671,"arg":1672,"skin":1673,"look":1674,"size":1675,"##of":1676,"##ishment":1677,"prepar":1678,"break":1679,"er":1680,"equal":1681,"jud":1682,"nature":1683,"anc":1684,"##reg":1685,"##oll":1686,"princ":1687,"obl":1688,"obtain":1689,"employ":1690,"behaviour":1691,"religious":1692,"Lacking":1693,"his":1694,"##aff":1695,"##ew":1696,"##sp":1697,"##ining":1698,"stre":1699,"determ":1700,"produce":1701,"larger":1702,"feeling":1703,"crit":1704,"face":1705,"pot":1706,"rul":1707,"rank":1708,"sat":1709,"##ship":1710,"##aining":1711,"ship":1712,"both":1713,"book":1714,"opin":1715,"speech":1716,"showing":1717,"sharp":1718,"##mbol":1719,"living":1720,"##oice":1721,"##ern":1722,"white":1723,"rev":1724,"pred":1725,"##astic":1726,"service":1727,"Us":1728,"four":1729,"list":1730,"length":1731,"##nment":1732,"inj":1733,"##ulate":1734,"sug":1735,"effort":1736,"location":1737,"items":1738,"several":1739,"ach":1740,"eas":1741,"house":1742,"##itable":1743,"too":1744,"there":1745,"conv":1746,"above":1747,"##priate":1748,"##play":1749,"##ological":1750,"data":1751,"hol":1752,"was":1753,"##itude":1754,"ann":1755,"##lev":1756,"##iring":1757,"liter":1758,"American":1759,"energy":1760,"foot":1761,"youn":1762,"fruit":1763,"ess":1764,"##ously":1765,"formal":1766,"apply":1767,"symbol":1768,"organization":1769,"necess":1770,"Caus":1771,"fall":1772,"lay":1773,"mass":1774,"vol":1775,"##ues":1776,"##uff":1777,"##ote":1778,"##aper":1779,"impro":1780,"quest":1781,"weight":1782,"musical":1783,"knowledge":1784,"dark":1785,"round":1786,"##oint":1787,"##ule":1788,"##ached":1789,"reason":1790,"##ump":1791,"prim":1792,"carr":1793,"decor":1794,"designed":1795,"establ":1796,"every":1797,"task":1798,"##ee":1799,"##ased":1800,"##unt":1801,"Being":1802,"Com":1803,"Eu":1804,"dim":1805,"will":1806,"##body":1807,"##00":1808,"##ics":1809,"##acy":1810,"office":1811,"writing":1812,"spirit":1813,"Ext":1814,"come":1815,"ey":1816,"fal":1817,"fail":1818,"fire":1819,"begin":1820,"##ott":1821,"##ume":1822,"##ruction":1823,"dece":1824,"frequ":1825,"opposite":1826,"aw":1827,"dou":1828,"full":1829,"lab":1830,"rad":1831,"true":1832,"strength":1833,"events":1834,"room":1835,"behavior":1836,"Able":1837,"done":1838,"fish":1839,"habit":1840,"swe":1841,"ter":1842,"indu":1843,"##icient":1844,"##leg":1845,"throw":1846,"expression":1847,"bird":1848,"cry":1849,"rot":1850,"sle":1851,"sent":1852,"source":1853,"fore":1854,"front":1855,"adm":1856,"post":1857,"black":1858,"##pleas":1859,"metal":1860,"elements":1861,"coun":1862,"lower":1863,"wide":1864,"##aut":1865,"##esh":1866,"##eless":1867,"sum":1868,"compet":1869,"##ences":1870,"course":1871,"statement":1872,"fa":1873,"ho":1874,"war":1875,"##alth":1876,"beyond":1877,"##aves":1878,"##pper":1879,"attempt":1880,"##ronic":1881,"##rope":1882,"thought":1883,"Causing":1884,"De":1885,"drug":1886,"log":1887,"taken":1888,"##ches":1889,"##wh":1890,"##arch":1891,"##urb":1892,"##urs":1893,"##essing":1894,"world":1895,"phr":1896,"causing":1897,"little":1898,"program":1899,"##cohol":1900,"utter":1901,"government":1902,"rapid":1903,"Pro":1904,"fab":1905,"pun":1906,"##cle":1907,"##ingly":1908,"##action":1909,"record":1910,"##ustom":1911,"distingu":1912,"regular":1913,"remov":1914,"repe":1915,"den":1916,"fur":1917,"sem":1918,"##ases":1919,"##anger":1920,"causes":1921,"important":1922,"horse":1923,"describing":1924,"##iable":1925,"##alf":1926,"##ability":1927,"##izing":1928,"##erving":1929,"commit":1930,"collection":1931,"including":1932,"Resembling":1933,"bar":1934,"cop":1935,"just":1936,"conduct":1937,"alcohol":1938,"##ensive":1939,"##arrow":1940,"deep":1941,"##ift":1942,"does":1943,"belong":1944,"because":1945,"##blem":1946,"circum":1947,"pattern":1948,"young":1949,"Europe":1950,"bene":1951,"##by":1952,"##iage":1953,"##con":1954,"##ched":1955,"they":1956,"deal":1957,"chief":1958,"along":1959,"method":1960,"team":1961,"goods":1962,"verb":1963,"bur":1964,"doc":1965,"##rict":1966,"##hest":1967,"deb":1968,"##ments":1969,"heat":1970,"distance":1971,"transport":1972,"originally":1973,"involving":1974,"travel":1975,"false":1976,"hom":1977,"rough":1978,"##rical":1979,"##ator":1980,"excl":1981,"##ants":1982,"left":1983,"written":1984,"school":1985,"fabric":1986,"Al":1987,"Capable":1988,"makes":1989,"##aim":1990,"##ext":1991,"##oring":1992,"##ison":1993,"##ival":1994,"sun":1995,"depr":1996,"company":1997,"##earing":1998,"emb":1999,"medic":2000,"##ashion":2001,"quickly":2002,"opinion":2003,"cell":2004,"dam":2005,"hit":2006,"##ique":2007,"##ese":2008,"##ored":2009,"##aring":2010,"conc":2011,"friend":2012,"towards":2013,"broad":2014,"negative":2015,"popular":2016,"card":2017,"fear":2018,"get":2019,"held":2020,"ant":2021,"project":2022,"##oses":2023,"##antly":2024,"##ape":2025,"adj":2026,"meet":2027,"times":2028,"extremely":2029,"base":2030,"dut":2031,"hon":2032,"##ken":2033,"##atter":2034,"##orth":2035,"##set":2036,"perce":2037,"exten":2038,"##ption":2039,"able":2040,"distinct":2041,"below":2042,"goal":2043,"##echan":2044,"speak":2045,"shaped":2046,"moral":2047,"gar":2048,"mo":2049,"slow":2050,"tree":2051,"##othing":2052,"##onent":2053,"env":2054,"characterized":2055,"secret":2056,"detail":2057,"culture":2058,"increase":2059,"Dis":2060,"ap":2061,"custom":2062,"mechan":2063,"now":2064,"##ging":2065,"##gest":2066,"##inite":2067,"##ording":2068,"##used":2069,"seen":2070,"display":2071,"particip":2072,"itself":2073,"higher":2074,"performance":2075,"series":2076,"military":2077,"Extreme":2078,"Sp":2079,"aud":2080,"danger":2081,"mach":2082,"marr":2083,"mental":2084,"##orous":2085,"##ission":2086,"##urch":2087,"##ecting":2088,"##iment":2089,"death":2090,"understand":2091,"members":2092,"official":2093,"film":2094,"##her":2095,"once":2096,"flu":2097,"Anything":2098,"traditional":2099,"gain":2100,"##aj":2101,"##itation":2102,"##icy":2103,"exec":2104,"usual":2105,"former":2106,"##ension":2107,"organism":2108,"matter":2109,"profession":2110,"err":2111,"oblig":2112,"bi":2113,"cru":2114,"win":2115,"walk":2116,"##eal":2117,"##gen":2118,"##ration":2119,"##kn":2120,"##anch":2121,"##ister":2122,"unf":2123,"print":2124,"brief":2125,"surround":2126,"invest":2127,"covered":2128,"caused":2129,"chem":2130,"study":2131,"communic":2132,"phrase":2133,"Des":2134,"say":2135,"vess":2136,"##tal":2137,"##hy":2138,"##ixt":2139,"##omen":2140,"##aster":2141,"somebody":2142,"##imate":2143,"##irable":2144,"personal":2145,"arch":2146,"consum":2147,"United":2148,"court":2149,"plants":2150,"terms":2151,"motor":2152,"question":2153,"Pr":2154,"net":2155,"range":2156,"sal":2157,"vers":2158,"##iar":2159,"##ateg":2160,"priv":2161,"##ightly":2162,"account":2163,"wrong":2164,"temper":2165,"completely":2166,"Af":2167,"age":2168,"cross":2169,"fool":2170,"fashion":2171,"ge":2172,"home":2173,"mess":2174,"wall":2175,"##lied":2176,"##ats":2177,"##atory":2178,"##asion":2179,"conce":2180,"attack":2181,"##certain":2182,"normal":2183,"excessive":2184,"rules":2185,"bit":2186,"ce":2187,"my":2188,"##like":2189,"problem":2190,"##ibly":2191,"formed":2192,"context":2193,"desire":2194,"qualities":2195,"syn":2196,"variety":2197,"##resp":2198,"Characteristic":2199,"separate":2200,"existence":2201,"Eng":2202,"argument":2203,"talk":2204,"##ung":2205,"intell":2206,"##anged":2207,"giving":2208,"##olving":2209,"destro":2210,"case":2211,"hel":2212,"mal":2213,"mar":2214,"native":2215,"narrow":2216,"race":2217,"##go":2218,"init":2219,"##iron":2220,"##ibility":2221,"dish":2222,"obst":2223,"accom":2224,"##ificant":2225,"correct":2226,"return":2227,"tempor":2228,"aut":2229,"bound":2230,"di":2231,"hy":2232,"hence":2233,"later":2234,"loud":2235,"said":2236,"tax":2237,"##isk":2238,"##let":2239,"##aging":2240,"addition":2241,"outside":2242,"##oking":2243,"serving":2244,"acqu":2245,"deliber":2246,"superior":2247,"violent":2248,"Tending":2249,"foc":2250,"path":2251,"pitch":2252,"sail":2253,"##ead":2254,"##come":2255,"##omic":2256,"##ects":2257,"party":2258,"##aged":2259,"interv":2260,"electronic":2261,"experience":2262,"respons":2263,"portion":2264,"intense":2265,"multiple":2266,"collectively":2267,"sweet":2268,"Extremely":2269,"Made":2270,"rac":2271,"vir":2272,"voice":2273,"##ef":2274,"##ik":2275,"##rist":2276,"##ved":2277,"##rel":2278,"##ully":2279,"##endent":2280,"forms":2281,"##ogn":2282,"poor":2283,"doing":2284,"possible":2285,"central":2286,"heavy":2287,"environ":2288,"##ixture":2289,"App":2290,"Cl":2291,"fut":2292,"hyp":2293,"men":2294,"song":2295,"##xual":2296,"offer":2297,"##reement":2298,"start":2299,"##ament":2300,"spread":2301,"##ipt":2302,"attached":2303,"covering":2304,"capable":2305,"original":2306,"difficulty":2307,"idea":2308,"pressure":2309,"easily":2310,"##pleasant":2311,"chemical":2312,"dig":2313,"fixed":2314,"##to":2315,"##ek":2316,"##hem":2317,"infer":2318,"##sequ":2319,"expected":2320,"##ifying":2321,"trou":2322,"encl":2323,"claim":2324,"##aching":2325,"block":2326,"insp":2327,"moving":2328,"contrast":2329,"importance":2330,"called":2331,"middle":2332,"city":2333,"squ":2334,"vert":2335,"##iny":2336,"##ediate":2337,"##oming":2338,"concept":2339,"repl":2340,"cho":2341,"seem":2342,"##augh":2343,"works":2344,"imag":2345,"hands":2346,"Characterized":2347,"princip":2348,"Ar":2349,"rock":2350,"taste":2351,"##ets":2352,"##uments":2353,"actions":2354,"##rown":2355,"production":2356,"feat":2357,"##craft":2358,"road":2359,"speed":2360,"women":2361,"redu":2362,"visible":2363,"software":2364,"current":2365,"circumst":2366,"document":2367,"##ajor":2368,"taking":2369,"##ball":2370,"##otic":2371,"##uted":2372,"##owing":2373,"##erve":2374,"consc":2375,"connected":2376,"ancient":2377,"environment":2378,"18":2379,"Ab":2380,"Occ":2381,"divid":2382,"furn":2383,"phen":2384,"##most":2385,"##sive":2386,"##ven":2387,"step":2388,"##ots":2389,"susp":2390,"persons":2391,"unw":2392,"alter":2393,"clothing":2394,"intention":2395,"access":2396,"supply":2397,"longer":2398,"conditions":2399,"occasion":2400,"modern":2401,"create":2402,"entity":2403,"followed":2404,"States":2405,"normally":2406,"beginning":2407,"Ad":2408,"Imp":2409,"On":2410,"bow":2411,"cod":2412,"old":2413,"test":2414,"##gn":2415,"##ises":2416,"##ream":2417,"stone":2418,"##bles":2419,"services":2420,"Christ":2421,"corresp":2422,"passage":2423,"required":2424,"reference":2425,"fluid":2426,"accompl":2427,"major":2428,"render":2429,"sold":2430,"##lleg":2431,"##cul":2432,"##itting":2433,"##acity":2434,"stage":2435,"conve":2436,"##idden":2437,"##anted":2438,"train":2439,"##ocal":2440,"##ourse":2441,"##ended":2442,"role":2443,"points":2444,"ordinal":2445,"cy":2446,"fat":2447,"mixture":2448,"noun":2449,"##fact":2450,"##itution":2451,"##istent":2452,"acting":2453,"Inv":2454,"contact":2455,"meat":2456,"producing":2457,"##wards":2458,"playing":2459,"purposes":2460,"advance":2461,"following":2462,"appropriate":2463,"obsc":2464,"inhabit":2465,"charge":2466,"satis":2467,"rapidly":2468,"Sc":2469,"far":2470,"hot":2471,"##ox":2472,"##mon":2473,"##for":2474,"##fect":2475,"##0s":2476,"##ener":2477,"##ulg":2478,"##olute":2479,"unt":2480,"adver":2481,"impr":2482,"transfer":2483,"occup":2484,"society":2485,"possession":2486,"##sych":2487,"belonging":2488,"destroy":2489,"phenomen":2490,"dance":2491,"fiction":2492,"loss":2493,"ur":2494,"##ued":2495,"##ivers":2496,"##ceeding":2497,"stor":2498,"##uss":2499,"##osing":2500,"unpleasant":2501,"stra":2502,"##anging":2503,"evil":2504,"image":2505,"early":2506,"wheel":2507,"concern":2508,"attractive":2509,"edge":2510,"chiefly":2511,"machine":2512,"bod":2513,"categ":2514,"gender":2515,"har":2516,"mer":2517,"tend":2518,"##oman":2519,"##idae":2520,"##etic":2521,"##irl":2522,"##ables":2523,"rever":2524,"iss":2525,"##antage":2526,"active":2527,"##asting":2528,"##ellow":2529,"working":2530,"behind":2531,"legs":2532,"prevent":2533,"##arsh":2534,"senses":2535,"closely":2536,"happen":2537,"From":2538,"sleep":2539,"perceived":2540,"creat":2541,"eth":2542,"illeg":2543,"pet":2544,"paper":2545,"##ks":2546,"##eds":2547,"then":2548,"##lying":2549,"think":2550,"stim":2551,"existing":2552,"##amental":2553,"##ishing":2554,"prep":2555,"noise":2556,"played":2557,"speaking":2558,"construct":2559,"engine":2560,"operation":2561,"favour":2562,"European":2563,"future":2564,"mist":2565,"sou":2566,"ten":2567,"tit":2568,"##oor":2569,"##eat":2570,"##ries":2571,"anal":2572,"##asm":2573,"##asp":2574,"##ames":2575,"spl":2576,"sea":2577,"compl":2578,"compound":2579,"relative":2580,"leave":2581,"content":2582,"appar":2583,"cerem":2584,"owner":2585,"emotional":2586,"exhib":2587,"necessary":2588,"eye":2589,"Afric":2590,"fing":2591,"gather":2592,"psych":2593,"section":2594,"##ren":2595,"##ones":2596,"##lex":2597,"forth":2598,"##irm":2599,"##antic":2600,"church":2601,"attrib":2602,"evidence":2603,"extra":2604,"acid":2605,"medium":2606,"aircraft":2607,"commonly":2608,"involved":2609,"greater":2610,"neck":2611,"avoid":2612,"raised":2613,"critic":2614,"distinguished":2615,"duty":2616,"fund":2617,"jo":2618,"pack":2619,"wa":2620,"##put":2621,"##rate":2622,"##icit":2623,"##thus":2624,"stick":2625,"##aint":2626,"exception":2627,"uncertain":2628,"trick":2629,"##aps":2630,"composition":2631,"altern":2632,"applic":2633,"feature":2634,"##ailable":2635,"inside":2636,"powerful":2637,"local":2638,"metaph":2639,"progress":2640,"limit":2641,"running":2642,"placed":2643,"doub":2644,"##what":2645,"Involving":2646,"gro":2647,"how":2648,"half":2649,"upper":2650,"vig":2651,"wine":2652,"##ooth":2653,"##itute":2654,"touch":2655,"##oms":2656,"##othes":2657,"##ective":2658,"##thern":2659,"dead":2660,"plural":2661,"trust":2662,"disorder":2663,"##ources":2664,"##aust":2665,"branch":2666,"phot":2667,"Containing":2668,"engage":2669,"equip":2670,"figur":2671,"Su":2672,"catch":2673,"god":2674,"kill":2675,"od":2676,"table":2677,"##ges":2678,"##zz":2679,"##het":2680,"##ivil":2681,"beaut":2682,"##essed":2683,"##ided":2684,"season":2685,"compar":2686,"##osexual":2687,"genre":2688,"phil":2689,"##airs":2690,"restrict":2691,"earth":2692,"years":2693,"criminal":2694,"help":2695,"Occurring":2696,"Eas":2697,"Or":2698,"mic":2699,"orn":2700,"thus":2701,"thick":2702,"threat":2703,"suitable":2704,"exch":2705,"##usive":2706,"##ifest":2707,"unex":2708,"truth":2709,"enj":2710,"##une":2711,"leather":2712,"agree":2713,"accur":2714,"performed":2715,"occurr":2716,"electric":2717,"pleasure":2718,"solid":2719,"derived":2720,"achiev":2721,"frequently":2722,"conceal":2723,"straight":2724,"bott":2725,"eight":2726,"pict":2727,"sel":2728,"sand":2729,"vag":2730,"##bon":2731,"##ties":2732,"##ians":2733,"##rom":2734,"##inent":2735,"tow":2736,"##arge":2737,"##thy":2738,"forward":2739,"aspect":2740,"exact":2741,"unus":2742,"cloth":2743,"forming":2744,"load":2745,"observ":2746,"representing":2747,"respon":2748,"beliefs":2749,"repeated":2750,"network":2751,"Germ":2752,"dog":2753,"hist":2754,"job":2755,"love":2756,"must":2757,"mouth":2758,"rub":2759,"sin":2760,"vide":2761,"##iant":2762,"##iance":2763,"##orough":2764,"store":2765,"##ains":2766,"exerc":2767,"esc":2768,"introdu":2769,"##ounce":2770,"scre":2771,"agreement":2772,"behave":2773,"previous":2774,"planet":2775,"products":2776,"suggest":2777,"labor":2778,"counter":2779,"marriage":2780,"vertical":2781,"Brit":2782,"Tr":2783,"ax":2784,"fight":2785,"lines":2786,"nor":2787,"##lo":2788,"##hood":2789,"cond":2790,"actual":2791,"plat":2792,"enem":2793,"disturb":2794,"##oked":2795,"decl":2796,"assign":2797,"corrupt":2798,"properties":2799,"capacity":2800,"entire":2801,"center":2802,"status":2803,"development":2804,"##board":2805,"essential":2806,"benef":2807,"foolish":2808,"focus":2809,"##thusi":2810,"best":2811,"five":2812,"nose":2813,"rule":2814,"tiss":2815,"vocal":2816,"##ming":2817,"##gment":2818,"##dr":2819,"##ves":2820,"##omy":2821,"##lease":2822,"##rog":2823,"##avour":2824,"extend":2825,"should":2826,"##agon":2827,"##ellent":2828,"desp":2829,"scale":2830,"prefer":2831,"created":2832,"marked":2833,"market":2834,"feelings":2835,"religion":2836,"treatment":2837,"letter":2838,"doubt":2839,"response":2840,"It":2841,"dry":2842,"eat":2843,"fas":2844,"gun":2845,"host":2846,"sad":2847,"##hand":2848,"##eth":2849,"##erate":2850,"##onents":2851,"##head":2852,"##ists":2853,"comfort":2854,"##iff":2855,"##ighten":2856,"contempt":2857,"meal":2858,"descent":2859,"distrib":2860,"believe":2861,"occurring":2862,"advoc":2863,"century":2864,"whether":2865,"cutting":2866,"##ompan":2867,"penis":2868,"##overed":2869,"annoy":2870,"established":2871,"terr":2872,"admin":2873,"medicine":2874,"version":2875,"inferior":2876,"metaphor":2877,"Ear":2878,"Wh":2879,"bat":2880,"find":2881,"girl":2882,"rom":2883,"takes":2884,"##oon":2885,"##ufact":2886,"##edient":2887,"##rehen":2888,"stop":2889,"asse":2890,"concent":2891,"##ires":2892,"frame":2893,"##verage":2894,"shr":2895,"##tainment":2896,"notice":2897,"better":2898,"doct":2899,"likely":2900,"weap":2901,"severe":2902,"demand":2903,"injury":2904,"prepare":2905,"enemy":2906,"Jap":2907,"ast":2908,"cas":2909,"ep":2910,"fine":2911,"fast":2912,"rig":2913,"six":2914,"tar":2915,"wear":2916,"##lish":2917,"##hold":2918,"##day":2919,"##hel":2920,"##orable":2921,"##ceed":2922,"manufact":2923,"disg":2924,"relatively":2925,"adap":2926,"##duc":2927,"intern":2928,"smaller":2929,"telev":2930,"##crim":2931,"##cript":2932,"weak":2933,"##ways":2934,"minor":2935,"receive":2936,"topic":2937,"financ":2938,"magn":2939,"figure":2940,"obtained":2941,"sugar":2942,"vessel":2943,"bitter":2944,"mut":2945,"night":2946,"national":2947,"outer":2948,"pow":2949,"##mission":2950,"##ites":2951,"ine":2952,"anger":2953,"##aces":2954,"##urity":2955,"perman":2956,"##utes":2957,"proced":2958,"##osoph":2959,"##ipe":2960,"compr":2961,"scient":2962,"cold":2963,"agent":2964,"dress":2965,"positive":2966,"recogn":2967,"nothing":2968,"groups":2969,"##oken":2970,"defined":2971,"breath":2972,"##ashing":2973,"require":2974,"ideas":2975,"previously":2976,"guard":2977,"children":2978,"carried":2979,"principles":2980,"title":2981,"philosoph":2982,"Japan":2983,"television":2984,"Roman":2985,"Und":2986,"bed":2987,"dw":2988,"last":2989,"mol":2990,"wit":2991,"##xim":2992,"##omin":2993,"##ighest":2994,"acts":2995,"##iful":2996,"partner":2997,"enthusi":2998,"leaves":2999,"contract":3000,"imper":3001,"health":3002,"indep":3003,"incor":3004,"transmit":3005,"serve":3006,"confidence":3007,"Excess":3008,"advantage":3009,"standing":3010,"protection":3011,"write":3012,"immediate":3013,"crime":3014,"achieve":3015,"literary":3016,"dimension":3017,"unexpected":3018,"Like":3019,"Se":3020,"bal":3021,"civil":3022,"had":3023,"pull":3024,"rid":3025,"sac":3026,"send":3027,"##ck":3028,"##eral":3029,"##oral":3030,"##ulated":3031,"##iliar":3032,"##sequence":3033,"##avity":3034,"chance":3035,"unkn":3036,"attend":3037,"shock":3038,"abund":3039,"lear":3040,"smooth":3041,"scr":3042,"poly":3043,"grad":3044,"symp":3045,"accord":3046,"##pective":3047,"assum":3048,"remark":3049,"serves":3050,"sky":3051,"sounds":3052,"veget":3053,"consideration":3054,"firm":3055,"refl":3056,"growth":3057,"address":3058,"removed":3059,"cele":3060,"divided":3061,"tissue":3062,"By":3063,"cand":3064,"cast":3065,"econ":3066,"harsh":3067,"ign":3068,"via":3069,"want":3070,"##bit":3071,"##de":3072,"ingr":3073,"theory":3074,"##omfort":3075,"##rete":3076,"##aced":3077,"concl":3078,"##ousing":3079,"diss":3080,"cloud":3081,"across":3082,"occurs":3083,"provides":3084,"basic":3085,"physically":3086,"affected":3087,"complex":3088,"##inese":3089,"clean":3090,"serious":3091,"green":3092,"regarded":3093,"##rained":3094,"milk":3095,"intens":3096,"sufficient":3097,"reduce":3098,"storage":3099,"ethn":3100,"Cons":3101,"Is":3102,"live":3103,"rail":3104,"risk":3105,"wed":3106,"would":3107,"##met":3108,"thorough":3109,"##iven":3110,"expect":3111,"##aked":3112,"user":3113,"trade":3114,"##ocr":3115,"clim":3116,"impress":3117,"strip":3118,"cost":3119,"quiet":3120,"commerc":3121,"blow":3122,"twist":3123,"among":3124,"numbers":3125,"assist":3126,"believ":3127,"Chinese":3128,"##ancy":3129,"elev":3130,"empty":3131,"visual":3132,"maintain":3133,"horiz":3134,"arms":3135,"convert":3136,"radio":3137,"copy":3138,"understanding":3139,"archit":3140,"private":3141,"equipment":3142,"exchange":3143,"Full":3144,"Ne":3145,"Speci":3146,"aim":3147,"fully":3148,"highest":3149,"sides":3150,"##bing":3151,"##ole":3152,"##ienc":3153,"##do":3154,"##ina":3155,"##onder":3156,"##hetic":3157,"##oment":3158,"fort":3159,"consequence":3160,"##ilities":3161,"note":3162,"composed":3163,"resist":3164,"abst":3165,"##ountain":3166,"areas":3167,"attitude":3168,"##icked":3169,"even":3170,"slender":3171,"delay":3172,"results":3173,"effects":3174,"pieces":3175,"##ossible":3176,"representation":3177,"carrying":3178,"calm":3179,"demon":3180,"identity":3181,"predict":3182,"meeting":3183,"professional":3184,"features":3185,"code":3186,"enjoy":3187,"bottom":3188,"video":3189,"celebr":3190,"bill":3191,"cord":3192,"joy":3193,"push":3194,"yield":3195,"##gg":3196,"##itor":3197,"##ann":3198,"##isc":3199,"##roc":3200,"##uration":3201,"##ilt":3202,"##utation":3203,"univers":3204,"##ager":3205,"bright":3206,"opposition":3207,"##appro":3208,"highly":3209,"##ucle":3210,"loose":3211,"basis":3212,"resulting":3213,"countries":3214,"wheels":3215,"presence":3216,"standards":3217,"precise":3218,"disposition":3219,"potential":3220,"volume":3221,"competition":3222,"alcoholic":3223,"architect":3224,"Jew":3225,"educ":3226,"gent":3227,"mel":3228,"nation":3229,"pit":3230,"tail":3231,"vac":3232,"wool":3233,"##aur":3234,"##bed":3235,"##bel":3236,"##inating":3237,"##alle":3238,"##icles":3239,"thread":3240,"##roll":3241,"##urning":3242,"##ained":3243,"reach":3244,"uses":3245,"deity":3246,"unable":3247,"##unk":3248,"##agger":3249,"string":3250,"dram":3251,"sole":3252,"produces":3253,"teeth":3254,"##veal":3255,"defeat":3256,"##ternal":3257,"policy":3258,"medical":3259,"earl":3260,"connection":3261,"available":3262,"payment":3263,"sports":3264,"preparation":3265,"faith":3266,"dangerous":3267,"formerly":3268,"English":3269,"intellect":3270,"satisf":3271,"occurrence":3272,"Earth":3273,"born":3274,"fan":3275,"hour":3276,"lives":3277,"ox":3278,"##uct":3279,"##norm":3280,"##onding":3281,"##ench":3282,"##arc":3283,"##iced":3284,"##icated":3285,"##acle":3286,"##iveness":3287,"extended":3288,"unre":3289,"pron":3290,"spr":3291,"resem":3292,"attach":3293,"opponent":3294,"rob":3295,"values":3296,"providing":3297,"electrical":3298,"emph":3299,"glass":3300,"ideal":3301,"ancest":3302,"foreign":3303,"adjust":3304,"mechanical":3305,"obligation":3306,"hyd":3307,"circumstances":3308,"impression":3309,"procedure":3310,"Act":3311,"Cont":3312,"For":3313,"Happ":3314,"North":3315,"Ph":3316,"Part":3317,"So":3318,"Serving":3319,"band":3320,"bind":3321,"bold":3322,"brown":3323,"cat":3324,"dy":3325,"hidden":3326,"miss":3327,"pal":3328,"rhy":3329,"sed":3330,"##oe":3331,"##opp":3332,"##hib":3333,"##sh":3334,"##natural":3335,"##ze":3336,"##val":3337,"##atical":3338,"tool":3339,"##arse":3340,"anx":3341,"##ented":3342,"##rol":3343,"beat":3344,"story":3345,"stup":3346,"##essive":3347,"##ecip":3348,"##ussion":3349,"##osph":3350,"unst":3351,"price":3352,"Ins":3353,"Inc":3354,"Often":3355,"##izes":3356,"inte":3357,"##illed":3358,"contest":3359,"##elled":3360,"applied":3361,"##ignificant":3362,"heart":3363,"aggr":3364,"next":3365,"command":3366,"teach":3367,"##ceptible":3368,"America":3369,"pleasant":3370,"suddenly":3371,"worthless":3372,"filled":3373,"container":3374,"spiritual":3375,"fault":3376,"illegal":3377,"German":3378,"fasten":3379,"commercial":3380,"Bel":3381,"ice":3382,"joint":3383,"pair":3384,"rod":3385,"roll":3386,"were":3387,"yet":3388,"##ler":3389,"##lim":3390,"##iel":3391,"##cast":3392,"##zy":3393,"##atin":3394,"##itate":3395,"##asy":3396,"bearing":3397,"stay":3398,"##etr":3399,"##irth":3400,"release":3401,"enl":3402,"##unction":3403,"abnorm":3404,"flower":3405,"score":3406,"feet":3407,"distress":3408,"accompan":3409,"boy":3410,"slight":3411,"##onsense":3412,"cred":3413,"opening":3414,"courage":3415,"patron":3416,"request":3417,"individuals":3418,"reality":3419,"added":3420,"ordinary":3421,"continuous":3422,"principle":3423,"street":3424,"primary":3425,"honour":3426,"extension":3427,"garment":3428,"geograph":3429,"message":3430,"conscious":3431,"category":3432,"romantic":3433,"Free":3434,"Over":3435,"Sm":3436,"Wor":3437,"mixed":3438,"sight":3439,"sale":3440,"wild":3441,"##ah":3442,"##aud":3443,"##iating":3444,"##uine":3445,"##wer":3446,"##ened":3447,"##ores":3448,"total":3449,"##ster":3450,"perception":3451,"##ading":3452,"reveal":3453,"##using":3454,"##iform":3455,"pra":3456,"spoken":3457,"disag":3458,"enough":3459,"clothes":3460,"resources":3461,"accum":3462,"##lowing":3463,"plays":3464,"tele":3465,"boat":3466,"purs":3467,"##entional":3468,"capt":3469,"key":3470,"##arrass":3471,"growing":3472,"curved":3473,"suffering":3474,"exhaust":3475,"prepared":3476,"embarrass":3477,"apart":3478,"temporary":3479,"autom":3480,"enclosed":3481,"Christian":3482,"phenomenon":3483,"application":3484,"British":3485,"##draw":3486,"Under":3487,"molec":3488,"Out":3489,"Pl":3490,"ban":3491,"cou":3492,"moment":3493,"mountain":3494,"paid":3495,"rout":3496,"tight":3497,"##ault":3498,"##iqu":3499,"##ux":3500,"##alty":3501,"##ories":3502,"##omes":3503,"##ishes":3504,"##lement":3505,"##ulf":3506,"##oted":3507,"##olution":3508,"##vere":3509,"unm":3510,"track":3511,"share":3512,"manip":3513,"manifest":3514,"##ops":3515,"relation":3516,"##fulness":3517,"carbon":3518,"interc":3519,"undes":3520,"according":3521,"reprodu":3522,"purch":3523,"artistic":3524,"sexually":3525,"media":3526,"possessing":3527,"sensation":3528,"combination":3529,"drawn":3530,"indicate":3531,"inher":3532,"entertainment":3533,"technique":3534,"letters":3535,"further":3536,"damage":3537,"axis":3538,"Japanese":3539,"unknown":3540,"emphas":3541,"Gener":3542,"Produ":3543,"bul":3544,"final":3545,"gas":3546,"iron":3547,"merc":3548,"mamm":3549,"nucle":3550,"oil":3551,"saf":3552,"vow":3553,"waste":3554,"watch":3555,"##lict":3556,"##rine":3557,"##eration":3558,"##isation":3559,"bear":3560,"station":3561,"##olve":3562,"somewhat":3563,"##irect":3564,"##ady":3565,"rear":3566,"##amed":3567,"actually":3568,"##ibr":3569,"least":3570,"flesh":3571,"##prise":3572,"subs":3573,"desired":3574,"indef":3575,"objection":3576,"amb":3577,"setting":3578,"going":3579,"slightly":3580,"construction":3581,"##uitable":3582,"circular":3583,"##azy":3584,"broken":3585,"drawing":3586,"irrit":3587,"concerned":3588,"measurement":3589,"determined":3590,"Usually":3591,"sentence":3592,"surrounding":3593,"dishon":3594,"trouble":3595,"convey":3596,"figuratively":3597,"town":3598,"weapon":3599,"ingredient":3600,"ethnic":3601,"Covered":3602,"Es":3603,"fly":3604,"pan":3605,"pig":3606,"ring":3607,"tone":3608,"tub":3609,"##ny":3610,"##ground":3611,"##ket":3612,"##anish":3613,"inn":3614,"##ula":3615,"##ector":3616,"training":3617,"search":3618,"Intern":3619,"components":3620,"##active":3621,"##agement":3622,"impul":3623,"strike":3624,"coat":3625,"##angement":3626,"science":3627,"overw":3628,"institution":3629,"remain":3630,"becoming":3631,"appears":3632,"restrain":3633,"contrad":3634,"##worthy":3635,"indicating":3636,"absolute":3637,"##ipping":3638,"trees":3639,"##regular":3640,"critical":3641,"holding":3642,"details":3643,"virt":3644,"inhabitant":3645,"photograph":3646,"target":3647,"disgust":3648,"Acc":3649,"High":3650,"Money":3651,"hat":3652,"ju":3653,"mention":3654,"rise":3655,"##yr":3656,"##orate":3657,"##arian":3658,"ans":3659,"##isl":3660,"conform":3661,"withdraw":3662,"##imum":3663,"sus":3664,"##uting":3665,"##iration":3666,"fresh":3667,"units":3668,"spring":3669,"compass":3670,"outward":3671,"timber":3672,"##ney":3673,"desc":3674,"drag":3675,"grade":3676,"few":3677,"##place":3678,"simple":3679,"##parent":3680,"artific":3681,"legisl":3682,"model":3683,"familiar":3684,"kept":3685,"controll":3686,"##obile":3687,"arrangement":3688,"equival":3689,"developed":3690,"raise":3691,"expressed":3692,"ready":3693,"needed":3694,"primarily":3695,"homosexual":3696,"audience":3697,"error":3698,"synt":3699,"contrasted":3700,"square":3701,"exceptional":3702,"picture":3703,"platform":3704,"financial":3705,"earlier":3706,"Happening":3707,"indefinite":3708,"Great":3709,"Opp":3710,"birth":3711,"cow":3712,"farm":3713,"hide":3714,"hind":3715,"lat":3716,"might":3717,"oce":3718,"ven":3719,"willing":3720,"##ien":3721,"##sation":3722,"##atically":3723,"##estern":3724,"##edy":3725,"##orrow":3726,"##aries":3727,"##icate":3728,"##ece":3729,"##acious":3730,"thr":3731,"whom":3732,"##stream":3733,"forces":3734,"##ime":3735,"pros":3736,"##ests":3737,"##ifier":3738,"une":3739,"tra":3740,"shot":3741,"##ands":3742,"##rust":3743,"strict":3744,"lik":3745,"players":3746,"remote":3747,"report":3748,"##apping":3749,"performing":3750,"greatly":3751,"handle":3752,"affection":3753,"possibly":3754,"##ertion":3755,"Str":3756,"laws":3757,"hero":3758,"uncon":3759,"clearly":3760,"angle":3761,"angry":3762,"absor":3763,"Used":3764,"improv":3765,"deceive":3766,"##lexible":3767,"benefit":3768,"scientific":3769,"incorrect":3770,"horizont":3771,"intercourse":3772,"Done":3773,"Mark":3774,"Rem":3775,"amp":3776,"dull":3777,"egg":3778,"fro":3779,"fair":3780,"games":3781,"hes":3782,"hun":3783,"pale":3784,"ren":3785,"sort":3786,"sau":3787,"tum":3788,"##lies":3789,"##mn":3790,"##cy":3791,"##ero":3792,"##edom":3793,"##ecess":3794,"##acing":3795,"##ulating":3796,"stem":3797,"##osis":3798,"##osure":3799,"Inf":3800,"adop":3801,"flight":3802,"##ogen":3803,"cool":3804,"drive":3805,"graph":3806,"roof":3807,"supposed":3808,"humans":3809,"occur":3810,"passion":3811,"basket":3812,"confused":3813,"directions":3814,"signal":3815,"patient":3816,"facts":3817,"happening":3818,"student":3819,"pleasing":3820,"irregular":3821,"silk":3822,"traditionally":3823,"facial":3824,"Showing":3825,"layer":3826,"decorative":3827,"regularly":3828,"verbal":3829,"myth":3830,"corresponding":3831,"##force":3832,"tendency":3833,"extraord":3834,"join":3835,"odd":3836,"declare":3837,"##allel":3838,"Form":3839,"Pre":3840,"big":3841,"border":3842,"camp":3843,"cases":3844,"ly":3845,"nerv":3846,"tending":3847,"##back":3848,"##oil":3849,"##tent":3850,"##sc":3851,"##onic":3852,"##ales":3853,"##iter":3854,"still":3855,"##oting":3856,"##umn":3857,"choice":3858,"union":3859,"trib":3860,"##ovel":3861,"resid":3862,"resear":3863,"desirable":3864,"##rows":3865,"board":3866,"butt":3867,"ends":3868,"##anced":3869,"musc":3870,"reduc":3871,"match":3872,"significant":3873,"parallel":3874,"estate":3875,"approxim":3876,"##aneous":3877,"received":3878,"careful":3879,"depart":3880,"population":3881,"directly":3882,"stream":3883,"eyes":3884,"cryst":3885,"widely":3886,"##where":3887,"investig":3888,"deliberately":3889,"responsibility":3890,"furnish":3891,"issue":3892,"criticism":3893,"exercise":3894,"casual":3895,"Specific":3896,"overwhel":3897,"Ag":3898,"Gr":3899,"Latin":3900,"Sex":3901,"South":3902,"dil":3903,"date":3904,"dign":3905,"mill":3906,"river":3907,"warm":3908,"##light":3909,"##orter":3910,"##rees":3911,"##enty":3912,"##entially":3913,"##thm":3914,"##ivated":3915,"beverage":3916,"##emic":3917,"prote":3918,"##allow":3919,"##unc":3920,"component":3921,"##oving":3922,"intent":3923,"adorn":3924,"outcome":3925,"brain":3926,"interp":3927,"grand":3928,"instruct":3929,"##arely":3930,"box":3931,"transl":3932,"web":3933,"puzz":3934,"Exc":3935,"earn":3936,"informal":3937,"arranged":3938,"France":3939,"Asian":3940,"preceding":3941,"shel":3942,"leader":3943,"domin":3944,"conversation":3945,"applying":3946,"double":3947,"territ":3948,"industr":3949,"birds":3950,"Dev":3951,"logic":3952,"punishment":3953,"intellig":3954,"stupid":3955,"undesirable":3956,"Internet":3957,"Marked":3958,"20":3959,"Aff":3960,"Aust":3961,"Bl":3962,"Le":3963,"New":3964,"bab":3965,"fold":3966,"hope":3967,"lively":3968,"ped":3969,"pipe":3970,"zero":3971,"##oke":3972,"##sel":3973,"##gle":3974,"##gement":3975,"##erce":3976,"##itative":3977,"inex":3978,"theat":3979,"##omb":3980,"##omm":3981,"##isy":3982,"third":3983,"##olic":3984,"##idate":3985,"##utive":3986,"##irt":3987,"##pecified":3988,"plate":3989,"try":3990,"trail":3991,"seat":3992,"disch":3993,"##ips":3994,"##asted":3995,"lev":3996,"##anges":3997,"neither":3998,"gramm":3999,"##aws":4000,"instead":4001,"decision":4002,"substances":4003,"##phone":4004,"approach":4005,"##aneously":4006,"freely":4007,"division":4008,"holds":4009,"India":4010,"community":4011,"currency":4012,"leading":4013,"##untary":4014,"drugs":4015,"slowly":4016,"mechanism":4017,"correspond":4018,"Africa":4019,"Supp":4020,"beautiful":4021,"independent":4022,"##appropriate":4023,"answer":4024,"Em":4025,"Med":4026,"burn":4027,"jump":4028,"opt":4029,"que":4030,"rum":4031,"sell":4032,"tender":4033,"wat":4034,"wonder":4035,"##here":4036,"##ugh":4037,"##ri":4038,"##rance":4039,"##dy":4040,"##cil":4041,"##erous":4042,"##isp":4043,"##rew":4044,"##ulous":4045,"##olate":4046,"##tery":4047,"external":4048,"partially":4049,"discrim":4050,"impart":4051,"stress":4052,"##erved":4053,"cooking":4054,"brand":4055,"grasp":4056,"typical":4057,"undergo":4058,"weather":4059,"repro":4060,"reputation":4061,"Unable":4062,"article":4063,"passed":4064,"breaking":4065,"eleg":4066,"mode":4067,"difference":4068,"materials":4069,"mathem":4070,"circle":4071,"excit":4072,"inclined":4073,"requiring":4074,"##retch":4075,"publication":4076,"measured":4077,"##azard":4078,"violence":4079,"Asia":4080,"worthy":4081,"judgment":4082,"employed":4083,"necessarily":4084,"broadcast":4085,"biological":4086,"saying":4087,"obscure":4088,"bodies":4089,"mistake":4090,"fundamental":4091,"threatening":4092,"escape":4093,"eaten":4094,"accordance":4095,"economic":4096,"demonstr":4097,"extraordinary":4098,"research":4099,"Specifically":4100,"Br":4101,"Comp":4102,"Emp":4103,"Ir":4104,"We":4105,"aid":4106,"fant":4107,"fix":4108,"rope":4109,"##ai":4110,"##bish":4111,"##oop":4112,"##mosph":4113,"##uge":4114,"##uish":4115,"##greg":4116,"##kward":4117,"##arn":4118,"##asing":4119,"stated":4120,"##iling":4121,"reb":4122,"unique":4123,"##ortion":4124,"compens":4125,"almost":4126,"alien":4127,"##asts":4128,"##ends":4129,"intim":4130,"formation":4131,"appeal":4132,"##athy":4133,"quar":4134,"prem":4135,"interm":4136,"##uster":4137,"deck":4138,"opport":4139,"insignificant":4140,"memory":4141,"definite":4142,"organized":4143,"discussion":4144,"affairs":4145,"languages":4146,"swim":4147,"rights":4148,"Conf":4149,"supernatural":4150,"supports":4151,"supporting":4152,"illness":4153,"limits":4154,"steal":4155,"French":4156,"referring":4157,"Att":4158,"multip":4159,"judge":4160,"##levant":4161,"deceit":4162,"depression":4163,"cells":4164,"concrete":4165,"initial":4166,"soldier":4167,"until":4168,"ceremon":4169,"ceremony":4170,"unusual":4171,"dwelling":4172,"Consisting":4173,"abstract":4174,"##ielding":4175,"praise":4176,"telephone":4177,"dishonest":4178,"equivalent":4179,"excitement":4180,"Can":4181,"Dif":4182,"Suitable":4183,"fellow":4184,"hors":4185,"kne":4186,"mild":4187,"rat":4188,"row":4189,"sick":4190,"tan":4191,"##yl":4192,"##och":4193,"##tes":4194,"##uing":4195,"##inated":4196,"##eric":4197,"orient":4198,"##orse":4199,"##orph":4200,"inappropriate":4201,"##ley":4202,"##lege":4203,"##otions":4204,"##urt":4205,"##olar":4206,"perfect":4207,"##ember":4208,"##avor":4209,"suit":4210,"frag":4211,"##uses":4212,"chall":4213,"changes":4214,"unim":4215,"uniform":4216,"tri":4217,"atmosph":4218,"spot":4219,"ens":4220,"beings":4221,"##pers":4222,"residence":4223,"appoint":4224,"##reek":4225,"coarse":4226,"decis":4227,"types":4228,"surg":4229,"served":4230,"wealth":4231,"repair":4232,"gives":4233,"throughout":4234,"discomfort":4235,"practices":4236,"vision":4237,"##cribed":4238,"situated":4239,"##incere":4240,"Beh":4241,"curve":4242,"limited":4243,"herb":4244,"texture":4245,"Ref":4246,"Indian":4247,"opposing":4248,"accepted":4249,"keeping":4250,"determine":4251,"Using":4252,"thereof":4253,"improper":4254,"failure":4255,"awkward":4256,"roughly":4257,"organisms":4258,"Design":4259,"vessels":4260,"constructed":4261,"ownership":4262,"vague":4263,"conclusion":4264,"All":4265,"God":4266,"Greek":4267,"Making":4268,"Mars":4269,"Sim":4270,"See":4271,"Tw":4272,"bacter":4273,"bond":4274,"barr":4275,"fest":4276,"gest":4277,"killing":4278,"por":4279,"pul":4280,"pure":4281,"rate":4282,"sam":4283,"ul":4284,"vulg":4285,"yellow":4286,"##miss":4287,"##uity":4288,"##rid":4289,"##cel":4290,"##inity":4291,"##ician":4292,"theme":4293,"##omach":4294,"##oul":4295,"stock":4296,"forb":4297,"ask":4298,"##aying":4299,"##version":4300,"prior":4301,"##tending":4302,"##oped":4303,"##ourage":4304,"obv":4305,"arrog":4306,"appr":4307,"##ference":4308,"sche":4309,"interrupt":4310,"grant":4311,"grass":4312,"phon":4313,"extr":4314,"transparent":4315,"##plete":4316,"acad":4317,"##ordinate":4318,"passeng":4319,"conflict":4320,"delight":4321,"deliver":4322,"affecting":4323,"cheer":4324,"creating":4325,"centre":4326,"signific":4327,"strongly":4328,"##onym":4329,"successful":4330,"fitting":4331,"domain":4332,"literature":4333,"thrown":4334,"summ":4335,"hole":4336,"Prov":4337,"moon":4338,"moist":4339,"participate":4340,"printed":4341,"England":4342,"accurate":4343,"administ":4344,"doctrine":4345,"powder":4346,"Excessive":4347,"sympt":4348,"architecture":4349,"integr":4350,"discharge":4351,"opportun":4352,"vulgar":4353,"Fl":4354,"Mid":4355,"Most":4356,"duration":4357,"hear":4358,"lic":4359,"lost":4360,"map":4361,"rect":4362,"rain":4363,"tall":4364,"vital":4365,"wet":4366,"wish":4367,"wife":4368,"##iot":4369,"##ror":4370,"##rary":4371,"##erk":4372,"##itating":4373,"##icious":4374,"these":4375,"##eck":4376,"##elt":4377,"##road":4378,"releas":4379,"reaction":4380,"prost":4381,"##ays":4382,"##osy":4383,"persistent":4384,"plug":4385,"##ifies":4386,"unp":4387,"shoot":4388,"##andom":4389,"disbel":4390,"##unch":4391,"##oven":4392,"##agn":4393,"intr":4394,"abrupt":4395,"##jection":4396,"impact":4397,"impossible":4398,"floor":4399,"strange":4400,"genuine":4401,"upset":4402,"consp":4403,"column":4404,"sovere":4405,"recre":4406,"peace":4407,"distant":4408,"door":4409,"processes":4410,"##hesive":4411,"week":4412,"images":4413,"performs":4414,"variable":4415,"greatest":4416,"confuse":4417,"practical":4418,"connect":4419,"divide":4420,"penalty":4421,"carefully":4422,"exists":4423,"promise":4424,"calc":4425,"snack":4426,"drinking":4427,"acceptable":4428,"turned":4429,"##ipped":4430,"unspecified":4431,"places":4432,"looking":4433,"essence":4434,"establishment":4435,"recorded":4436,"##icycle":4437,"##know":4438,"communication":4439,"taxon":4440,"additional":4441,"deliberate":4442,"##sequent":4443,"inspiring":4444,"fictional":4445,"thinking":4446,"exhibiting":4447,"African":4448,"micro":4449,"abundance":4450,"thoroughly":4451,"Jewish":4452,"rhythm":4453,"artificial":4454,"sovereign":4455,"Bet":4456,"He":4457,"Sub":4458,"Taking":4459,"cit":4460,"cel":4461,"cott":4462,"ecc":4463,"fle":4464,"jour":4465,"ol":4466,"rol":4467,"sect":4468,"tal":4469,"tang":4470,"tense":4471,"wing":4472,"wicked":4473,"##be":4474,"##ls":4475,"##lect":4476,"##uber":4477,"##wed":4478,"##NA":4479,"##itual":4480,"star":4481,"##otyp":4482,"##ctions":4483,"##eting":4484,"proport":4485,"coming":4486,"chrom":4487,"unn":4488,"##ighb":4489,"##tened":4490,"Int":4491,"##unning":4492,"adul":4493,"adher":4494,"##onging":4495,"contents":4496,"##ounding":4497,"flour":4498,"agric":4499,"neighb":4500,"characterised":4501,"grat":4502,"blind":4503,"soil":4504,"##ictory":4505,"elab":4506,"election":4507,"objective":4508,"insert":4509,"goals":4510,"effem":4511,"ending":4512,"offensive":4513,"acknow":4514,"root":4515,"##ocks":4516,"secure":4517,"##lessly":4518,"affect":4519,"cream":4520,"visit":4521,"excell":4522,"downward":4523,"operating":4524,"operations":4525,"protect":4526,"receives":4527,"regarding":4528,"separation":4529,"profit":4530,"badly":4531,"armed":4532,"explo":4533,"facult":4534,"secondary":4535,"domest":4536,"contains":4537,"technical":4538,"failing":4539,"habitually":4540,"transportation":4541,"cards":4542,"execute":4543,"privile":4544,"intentionally":4545,"fingers":4546,"psychological":4547,"ornament":4548,"history":4549,"shoulders":4550,"internal":4551,"permanent":4552,"clouds":4553,"gentle":4554,"anxiety":4555,"abnormal":4556,"ingredients":4557,"impulse":4558,"compassion":4559,"agricult":4560,"16":4561,"Cent":4562,"Fol":4563,"Ital":4564,"Mus":4565,"Op":4566,"Tru":4567,"award":4568,"bent":4569,"bud":4570,"bank":4571,"bicycle":4572,"cup":4573,"fer":4574,"file":4575,"gall":4576,"hal":4577,"late":4578,"link":4579,"mood":4580,"mix":4581,"max":4582,"site":4583,"tell":4584,"tired":4585,"##eterm":4586,"##night":4587,"##ram":4588,"##ront":4589,"##dom":4590,"##atives":4591,"##iture":4592,"##oration":4593,"##organ":4594,"theor":4595,"thro":4596,"thir":4597,"##asons":4598,"##elve":4599,"stretch":4600,"##ades":4601,"plastic":4602,"unl":4603,"unr":4604,"##orting":4605,"##actions":4606,"##uded":4607,"##ficial":4608,"coast":4609,"##angular":4610,"heard":4611,"indulg":4612,"inters":4613,"grain":4614,"blue":4615,"twelve":4616,"##rowd":4617,"elim":4618,"insult":4619,"emotions":4620,"##ought":4621,"pointed":4622,"valid":4623,"bread":4624,"similarly":4625,"activities":4626,"##ressed":4627,"clever":4628,"##portant":4629,"viewed":4630,"happy":4631,"buildings":4632,"divine":4633,"destruction":4634,"Reg":4635,"instruments":4636,"calcul":4637,"flowing":4638,"snow":4639,"coloured":4640,"preced":4641,"continue":4642,"magic":4643,"##ufficient":4644,"reasoning":4645,"duties":4646,"wrongdo":4647,"walls":4648,"interval":4649,"responsible":4650,"starting":4651,"circumstance":4652,"accomplished":4653,"creature":4654,"southern":4655,"finger":4656,"uncertainty":4657,"Easily":4658,"entirely":4659,"contemptible":4660,"terrible":4661,"manufactured":4662,"comprising":4663,"intensity":4664,"wedding":4665,"dramatic":4666,"intellectual":4667,"##opping":4668,"aggressive":4669,"Belonging":4670,"legislative":4671,"levels":4672,"Ac":4673,"Poss":4674,"aware":4675,"ble":4676,"bone":4677,"bag":4678,"bell":4679,"drop":4680,"mur":4681,"mail":4682,"page":4683,"recip":4684,"welf":4685,"##ygen":4686,"##off":4687,"##lam":4688,"##iary":4689,"##rated":4690,"##itated":4691,"##itud":4692,"##rem":4693,"##acent":4694,"##ivity":4695,"##tering":4696,"##terior":4697,"permit":4698,"##imental":4699,"##etary":4700,"plain":4701,"manual":4702,"Intended":4703,"Off":4704,"compos":4705,"complic":4706,"worse":4707,"closed":4708,"##rud":4709,"arbit":4710,"manners":4711,"appet":4712,"flo":4713,"smell":4714,"college":4715,"reck":4716,"##awn":4717,"noble":4718,"accus":4719,"repet":4720,"crack":4721,"##ancing":4722,"##anches":4723,"Union":4724,"muscle":4725,"valu":4726,"artist":4727,"police":4728,"socially":4729,"located":4730,"constrain":4731,"functions":4732,"Related":4733,"Concer":4734,"##ready":4735,"contrary":4736,"trading":4737,"illicit":4738,"expert":4739,"combat":4740,"travels":4741,"heavily":4742,"skilled":4743,"concerning":4744,"excessively":4745,"harmful":4746,"##standing":4747,"listen":4748,"conven":4749,"carriage":4750,"debt":4751,"debate":4752,"married":4753,"consumption":4754,"males":4755,"acquire":4756,"intervals":4757,"choices":4758,"comparison":4759,"restricted":4760,"screen":4761,"assigned":4762,"distribution":4763,"concentration":4764,"rigid":4765,"philosophy":4766,"dimensional":4767,"remarkable":4768,"pitched":4769,"disagree":4770,"Producing":4771,"safe":4772,"Especially":4773,"horizontal":4774,"shelter":4775,"horses":4776,"cotton":4777,"excellence":4778,"faculty":4779,"welfare":4780,"100":4781,"Ob":4782,"Qu":4783,"ded":4784,"lav":4785,"nations":4786,"pick":4787,"rich":4788,"rene":4789,"rush":4790,"tap":4791,"##yle":4792,"##eper":4793,"##sed":4794,"##uel":4795,"##inter":4796,"##inet":4797,"##inous":4798,"##ato":4799,"##esome":4800,"##itious":4801,"##ittle":4802,"##ecul":4803,"##ules":4804,"##ulus":4805,"bef":4806,"stro":4807,"stars":4808,"stiff":4809,"stomach":4810,"##stood":4811,"onto":4812,"aside":4813,"##iles":4814,"reward":4815,"##umb":4816,"comes":4817,"cha":4818,"trip":4819,"traff":4820,"atoms":4821,"##andon":4822,"spect":4823,"manage":4824,"seed":4825,"seven":4826,"Incl":4827,"##quate":4828,"worm":4829,"##oves":4830,"relax":4831,"clock":4832,"##asty":4833,"##rup":4834,"resource":4835,"particles":4836,"strik":4837,"branches":4838,"scope":4839,"agency":4840,"recurring":4841,"syll":4842,"endure":4843,"defense":4844,"Expr":4845,"possess":4846,"capital":4847,"entry":4848,"constant":4849,"excellent":4850,"include":4851,"designated":4852,"parent":4853,"recept":4854,"receiving":4855,"Characterised":4856,"happiness":4857,"experienc":4858,"combine":4859,"spirits":4860,"functional":4861,"freedom":4862,"skills":4863,"solution":4864,"days":4865,"treated":4866,"contained":4867,"allows":4868,"improve":4869,"Spanish":4870,"printing":4871,"advert":4872,"observation":4873,"battle":4874,"enthusiasm":4875,"Islam":4876,"climb":4877,"believed":4878,"university":4879,"oxygen":4880,"resembles":4881,"embarrassment":4882,"ocean":4883,"Excellent":4884,"arrogant":4885,"Between":4886,"Central":4887,"traffic":4888,"17":4889,"Abs":4890,"Dr":4891,"Sk":4892,"Sec":4893,"batter":4894,"cab":4895,"dread":4896,"doll":4897,"gh":4898,"gard":4899,"hang":4900,"haph":4901,"kick":4902,"lux":4903,"master":4904,"ritual":4905,"san":4906,"sque":4907,"tact":4908,"tick":4909,"vul":4910,"##part":4911,"##king":4912,"##wing":4913,"##onious":4914,"org":4915,"##esc":4916,"##arp":4917,"##icable":4918,"antic":4919,"##elv":4920,"##ulpt":4921,"staff":4922,"stuff":4923,"##otes":4924,"##ilts":4925,"##igible":4926,"##osp":4927,"##osity":4928,"##ouses":4929,"plane":4930,"pluck":4931,"trim":4932,"trial":4933,"trying":4934,"spin":4935,"sphere":4936,"##oping":4937,"##ards":4938,"discer":4939,"disrupt":4940,"enforce":4941,"##oured":4942,"##izations":4943,"formally":4944,"formula":4945,"##assing":4946,"flavour":4947,"subsequent":4948,"strings":4949,"brill":4950,"height":4951,"sculpt":4952,"incomp":4953,"decre":4954,"extract":4955,"settle":4956,"understood":4957,"cann":4958,"##plex":4959,"behalf":4960,"loan":4961,"singing":4962,"modified":4963,"Existing":4964,"appearing":4965,"cheek":4966,"structures":4967,"published":4968,"degrees":4969,"fung":4970,"matters":4971,"signs":4972,"contrib":4973,"minute":4974,"grey":4975,"morally":4976,"mostly":4977,"vehicles":4978,"themsel":4979,"arrange":4980,"presenting":4981,"##getic":4982,"paint":4983,"##ography":4984,"##box":4985,"relationships":4986,"reading":4987,"preparing":4988,"holes":4989,"falling":4990,"questions":4991,"repeat":4992,"methods":4993,"burning":4994,"honest":4995,"winter":4996,"walking":4997,"salt":4998,"temporarily":4999,"superiority":5000,"racing":5001,"seemingly":5002,"steps":5003,"occupation":5004,"##ceedingly":5005,"bodily":5006,"alternate":5007,"Eastern":5008,"achievement":5009,"##handed":5010,"metaphorical":5011,"##rehension":5012,"adapt":5013,"learning":5014,"resistance":5015,"geographical":5016,"vowel":5017,"territory":5018,"Difficult":5019,"unimportant":5020,"obvious":5021,"appreci":5022,"academic":5023,"citiz":5024,"celest":5025,"elaborate":5026,"effeminate":5027,"wrongdoing":5028,"haphazard":5029,"themselves":5030,"Dec":5031,"Dist":5032,"Sl":5033,"aug":5034,"cous":5035,"cens":5036,"could":5037,"crowd":5038,"fulf":5039,"gang":5040,"gently":5041,"housing":5042,"liv":5043,"lot":5044,"lie":5045,"mas":5046,"mud":5047,"mother":5048,"mink":5049,"nut":5050,"north":5051,"pill":5052,"ride":5053,"rude":5054,"tro":5055,"tie":5056,"tong":5057,"tiny":5058,"woven":5059,"##bre":5060,"##band":5061,"##born":5062,"##oly":5063,"##inement":5064,"##erted":5065,"##atur":5066,"##esy":5067,"##edge":5068,"tough":5069,"##areness":5070,"inner":5071,"##ache":5072,"##stry":5073,"conj":5074,"##olent":5075,"perf":5076,"##empor":5077,"##etical":5078,"relevant":5079,"##amb":5080,"usage":5081,"##antial":5082,"unb":5083,"prone":5084,"shame":5085,"##ocated":5086,"spend":5087,"spark":5088,"notes":5089,"dislike":5090,"##ipl":5091,"always":5092,"adult":5093,"##ounter":5094,"flag":5095,"subtle":5096,"subordinate":5097,"##key":5098,"descript":5099,"##athers":5100,"driving":5101,"driven":5102,"##bled":5103,"recent":5104,"recently":5105,"recording":5106,"##eping":5107,"devices":5108,"assume":5109,"ways":5110,"directed":5111,"simult":5112,"##rought":5113,"defin":5114,"corpor":5115,"movie":5116,"passing":5117,"bub":5118,"systems":5119,"cheese":5120,"creation":5121,"writer":5122,"shows":5123,"keen":5124,"engaging":5125,"news":5126,"estimate":5127,"examination":5128,"mainly":5129,"mineral":5130,"illum":5131,"movements":5132,"monetary":5133,"indication":5134,"misle":5135,"explos":5136,"heavens":5137,"finish":5138,"expressing":5139,"employee":5140,"tasks":5141,"dimin":5142,"industry":5143,"holy":5144,"warning":5145,"committed":5146,"barrel":5147,"beneath":5148,"friendly":5149,"adjacent":5150,"extending":5151,"communicate":5152,"Describ":5153,"temperature":5154,"digital":5155,"##aught":5156,"imagination":5157,"suspended":5158,"unwanted":5159,"wheeled":5160,"gathering":5161,"waist":5162,"electricity":5163,"despite":5164,"assem":5165,"breathing":5166,"imperfect":5167,"impressive":5168,"Small":5169,"mentioned":5170,"sauce":5171,"puzzle":5172,"delivered":5173,"significance":5174,"Middle":5175,"unnecess":5176,"celestial":5177,"10":5178,"15":5179,"Av":5180,"Che":5181,"Cor":5182,"Fre":5183,"No":5184,"Pe":5185,"Pleas":5186,"buck":5187,"crop":5188,"eating":5189,"erect":5190,"flexible":5191,"gem":5192,"hanging":5193,"hosp":5194,"lingu":5195,"mort":5196,"named":5197,"pad":5198,"random":5199,"sen":5200,"south":5201,"sarc":5202,"tip":5203,"turb":5204,"tension":5205,"turning":5206,"void":5207,"vote":5208,"wel":5209,"wid":5210,"wave":5211,"washing":5212,"##mun":5213,"##mmet":5214,"##eem":5215,"##iers":5216,"##iency":5217,"##ubl":5218,"##got":5219,"##water":5220,"##att":5221,"##esents":5222,"##itted":5223,"tot":5224,"input":5225,"##iches":5226,"##acco":5227,"##omet":5228,"##ulates":5229,"beam":5230,"whol":5231,"whim":5232,"stab":5233,"stamp":5234,"##stent":5235,"forc":5236,"##urable":5237,"##urance":5238,"##ils":5239,"##iments":5240,"sust":5241,"##usively":5242,"perspective":5243,"partial":5244,"parties":5245,"##apt":5246,"prison":5247,"shru":5248,"##occ":5249,"##opes":5250,"sev":5251,"disapp":5252,"club":5253,"##astical":5254,"leaf":5255,"arising":5256,"admit":5257,"particle":5258,"cook":5259,"scene":5260,"scoop":5261,"indirect":5262,"interaction":5263,"grind":5264,"granted":5265,"blade":5266,"##weight":5267,"install":5268,"surprise":5269,"undert":5270,"servant":5271,"generate":5272,"offence":5273,"defensive":5274,"corner":5275,"organisation":5276,"whereby":5277,"breeding":5278,"discourse":5279,"restaur":5280,"glo":5281,"represents":5282,"parame":5283,"##undant":5284,"engaged":5285,"##resh":5286,"contrived":5287,"##aze":5288,"shared":5289,"uncult":5290,"cultural":5291,"studies":5292,"month":5293,"violently":5294,"presentation":5295,"runs":5296,"army":5297,"succession":5298,"silly":5299,"silver":5300,"painting":5301,"included":5302,"identify":5303,"suffer":5304,"allowing":5305,"encounter":5306,"opinions":5307,"Common":5308,"induce":5309,"summon":5310,"teams":5311,"embell":5312,"##attered":5313,"audio":5314,"myst":5315,"contexts":5316,"poorly":5317,"choose":5318,"reduction":5319,"suspic":5320,"analog":5321,"ornamental":5322,"repeatedly":5323,"histor":5324,"annoyance":5325,"administer":5326,"enjoyment":5327,"satisfy":5328,"attachment":5329,"hydro":5330,"accompanied":5331,"Overly":5332,"nuclear":5333,"susceptible":5334,"eggs":5335,"basketball":5336,"muscles":5337,"##unciation":5338,"interpret":5339,"instructions":5340,"Austral":5341,"baby":5342,"proportion":5343,"appetite":5344,"ghost":5345,"squee":5346,"People":5347,"Am":5348,"Gre":5349,"Rec":5350,"Sun":5351,"bend":5352,"ca":5353,"cam":5354,"cart":5355,"din":5356,"fec":5357,"gold":5358,"ha":5359,"jack":5360,"liber":5361,"lift":5362,"laugh":5363,"nonsense":5364,"novel":5365,"pomp":5366,"shed":5367,"vector":5368,"wav":5369,"##bacco":5370,"##lind":5371,"##tled":5372,"##face":5373,"##gl":5374,"##gent":5375,"##inally":5376,"##atious":5377,"##ituting":5378,"##anqu":5379,"##entally":5380,"##eling":5381,"##ivation":5382,"beer":5383,"strug":5384,"stilts":5385,"confer":5386,"exceed":5387,"exagger":5388,"##ads":5389,"prol":5390,"fraud":5391,"##umber":5392,"##osa":5393,"##ousers":5394,"persu":5395,"##ested":5396,"shade":5397,"notably":5398,"##arded":5399,"##iph":5400,"already":5401,"worship":5402,"click":5403,"clause":5404,"arous":5405,"##uding":5406,"##ounced":5407,"flame":5408,"##ogical":5409,"coff":5410,"##athing":5411,"brid":5412,"Somewhat":5413,"overt":5414,"characters":5415,"grace":5416,"gravity":5417,"recon":5418,"incons":5419,"noisy":5420,"fee":5421,"decay":5422,"regions":5423,"useful":5424,"insect":5425,"transform":5426,"##ysical":5427,"slip":5428,"##ocket":5429,"craft":5430,"behaving":5431,"##inking":5432,"##rics":5433,"organic":5434,"legally":5435,"substitute":5436,"check":5437,"complement":5438,"creative":5439,"entrance":5440,"sword":5441,"newsp":5442,"operate":5443,"wrist":5444,"mainstream":5445,"built":5446,"views":5447,"separated":5448,"steep":5449,"destination":5450,"penetr":5451,"Ass":5452,"thoughts":5453,"##ushion":5454,"prominent":5455,"irre":5456,"irres":5457,"lowest":5458,"describe":5459,"officer":5460,"nearly":5461,"colored":5462,"acceptance":5463,"favor":5464,"technology":5465,"decorate":5466,"everything":5467,"awareness":5468,"rotation":5469,"logical":5470,"semi":5471,"cruel":5472,"crude":5473,"obstacle":5474,"offered":5475,"cylind":5476,"phenomena":5477,"creates":5478,"engineering":5479,"vigorous":5480,"beauty":5481,"hostile":5482,"powers":5483,"permanently":5484,"immediately":5485,"sacred":5486,"elevated":5487,"precisely":5488,"unreason":5489,"Phil":5490,"##hibiting":5491,"unstead":5492,"flowering":5493,"World":5494,"molecule":5495,"couple":5496,"tube":5497,"approximately":5498,"overwhelming":5499,"dignity":5500,"protein":5501,"Affected":5502,"grammatical":5503,"throat":5504,"##eculiar":5505,"organs":5506,"Describing":5507,"hospital":5508,"Care":5509,"Given":5510,"Haw":5511,"Mod":5512,"Nonsense":5513,"Russ":5514,"Sy":5515,"cavity":5516,"dro":5517,"fet":5518,"father":5519,"filling":5520,"faint":5521,"la":5522,"mount":5523,"nom":5524,"pound":5525,"peculiar":5526,"rib":5527,"sitting":5528,"tied":5529,"wound":5530,"youth":5531,"##iates":5532,"##uate":5533,"##right":5534,"##render":5535,"##enge":5536,"##itic":5537,"##arf":5538,"ink":5539,"inade":5540,"##throp":5541,"##otation":5542,"##stone":5543,"online":5544,"consequ":5545,"##uries":5546,"##oluntary":5547,"##terosexual":5548,"##aved":5549,"##owed":5550,"reject":5551,"reasons":5552,"prob":5553,"##istence":5554,"##pped":5555,"isol":5556,"##anting":5557,"defic":5558,"trif":5559,"atomic":5560,"shad":5561,"shiny":5562,"management":5563,"seeds":5564,"##quet":5565,"dispar":5566,"##allic":5567,"compan":5568,"##perienc":5569,"clar":5570,"abandon":5571,"leap":5572,"##udent":5573,"timid":5574,"cooked":5575,"brav":5576,"brick":5577,"consent":5578,"consist":5579,"overcome":5580,"interior":5581,"phase":5582,"sof":5583,"eval":5584,"feed":5585,"accident":5586,"##ructive":5587,"surrender":5588,"##isms":5589,"efficient":5590,"genera":5591,"generation":5592,"membr":5593,"Church":5594,"##apped":5595,"knife":5596,"moved":5597,"confine":5598,"discuss":5599,"surfaces":5600,"Beyond":5601,"shares":5602,"represented":5603,"##ieval":5604,"association":5605,"##mbly":5606,"##roduct":5607,"exposed":5608,"explicit":5609,"charged":5610,"##ammation":5611,"bringing":5612,"shell":5613,"window":5614,"##thodox":5615,"judgement":5616,"##regn":5617,"employment":5618,"determination":5619,"books":5620,"easy":5621,"conventional":5622,"rounded":5623,"frequency":5624,"Prot":5625,"removing":5626,"removal":5627,"exclusive":5628,"medicinal":5629,"errors":5630,"crust":5631,"boundary":5632,"##culine":5633,"apparent":5634,"vigor":5635,"figurative":5636,"restrictions":5637,"preference":5638,"shrill":5639,"sixty":5640,"adapted":5641,"twisted":5642,"assistance":5643,"Acting":5644,"binding":5645,"patronizing":5646,"consciousness":5647,"mammals":5648,"controlled":5649,"nervous":5650,"reduced":5651,"industrial":5652,"atmosphere":5653,"bacteria":5654,"older":5655,"domestic":5656,"Muslim":5657,"Open":5658,"maximum":5659,"unrest":5660,"indulgence":5661,"preceded":5662,"Possessing":5663,"anticip":5664,"##ublic":5665,"newspaper":5666,"Hawai":5667,"200":5668,"Fe":5669,"Native":5670,"Port":5671,"Red":5672,"US":5673,"Wearing":5674,"Western":5675,"bored":5676,"die":5677,"eager":5678,"fib":5679,"fert":5680,"gift":5681,"ham":5682,"hall":5683,"luck":5684,"lung":5685,"mad":5686,"ple":5687,"pins":5688,"rab":5689,"rational":5690,"selling":5691,"sorrow":5692,"vast":5693,"vault":5694,"waves":5695,"##ban":5696,"##bur":5697,"##oo":5698,"##lower":5699,"##lock":5700,"##ean":5701,"##ept":5702,"##iastical":5703,"##can":5704,"##xic":5705,"##va":5706,"##ince":5707,"##inction":5708,"##erg":5709,"##atched":5710,"##itr":5711,"token":5712,"##ana":5713,"##aches":5714,"stere":5715,"states":5716,"##otive":5717,"forced":5718,"##urd":5719,"##idy":5720,"##idental":5721,"##sem":5722,"permission":5723,"##emn":5724,"sup":5725,"##utable":5726,"##abling":5727,"proof":5728,"##chron":5729,"##istical":5730,"##vert":5731,"##estr":5732,"chat":5733,"chann":5734,"trousers":5735,"shoe":5736,"##ander":5737,"spell":5738,"client":5739,"adject":5740,"output":5741,"imped":5742,"implement":5743,"flood":5744,"smart":5745,"attacking":5746,"consistent":5747,"dried":5748,"overall":5749,"grav":5750,"twice":5751,"incon":5752,"##isticated":5753,"fever":5754,"feathers":5755,"regret":5756,"amuse":5757,"##lesiastical":5758,"insufficient":5759,"simpl":5760,"generous":5761,"infant":5762,"invent":5763,"pointing":5764,"polic":5765,"confirm":5766,"confront":5767,"##ontroll":5768,"Exhibiting":5769,"chest":5770,"marks":5771,"circuit":5772,"classes":5773,"classical":5774,"quantities":5775,"##rosc":5776,"Const":5777,"refuse":5778,"approval":5779,"examine":5780,"landsc":5781,"originating":5782,"illust":5783,"headl":5784,"sharing":5785,"uncontroll":5786,"balls":5787,"stead":5788,"planning":5789,"penet":5790,"combining":5791,"depth":5792,"president":5793,"util":5794,"officially":5795,"painful":5796,"increasing":5797,"finite":5798,"##ophisticated":5799,"pressed":5800,"favorable":5801,"sporting":5802,"successfully":5803,"keeps":5804,"scholar":5805,"review":5806,"predomin":5807,"layers":5808,"establish":5809,"labour":5810,"rotate":5811,"counters":5812,"distinguish":5813,"burden":5814,"documents":5815,"##going":5816,"obstruction":5817,"boundaries":5818,"acquired":5819,"Appro":5820,"Close":5821,"trained":5822,"favourable":5823,"compounds":5824,"criticize":5825,"disorderly":5826,"Orig":5827,"accuracy":5828,"aspects":5829,"unusually":5830,"comfortable":5831,"advocate":5832,"abundant":5833,"gradual":5834,"elevation":5835,"education":5836,"objectionable":5837,"descend":5838,"adopt":5839,"discrimination":5840,"elegant":5841,"compensation":5842,"Similar":5843,"released":5844,"ecclesiastical":5845,"privilege":5846,"theoretical":5847,"accusation":5848,"disagreeable":5849,"striking":5850,"garden":5851,"sculpture":5852,"masculine":5853,"restaurant":5854,"struggle":5855,"Bo":5856,"Eff":5857,"Mar":5858,"Moving":5859,"Rh":5860,"Sat":5861,"Self":5862,"West":5863,"Wide":5864,"apt":5865,"awe":5866,"dial":5867,"fif":5868,"gut":5869,"goss":5870,"jerk":5871,"lov":5872,"lock":5873,"laid":5874,"nav":5875,"om":5876,"option":5877,"rural":5878,"trop":5879,"##oes":5880,"##ius":5881,"##uis":5882,"##uum":5883,"##uits":5884,"##riend":5885,"##dish":5886,"##jud":5887,"##zo":5888,"##onal":5889,"##inging":5890,"##ata":5891,"##ators":5892,"##aling":5893,"##escent":5894,"##orr":5895,"##orient":5896,"tobacco":5897,"##icular":5898,"##entric":5899,"##asc":5900,"##ulent":5901,"##ulsion":5902,"stir":5903,"stable":5904,"storm":5905,"##idious":5906,"perp":5907,"suc":5908,"##ecious":5909,"rein":5910,"reaching":5911,"Ang":5912,"##usc":5913,"##aker":5914,"##osit":5915,"##verse":5916,"degr":5917,"##esting":5918,"chain":5919,"changed":5920,"changing":5921,"##aped":5922,"precious":5923,"shor":5924,"shore":5925,"##ocolate":5926,"##anded":5927,"spont":5928,"spher":5929,"##orted":5930,"##ibilities":5931,"notion":5932,"Inst":5933,"disorient":5934,"enh":5935,"alt":5936,"alone":5937,"reluct":5938,"##tched":5939,"append":5940,"##pring":5941,"subc":5942,"smear":5943,"upward":5944,"consists":5945,"##ections":5946,"overl":5947,"##ype":5948,"neu":5949,"carn":5950,"commerce":5951,"pepper":5952,"register":5953,"devil":5954,"devotion":5955,"ende":5956,"generic":5957,"slide":5958,"slope":5959,"##ucent":5960,"provided":5961,"confusion":5962,"discont":5963,"##olved":5964,"lightweight":5965,"modest":5966,"deliv":5967,"crew":5968,"folk":5969,"considerable":5970,"advanced":5971,"locom":5972,"swift":5973,"##cribe":5974,"excre":5975,"parents":5976,"##under":5977,"superv":5978,"newly":5979,"follows":5980,"landing":5981,"minimal":5982,"grows":5983,"brother":5984,"horror":5985,"steam":5986,"spirited":5987,"Requ":5988,"depending":5989,"respected":5990,"emotionally":5991,"negot":5992,"hardware":5993,"misch":5994,"##iox":5995,"increased":5996,"includes":5997,"identification":5998,"propag":5999,"angles":6000,"196":6001,"absence":6002,"trem":6003,"determining":6004,"revolution":6005,"household":6006,"hollow":6007,"symbols":6008,"slee":6009,"sentimental":6010,"statements":6011,"attempts":6012,"deprive":6013,"friends":6014,"speaker":6015,"customary":6016,"Prec":6017,"replace":6018,"##blesome":6019,"accomplishment":6020,"advers":6021,"stimulation":6022,"split":6023,"attribute":6024,"selected":6025,"dogs":6026,"assembly":6027,"doctor":6028,"enthusiastic":6029,"gradually":6030,"assumed":6031,"firmly":6032,"sprink":6033,"Incapable":6034,"capture":6035,"automobile":6036,"ambig":6037,"innoc":6038,"improvement":6039,"hunting":6040,"buttocks":6041,"dominant":6042,"ratio":6043,"Designed":6044,"ultim":6045,"administr":6046,"recreational":6047,"journey":6048,"acknowled":6049,"##itudes":6050,"Offensive":6051,"complicated":6052,"chaotic":6053,"Skill":6054,"augment":6055,"simultaneously":6056,"sarcastic":6057,"seventy":6058,"suspicion":6059,"consequences":6060,"gossip":6061,"Cal":6062,"Dut":6063,"Im":6064,"Pol":6065,"bes":6066,"brought":6067,"cunning":6068,"diox":6069,"ec":6070,"ease":6071,"era":6072,"gam":6073,"hack":6074,"kiss":6075,"les":6076,"lip":6077,"lake":6078,"lord":6079,"mentally":6080,"nerve":6081,"oath":6082,"sit":6083,"session":6084,"ted":6085,"tort":6086,"tun":6087,"tire":6088,"upr":6089,"vic":6090,"wire":6091,"wides":6092,"wearing":6093,"zeal":6094,"##ait":6095,"##aign":6096,"##iat":6097,"##iom":6098,"##ias":6099,"##iences":6100,"##uk":6101,"##pass":6102,"##pread":6103,"##rum":6104,"##kin":6105,"##ving":6106,"##ingdom":6107,"orc":6108,"##held":6109,"##enn":6110,"inactive":6111,"anne":6112,"thrust":6113,"##ivision":6114,"forest":6115,"forty":6116,"ascertain":6117,"##urious":6118,"##urities":6119,"##igen":6120,"##terous":6121,"perplex":6122,"##emon":6123,"##imil":6124,"##ety":6125,"##ainted":6126,"##utal":6127,"proc":6128,"proceeding":6129,"frighten":6130,"##umbling":6131,"##ifice":6132,"tranqu":6133,"shake":6134,"##anding":6135,"##opl":6136,"segment":6137,"enabling":6138,"compart":6139,"alg":6140,"cler":6141,"reserv":6142,"arc":6143,"adhesive":6144,"outd":6145,"heed":6146,"liable":6147,"poem":6148,"phone":6149,"qualified":6150,"district":6151,"##arks":6152,"devoted":6153,"amate":6154,"sets":6155,"underlying":6156,"remaining":6157,"##hesis":6158,"##enced":6159,"roots":6160,"crazy":6161,"positions":6162,"background":6163,"variation":6164,"arts":6165,"##ractive":6166,"powered":6167,"moves":6168,"buff":6169,"medieval":6170,"discon":6171,"Exception":6172,"cheap":6173,"completed":6174,"effectiveness":6175,"constitute":6176,"##time":6177,"excite":6178,"exciting":6179,"situations":6180,"esteem":6181,"measuring":6182,"interests":6183,"interested":6184,"involves":6185,"separating":6186,"morning":6187,"students":6188,"associate":6189,"planned":6190,"indicated":6191,"presum":6192,"preserve":6193,"described":6194,"Indo":6195,"founded":6196,"facing":6197,"##book":6198,"meaningless":6199,"collective":6200,"arguments":6201,"thereby":6202,"announce":6203,"literal":6204,"football":6205,"carries":6206,"decoration":6207,"rotating":6208,"furt":6209,"damaged":6210,"Disc":6211,"executed":6212,"winning":6213,"talking":6214,"obstruct":6215,"inspiration":6216,"imaginary":6217,"furniture":6218,"bowl":6219,"cycle":6220,"sleeping":6221,"soul":6222,"attributes":6223,"achieved":6224,"pictures":6225,"selection":6226,"counterpart":6227,"##load":6228,"##look":6229,"distribute":6230,"noticeable":6231,"wearer":6232,"requirement":6233,"sacr":6234,"candidate":6235,"railway":6236,"##ocratic":6237,"solely":6238,"##rological":6239,"routine":6240,"##iques":6241,"manipulate":6242,"hatred":6243,"Infl":6244,"campaign":6245,"earnest":6246,"Supporting":6247,"Emotion":6248,"intermediate":6249,"gesture":6250,"scheme":6251,"opportunity":6252,"vitality":6253,"chromos":6254,"Italian":6255,"convenient":6256,"tongue":6257,"##emporary":6258,"linguistic":6259,"cylindrical":6260,"Philipp":6261,"locomotive":6262,"widespread":6263,"Based":6264,"Car":6265,"Cath":6266,"Ev":6267,"Ire":6268,"My":6269,"bot":6270,"dream":6271,"felt":6272,"gau":6273,"hus":6274,"horm":6275,"hill":6276,"hund":6277,"jur":6278,"lin":6279,"lust":6280,"mere":6281,"mature":6282,"names":6283,"pin":6284,"raw":6285,"rug":6286,"rarely":6287,"riches":6288,"tightly":6289,"wishes":6290,"##ook":6291,"##med":6292,"##iest":6293,"##spring":6294,"##coming":6295,"##ky":6296,"##vitable":6297,"##ventional":6298,"##inth":6299,"##erver":6300,"##erting":6301,"##hend":6302,"##aled":6303,"##itches":6304,"##orant":6305,"inqu":6306,"##icing":6307,"##icial":6308,"##icuous":6309,"##rehend":6310,"##enting":6311,"##enture":6312,"##acc":6313,"##acles":6314,"##eli":6315,"stored":6316,"##othet":6317,"##eman":6318,"##imen":6319,"##ette":6320,"##ategy":6321,"##utions":6322,"exit":6323,"propr":6324,"proceed":6325,"##amber":6326,"##ode":6327,"Anc":6328,"useless":6329,"deed":6330,"plans":6331,"##estation":6332,"##ifting":6333,"charm":6334,"unse":6335,"truck":6336,"shown":6337,"shield":6338,"spec":6339,"spots":6340,"spaces":6341,"disreg":6342,"clum":6343,"clos":6344,"leaving":6345,"outline":6346,"flavor":6347,"##ferring":6348,"strateg":6349,"strategy":6350,"##neath":6351,"deserving":6352,"##forming":6353,"brightly":6354,"ago":6355,"drum":6356,"overly":6357,"poison":6358,"recomm":6359,"evening":6360,"##icted":6361,"##okes":6362,"##ructure":6363,"smallest":6364,"extrem":6365,"surre":6366,"assess":6367,"underhanded":6368,"underneath":6369,"remedy":6370,"butter":6371,"becomes":6372,"dirty":6373,"suppose":6374,"supporter":6375,"inval":6376,"Unf":6377,"humil":6378,"corn":6379,"ordered":6380,"properly":6381,"buy":6382,"bund":6383,"build":6384,"handles":6385,"moderate":6386,"vex":6387,"possibility":6388,"follower":6389,"centuries":6390,"effective":6391,"constitu":6392,"controver":6393,"signature":6394,"operates":6395,"subjects":6396,"grown":6397,"programm":6398,"limb":6399,"guide":6400,"guilt":6401,"observer":6402,"stew":6403,"Ready":6404,"flowers":6405,"silvery":6406,"orders":6407,"diseases":6408,"enterprise":6409,"finished":6410,"sheep":6411,"propose":6412,"proposition":6413,"dispute":6414,"magaz":6415,"symbolic":6416,"everyday":6417,"posture":6418,"distinguishing":6419,"deny":6420,"deeply":6421,"belongs":6422,"burst":6423,"anti":6424,"morality":6425,"displayed":6426,"execution":6427,"surrounded":6428,"investment":6429,"personality":6430,"consuming":6431,"margin":6432,"diag":6433,"loudly":6434,"##related":6435,"offering":6436,"troublesome":6437,"featuring":6438,"issued":6439,"funds":6440,"##putable":6441,"metaphorically":6442,"manufacture":6443,"inevitable":6444,"philosophical":6445,"witness":6446,"independ":6447,"transmitted":6448,"Excessively":6449,"ridic":6450,"vegetation":6451,"noteworthy":6452,"dye":6453,"teachings":6454,"pursuit":6455,"route":6456,"emphasis":6457,"Generally":6458,"Highly":6459,"synthetic":6460,"Opposed":6461,"Remaining":6462,"Sexually":6463,"translucent":6464,"intelligence":6465,"wonderful":6466,"fantasy":6467,"sample":6468,"passengers":6469,"thirty":6470,"murder":6471,"composite":6472,"valuable":6473,"lavish":6474,"renew":6475,"cannab":6476,"definition":6477,"welcome":6478,"gloomy":6479,"coffee":6480,"upright":6481,"Ireland":6482,"hundred":6483,"14":6484,"Giving":6485,"Harm":6486,"More":6487,"Material":6488,"Mex":6489,"Nor":6490,"Old":6491,"Perm":6492,"aqu":6493,"bol":6494,"bull":6495,"cav":6496,"cock":6497,"cities":6498,"cogn":6499,"dict":6500,"erupt":6501,"fict":6502,"gay":6503,"gap":6504,"hab":6505,"lose":6506,"loy":6507,"lifest":6508,"narr":6509,"pus":6510,"pause":6511,"pinc":6512,"pairs":6513,"riding":6514,"tast":6515,"tear":6516,"vary":6517,"wagon":6518,"##liness":6519,"##mia":6520,"##ees":6521,"##uation":6522,"##nal":6523,"##gly":6524,"##product":6525,"##rane":6526,"##division":6527,"##com":6528,"##kal":6529,"##writ":6530,"##ino":6531,"##edience":6532,"##itt":6533,"##itter":6534,"##ora":6535,"##ication":6536,"##omical":6537,"##isd":6538,"##requ":6539,"##reputable":6540,"##lete":6541,"##lets":6542,"##entive":6543,"therm":6544,"##rot":6545,"##rod":6546,"##ulations":6547,"stopping":6548,"##othe":6549,"##strained":6550,"withheld":6551,"##olding":6552,"##empl":6553,"##imated":6554,"##etically":6555,"except":6556,"exertion":6557,"##adv":6558,"react":6559,"##amic":6560,"##uman":6561,"##osen":6562,"plot":6563,"##ifted":6564,"chocolate":6565,"unk":6566,"unite":6567,"unint":6568,"univer":6569,"tract":6570,"shop":6571,"shine":6572,"shaft":6573,"##ocation":6574,"##tens":6575,"manus":6576,"##oples":6577,"Into":6578,"disk":6579,"##aceous":6580,"comprehen":6581,"##izz":6582,"lean":6583,"##udd":6584,"outc":6585,"outstanding":6586,"subdivision":6587,"makeup":6588,"coin":6589,"brass":6590,"scen":6591,"neut":6592,"indec":6593,"indif":6594,"peoples":6595,"workers":6596,"##cred":6597,"dirt":6598,"emit":6599,"##apper":6600,"##onsc":6601,"longing":6602,"Uns":6603,"organizations":6604,"artic":6605,"##raction":6606,"security":6607,"legit":6608,"basin":6609,"discover":6610,"singular":6611,"delic":6612,"affirm":6613,"cheat":6614,"writings":6615,"famous":6616,"advice":6617,"stands":6618,"funny":6619,"feels":6620,"glad":6621,"##orny":6622,"supported":6623,"refrain":6624,"protective":6625,"##ugg":6626,"minimum":6627,"linear":6628,"greeting":6629,"factor":6630,"femin":6631,"texts":6632,"monument":6633,"monarch":6634,"experiment":6635,"presented":6636,"respond":6637,"travelling":6638,"Referring":6639,"##lands":6640,"Sharp":6641,"energetic":6642,"leads":6643,"proposed":6644,"harmony":6645,"allowed":6646,"encourage":6647,"stretched":6648,"potentially":6649,"injure":6650,"layout":6651,"Complete":6652,"awesome":6653,"justification":6654,"dealing":6655,"exclusively":6656,"antagon":6657,"honor":6658,"perceive":6659,"distinctive":6660,"displaying":6661,"participation":6662,"participant":6663,"Spe":6664,"unfair":6665,"fashioned":6666,"correctly":6667,"returns":6668,"sweeten":6669,"sweetened":6670,"hypothet":6671,"principal":6672,"conveys":6673,"untru":6674,"adverse":6675,"destroyed":6676,"harass":6677,"reverence":6678,"complain":6679,"compliance":6680,"apparently":6681,"gathered":6682,"microsc":6683,"select":6684,"rubbing":6685,"suggestive":6686,"condemn":6687,"disturbance":6688,"terror":6689,"astron":6690,"mutual":6691,"mutually":6692,"ineff":6693,"pulling":6694,"shocking":6695,"wedge":6696,"expectations":6697,"maintained":6698,"celebrity":6699,"ancestor":6700,"missing":6701,"enlar":6702,"credit":6703,"purchased":6704,"contradictory":6705,"disgusting":6706,"traits":6707,"heroic":6708,"absorb":6709,"lyrics":6710,"##iterrane":6711,"theatre":6712,"Mediterrane":6713,"mathematical":6714,"rebu":6715,"challenge":6716,"festival":6717,"symptoms":6718,"conspicuous":6719,"agricultural":6720,"mixing":6721,"##etermined":6722,"repetition":6723,"stroke":6724,"width":6725,"Greece":6726,"pompous":6727,"irrespective":6728,"shadow":6729,"lungs":6730,"stereotyp":6731,"adjective":6732,"amusement":6733,"Requiring":6734,"innocent":6735,"jurisd":6736,"disregard":6737,"Mexic":6738,"universe":6739,"hypothetical":6740,"Mediterranean":6741,"88":6742,"Bad":6743,"Bible":6744,"Dam":6745,"DNA":6746,"El":6747,"East":6748,"Good":6749,"Man":6750,"Now":6751,"Near":6752,"Sem":6753,"Situ":6754,"Such":6755,"Ut":6756,"aer":6757,"average":6758,"bare":6759,"boring":6760,"baked":6761,"borrow":6762,"cub":6763,"diet":6764,"daugh":6765,"fo":6766,"fuck":6767,"faster":6768,"flying":6769,"foul":6770,"fuel":6771,"kit":6772,"lived":6773,"pace":6774,"pile":6775,"rare":6776,"warr":6777,"western":6778,"yarn":6779,"##ycl":6780,"##li":6781,"##then":6782,"##some":6783,"##nected":6784,"##gender":6785,"##pe":6786,"##power":6787,"##rons":6788,"##dent":6789,"##domen":6790,"##wear":6791,"##inis":6792,"orange":6793,"##ester":6794,"##orial":6795,"touc":6796,"##aria":6797,"theater":6798,"##ecided":6799,"##isure":6800,"##acement":6801,"thumb":6802,"##room":6803,"##roken":6804,"##ithm":6805,"##igar":6806,"##igated":6807,"##avorable":6808,"exert":6809,"##abase":6810,"##osaur":6811,"esp":6812,"uned":6813,"unpr":6814,"triv":6815,"trig":6816,"atom":6817,"pray":6818,"precip":6819,"##tense":6820,"##tenance":6821,"spoil":6822,"notation":6823,"seam":6824,"disadv":6825,"##alling":6826,"compel":6827,"##itioner":6828,"alc":6829,"allev":6830,"alkal":6831,"##acts":6832,"intest":6833,"abuse":6834,"abdomen":6835,"arrow":6836,"adding":6837,"##ulting":6838,"impregn":6839,"flash":6840,"##ogue":6841,"##prising":6842,"##ferent":6843,"specif":6844,"coop":6845,"##formed":6846,"heterosexual":6847,"driver":6848,"drunk":6849,"poet":6850,"##enses":6851,"##ensity":6852,"careless":6853,"carved":6854,"blank":6855,"incapable":6856,"feud":6857,"##ails":6858,"distinction":6859,"instant":6860,"instruction":6861,"decade":6862,"deviation":6863,"amusing":6864,"worker":6865,"assert":6866,"assimil":6867,"underground":6868,"insane":6869,"transition":6870,"transaction":6871,"##ysis":6872,"endear":6873,"##orders":6874,"##urrent":6875,"Unw":6876,"humorous":6877,"corp":6878,"membership":6879,"movable":6880,"breasts":6881,"##engthen":6882,"polite":6883,"discret":6884,"modify":6885,"Exact":6886,"vein":6887,"affects":6888,"##orship":6889,"redundant":6890,"reddish":6891,"restore":6892,"entities":6893,"##arried":6894,"maturity":6895,"styles":6896,"excuse":6897,"inclination":6898,"inflammation":6899,"elementary":6900,"publicly":6901,"engages":6902,"protest":6903,"busy":6904,"sensitive":6905,"seriously":6906,"regardless":6907,"detected":6908,"separately":6909,"cultures":6910,"happens":6911,"divert":6912,"destructive":6913,"verse":6914,"promote":6915,"misfort":6916,"flows":6917,"inhib":6918,"immoral":6919,"nearby":6920,"faces":6921,"sheet":6922,"identical":6923,"database":6924,"193":6925,"magical":6926,"derive":6927,"lacks":6928,"##ollen":6929,"ruling":6930,"listening":6931,"holder":6932,"volcan":6933,"##umps":6934,"frequent":6935,"fishing":6936,"crypt":6937,"compete":6938,"hook":6939,"records":6940,"secretly":6941,"consumed":6942,"geomet":6943,"messages":6944,"synchron":6945,"replaced":6946,"conscience":6947,"intentional":6948,"Impossible":6949,"accomplish":6950,"obscene":6951,"merry":6952,"happened":6953,"petty":6954,"exhibit":6955,"package":6956,"compared":6957,"concealed":6958,"exactly":6959,"observed":6960,"rubber":6961,"introduce":6962,"screw":6963,"fighting":6964,"northern":6965,"bestow":6966,"saddle":6967,"advocates":6968,"unexpectedly":6969,"##omfortable":6970,"vacuum":6971,"solemn":6972,"teacher":6973,"revealing":6974,"indefinitely":6975,"coward":6976,"strictly":6977,"renounce":6978,"Former":6979,"crystals":6980,"correspondence":6981,"Irish":6982,"intimid":6983,"Canad":6984,"orientation":6985,"winged":6986,"Following":6987,"Inclined":6988,"luxury":6989,"brilliant":6990,"appreciation":6991,"##aturally":6992,"conjunction":6993,"misleading":6994,"Cheer":6995,"wholly":6996,"grinding":6997,"Australian":6998,"feces":6999,"aroused":7000,"Portug":7001,"supreme":7002,"policies":7003,"landscape":7004,"##uisine":7005,"adversity":7006,"administrative":7007,"annex":7008,"Catholic":7009,"husband":7010,"Ancient":7011,"magazine":7012,"misfortune":7013,"50":7014,"Bas":7015,"Back":7016,"Dep":7017,"Lack":7018,"Lasting":7019,"Large":7020,"Located":7021,"Par":7022,"Pres":7023,"Rep":7024,"Up":7025,"War":7026,"Worth":7027,"ath":7028,"ahead":7029,"aversion":7030,"binary":7031,"bully":7032,"bomb":7033,"cro":7034,"cake":7035,"core":7036,"cere":7037,"cute":7038,"crown":7039,"cushion":7040,"cigar":7041,"dart":7042,"fond":7043,"gear":7044,"hur":7045,"hate":7046,"hell":7047,"hearing":7048,"hurt":7049,"lap":7050,"lamp":7051,"mobile":7052,"masted":7053,"nit":7054,"ov":7055,"ostent":7056,"tur":7057,"vib":7058,"vill":7059,"vice":7060,"vibr":7061,"##oing":7062,"##fe":7063,"##fall":7064,"##nes":7065,"##nox":7066,"##riction":7067,"##wood":7068,"##99":7069,"##inem":7070,"##inence":7071,"##era":7072,"##erb":7073,"oral":7074,"orbit":7075,"##atible":7076,"##heart":7077,"##alism":7078,"##itant":7079,"##itutes":7080,"##oric":7081,"##anse":7082,"##omatic":7083,"##eches":7084,"##reed":7085,"##cemia":7086,"stain":7087,"stalk":7088,"##urches":7089,"##iled":7090,"##olf":7091,"somewhere":7092,"##avag":7093,"##etus":7094,"##abet":7095,"prove":7096,"##amation":7097,"##odic":7098,"##osh":7099,"##verted":7100,"chap":7101,"##ighter":7102,"attain":7103,"shut":7104,"shining":7105,"shrew":7106,"##ocate":7107,"##ocity":7108,"spent":7109,"sequ":7110,"Inter":7111,"##outs":7112,"resident":7113,"resolve":7114,"leisure":7115,"format":7116,"##ulture":7117,"##udge":7118,"##illation":7119,"meant":7120,"impure":7121,"implic":7122,"subset":7123,"strain":7124,"##auc":7125,"attaching":7126,"bride":7127,"brush":7128,"heel":7129,"aggreg":7130,"agreed":7131,"drain":7132,"overnight":7133,"##ensions":7134,"cargo":7135,"prejud":7136,"grave":7137,"grief":7138,"grumbling":7139,"commod":7140,"evident":7141,"undecided":7142,"symmet":7143,"numeral":7144,"decide":7145,"playful":7146,"underg":7147,"boiling":7148,"remains":7149,"processing":7150,"processed":7151,"transactions":7152,"##encies":7153,"China":7154,"acute":7155,"roy":7156,"infinite":7157,"##tends":7158,"##tebr":7159,"involuntary":7160,"defend":7161,"sounding":7162,"loop":7163,"backwards":7164,"vari":7165,"artwork":7166,"passive":7167,"discip":7168,"discrete":7169,"physi":7170,"lightly":7171,"periods":7172,"singer":7173,"##lessness":7174,"owned":7175,"practitioner":7176,"metallic":7177,"swell":7178,"switch":7179,"swollen":7180,"requires":7181,"retreat":7182,"superficial":7183,"refined":7184,"authorities":7185,"temp":7186,"statistical":7187,"illusion":7188,"stronger":7189,"controls":7190,"limbs":7191,"factors":7192,"separates":7193,"##ievous":7194,"realm":7195,"##atics":7196,"combined":7197,"combines":7198,"##mittent":7199,"dependent":7200,"promotion":7201,"irr":7202,"explan":7203,"heaven":7204,"skillful":7205,"edible":7206,"currently":7207,"absurd":7208,"seeking":7209,"fitted":7210,"techniques":7211,"needs":7212,"convent":7213,"younger":7214,"decorated":7215,"Coming":7216,"Commun":7217,"deception":7218,"radical":7219,"habitual":7220,"throwing":7221,"council":7222,"barb":7223,"##herent":7224,"bias":7225,"##isterous":7226,"tempered":7227,"marine":7228,"Appearing":7229,"enclose":7230,"Arousing":7231,"alteration":7232,"Adv":7233,"Christm":7234,"fatig":7235,"inhabitants":7236,"satisfied":7237,"imprison":7238,"urban":7239,"analy":7240,"apparat":7241,"attributed":7242,"wait":7243,"vigour":7244,"Super":7245,"vagina":7246,"rubbish":7247,"introduction":7248,"introduced":7249,"Trans":7250,"concentrated":7251,"framework":7252,"ignore":7253,"intensifier":7254,"stringed":7255,"Contrary":7256,"boldly":7257,"sediment":7258,"anxious":7259,"abnormally":7260,"manifestation":7261,"purchase":7262,"inherent":7263,"restraint":7264,"virtue":7265,"conformity":7266,"incorrectly":7267,"graphic":7268,"passionate":7269,"investigation":7270,"queen":7271,"definitely":7272,"deceitful":7273,"challeng":7274,"triangular":7275,"decisive":7276,"Behaving":7277,"barrier":7278,"prostitute":7279,"rhythmic":7280,"reciproc":7281,"arbitrary":7282,"dollars":7283,"vulner":7284,"explosion":7285,"analogous":7286,"interpretation":7287,"bridge":7288,"Assoc":7289,"Careful":7290,"unrestrained":7291,"boredom":7292,"penetrate":7293,"predominantly":7294,"loved":7295,"shortened":7296,"spontaneous":7297,"spherical":7298,"carniv":7299,"excrement":7300,"bottle":7301,"recommend":7302,"cannabis":7303,"jurisdiction":7304,"##liament":7305,"##iniscent":7306,"trivial":7307,"assimilation":7308,"discretion":7309,"Co":7310,"Cer":7311,"Firm":7312,"Hard":7313,"Power":7314,"Que":7315,"Sal":7316,"Sov":7317,"Sign":7318,"Ter":7319,"Tur":7320,"da":7321,"dipl":7322,"fief":7323,"fancy":7324,"hop":7325,"haste":7326,"huge":7327,"losing":7328,"lasting":7329,"mit":7330,"moth":7331,"nine":7332,"naturally":7333,"pall":7334,"pour":7335,"park":7336,"ru":7337,"rud":7338,"sor":7339,"sources":7340,"tor":7341,"tag":7342,"taut":7343,"vom":7344,"voy":7345,"wig":7346,"yards":7347,"##oys":7348,"##lor":7349,"##tail":7350,"##ey":7351,"##flow":7352,"##field":7353,"##ij":7354,"##uv":7355,"##uly":7356,"##nt":7357,"##nel":7358,"##rous":7359,"##just":7360,"##zing":7361,"##ker":7362,"##volent":7363,"##ered":7364,"##enue":7365,"##aly":7366,"toes":7367,"##icism":7368,"anus":7369,"anew":7370,"thres":7371,"##eline":7372,"##ivate":7373,"whip":7374,"##oteric":7375,"They":7376,"##ilder":7377,"##iger":7378,"##igate":7379,"##iders":7380,"##ectable":7381,"sure":7382,"suck":7383,"reached":7384,"fright":7385,"##oding":7386,"##istently":7387,"##umulus":7388,"users":7389,"esoteric":7390,"actors":7391,"chronic":7392,"chamber":7393,"chosen":7394,"unh":7395,"unin":7396,"unch":7397,"united":7398,"shallow":7399,"manoe":7400,"noted":7401,"dishes":7402,"displeas":7403,"##aceae":7404,"enzy":7405,"##iped":7406,"compact":7407,"worry":7408,"relief":7409,"relieve":7410,"cluster":7411,"intric":7412,"intuit":7413,"obnox":7414,"leth":7415,"##illa":7416,"##illery":7417,"appe":7418,"apprehension":7419,"submiss":7420,"strat":7421,"##formation":7422,"upside":7423,"brave":7424,"consec":7425,"scar":7426,"scorn":7427,"quarks":7428,"index":7429,"##icking":7430,"grid":7431,"blades":7432,"##ailing":7433,"##ples":7434,"##ritical":7435,"distaste":7436,"accel":7437,"numer":7438,"decline":7439,"##lowed":7440,"surv":7441,"transit":7442,"This":7443,"Those":7444,"offense":7445,"purple":7446,"knight":7447,"knob":7448,"##urned":7449,"Within":7450,"performer":7451,"cert":7452,"##racted":7453,"breast":7454,"polish":7455,"##ologically":7456,"Exceedingly":7457,"deline":7458,"##ubborn":7459,"capability":7460,"showy":7461,"practiced":7462,"constituting":7463,"circulation":7464,"excel":7465,"quantum":7466,"glac":7467,"operated":7468,"refers":7469,"refresh":7470,"wrest":7471,"interesting":7472,"##azz":7473,"##azing":7474,"guests":7475,"openly":7476,"diver":7477,"arrest":7478,"politician":7479,"expend":7480,"depict":7481,"promisc":7482,"indicates":7483,"portr":7484,"portable":7485,"silent":7486,"silence":7487,"drinks":7488,"Indic":7489,"founder":7490,"entering":7491,"crimes":7492,"turns":7493,"directing":7494,"paying":7495,"readily":7496,"encour":7497,"argue":7498,"sharply":7499,"fourth":7500,"efforts":7501,"therefore":7502,"essentially":7503,"dimensions":7504,"firearm":7505,"habitation":7506,"admiration":7507,"##autious":7508,"phrases":7509,"utterance":7510,"semantic":7511,"burgl":7512,"exclusion":7513,"sung":7514,"sunlight":7515,"extensive":7516,"detailed":7517,"Deserving":7518,"Prone":7519,"versions":7520,"myster":7521,"focused":7522,"racquet":7523,"viruses":7524,"conceptual":7525,"unwilling":7526,"altered":7527,"occupy":7528,"merch":7529,"reverse":7530,"reversed":7531,"stimulate":7532,"mistakes":7533,"soup":7534,"trickery":7535,"agreeable":7536,"achieving":7537,"sandw":7538,"disturbed":7539,"despicable":7540,"Which":7541,"weapons":7542,"disgu":7543,"recognize":7544,"balance":7545,"fortune":7546,"drama":7547,"pronunciation":7548,"Soft":7549,"dyn":7550,"accumulation":7551,"pursue":7552,"exhausted":7553,"automatically":7554,"coupl":7555,"mercen":7556,"conveyance":7557,"pigment":7558,"absolutely":7559,"According":7560,"juice":7561,"unconventional":7562,"residents":7563,"Sexual":7564,"intelligent":7565,"Blood":7566,"theatrical":7567,"trailing":7568,"multiplic":7569,"ceremonies":7570,"knee":7571,"##ylum":7572,"decisions":7573,"surgical":7574,"Two":7575,"cheerful":7576,"summary":7577,"symptom":7578,"rolled":7579,"wickedness":7580,"exploit":7581,"True":7582,"Concerned":7583,"Quick":7584,"befitting":7585,"Expressing":7586,"advertising":7587,"incompet":7588,"citizen":7589,"bubbles":7590,"unnecessary":7591,"senior":7592,"forcibly":7593,"shrubs":7594,"historical":7595,"jacket":7596,"feeble":7597,"mounted":7598,"trifling":7599,"##perienced":7600,"membrane":7601,"Rhus":7602,"fifty":7603,"tropical":7604,"succeed":7605,"enhance":7606,"1960s":7607,"Dutch":7608,"hormone":7609,"##elihood":7610,"clumsy":7611,"bundle":7612,"diagram":7613,"lifestyle":7614,"tastes":7615,"Situated":7616,"prayer":7617,"poetry":7618,"endearment":7619,"Cheerful":7620,"Christmas":7621,"Associated":7622,"Soviet":7623,"threshold":7624,"manoeuv":7625,"promiscuous":7626,"Bra":7627,"Cauc":7628,"Dark":7629,"Fin":7630,"Filled":7631,"Gen":7632,"Hung":7633,"Light":7634,"Me":7635,"Mor":7636,"Pass":7637,"Pers":7638,"Rest":7639,"TV":7640,"Willing":7641,"ben":7642,"bid":7643,"bath":7644,"bark":7645,"bapt":7646,"dawn":7647,"ero":7648,"fate":7649,"fanc":7650,"fusion":7651,"gly":7652,"hob":7653,"hier":7654,"honey":7655,"jol":7656,"lying":7657,"mes":7658,"mim":7659,"mir":7660,"mour":7661,"ner":7662,"naked":7663,"narc":7664,"oct":7665,"pear":7666,"pages":7667,"raid":7668,"sul":7669,"sod":7670,"ske":7671,"sne":7672,"sink":7673,"tent":7674,"tab":7675,"tidy":7676,"vel":7677,"vest":7678,"wise":7679,"wings":7680,"witch":7681,"##bes":7682,"##bow":7683,"##bra":7684,"##yielding":7685,"##men":7686,"##mod":7687,"##equate":7688,"##nation":7689,"##nance":7690,"##nish":7691,"##gun":7692,"##pit":7693,"##rec":7694,"##ria":7695,"##rix":7696,"##down":7697,"##xicated":7698,"##inch":7699,"##onant":7700,"##hew":7701,"##edict":7702,"##itals":7703,"##itarian":7704,"##ork":7705,"##iciency":7706,"##omplete":7707,"anten":7708,"##isions":7709,"##isible":7710,"##reted":7711,"##letic":7712,"ther":7713,"##ulsive":7714,"beads":7715,"whore":7716,"ster":7717,"sting":7718,"conject":7719,"##ige":7720,"##igr":7721,"pert":7722,"perceptible":7723,"##abby":7724,"##istinct":7725,"island":7726,"dex":7727,"dear":7728,"acted":7729,"pledge":7730,"unor":7731,"unav":7732,"##ighs":7733,"trace":7734,"shout":7735,"##anda":7736,"##andard":7737,"##andering":7738,"spons":7739,"spouse":7740,"spiders":7741,"seize":7742,"disper":7743,"dismiss":7744,"dissem":7745,"compare":7746,"comprehend":7747,"alle":7748,"alarm":7749,"alph":7750,"##agg":7751,"clay":7752,"clothe":7753,"reserved":7754,"obedience":7755,"abusive":7756,"abilities":7757,"abortion":7758,"arist":7759,"imply":7760,"impers":7761,"impair":7762,"##present":7763,"strand":7764,"gene":7765,"genome":7766,"genetic":7767,"brittle":7768,"consume":7769,"heating":7770,"scattered":7771,"scathing":7772,"colon":7773,"colors":7774,"agitated":7775,"drives":7776,"overpower":7777,"##blance":7778,"indis":7779,"interfer":7780,"grains":7781,"noon":7782,"##plane":7783,"distances":7784,"elected":7785,"surve":7786,"settled":7787,"teaching":7788,"assault":7789,"opponents":7790,"generations":7791,"infr":7792,"infect":7793,"idle":7794,"sket":7795,"defence":7796,"imitation":7797,"##ucated":7798,"orderly":7799,"##entionally":7800,"puff":7801,"secl":7802,"handling":7803,"discour":7804,"##istingu":7805,"modifies":7806,"airplane":7807,"pierc":7808,"structural":7809,"locations":7810,"sideways":7811,"metab":7812,"putting":7813,"swind":7814,"excav":7815,"returning":7816,"kindness":7817,"ideology":7818,"##ierce":7819,"progression":7820,"curi":7821,"unconsc":7822,"sexuality":7823,"cultivated":7824,"steel":7825,"experiences":7826,"arrive":7827,"motivation":7828,"##mitted":7829,"politics":7830,"expense":7831,"depend":7832,"existed":7833,"negl":7834,"neglect":7835,"hardship":7836,"misc":7837,"portions":7838,"explain":7839,"explore":7840,"utility":7841,"##ographic":7842,"facility":7843,"Short":7844,"raising":7845,"attracted":7846,"elsewhere":7847,"##bsite":7848,"meaningful":7849,"winding":7850,"filter":7851,"seeks":7852,"needle":7853,"potato":7854,"ranking":7855,"ships":7856,"voluntary":7857,"carrier":7858,"##untarily":7859,"label":7860,"induced":7861,"Deep":7862,"programme":7863,"punish":7864,"commitment":7865,"transporting":7866,"exclude":7867,"Allowing":7868,"hitting":7869,"projecting":7870,"customers":7871,"participants":7872,"obliged":7873,"briefly":7874,"motorized":7875,"motorcy":7876,"malign":7877,"acquainted":7878,"digit":7879,"claims":7880,"180":7881,"occasionally":7882,"obscurity":7883,"Scouts":7884,"sections":7885,"alternative":7886,"since":7887,"exercising":7888,"benefits":7889,"sadness":7890,"annoying":7891,"demanding":7892,"fastidious":7893,"##cription":7894,"scientist":7895,"recognition":7896,"dwarf":7897,"learn":7898,"vegetable":7899,"vegetables":7900,"ignorant":7901,"railroad":7902,"quietly":7903,"##doors":7904,"architectural":7905,"threads":7906,"faithful":7907,"hours":7908,"robot":7909,"ancestry":7910,"Physical":7911,"boldness":7912,"joints":7913,"safety":7914,"towns":7915,"ethnicity":7916,"remainder":7917,"juke":7918,"outwardly":7919,"controlling":7920,"hinder":7921,"affectionate":7922,"ampl":7923,"tumult":7924,"adopted":7925,"##ogenic":7926,"tribe":7927,"muscular":7928,"dilig":7929,"million":7930,"pedestr":7931,"watches":7932,"premises":7933,"extravag":7934,"passenger":7935,"integral":7936,"license":7937,"rectangular":7938,"reckless":7939,"constraint":7940,"syllables":7941,"possessions":7942,"receptacle":7943,"experiencing":7944,"battery":7945,"troops":7946,"##brev":7947,"totally":7948,"##occup":7949,"disappear":7950,"parameter":7951,"uncultured":7952,"squeeze":7953,"persuade":7954,"unsteady":7955,"System":7956,"isolated":7957,"bravery":7958,"Hawaiian":7959,"Feeling":7960,"rabies":7961,"delivery":7962,"ambiguity":7963,"Imm":7964,"lesb":7965,"vicinity":7966,"compartment":7967,"outdoor":7968,"disconcer":7969,"controversy":7970,"habits":7971,"varying":7972,"comprehensive":7973,"Utter":7974,"uneducated":7975,"ostentatious":7976,"royal":7977,"conventions":7978,"apparatus":7979,"burglary":7980,"Caucas":7981,"velocity":7982,"antenn":7983,"000":7984,"Air":7985,"Bearing":7986,"Hell":7987,"Kingdom":7988,"Lim":7989,"Min":7990,"Mental":7991,"Pal":7992,"Ra":7993,"Rome":7994,"RNA":7995,"Sw":7996,"Sug":7997,"Suff":7998,"Writ":7999,"aur":8000,"aph":8001,"bun":8002,"bending":8003,"biting":8004,"brows":8005,"cable":8006,"cash":8007,"cuisine":8008,"dove":8009,"density":8010,"gel":8011,"gross":8012,"him":8013,"here":8014,"hired":8015,"hunt":8016,"houses":8017,"jet":8018,"lod":8019,"lips":8020,"mate":8021,"nice":8022,"pod":8023,"pity":8024,"pap":8025,"please":8026,"rif":8027,"sib":8028,"saint":8029,"tin":8030,"tiring":8031,"vivid":8032,"zone":8033,"##bation":8034,"##bid":8035,"##overy":8036,"##mans":8037,"##fish":8038,"##fined":8039,"##friend":8040,"##iative":8041,"##sible":8042,"##uated":8043,"##gon":8044,"##inqu":8045,"##intend":8046,"##inently":8047,"##inged":8048,"##atement":8049,"##alt":8050,"##orative":8051,"##arre":8052,"##arious":8053,"##omination":8054,"anat":8055,"##reet":8056,"thous":8057,"thorny":8058,"##aser":8059,"##ashes":8060,"##iva":8061,"whis":8062,"stake":8063,"stern":8064,"forgot":8065,"ongoing":8066,"asy":8067,"ascribed":8068,"##ctive":8069,"##imony":8070,"byproduct":8071,"##abb":8072,"##add":8073,"proxim":8074,"##aming":8075,"##amiliar":8076,"##pping":8077,"##arthest":8078,"##antically":8079,"##estock":8080,"churches":8081,"unnatural":8082,"trend":8083,"##apes":8084,"pride":8085,"sham":8086,"span":8087,"##opy":8088,"notable":8089,"seats":8090,"discl":8091,"disappro":8092,"disreputable":8093,"##ipts":8094,"compressed":8095,"##ague":8096,"closing":8097,"##astard":8098,"##rude":8099,"resolute":8100,"##dule":8101,"applies":8102,"outl":8103,"outlook":8104,"implied":8105,"implies":8106,"impurities":8107,"flaw":8108,"##aund":8109,"##keeper":8110,"coach":8111,"genres":8112,"attentive":8113,"brutal":8114,"conserv":8115,"scant":8116,"agitation":8117,"cars":8118,"indent":8119,"indistinct":8120,"interface":8121,"intermittent":8122,"grip":8123,"##hentic":8124,"commission":8125,"blunt":8126,"recall":8127,"##ustice":8128,"grouping":8129,"numerous":8130,"regulation":8131,"regulations":8132,"diff":8133,"doom":8134,"remember":8135,"reminiscent":8136,"goes":8137,"Thin":8138,"offspring":8139,"infection":8140,"crescent":8141,"invented":8142,"idiot":8143,"idiom":8144,"##ifications":8145,"valley":8146,"articles":8147,"artillery":8148,"proved":8149,"poll":8150,"confident":8151,"confinement":8152,"median":8153,"substantial":8154,"modification":8155,"veins":8156,"collision":8157,"certainty":8158,"firing":8159,"keys":8160,"marking":8161,"electrom":8162,"visc":8163,"swagger":8164,"excited":8165,"patch":8166,"##rait":8167,"reflex":8168,"State":8169,"estimated":8170,"protects":8171,"protuber":8172,"authoritative":8173,"connecting":8174,"Before":8175,"sensory":8176,"liquids":8177,"server":8178,"curtain":8179,"lesser":8180,"involvement":8181,"representative":8182,"herbs":8183,"selfish":8184,"uncle":8185,"morbid":8186,"textbook":8187,"equally":8188,"expel":8189,"expand":8190,"expensive":8191,"deposit":8192,"promoting":8193,"miser":8194,"demean":8195,"charging":8196,"entertain":8197,"beforehand":8198,"Resulting":8199,"governing":8200,"Ent":8201,"wooden":8202,"instrumental":8203,"198":8204,"19th":8205,"midnight":8206,"seeing":8207,"conversion":8208,"skinned":8209,"judicial":8210,"##affected":8211,"injustice":8212,"conviction":8213,"##playing":8214,"literally":8215,"massive":8216,"fireplace":8217,"labyr":8218,"admirable":8219,"posts":8220,"##pleasantly":8221,"##althy":8222,"uttered":8223,"Prof":8224,"denomination":8225,"excluding":8226,"concur":8227,"broadly":8228,"baseball":8229,"##attering":8230,"audible":8231,"communications":8232,"questionable":8233,"crossing":8234,"problems":8235,"bounds":8236,"diagn":8237,"hyper":8238,"deliberation":8239,"pitcher":8240,"sailing":8241,"responsibilities":8242,"races":8243,"hypothes":8244,"menial":8245,"inspection":8246,"seems":8247,"rocks":8248,"Abounding":8249,"dividing":8250,"occasional":8251,"majority":8252,"rendered":8253,"Scot":8254,"hotel":8255,"##forward":8256,"urge":8257,"categories":8258,"harp":8259,"illegally":8260,"stimulates":8261,"engineer":8262,"analysis":8263,"waiting":8264,"sticks":8265,"locality":8266,"groove":8267,"grooves":8268,"touching":8269,"gods":8270,"odor":8271,"##hetto":8272,"occurred":8273,"Germany":8274,"shrink":8275,"magnitude":8276,"requirements":8277,"incorpor":8278,"advantageous":8279,"Sea":8280,"ridge":8281,"learned":8282,"sympathy":8283,"reflect":8284,"candid":8285,"expectation":8286,"assistant":8287,"Never":8288,"celebration":8289,"Jews":8290,"satisfaction":8291,"resemble":8292,"beaten":8293,"fastened":8294,"geographic":8295,"disagreement":8296,"exhaustion":8297,"Produced":8298,"bullet":8299,"mercy":8300,"watching":8301,"ambition":8302,"panel":8303,"oceans":8304,"venom":8305,"prosper":8306,"unconstrained":8307,"investigate":8308,"warmth":8309,"proteins":8310,"options":8311,"##ciliation":8312,"Compare":8313,"Employ":8314,"inappropriately":8315,"fragment":8316,"triang":8317,"appointed":8318,"surgery":8319,"pulled":8320,"forbid":8321,"forbidden":8322,"schedule":8323,"moisture":8324,"disbelieve":8325,"abruptly":8326,"flee":8327,"talent":8328,"agriculture":8329,"Followed":8330,"stretching":8331,"intersection":8332,"calculations":8333,"recipient":8334,"experienced":8335,"Absolute":8336,"rituals":8337,"enforcement":8338,"cheeky":8339,"fungi":8340,"cousin":8341,"censure":8342,"livestock":8343,"crops":8344,"caution":8345,"camera":8346,"haul":8347,"laughter":8348,"unreasonable":8349,"Russian":8350,"evaluate":8351,"explicitly":8352,"2000":8353,"scholarly":8354,"mischievous":8355,"propaganda":8356,"##igenous":8357,"clergy":8358,"buffet":8359,"Philippines":8360,"merely":8361,"propriety":8362,"aquatic":8363,"cocktail":8364,"Mexican":8365,"unpredict":8366,"disadvantage":8367,"impregnated":8368,"athletic":8369,"fatigue":8370,"obnoxious":8371,"submissive":8372,"delineate":8373,"incompetent":8374,"manoeuvre":8375,"Genuine":8376,"fanciful":8377,"hierarch":8378,"curiosity":8379,"jukebox":8380,"Suggest":8381,"##manship":8382,"forgotten":8383,"proximity":8384,"12":8385,"And":8386,"Barely":8387,"Coll":8388,"Distingu":8389,"Equ":8390,"Elect":8391,"Far":8392,"Habit":8393,"Harsh":8394,"Jes":8395,"Mal":8396,"Oper":8397,"Poor":8398,"Soc":8399,"Ven":8400,"Well":8401,"aest":8402,"bother":8403,"brow":8404,"bones":8405,"cautious":8406,"dess":8407,"eject":8408,"eup":8409,"finess":8410,"fret":8411,"gou":8412,"hose":8413,"jaw":8414,"kil":8415,"lad":8416,"lens":8417,"lady":8418,"lazy":8419,"mast":8420,"mile":8421,"mund":8422,"moll":8423,"none":8424,"osc":8425,"py":8426,"penc":8427,"porn":8428,"ponder":8429,"pocket":8430,"rite":8431,"rider":8432,"rash":8433,"riot":8434,"rapper":8435,"sap":8436,"sull":8437,"tu":8438,"tune":8439,"tuber":8440,"ugly":8441,"vo":8442,"vain":8443,"vap":8444,"vine":8445,"vict":8446,"victory":8447,"wik":8448,"##bor":8449,"##bound":8450,"##ma":8451,"##my":8452,"##tr":8453,"##ton":8454,"##tion":8455,"##iece":8456,"##ses":8457,"##gust":8458,"##pection":8459,"##ried":8460,"##rene":8461,"##cial":8462,"##chen":8463,"##zer":8464,"##kon":8465,"##wart":8466,"##worm":8467,"##will":8468,"##46":8469,"##inates":8470,"##inately":8471,"##erals":8472,"##inge":8473,"ore":8474,"##atis":8475,"##athetic":8476,"##itively":8477,"toler":8478,"##anic":8479,"##anity":8480,"##icon":8481,"##icide":8482,"##omial":8483,"##omorph":8484,"##isite":8485,"##isters":8486,"##reated":8487,"thwart":8488,"##ivities":8489,"bew":8490,"beach":8491,"stip":8492,"stunt":8493,"starch":8494,"##stantial":8495,"forg":8496,"##ilding":8497,"##ilibr":8498,"##olation":8499,"##igner":8500,"##iguous":8501,"##essively":8502,"##idian":8503,"perse":8504,"##eminent":8505,"##imp":8506,"##avan":8507,"##ateful":8508,"##iry":8509,"##irst":8510,"exceeding":8511,"exterior":8512,"exceedingly":8513,"##ado":8514,"rehe":8515,"rept":8516,"reign":8517,"relying":8518,"frust":8519,"frank":8520,"##istry":8521,"actor":8522,"##iché":8523,"unlike":8524,"unload":8525,"unyielding":8526,"trash":8527,"trump":8528,"shy":8529,"shirt":8530,"spike":8531,"##ibe":8532,"##roup":8533,"alive":8534,"align":8535,"##agm":8536,"##outhe":8537,"clin":8538,"cliché":8539,"##astily":8540,"##astructure":8541,"##endicular":8542,"##izarre":8543,"intros":8544,"resc":8545,"resin":8546,"resent":8547,"abbrev":8548,"arrows":8549,"ardent":8550,"adequate":8551,"##onged":8552,"##oreal":8553,"apple":8554,"impert":8555,"impudent":8556,"subj":8557,"##ervient":8558,"coating":8559,"genitals":8560,"brisk":8561,"heap":8562,"scru":8563,"scoring":8564,"scores":8565,"dressing":8566,"carp":8567,"caravan":8568,"pregn":8569,"pretent":8570,"preeminent":8571,"indigenous":8572,"gran":8573,"pharm":8574,"commem":8575,"recover":8576,"income":8577,"incomplete":8578,"nook":8579,"instit":8580,"deciding":8581,"surpass":8582,"underwear":8583,"belly":8584,"oppose":8585,"inspect":8586,"inserted":8587,"transmission":8588,"transgender":8589,"##ausible":8590,"sloping":8591,"inflexible":8592,"infrequ":8593,"crank":8594,"supplied":8595,"imitate":8596,"imitated":8597,"humor":8598,"cork":8599,"lover":8600,"backward":8601,"valued":8602,"passions":8603,"passages":8604,"breed":8605,"provision":8606,"handed":8607,"confined":8608,"discord":8609,"##istinguish":8610,"affl":8611,"affair":8612,"pierce":8613,"amounts":8614,"writes":8615,"redden":8616,"advent":8617,"advancing":8618,"resting":8619,"entang":8620,"##solete":8621,"publish":8622,"ears":8623,"classification":8624,"humanity":8625,"righte":8626,"patri":8627,"quantitative":8628,"paras":8629,"parliament":8630,"retain":8631,"##orned":8632,"terminal":8633,"refinement":8634,"maintaining":8635,"##azed":8636,"curse":8637,"lime":8638,"viewing":8639,"observing":8640,"observe":8641,"uncouth":8642,"profits":8643,"profuse":8644,"females":8645,"morals":8646,"cultiv":8647,"combust":8648,"##ucky":8649,"equilibr":8650,"influenced":8651,"runner":8652,"computers":8653,"snob":8654,"countryside":8655,"identifying":8656,"Shaped":8657,"attraction":8658,"winds":8659,"treaty":8660,"disposed":8661,"continuing":8662,"absent":8663,"unsu":8664,"treating":8665,"specializes":8666,"flattering":8667,"needles":8668,"hairy":8669,"encirc":8670,"encomp":8671,"looks":8672,"breaks":8673,"employer":8674,"employing":8675,"revenue":8676,"injured":8677,"eastern":8678,"##uese":8679,"begins":8680,"deceased":8681,"sweeping":8682,"competitor":8683,"warn":8684,"punct":8685,"copious":8686,"##conduct":8687,"exclamation":8688,"damnation":8689,"friendship":8690,"Disgust":8691,"apolog":8692,"customer":8693,"unfavorable":8694,"courtesy":8695,"cease":8696,"sailor":8697,"hypocr":8698,"songs":8699,"digest":8700,"replacing":8701,"accessible":8702,"conveying":8703,"categor":8704,"exhibition":8705,"grotes":8706,"kills":8707,"seasoned":8708,"Ord":8709,"enjoys":8710,"eighty":8711,"fights":8712,"corruption":8713,"guns":8714,"While":8715,"aston":8716,"epic":8717,"international":8718,"script":8719,"assumption":8720,"reflection":8721,"candle":8722,"economy":8723,"horizon":8724,"radioactive":8725,"Special":8726,"educational":8727,"vacc":8728,"pronounced":8729,"Partially":8730,"Work":8731,"tracks":8732,"reproduction":8733,"inherit":8734,"bulk":8735,"subservient":8736,"contradiction":8737,"conforming":8738,"suspect":8739,"familiarity":8740,"trait":8741,"likeness":8742,"reports":8743,"Strong":8744,"horizontally":8745,"cooling":8746,"approximation":8747,"crystall":8748,"overwhelm":8749,"boxing":8750,"Devoid":8751,"folds":8752,"burned":8753,"sells":8754,"waters":8755,"imparting":8756,"impartial":8757,"reproach":8758,"Empire":8759,"fantastic":8760,"quarrel":8761,"mildly":8762,"Behind":8763,"administration":8764,"##osynt":8765,"peaceful":8766,"calculate":8767,"microorgan":8768,"Intell":8769,"neighbour":8770,"visitors":8771,"16th":8772,"budget":8773,"gallons":8774,"halt":8775,"syllable":8776,"citizens":8777,"fulfill":8778,"description":8779,"diminish":8780,"Freedom":8781,"Pleasing":8782,"months":8783,"summoning":8784,"mystical":8785,"dinner":8786,"reconciliation":8787,"penetrating":8788,"launch":8789,"nominal":8790,"inadequate":8791,"disparage":8792,"uncontrolled":8793,"steadily":8794,"Appropriate":8795,"Closely":8796,"Originally":8797,"Widely":8798,"disorientate":8799,"sleeves":8800,"ultimate":8801,"tedious":8802,"tireless":8803,"amateur":8804,"furtive":8805,"specimen":8806,"surrept":8807,"humiliation":8808,"constituent":8809,"programming":8810,"independently":8811,"neutral":8812,"feminine":8813,"kitchen":8814,"alchem":8815,"Portuguese":8816,"Worthy":8817,"prejudice":8818,"##tebrates":8819,"challenging":8820,"carnivorous":8821,"ruin":8822,"distasteful":8823,"baptism":8824,"narcotic":8825,"sulph":8826,"conjecture":8827,"alleged":8828,"infrastructure":8829,"disconcert":8830,"labyrinth":8831,"candidates":8832,"Jesus":8833,"mundane":8834,"wiki":8835,"introspection":8836,"##istinguishable":8837,"equilibrium":8838,"Bus":8839,"Budd":8840,"C1":8841,"Cas":8842,"Col":8843,"Cut":8844,"Cast":8845,"Den":8846,"Del":8847,"Danger":8848,"Direct":8849,"Each":8850,"Either":8851,"Furn":8852,"Gl":8853,"Hem":8854,"Less":8855,"Land":8856,"Last":8857,"Liable":8858,"Must":8859,"Necess":8860,"Poly":8861,"Sur":8862,"Sus":8863,"Sens":8864,"Typ":8865,"Turned":8866,"Use":8867,"Vir":8868,"York":8869,"aux":8870,"bin":8871,"bure":8872,"bish":8873,"bust":8874,"bizarre":8875,"cad":8876,"cree":8877,"dual":8878,"dust":8879,"dire":8880,"ever":8881,"fi":8882,"fag":8883,"gle":8884,"gate":8885,"gone":8886,"ghetto":8887,"hipp":8888,"hung":8889,"jury":8890,"jew":8891,"lan":8892,"luc":8893,"mand":8894,"mating":8895,"nap":8896,"nause":8897,"omn":8898,"piv":8899,"pist":8900,"son":8901,"sway":8902,"solv":8903,"sulf":8904,"tac":8905,"torn":8906,"tones":8907,"uter":8908,"upp":8909,"vot":8910,"voc":8911,"vanish":8912,"velv":8913,"your":8914,"##bage":8915,"##oom":8916,"##mine":8917,"##hering":8918,"##son":8919,"##uce":8920,"##uble":8921,"##uana":8922,"##ns":8923,"##ps":8924,"##pro":8925,"##position":8926,"##point":8927,"##ximate":8928,"##west":8929,"##word":8930,"##70s":8931,"##inery":8932,"##inations":8933,"orb":8934,"##atism":8935,"toll":8936,"toxic":8937,"##anim":8938,"incess":8939,"ingen":8940,"##lys":8941,"ank":8942,"##isor":8943,"##oub":8944,"##enth":8945,"Towards":8946,"##throw":8947,"##roz":8948,"##ivism":8949,"##ulence":8950,"##ulator":8951,"stam":8952,"stuck":8953,"stones":8954,"stubborn":8955,"conical":8956,"##urg":8957,"##ilty":8958,"##iliary":8959,"##igation":8960,"##ids":8961,"##seud":8962,"perc":8963,"##emly":8964,"##abilities":8965,"##aded":8966,"##adation":8967,"##geon":8968,"procl":8969,"prohib":8970,"##amous":8971,"##amily":8972,"friction":8973,"##odes":8974,"##ushed":8975,"##ussy":8976,"##aky":8977,"comic":8978,"comment":8979,"deities":8980,"actively":8981,"champ":8982,"unrelated":8983,"unjust":8984,"tries":8985,"partly":8986,"##apid":8987,"prize":8988,"shaking":8989,"shoes":8990,"##andise":8991,"sperm":8992,"spasm":8993,"mane":8994,"notor":8995,"seaw":8996,"Intense":8997,"Information":8998,"disl":8999,"##ipher":9000,"##unic":9001,"compress":9002,"composure":9003,"##mph":9004,"##ags":9005,"reliable":9006,"relinqu":9007,"clade":9008,"climate":9009,"##ruding":9010,"intimate":9011,"reserve":9012,"obsolete":9013,"abate":9014,"aromatic":9015,"##due":9016,"##udence":9017,"##berry":9018,"contemporary":9019,"appl":9020,"impose":9021,"imposed":9022,"flaws":9023,"##ogl":9024,"##oggy":9025,"##rying":9026,"subt":9027,"submer":9028,"submit":9029,"cob":9030,"copper":9031,"smoking":9032,"smoked":9033,"upd":9034,"attitudes":9035,"brace":9036,"console":9037,"scream":9038,"overex":9039,"overthrow":9040,"caring":9041,"anyone":9042,"prey":9043,"preoccup":9044,"indistinguishable":9045,"grape":9046,"twenty":9047,"soon":9048,"soothing":9049,"evade":9050,"feeds":9051,"peer":9052,"distorted":9053,"elic":9054,"elong":9055,"instances":9056,"extinct":9057,"deviate":9058,"amorph":9059,"assertion":9060,"canon":9061,"oppress":9062,"insincere":9063,"transc":9064,"endow":9065,"##encing":9066,"simp":9067,"emer":9068,"embr":9069,"embody":9070,"emission":9071,"generated":9072,"memorial":9073,"slim":9074,"slack":9075,"sliding":9076,"repug":9077,"##appy":9078,"supplement":9079,"idly":9080,"purify":9081,"knit":9082,"defect":9083,"defining":9084,"defective":9085,"mush":9086,"humoured":9087,"corr":9088,"variant":9089,"bug":9090,"pup":9091,"secreted":9092,"handic":9093,"eleph":9094,"physician":9095,"veil":9096,"differing":9097,"delicate":9098,"##ubstantial":9099,"##roph":9100,"keel":9101,"owing":9102,"degener":9103,"electro":9104,"inflection":9105,"Relatively":9106,"gland":9107,"retr":9108,"supers":9109,"wrink":9110,"subjected":9111,"##ugal":9112,"tempt":9113,"connotation":9114,"maintenance":9115,"lands":9116,"sensational":9117,"##worth":9118,"lessening":9119,"guy":9120,"guess":9121,"greedy":9122,"wheat":9123,"factory":9124,"balloon":9125,"divers":9126,"array":9127,"motions":9128,"motives":9129,"knowable":9130,"pleased":9131,"Friend":9132,"prompt":9133,"references":9134,"functioning":9135,"snakes":9136,"entered":9137,"crimson":9138,"multi":9139,"facil":9140,"edges":9141,"pastry":9142,"continued":9143,"190":9144,"fields":9145,"harmon":9146,"midday":9147,"specialized":9148,"deriv":9149,"placement":9150,"encumber":9151,"breakdown":9152,"oblique":9153,"##affle":9154,"washed":9155,"annul":9156,"failed":9157,"rooms":9158,"terrain":9159,"foreb":9160,"sumac":9161,"Def":9162,"logically":9163,"punk":9164,"conducted":9165,"##ricted":9166,"transported":9167,"falsely":9168,"homeless":9169,"schools":9170,"Also":9171,"Always":9172,"embod":9173,"damaging":9174,"fearful":9175,"getting":9176,"projection":9177,"garlic":9178,"machinery":9179,"##imentary":9180,"errand":9181,"archae":9182,"consumer":9183,"consumes":9184,"temperate":9185,"crosses":9186,"argumentative":9187,"talks":9188,"marry":9189,"initiate":9190,"sails":9191,"Class":9192,"enclosure":9193,"squander":9194,"passageway":9195,"soldiers":9196,"##factory":9197,"inhabiting":9198,"Scient":9199,"transferred":9200,"concerns":9201,"harv":9202,"tenure":9203,"splend":9204,"complaining":9205,"joining":9206,"applicable":9207,"catching":9208,"odour":9209,"helpful":9210,"exchanged":9211,"straightforward":9212,"vaginal":9213,"observations":9214,"introducing":9215,"laboratory":9216,"Britain":9217,"condesc":9218,"##agonal":9219,"drying":9220,"fasc":9221,"annoyed":9222,"White":9223,"finding":9224,"assets":9225,"shrinking":9226,"rigged":9227,"magnetic":9228,"inept":9229,"guardians":9230,"bald":9231,"greenish":9232,"sufficiently":9233,"risky":9234,"##ocracy":9235,"resistant":9236,"enjoying":9237,"cords":9238,"joyous":9239,"melody":9240,"unreal":9241,"pronoun":9242,"palate":9243,"Insincere":9244,"integer":9245,"accumulate":9246,"molecular":9247,"molecules":9248,"unmarried":9249,"reproducing":9250,"reproductive":9251,"mammal":9252,"irritated":9253,"Ess":9254,"photographic":9255,"withdrawal":9256,"thrill":9257,"absorbed":9258,"hesitation":9259,"hesitating":9260,"tumour":9261,"graphical":9262,"Prev":9263,"Agent":9264,"rumbling":9265,"mathematics":9266,"demonstrate":9267,"Irrit":9268,"appealing":9269,"quarter":9270,"ceremonial":9271,"sickness":9272,"tanner":9273,"atmospheric":9274,"##person":9275,"herbal":9276,"bonds":9277,"interruption":9278,"disbelief":9279,"Subject":9280,"talented":9281,"compassionate":9282,"eliminate":9283,"reckon":9284,"Concerning":9285,"expertise":9286,"mastery":9287,"sanct":9288,"tactics":9289,"ticket":9290,"stuffed":9291,"discernment":9292,"contribute":9293,"cousins":9294,"gangrene":9295,"descriptive":9296,"unnecessarily":9297,"Avoid":9298,"bucket":9299,"stabbed":9300,"sustained":9301,"parameters":9302,"uncultivated":9303,"embellishment":9304,"hydrogen":9305,"wavering":9306,"exaggerated":9307,"##osaurs":9308,"inadequ":9309,"bricks":9310,"consistency":9311,"soften":9312,"confirmation":9313,"illustr":9314,"descendant":9315,"perpendicular":9316,"Angry":9317,"degradation":9318,"reluctant":9319,"subculture":9320,"Precise":9321,"sprinkling":9322,"acknowledged":9323,"dioxide":9324,"torture":9325,"orchest":9326,"tranquil":9327,"earnestly":9328,"linen":9329,"strategic":9330,"poisonous":9331,"assessment":9332,"invalid":9333,"eruption":9334,"narrative":9335,"Completely":9336,"Speaking":9337,"untrue":9338,"astronomical":9339,"ineffective":9340,"Semitic":9341,"alkaline":9342,"specify":9343,"Unwilling":9344,"Canadian":9345,"vibration":9346,"discipline":9347,"physiological":9348,"imprisonment":9349,"Turk":9350,"hopeless":9351,"##ijuana":9352,"intricate":9353,"encourages":9354,"coupled":9355,"impersonal":9356,"sketch":9357,"piercing":9358,"unconscious":9359,"motorcycle":9360,"lesbian":9361,"electromagn":9362,"hypothesis":9363,"Scotland":9364,"unpredictable":9365,"finesse":9366,"gouge":9367,"pencil":9368,"tuft":9369,"pretentious":9370,"institutions":9371,"grotesque":9372,"Ordinary":9373,"Buddh":9374,"Mustel":9375,"Polynes":9376,"auxiliary":9377,"fiery":9378,"uterus":9379,"##proof":9380,"amorphous":9381,"embodying":9382,"Amp":9383,"Action":9384,"Away":9385,"Broken":9386,"Cub":9387,"Dem":9388,"Dest":9389,"Fal":9390,"Fast":9391,"Food":9392,"Fool":9393,"Fitted":9394,"Hon":9395,"Jup":9396,"Lag":9397,"Lying":9398,"Living":9399,"Ma":9400,"Mad":9401,"May":9402,"Merc":9403,"Non":9404,"Other":9405,"Oral":9406,"Pred":9407,"Rad":9408,"Sou":9409,"Ste":9410,"Viol":9411,"Wr":9412,"Wild":9413,"Youn":9414,"Zeal":9415,"arou":9416,"aft":9417,"ber":9418,"bree":9419,"bite":9420,"bony":9421,"cir":9422,"coc":9423,"cables":9424,"cinem":9425,"don":9426,"dent":9427,"dain":9428,"died":9429,"dys":9430,"danc":9431,"dancing":9432,"ech":9433,"east":9434,"fake":9435,"fare":9436,"fits":9437,"fals":9438,"fox":9439,"hint":9440,"hides":9441,"kid":9442,"lub":9443,"lakes":9444,"lump":9445,"lemon":9446,"pil":9447,"puck":9448,"pump":9449,"rust":9450,"ruth":9451,"sav":9452,"saving":9453,"sour":9454,"sake":9455,"savour":9456,"sincere":9457,"socket":9458,"tel":9459,"vitr":9460,"wash":9461,"wolf":9462,"##oqu":9463,"##mic":9464,"##ture":9465,"##tage":9466,"##ham":9467,"##hair":9468,"##haust":9469,"##horr":9470,"##een":9471,"##free":9472,"##fare":9473,"##ioc":9474,"##uver":9475,"##uating":9476,"##rified":9477,"##jac":9478,"##zil":9479,"##kes":9480,"##walk":9481,"##20s":9482,"##incl":9483,"##eraph":9484,"##heon":9485,"##heless":9486,"##orge":9487,"##oria":9488,"toy":9489,"tol":9490,"##ara":9491,"##arbon":9492,"##ecation":9493,"##ecoming":9494,"##isive":9495,"##isement":9496,"##isph":9497,"##ouch":9498,"##reen":9499,"Too":9500,"thief":9501,"##ashed":9502,"##asia":9503,"##ceeds":9504,"beef":9505,"whit":9506,"stru":9507,"storing":9508,"##otent":9509,"##step":9510,"forge":9511,"onset":9512,"asc":9513,"condu":9514,"conception":9515,"##ursion":9516,"##esses":9517,"##ida":9518,"##ectively":9519,"peril":9520,"##emin":9521,"##imistic":9522,"##imonious":9523,"suited":9524,"##iracy":9525,"exempt":9526,"##adder":9527,"really":9528,"reactions":9529,"fried":9530,"fruits":9531,"##oderm":9532,"##istan":9533,"##usal":9534,"##umble":9535,"##uminous":9536,"##aks":9537,"##ayment":9538,"##osc":9539,"##osidae":9540,"deer":9541,"deterior":9542,"##ifiable":9543,"chim":9544,"chick":9545,"chord":9546,"chair":9547,"unac":9548,"attending":9549,"prest":9550,"priest":9551,"shift":9552,"shorter":9553,"shifting":9554,"##ocumulus":9555,"spat":9556,"spite":9557,"spider":9558,"spores":9559,"##opod":9560,"segreg":9561,"disgr":9562,"disarr":9563,"dispers":9564,"discred":9565,"##unate":9566,"alert":9567,"alleg":9568,"##ovable":9569,"##agus":9570,"##agged":9571,"clo":9572,"##ruous":9573,"##izard":9574,"##ptive":9575,"obsequ":9576,"abide":9577,"##ishly":9578,"##bery":9579,"##asses":9580,"contam":9581,"##eller":9582,"##ellaneous":9583,"##jections":9584,"outbur":9585,"flick":9586,"##ameter":9587,"strang":9588,"##aucr":9589,"desires":9590,"coins":9591,"genital":9592,"genetically":9593,"braz":9594,"bribe":9595,"scan":9596,"scored":9597,"scales":9598,"Sometimes":9599,"colony":9600,"agend":9601,"agony":9602,"pool":9603,"neat":9604,"indisp":9605,"##icky":9606,"bloc":9607,"bluish":9608,"bladder":9609,"recurrent":9610,"incident":9611,"incidental":9612,"unders":9613,"syrup":9614,"feast":9615,"##eph":9616,"##ependent":9617,"elbow":9618,"##ructed":9619,"instinct":9620,"larva":9621,"amazing":9622,"playfully":9623,"assent":9624,"canc":9625,"canal":9626,"cancel":9627,"remorse":9628,"processor":9629,"insin":9630,"##iae":9631,"##ceptable":9632,"goose":9633,"Theraph":9634,"##pleted":9635,"##plets":9636,"became":9637,"endurance":9638,"##enched":9639,"email":9640,"emerg":9641,"slut":9642,"slice":9643,"slides":9644,"slopes":9645,"weaken":9646,"website":9647,"repud":9648,"infield":9649,"infraction":9650,"crisp":9651,"supplies":9652,"##teous":9653,"involve":9654,"idol":9655,"skirt":9656,"alluring":9657,"defects":9658,"imb":9659,"Unus":9660,"Unpleasant":9661,"##ucing":9662,"backs":9663,"goodwill":9664,"wherein":9665,"secured":9666,"discipl":9667,"discovery":9668,"##olves":9669,"covert":9670,"covers":9671,"differently":9672,"differences":9673,"collar":9674,"affix":9675,"afflict":9676,"completion":9677,"restriction":9678,"shapes":9679,"Performed":9680,"constitution":9681,"electron":9682,"putre":9683,"matrix":9684,"swing":9685,"swamp":9686,"signing":9687,"Conforming":9688,"retire":9689,"difficulties":9690,"operator":9691,"refuge":9692,"approximate":9693,"measures":9694,"subjective":9695,"connects":9696,"originated":9697,"lesson":9698,"##oidable":9699,"guid":9700,"heresy":9701,"uncomfortable":9702,"profitable":9703,"morph":9704,"norms":9705,"steward":9706,"monster":9707,"destiny":9708,"motive":9709,"motivated":9710,"violation":9711,"violate":9712,"career":9713,"spiral":9714,"depiction":9715,"influences":9716,"respectable":9717,"##ushy":9718,"explains":9719,"popul":9720,"demons":9721,"immature":9722,"Independent":9723,"solve":9724,"solicit":9725,"increases":9726,"charism":9727,"Athen":9728,"communist":9729,"##strate":9730,"propel":9731,"favoring":9732,"angular":9733,"1970s":9734,"thinly":9735,"unsound":9736,"unsuitable":9737,"converted":9738,"employees":9739,"ruler":9740,"predetermined":9741,"convention":9742,"holid":9743,"voltage":9744,"knowledgeable":9745,"primitive":9746,"tasked":9747,"Euroz":9748,"awful":9749,"radiate":9750,"behaviors":9751,"sentiment":9752,"##elessly":9753,"summer":9754,"governmental":9755,"punch":9756,"denote":9757,"semen":9758,"copies":9759,"alongside":9760,"concise":9761,"cardinal":9762,"antib":9763,"antiqu":9764,"mohair":9765,"secretion":9766,"apost":9767,"customs":9768,"films":9769,"executive":9770,"obligations":9771,"obligatory":9772,"walkway":9773,"##ealing":9774,"surroundings":9775,"invested":9776,"Prim":9777,"fashionable":9778,"malicious":9779,"initially":9780,"initiating":9781,"obstacles":9782,"accommod":9783,"returned":9784,"##eading":9785,"hypoc":9786,"starts":9787,"##sequential":9788,"imagined":9789,"Arab":9790,"rocking":9791,"consciously":9792,"Ability":9793,"accessory":9794,"Adorned":9795,"Once":9796,"fluids":9797,"rendering":9798,"occupied":9799,"stories":9800,"tends":9801,"favouring":9802,"splash":9803,"contented":9804,"tricks":9805,"alternating":9806,"photosynt":9807,"godd":9808,"##zzle":9809,"agreeing":9810,"agreeably":9811,"accurately":9812,"suggesting":9813,"condom":9814,"disturbing":9815,"declar":9816,"marketplace":9817,"##ightened":9818,"##ompanied":9819,"aster":9820,"astrological":9821,"minority":9822,"financially":9823,"comprises":9824,"guardian":9825,"lasts":9826,"assuming":9827,"wanting":9828,"dissolved":9829,"cleaner":9830,"cleaning":9831,"strips":9832,"stripes":9833,"blows":9834,"celebrated":9835,"cordial":9836,"loosely":9837,"educated":9838,"melting":9839,"adjusted":9840,"Contin":9841,"cattle":9842,"tools":9843,"unstable":9844,"enlarge":9845,"slightest":9846,"courageous":9847,"continuously":9848,"accumulated":9849,"Christianity":9850,"Outside":9851,"emphasize":9852,"nucleus":9853,"impulsive":9854,"timbers":9855,"descended":9856,"uneven":9857,"Strange":9858,"Strength":9859,"lawsuit":9860,"ample":9861,"amphib":9862,"hesitant":9863,"saucy":9864,"irregularly":9865,"mythical":9866,"bigger":9867,"nerves":9868,"department":9869,"crystal":9870,"dilute":9871,"##allowed":9872,"translation":9873,"20th":9874,"queue":9875,"tenderness":9876,"elegance":9877,"premature":9878,"swimming":9879,"Confused":9880,"multiplied":9881,"dishonestly":9882,"fragile":9883,"appointment":9884,"##ridge":9885,"phonograph":9886,"conflicting":9887,"Providing":9888,"##eckles":9889,"prostitutes":9890,"Subst":9891,"adherent":9892,"acknowledge":9893,"ferment":9894,"unlaw":9895,"Regular":9896,"Across":9897,"drops":9898,"plainly":9899,"floating":9900,"1000":9901,"dedicated":9902,"Islamic":9903,"cabinet":9904,"sanction":9905,"discern":9906,"disruption":9907,"fungus":9908,"Distinct":9909,"nutr":9910,"innermost":9911,"perfection":9912,"illumination":9913,"explosive":9914,"Available":9915,"padd":9916,"whims":9917,"forcible":9918,"sustain":9919,"shrub":9920,"disappoint":9921,"undertaking":9922,"inconsider":9923,"unreasonably":9924,"Russia":9925,"droplets":9926,"deficient":9927,"companions":9928,"crustace":9929,"vigorously":9930,"fertil":9931,"hammer":9932,"##vertheless":9933,"channel":9934,"channels":9935,"inconsequential":9936,"infantry":9937,"confrontation":9938,"headlines":9939,"endeavour":9940,"endeavor":9941,"discontent":9942,"ascertained":9943,"##oplasm":9944,"Emotional":9945,"chromosome":9946,"chromosomes":9947,"gauge":9948,"closer":9949,"extremes":9950,"ridiculous":9951,"Northern":9952,"loyal":9953,"unkind":9954,"outcry":9955,"articulate":9956,"legitimate":9957,"antagonistic":9958,"rebuke":9959,"stereotypical":9960,"Damned":9961,"Nearly":9962,"cubic":9963,"daughters":9964,"foam":9965,"Exactly":9966,"geometric":9967,"Republic":9968,"shrewd":9969,"aggregate":9970,"irrational":9971,"explanation":9972,"daily":9973,"voyage":9974,"merchandise":9975,"Brazil":9976,"hobby":9977,"vestment":9978,"##recy":9979,"overpowering":9980,"indiscrim":9981,"secluded":9982,"swindle":9983,"extravagant":9984,"Caucasian":9985,"Suffering":9986,"rifle":9987,"sibling":9988,"thousand":9989,"whiskey":9990,"disapproval":9991,"##aundy":9992,"viscous":9993,"Entire":9994,"Operating":9995,"dessert":9996,"tubercul":9997,"victim":9998,"encompassing":9999,"neighbourhood":10000,"Business":10001,"bureaucr":10002,"bishop":10003,"nausea":10004,"maneuver":10005,"elongated":10006,"##worthiness":10007,"Irritable":10008,"electromagnetic":10009,"Foolish":10010,"Jupiter":10011,"Mercury":10012,"Southern":10013,"arouse":10014,"dainty":10015,"pilot":10016,"struck":10017,"outburst":10018,"Theraphosidae":10019,"emergency":10020,"Eurozone":10021,"21":10022,"31":10023,"Are":10024,"Bene":10025,"Cle":10026,"Cra":10027,"Dir":10028,"End":10029,"Egy":10030,"Elev":10031,"Eager":10032,"Fine":10033,"Fair":10034,"Fashion":10035,"Ge":10036,"Hisp":10037,"Human":10038,"Ill":10039,"Kind":10040,"Little":10041,"Leading":10042,"Main":10043,"Moon":10044,"Nintend":10045,"Obs":10046,"Ostent":10047,"Pak":10048,"Pract":10049,"Sing":10050,"Test":10051,"Temporary":10052,"Vict":10053,"Will":10054,"Water":10055,"Why":10056,"Wik":10057,"aper":10058,"baking":10059,"bought":10060,"cis":10061,"cind":10062,"cater":10063,"cask":10064,"ceph":10065,"du":10066,"dar":10067,"dus":10068,"dose":10069,"dau":10070,"dock":10071,"dair":10072,"dense":10073,"dors":10074,"dub":10075,"dazz":10076,"eternal":10077,"euk":10078,"ejac":10079,"fel":10080,"fid":10081,"fist":10082,"fence":10083,"flex":10084,"frog":10085,"farthest":10086,"fussy":10087,"gn":10088,"gast":10089,"grud":10090,"hem":10091,"hurr":10092,"horn":10093,"hug":10094,"hastily":10095,"ironic":10096,"jar":10097,"jab":10098,"led":10099,"lur":10100,"lect":10101,"lies":10102,"malf":10103,"null":10104,"nasty":10105,"pant":10106,"pard":10107,"pip":10108,"pian":10109,"pseud":10110,"rav":10111,"rising":10112,"rival":10113,"rhet":10114,"rays":10115,"sift":10116,"sighs":10117,"southe":10118,"tide":10119,"tink":10120,"tank":10121,"tinct":10122,"tabl":10123,"telling":10124,"taper":10125,"tonic":10126,"taught":10127,"van":10128,"vent":10129,"won":10130,"wider":10131,"wished":10132,"wanted":10133,"yielding":10134,"yadd":10135,"##aque":10136,"##lical":10137,"##life":10138,"##leness":10139,"##mar":10140,"##han":10141,"##haps":10142,"##ever":10143,"##fast":10144,"##fire":10145,"##father":10146,"##faction":10147,"##function":10148,"##iotic":10149,"##iests":10150,"##self":10151,"##sively":10152,"##uction":10153,"##gu":10154,"##gers":10155,"##gments":10156,"##ping":10157,"##pensive":10158,"##rage":10159,"##ression":10160,"##cence":10161,"##cised":10162,"##job":10163,"##vas":10164,"##O2":10165,"##ID":10166,"##inarily":10167,"##erie":10168,"##atomic":10169,"##attent":10170,"##esque":10171,"##ede":10172,"##itates":10173,"##itors":10174,"##orish":10175,"tooth":10176,"##arant":10177,"inver":10178,"inward":10179,"ingest":10180,"anch":10181,"animate":10182,"##ecd":10183,"##leum":10184,"##leep":10185,"Toward":10186,"##thor":10187,"##thought":10188,"##asement":10189,"##asions":10190,"##eliness":10191,"##roit":10192,"##roar":10193,"##rocess":10194,"##rogen":10195,"beating":10196,"stur":10197,"##othed":10198,"fores":10199,"forec":10200,"cone":10201,"##urer":10202,"##urated":10203,"##igious":10204,"##igrate":10205,"perhaps":10206,"##cturn":10207,"##avy":10208,"##uts":10209,"##irical":10210,"exempl":10211,"##adition":10212,"reest":10213,"revel":10214,"progen":10215,"##amine":10216,"##chin":10217,"frugal":10218,"##umin":10219,"##umes":10220,"usable":10221,"deem":10222,"deeds":10223,"deeper":10224,"personnel":10225,"##iforn":10226,"chatter":10227,"unhe":10228,"unified":10229,"unbel":10230,"uninter":10231,"unatt":10232,"##ighing":10233,"trache":10234,"##apy":10235,"attended":10236,"prices":10237,"priests":10238,"sher":10239,"##ocol":10240,"##andy":10241,"##tension":10242,"spending":10243,"spicy":10244,"spiny":10245,"manually":10246,"##opic":10247,"##opia":10248,"##iblical":10249,"seated":10250,"seiz":10251,"sewing":10252,"sealed":10253,"Intim":10254,"disorders":10255,"disincl":10256,"##aceful":10257,"enables":10258,"##rout":10259,"##unior":10260,"comply":10261,"composing":10262,"worried":10263,"##ago":10264,"##ackle":10265,"##ageable":10266,"clown":10267,"claws":10268,"clerk":10269,"##izable":10270,"##izzy":10271,"intact":10272,"resisting":10273,"residing":10274,"resolution":10275,"obt":10276,"abroad":10277,"abode":10278,"abhorr":10279,"##ormous":10280,"lever":10281,"arousing":10282,"adhering":10283,"adroit":10284,"##ultural":10285,"meg":10286,"##aryotic":10287,"##ansitive":10288,"outdoors":10289,"##ersed":10290,"fluff":10291,"##print":10292,"##pressed":10293,"suborder":10294,"stray":10295,"strands":10296,"deserve":10297,"coag":10298,"coord":10299,"coherent":10300,"##angible":10301,"smug":10302,"upwards":10303,"brings":10304,"heal":10305,"heated":10306,"intoxicated":10307,"sco":10308,"scrup":10309,"scolding":10310,"Somebody":10311,"drift":10312,"dressed":10313,"overse":10314,"never":10315,"neural":10316,"nevertheless":10317,"##ensis":10318,"carbo":10319,"quill":10320,"pref":10321,"pretend":10322,"prelim":10323,"indul":10324,"##acherous":10325,"grim":10326,"##inted":10327,"commotion":10328,"blame":10329,"twig":10330,"soot":10331,"sober":10332,"recl":10333,"recoil":10334,"incong":10335,"inches":10336,"evoking":10337,"evolution":10338,"undo":10339,"##plus":10340,"##plicated":10341,"eligible":10342,"decomp":10343,"regulate":10344,"ammun":10345,"betting":10346,"surprising":10347,"setback":10348,"tea":10349,"assass":10350,"underwater":10351,"cane":10352,"##cripts":10353,"##oster":10354,"insurr":10355,"insects":10356,"insertion":10357,"transitive":10358,"Thorough":10359,"endorse":10360,"simulate":10361,"Cha":10362,"weas":10363,"reply":10364,"crush":10365,"##text":10366,"##onds":10367,"skull":10368,"pointless":10369,"defe":10370,"Unp":10371,"Unc":10372,"Unim":10373,"Uncon":10374,"##ermost":10375,"correl":10376,"##cerity":10377,"occasions":10378,"lobe":10379,"passes":10380,"buzz":10381,"secrecy":10382,"moveable":10383,"basil":10384,"confid":10385,"confection":10386,"systematic":10387,"lightning":10388,"##ologist":10389,"moder":10390,"Exp":10391,"collab":10392,"collected":10393,"possessed":10394,"creed":10395,"caps":10396,"foliage":10397,"considering":10398,"constantly":10399,"electoral":10400,"swelling":10401,"litter":10402,"signed":10403,"circles":10404,"styl":10405,"incline":10406,"inflict":10407,"gluc":10408,"##raud":10409,"parad":10410,"retail":10411,"engagement":10412,"opera":10413,"followers":10414,"protected":10415,"protecting":10416,"protruding":10417,"appropr":10418,"approve":10419,"measurable":10420,"##issful":10421,"temple":10422,"##aided":10423,"serial":10424,"curl":10425,"curled":10426,"headed":10427,"meanings":10428,"guilty":10429,"greed":10430,"representatives":10431,"detection":10432,"hered":10433,"uncom":10434,"openings":10435,"##ievable":10436,"planets":10437,"##ucked":10438,"equipped":10439,"travers":10440,"Real":10441,"minded":10442,"verd":10443,"softly":10444,"influential":10445,"respectful":10446,"indicator":10447,"misconduct":10448,"referred":10449,"traditions":10450,"immense":10451,"officers":10452,"foundation":10453,"##qualified":10454,"colours":10455,"nearer":10456,"intensive":10457,"standardized":10458,"precurs":10459,"grounds":10460,"sheath":10461,"##boat":10462,"##ophone":10463,"##ophagus":10464,"attractiveness":10465,"director":10466,"expressions":10467,"editing":10468,"woody":10469,"propels":10470,"proponent":10471,"favored":10472,"sportive":10473,"continually":10474,"195":10475,"bloody":10476,"fills":10477,"readiness":10478,"seek":10479,"dominate":10480,"flatter":10481,"deriving":10482,"allowance":10483,"placing":10484,"skinny":10485,"judged":10486,"obliv":10487,"oblong":10488,"streets":10489,"potency":10490,"revoke":10491,"listens":10492,"necessity":10493,"Caused":10494,"darkness":10495,"reasonable":10496,"Comfort":10497,"##ottish":10498,"fullest":10499,"radiation":10500,"behavioral":10501,"rotten":10502,"competent":10503,"competitive":10504,"attempting":10505,"Proper":10506,"##ustomed":10507,"denounce":10508,"horseback":10509,"dealt":10510,"dealer":10511,"debase":10512,"traveling":10513,"concave":10514,"antip":10515,"projections":10516,"adjo":10517,"perceiving":10518,"distinctly":10519,"apathy":10520,"biased":10521,"communicated":10522,"##hydr":10523,"After":10524,"messaging":10525,"conceived":10526,"destroying":10527,"malice":10528,"marijuana":10529,"authentic":10530,"taxes":10531,"intervention":10532,"interview":10533,"Appalling":10534,"hypoderm":10535,"spreads":10536,"troubled":10537,"claimed":10538,"vertices":10539,"imagery":10540,"Arr":10541,"Army":10542,"divides":10543,"##venile":10544,"altering":10545,"Adam":10546,"Impro":10547,"testing":10548,"testimony":10549,"fatty":10550,"advancement":10551,"Scottish":10552,"urgent":10553,"creatures":10554,"splitting":10555,"complaint":10556,"apparel":10557,"avoiding":10558,"applications":10559,"##austic":10560,"killed":10561,"loaded":10562,"sinister":10563,"extends":10564,"comfortably":10565,"girlfriend":10566,"romance":10567,"##rehensible":10568,"weakness":10569,"nightcl":10570,"nationalist":10571,"angered":10572,"compression":10573,"recognizable":10574,"witty":10575,"##ominable":10576,"Likely":10577,"Severe":10578,"unknow":10579,"reflected":10580,"reflects":10581,"complexity":10582,"seriousness":10583,"costs":10584,"costume":10585,"blowjob":10586,"believes":10587,"Neither":10588,"aimed":10589,"enjoyable":10590,"pushing":10591,"intellectually":10592,"pronounce":10593,"robe":10594,"ancestral":10595,"hydroc":10596,"commanding":10597,"faulty":10598,"rodents":10599,"staying":10600,"distressing":10601,"accompanying":10602,"accompaniment":10603,"revealed":10604,"apartment":10605,"Placed":10606,"banned":10607,"unmixed":10608,"unmatched":10609,"manipulation":10610,"Generous":10611,"stationary":10612,"irritation":10613,"tubes":10614,"contradict":10615,"juvenile":10616,"artificially":10617,"Opposing":10618,"venue":10619,"prosec":10620,"prospect":10621,"uneasy":10622,"##rusted":10623,"likelihood":10624,"mythology":10625,"Forming":10626,"tribute":10627,"residue":10628,"buttons":10629,"reducing":10630,"Grand":10631,"dignified":10632,"interpre":10633,"territories":10634,"Deviation":10635,"inexperienced":10636,"inexpensive":10637,"optical":10638,"discriminating":10639,"Composed":10640,"compensate":10641,"Attractive":10642,"knees":10643,"perfectly":10644,"barren":10645,"summar":10646,"integrity":10647,"taxonomic":10648,"eccentric":10649,"journal":10650,"roles":10651,"tangible":10652,"adulter":10653,"adultery":10654,"flourish":10655,"neighbor":10656,"gratification":10657,"exploitation":10658,"Italy":10659,"Truth":10660,"links":10661,"unlucky":10662,"elimination":10663,"calculating":10664,"convenience":10665,"capitalism":10666,"advertisement":10667,"vulva":10668,"plucked":10669,"spinning":10670,"brilliance":10671,"turbulent":10672,"embellish":10673,"administered":10674,"liberal":10675,"wavy":10676,"complementary":10677,"pounds":10678,"probability":10679,"companion":10680,"Hawaii":10681,"fibers":10682,"halluc":10683,"clients":10684,"headlong":10685,"dialogue":10686,"ominous":10687,"degrade":10688,"reluctance":10689,"neurological":10690,"accomplishments":10691,"ultimately":10692,"Californ":10693,"ecst":10694,"kissing":10695,"##iasis":10696,"frightening":10697,"Exceptional":10698,"Exceptionally":10699,"Emotionally":10700,"hills":10701,"rugged":10702,"inquis":10703,"buyer":10704,"bolted":10705,"fictitious":10706,"##writing":10707,"unintentionally":10708,"manuscript":10709,"manuscripts":10710,"indecorous":10711,"indifferent":10712,"enlarged":10713,"touches":10714,"alleviation":10715,"blanket":10716,"feudalism":10717,"corporeal":10718,"volcano":10719,"intimidating":10720,"cigarette":10721,"hurry":10722,"vibrating":10723,"##abetes":10724,"leisurely":10725,"symmetry":10726,"variables":10727,"heavenly":10728,"vulnerability":10729,"Certain":10730,"Terr":10731,"moths":10732,"##igerent":10733,"enzyme":10734,"##ipedia":10735,"transitory":10736,"portraying":10737,"mysterious":10738,"multiplication":10739,"mimic":10740,"mourn":10741,"unorthodox":10742,"unavoidable":10743,"disseminate":10744,"metabol":10745,"protuberance":10746,"diagnosis":10747,"Employing":10748,"Collectively":10749,"Distinguished":10750,"Venus":10751,"euph":10752,"sullen":10753,"reptile":10754,"clinic":10755,"rescue":10756,"carpet":10757,"combustion":10758,"encircles":10759,"hypocrisy":10760,"microorganisms":10761,"sulphur":10762,"Furnished":10763,"Necessary":10764,"Virgin":10765,"glee":10766,"uppermost":10767,"velvet":10768,"incessantly":10769,"ankle":10770,"seawater":10771,"simply":10772,"harmonize":10773,"guardianship":10774,"Essential":10775,"orchestra":10776,"False":10777,"Radiant":10778,"Zealand":10779,"dysfunction":10780,"lubric":10781,"savoury":10782,"vitriol":10783,"##isphere":10784,"chimney":10785,"unacceptable":10786,"disarray":10787,"discredit":10788,"genitalia":10789,"brazen":10790,"photosynthesis":10791,"Substance":10792,"Egypt":10793,"Fashionably":10794,"Hispanic":10795,"Nintendo":10796,"Pakistan":10797,"Wikipedia":10798,"aperture":10799,"cephal":10800,"dairy":10801,"dorsal":10802,"eukaryotic":10803,"malfunction":10804,"tapered":10805,"yadda":10806,"##cturnal":10807,"reestabl":10808,"trachea":10809,"preliminary":10810,"ammunition":10811,"insurrection":10812,"hypodermic":10813,"California":10814,"11":10815,"24":10816,"90":10817,"Ages":10818,"Bh":10819,"Bes":10820,"Bre":10821,"Bound":10822,"City":10823,"Cant":10824,"Courage":10825,"Created":10826,"During":10827,"Ener":10828,"Fuck":10829,"Gu":10830,"Gover":10831,"Hin":10832,"Hom":10833,"Kn":10834,"Lo":10835,"Len":10836,"Low":10837,"Mel":10838,"Mass":10839,"Mach":10840,"Norm":10841,"Naz":10842,"Norse":10843,"Pu":10844,"Qur":10845,"Rapid":10846,"Sol":10847,"Said":10848,"Swed":10849,"Tall":10850,"Trou":10851,"Term":10852,"Tired":10853,"Techn":10854,"Text":10855,"Ur":10856,"Wear":10857,"Yielding":10858,"astr":10859,"bon":10860,"bay":10861,"bos":10862,"bout":10863,"boss":10864,"bats":10865,"bisc":10866,"borders":10867,"cure":10868,"cave":10869,"cough":10870,"caught":10871,"dating":10872,"damp":10873,"daring":10874,"edition":10875,"eats":10876,"fiber":10877,"fences":10878,"fuss":10879,"fading":10880,"fierce":10881,"gorge":10882,"hip":10883,"hits":10884,"hilt":10885,"hasty":10886,"junior":10887,"kin":10888,"kir":10889,"lac":10890,"lam":10891,"latter":10892,"lamb":10893,"lengthen":10894,"lighter":10895,"lizard":10896,"mater":10897,"muc":10898,"muff":10899,"nude":10900,"nosy":10901,"omission":10902,"ough":10903,"pac":10904,"pious":10905,"paste":10906,"pores":10907,"pelv":10908,"rh":10909,"ram":10910,"rings":10911,"rouse":10912,"ruff":10913,"rasp":10914,"roving":10915,"rasc":10916,"sly":10917,"tens":10918,"tors":10919,"tape":10920,"tighten":10921,"tucked":10922,"utens":10923,"venture":10924,"waving":10925,"wary":10926,"wires":10927,"zig":10928,"##aun":10929,"##bable":10930,"##bone":10931,"##bind":10932,"##ozo":10933,"##lin":10934,"##lon":10935,"##len":10936,"##lore":10937,"##lers":10938,"##mits":10939,"##maid":10940,"##hanging":10941,"##hole":10942,"##hook":10943,"##eed":10944,"##iac":10945,"##ios":10946,"##iably":10947,"##sing":10948,"##ui":10949,"##uance":10950,"##na":10951,"##gency":10952,"##group":10953,"##ped":10954,"##pone":10955,"##rap":10956,"##rise":10957,"##rically":10958,"##dles":10959,"##joy":10960,"##zen":10961,"##ka":10962,"##killed":10963,"##woman":10964,"##H1":10965,"##1st":10966,"##DS":10967,"##iner":10968,"##inue":10969,"##inished":10970,"orthodox":10971,"##atio":10972,"##enuous":10973,"##enzo":10974,"##ali":10975,"##ald":10976,"##alized":10977,"##itzer":10978,"##ori":10979,"##orian":10980,"tom":10981,"toe":10982,"toile":10983,"tomb":10984,"topped":10985,"##arity":10986,"##arians":10987,"##anthrop":10988,"injection":10989,"theology":10990,"theories":10991,"##isdom":10992,"##represent":10993,"Total":10994,"##acritical":10995,"##elic":10996,"##rob":10997,"##roleum":10998,"##ometer":10999,"##ithmet":11000,"##uled":11001,"bean":11002,"stance":11003,"stare":11004,"stature":11005,"stilt":11006,"forear":11007,"forget":11008,"foresh":11009,"onions":11010,"asleep":11011,"contend":11012,"conced":11013,"conference":11014,"withstand":11015,"##iler":11016,"##ilant":11017,"##ilful":11018,"##sexual":11019,"##seemly":11020,"##terity":11021,"perine":11022,"percent":11023,"##eme":11024,"##ems":11025,"##imacy":11026,"##avic":11027,"##etics":11028,"##aints":11029,"##utiae":11030,"##irit":11031,"##irting":11032,"exile":11033,"export":11034,"exerting":11035,"##abled":11036,"##adowing":11037,"reass":11038,"reform":11039,"rejection":11040,"##amel":11041,"##child":11042,"##oded":11043,"##uma":11044,"##umer":11045,"##ayed":11046,"##antine":11047,"deleg":11048,"persistently":11049,"plag":11050,"plaster":11051,"plunder":11052,"plausible":11053,"##estone":11054,"##estry":11055,"##ifer":11056,"##ifts":11057,"chin":11058,"chart":11059,"unions":11060,"unob":11061,"##aping":11062,"attainment":11063,"prick":11064,"printer":11065,"prudent":11066,"pragm":11067,"shaving":11068,"shovel":11069,"shopping":11070,"##ocating":11071,"##ocular":11072,"##tained":11073,"spice":11074,"spelling":11075,"sparing":11076,"notification":11077,"sear":11078,"seized":11079,"segments":11080,"##ardi":11081,"##quest":11082,"Offer":11083,"disorgan":11084,"##allus":11085,"##allowing":11086,"engr":11087,"envel":11088,"enfor":11089,"##ouring":11090,"##unct":11091,"##uncle":11092,"##unken":11093,"computation":11094,"compelled":11095,"alb":11096,"relatives":11097,"clue":11098,"clasp":11099,"##endation":11100,"##izer":11101,"intangible":11102,"reson":11103,"respl":11104,"abatement":11105,"abominable":11106,"arter":11107,"arise":11108,"arithmet":11109,"adhere":11110,"adept":11111,"##ieth":11112,"##earance":11113,"mannered":11114,"##orean":11115,"##ellers":11116,"outlet":11117,"outwards":11118,"##ounds":11119,"impe":11120,"implying":11121,"imprud":11122,"flap":11123,"flinch":11124,"##ogene":11125,"stately":11126,"##atern":11127,"subdue":11128,"subatomic":11129,"strung":11130,"strengthen":11131,"desir":11132,"coal":11133,"cohesive":11134,"smelling":11135,"smoke":11136,"upland":11137,"uproar":11138,"bron":11139,"brides":11140,"consol":11141,"consonant":11142,"heir":11143,"scent":11144,"scold":11145,"scroll":11146,"liability":11147,"agitate":11148,"drill":11149,"overr":11150,"overhanging":11151,"pole":11152,"##ensed":11153,"quaint":11154,"interjection":11155,"gray":11156,"phylum":11157,"commendation":11158,"blues":11159,"blaze":11160,"soap":11161,"soaking":11162,"recycl":11163,"qualification":11164,"qualifying":11165,"evap":11166,"evokes":11167,"undetermined":11168,"##awning":11169,"producer":11170,"nocturnal":11171,"feign":11172,"##plan":11173,"##ritically":11174,"distract":11175,"distilled":11176,"accidental":11177,"elastic":11178,"##ructured":11179,"instantly":11180,"decaying":11181,"devise":11182,"devoid":11183,"surplus":11184,"worked":11185,"teasp":11186,"boisterous":11187,"inscribed":11188,"insurance":11189,"Three":11190,"emits":11191,"emblem":11192,"emulsion":11193,"offsh":11194,"slave":11195,"slushy":11196,"weep":11197,"republic":11198,"cran":11199,"##pared":11200,"##paringly":11201,"defiance":11202,"defraud":11203,"Unseemly":11204,"humble":11205,"loot":11206,"speeches":11207,"backup":11208,"varied":11209,"##class":11210,"artifice":11211,"brew":11212,"breach":11213,"provocation":11214,"secular":11215,"config":11216,"confusing":11217,"discreet":11218,"##ietal":11219,"##ieties":11220,"substandard":11221,"##ologic":11222,"models":11223,"Extending":11224,"Experienc":11225,"delectable":11226,"chew":11227,"fired":11228,"restrained":11229,"entit":11230,"entices":11231,"courteous":11232,"commonplace":11233,"putrid":11234,"informed":11235,"matches":11236,"viscer":11237,"##obin":11238,"##obia":11239,"##anking":11240,"humane":11241,"excites":11242,"foods":11243,"downwards":11244,"inflated":11245,"Conn":11246,"glor":11247,"##raid":11248,"##raft":11249,"reprim":11250,"parade":11251,"kindly":11252,"operative":11253,"Standing":11254,"approaching":11255,"wrap":11256,"##incing":11257,"##incarn":11258,"ideally":11259,"##issing":11260,"##issance":11261,"bush":11262,"minutes":11263,"minutiae":11264,"sensed":11265,"sensit":11266,"curd":11267,"heads":11268,"guile":11269,"regards":11270,"detect":11271,"detective":11272,"freehold":11273,"musician":11274,"uncovered":11275,"severity":11276,"horr":11277,"cuts":11278,"##ieved":11279,"steering":11280,"monstr":11281,"monitor":11282,"productive":11283,"Americas":11284,"arrived":11285,"motif":11286,"knowing":11287,"knowingly":11288,"addiction":11289,"carefree":11290,"politically":11291,"travellers":11292,"exposure":11293,"expanse":11294,"depos":11295,"verte":11296,"promotes":11297,"hardy":11298,"misstep":11299,"misrepresent":11300,"preserving":11301,"calam":11302,"exploration":11303,"childish":11304,"childhood":11305,"describes":11306,"utmost":11307,"concerted":11308,"painted":11309,"charity":11310,"precept":11311,"sheets":11312,"accepting":11313,"avail":11314,"currencies":11315,"payments":11316,"propelled":11317,"##branded":11318,"anguish":11319,"dispos":11320,"dispose":11321,"199":11322,"harmonious":11323,"fillip":11324,"collecting":11325,"##holder":11326,"unsophisticated":11327,"rape":11328,"domine":11329,"encycl":11330,"breakable":11331,"behaviours":11332,"##affled":11333,"criter":11334,"potent":11335,"ruled":11336,"saturated":11337,"revol":11338,"predicate":11339,"lengthy":11340,"injurious":11341,"convince":11342,"fruitful":11343,"essay":11344,"improved":11345,"prime":11346,"everyone":11347,"Completed":11348,"doubling":11349,"rotting":11350,"sleet":11351,"foref":11352,"forever":11353,"foreigner":11354,"postpone":11355,"warfare":11356,"thoughtful":11357,"utterly":11358,"denotes":11359,"furious":11360,"justice":11361,"conducting":11362,"falsehood":11363,"Along":11364,"Almost":11365,"sunrise":11366,"depress":11367,"hitter":11368,"##eseen":11369,"concord":11370,"garn":11371,"garbage":11372,"Displaying":11373,"Spain":11374,"machines":11375,"crucial":11376,"unfit":11377,"unfor":11378,"unfold":11379,"##astery":11380,"questioning":11381,"Prom":11382,"versa":11383,"temperament":11384,"conceited":11385,"attacks":11386,"ceiling":11387,"synonym":11388,"##respons":11389,"initiative":11390,"correctness":11391,"temporal":11392,"auton":11393,"diameter":11394,"diacritical":11395,"focal":11396,"racetr":11397,"virgin":11398,"##ikes":11399,"##reliable":11400,"futile":11401,"claiming":11402,"blocking":11403,"middleman":11404,"replacement":11405,"##aughty":11406,"Art":11407,"environmental":11408,"183":11409,"188":11410,"Above":11411,"furnished":11412,"suspending":11413,"unwell":11414,"codom":11415,"cyber":11416,"fatal":11417,"satisfactory":11418,"farther":11419,"urchin":11420,"stores":11421,"harness":11422,"meridian":11423,"issues":11424,"creator":11425,"ethical":11426,"petroleum":11427,"stimul":11428,"exhibits":11429,"psychic":11430,"psychiat":11431,"joke":11432,"packet":11433,"sticky":11434,"progressive":11435,"groom":11436,"trustworthy":11437,"branching":11438,"comparable":11439,"comparatively":11440,"philanthrop":11441,"helping":11442,"Easy":11443,"sandy":11444,"loading":11445,"Tradition":11446,"vocalisation":11447,"##avourable":11448,"preferences":11449,"advocacy":11450,"inferiors":11451,"concentrate":11452,"demands":11453,"internet":11454,"nationalistic":11455,"outermost":11456,"recognized":11457,"philosopher":11458,"witted":11459,"witches":11460,"imperial":11461,"attends":11462,"attendant":11463,"smoothly":11464,"remarks":11465,"remarkably":11466,"firmness":11467,"reflecting":11468,"wanton":11469,"complexion":11470,"climax":11471,"climbing":11472,"costly":11473,"copyright":11474,"fortification":11475,"billion":11476,"yields":11477,"universities":11478,"vacation":11479,"earliest":11480,"unrefined":11481,"resemblance":11482,"ancestors":11483,"Control":11484,"dyed":11485,"missile":11486,"rhyme":11487,"stupef":11488,"unstructured":11489,"Insane":11490,"Incor":11491,"aggressively":11492,"faults":11493,"Below":11494,"stays":11495,"enlist":11496,"honourable":11497,"Smooth":11498,"capturing":11499,"mountains":11500,"manifestations":11501,"reproduced":11502,"inherently":11503,"emphasizes":11504,"mercury":11505,"mammon":11506,"irritating":11507,"panels":11508,"virtual":11509,"virtuous":11510,"Accompanied":11511,"Higher":11512,"timberline":11513,"##neyed":11514,"drags":11515,"homosexuality":11516,"latest":11517,"willingly":11518,"thrive":11519,"frost":11520,"frolic":11521,"renown":11522,"supposedly":11523,"bordering":11524,"lymph":11525,"furnishings":11526,"criticisms":11527,"intentions":11528,"puzzling":11529,"Lean":11530,"folded":11531,"grammar":11532,"Support":11533,"wattle":11534,"reprove":11535,"demonstrates":11536,"Weak":11537,"rebell":11538,"alienation":11539,"intimidate":11540,"premium":11541,"intermed":11542,"Confined":11543,"Canis":11544,"fellowship":11545,"tanning":11546,"spotted":11547,"ensure":11548,"wealthy":11549,"Refl":11550,"Designating":11551,"vaguely":11552,"pork":11553,"porcel":11554,"priority":11555,"extrap":11556,"opportunities":11557,"plugs":11558,"intrins":11559,"fleeting":11560,"##otype":11561,"adulterous":11562,"adheres":11563,"neighboring":11564,"domesticated":11565,"gentleman":11566,"linked":11567,"coastal":11568,"Regard":11569,"Regarded":11570,"Accept":11571,"composer":11572,"##rudes":11573,"tapering":11574,"worms":11575,"dollar":11576,"incompatible":11577,"decrease":11578,"decrepit":11579,"cannon":11580,"greyish":11581,"achievements":11582,"Slavic":11583,"crowded":11584,"perfume":11585,"corporation":11586,"illuminate":11587,"mislead":11588,"assemble":11589,"assembling":11590,"assembled":11591,"Corpor":11592,"gems":11593,"mortg":11594,"stamping":11595,"prisoner":11596,"cookery":11597,"scooping":11598,"indirectly":11599,"installed":11600,"Australia":11601,"cartoon":11602,"prolonged":11603,"gracefully":11604,"decayed":11605,"transformation":11606,"irrelevant":11607,"throaty":11608,"hospitality":11609,"youthful":11610,"isolation":11611,"deficiency":11612,"evaluation":11613,"feedback":11614,"membran":11615,"vastly":11616,"impede":11617,"inconven":11618,"descendants":11619,"Boisterous":11620,"##riendly":11621,"reinforce":11622,"altitude":11623,"appendage":11624,"overlapping":11625,"mischief":11626,"Calm":11627,"beside":11628,"dioxin":11629,"hackneyed":11630,"orche":11631,"##ennial":11632,"##emonstr":11633,"algae":11634,"reservation":11635,"amateurs":11636,"presumed":11637,"furthest":11638,"Discour":11639,"sacrifice":11640,"lustful":11641,"inquiry":11642,"invalidate":11643,"ridicule":11644,"Permission":11645,"pincushion":11646,"tears":11647,"unkempt":11648,"scenes":11649,"indifference":11650,"legitimacy":11651,"delicacy":11652,"touched":11653,"cooperate":11654,"instantaneously":11655,"synchronization":11656,"Basic":11657,"crooked":11658,"cereal":11659,"village":11660,"implicit":11661,"commodity":11662,"undergone":11663,"tempo":11664,"tempest":11665,"Firmly":11666,"diplom":11667,"pallid":11668,"vomiting":11669,"displeasure":11670,"intuitively":11671,"consecutive":11672,"acceleration":11673,"sandwich":11674,"disguise":11675,"mercenary":11676,"benz":11677,"jolly":11678,"mirror":11679,"disperse":11680,"Deeply":11681,"malignant":11682,"pedestrian":11683,"Written":11684,"aphor":11685,"asymmet":11686,"venomous":11687,"prosperity":11688,"Absolutely":11689,"aesthetic":11690,"oscill":11691,"pornography":11692,"voices":11693,"bewilder":11694,"persever":11695,"abbreviated":11696,"discordant":11697,"affliction":11698,"snobbish":11699,"punctual":11700,"Disgusting":11701,"apologetic":11702,"inheritance":11703,"quarrelsome":11704,"Intellect":11705,"citizenship":11706,"alchemy":11707,"Casually":11708,"hippies":11709,"lucre":11710,"##animous":11711,"##lysis":11712,"proclaim":11713,"##oglobin":11714,"eliciting":11715,"repugnance":11716,"mushroom":11717,"correction":11718,"elephant":11719,"harvest":11720,"condescending":11721,"Avoidance":11722,"Precisely":11723,"cinema":11724,"ruthlessly":11725,"##iocre":11726,"tolerate":11727,"exemption":11728,"underside":11729,"charismatic":11730,"Area":11731,"Crazy":11732,"Elevated":11733,"dupl":11734,"grudge":11735,"pardon":11736,"tincture":11737,"##attentive":11738,"forecast":11739,"deemed":11740,"disinclined":11741,"obtuse":11742,"abhorrence":11743,"carbohydr":11744,"appropriated":11745,"nightclub":11746,"hydrocarbon":11747,"neighborhood":11748,"ecstasy":11749,"inquisitive":11750,"mournful":11751,"Hindu":11752,"Swedish":11753,"boson":11754,"biscuit":11755,"ought":11756,"rascal":11757,"torso":11758,"zigz":11759,"forearm":11760,"foreshadowing":11761,"perineum":11762,"percentage":11763,"resplendent":11764,"arithmetical":11765,"imprudent":11766,"bridesmaid":11767,"Experiencing":11768,"##incarnation":11769,"monstrous":11770,"encycloped":11771,"racetrack":11772,"porcelain":11773,"carbohydrates":11774,"--":11775,"25":11776,"30":11777,"Ap":11778,"Ast":11779,"Bold":11780,"Born":11781,"Border":11782,"Boring":11783,"CO":11784,"Er":11785,"Every":11786,"Easter":11787,"Fil":11788,"Fear":11789,"Foot":11790,"Fully":11791,"Hy":11792,"Hen":11793,"Har":11794,"Hind":11795,"Hyp":11796,"House":11797,"Id":11798,"Jud":11799,"Line":11800,"Love":11801,"Loud":11802,"Mic":11803,"Mong":11804,"Moral":11805,"Net":11806,"Nov":11807,"Neat":11808,"Ot":11809,"Pen":11810,"Pot":11811,"Pain":11812,"Rig":11813,"Ret":11814,"Rich":11815,"Reck":11816,"Sel":11817,"Solar":11818,"Tem":11819,"Tib":11820,"Uk":11821,"Voluntary":11822,"Wood":11823,"Worn":11824,"acrim":11825,"bom":11826,"bac":11827,"bathing":11828,"cos":11829,"cant":11830,"crou":11831,"cement":11832,"cust":11833,"cakes":11834,"caustic":11835,"dip":11836,"dick":11837,"dough":11838,"dying":11839,"diction":11840,"duct":11841,"dipping":11842,"duel":11843,"ether":11844,"eart":11845,"fu":11846,"fed":11847,"fell":11848,"ferv":11849,"font":11850,"fiss":11851,"fixture":11852,"foe":11853,"fiel":11854,"fizz":11855,"gum":11856,"gru":11857,"gase":11858,"glow":11859,"gases":11860,"hen":11861,"hay":11862,"hood":11863,"hiding":11864,"hazard":11865,"hoped":11866,"hedge":11867,"haughty":11868,"icon":11869,"jaws":11870,"king":11871,"kink":11872,"kern":11873,"kingdom":11874,"kook":11875,"lif":11876,"lure":11877,"lace":11878,"lotion":11879,"listing":11880,"lush":11881,"liver":11882,"lifted":11883,"luminous":11884,"mac":11885,"mart":11886,"mish":11887,"mold":11888,"mock":11889,"mont":11890,"maid":11891,"mould":11892,"march":11893,"nest":11894,"nons":11895,"nomin":11896,"oven":11897,"pag":11898,"pose":11899,"pyr":11900,"rent":11901,"rating":11902,"rates":11903,"rowing":11904,"rites":11905,"renting":11906,"saw":11907,"saus":11908,"sash":11909,"solving":11910,"sided":11911,"saved":11912,"tut":11913,"tread":11914,"tables":11915,"viv":11916,"vass":11917,"votes":11918,"west":11919,"wry":11920,"wages":11921,"waf":11922,"wandering":11923,"zither":11924,"##aith":11925,"##bell":11926,"##boy":11927,"##bird":11928,"##brew":11929,"##yc":11930,"##yer":11931,"##yte":11932,"##oat":11933,"##oors":11934,"##lant":11935,"##lude":11936,"##mes":11937,"##mint":11938,"##table":11939,"##try":11940,"##tling":11941,"##hist":11942,"##house":11943,"##human":11944,"##eur":11945,"##fl":11946,"##fight":11947,"##ford":11948,"##family":11949,"##ii":11950,"##iations":11951,"##iology":11952,"##ss":11953,"##sal":11954,"##shed":11955,"##uition":11956,"##uary":11957,"##nx":11958,"##nis":11959,"##nous":11960,"##nual":11961,"##name":11962,"##gs":11963,"##gian":11964,"##pin":11965,"##pipe":11966,"##rim":11967,"##rus":11968,"##rant":11969,"##rite":11970,"##dress":11971,"##core":11972,"##cony":11973,"##casting":11974,"##zed":11975,"##kim":11976,"##xom":11977,"##xious":11978,"##wan":11979,"##wind":11980,"##50":11981,"##BB":11982,"##VID":11983,"##inative":11984,"##inogenic":11985,"##eror":11986,"##onizing":11987,"##alation":11988,"##itone":11989,"##itational":11990,"##itiously":11991,"##itched":11992,"##ituted":11993,"##orig":11994,"##orus":11995,"today":11996,"tokim":11997,"##arism":11998,"##anus":11999,"##ania":12000,"##animate":12001,"inad":12002,"inability":12003,"inversion":12004,"injections":12005,"##icol":12006,"theft":12007,"##omer":12008,"##omus":12009,"##omics":12010,"anim":12011,"anthrop":12012,"anecd":12013,"##iso":12014,"##iser":12015,"##isome":12016,"##isition":12017,"##rep":12018,"##entious":12019,"##entieth":12020,"##ths":12021,"thunder":12022,"##asin":12023,"##asal":12024,"##asive":12025,"##asant":12026,"##astern":12027,"##asiness":12028,"##elle":12029,"##eland":12030,"##rose":12031,"##rogy":12032,"##ivals":12033,"##ivering":12034,"##cegen":12035,"##ulatory":12036,"beet":12037,"began":12038,"beige":12039,"whist":12040,"whining":12041,"whisk":12042,"whirl":12043,"stif":12044,"stages":12045,"stroll":12046,"stitched":12047,"##otations":12048,"##style":12049,"forem":12050,"forcing":12051,"asset":12052,"asylum":12053,"congreg":12054,"##urate":12055,"##urbs":12056,"##ili":12057,"##ationally":12058,"##ola":12059,"##olated":12060,"##oline":12061,"##oluntarily":12062,"##igration":12063,"##essation":12064,"##sets":12065,"##tered":12066,"perme":12067,"perished":12068,"perverse":12069,"perverted":12070,"peripher":12071,"##imm":12072,"##ava":12073,"##aven":12074,"##avel":12075,"##avement":12076,"##avoring":12077,"##atever":12078,"##irts":12079,"##ows":12080,"##owder":12081,"exalt":12082,"##abre":12083,"##abash":12084,"##abited":12085,"##abaster":12086,"##ada":12087,"rely":12088,"reapp":12089,"rearing":12090,"reincarnation":12091,"prod":12092,"procr":12093,"##ama":12094,"##amour":12095,"##chal":12096,"##char":12097,"##istant":12098,"Anac":12099,"##ppings":12100,"##uming":12101,"##umul":12102,"##umines":12103,"##umeration":12104,"##osite":12105,"comical":12106,"##verty":12107,"##verages":12108,"##anta":12109,"##antom":12110,"##antages":12111,"plent":12112,"##estly":12113,"##estant":12114,"##ifold":12115,"chip":12116,"chalk":12117,"chaf":12118,"unal":12119,"unpar":12120,"unman":12121,"unworthy":12122,"unpleasantly":12123,"trance":12124,"prying":12125,"proud":12126,"shun":12127,"shag":12128,"shaken":12129,"shipping":12130,"shabby":12131,"##ocative":12132,"spun":12133,"spear":12134,"spices":12135,"sparse":12136,"managing":12137,"managed":12138,"##oper":12139,"##opath":12140,"##ibus":12141,"notify":12142,"noticing":12143,"seating":12144,"seaf":12145,"Ine":12146,"Infer":12147,"dism":12148,"disast":12149,"disaster":12150,"enact":12151,"##ipation":12152,"##ipino":12153,"compose":12154,"comprom":12155,"comprehension":12156,"alley":12157,"alabaster":12158,"##actic":12159,"worries":12160,"##agious":12161,"##acks":12162,"##pering":12163,"##ccess":12164,"##ruc":12165,"##ptide":12166,"resh":12167,"reside":12168,"obey":12169,"lees":12170,"arches":12171,"arises":12172,"arthrop":12173,"arithm":12174,"##ieg":12175,"##ongs":12176,"##bers":12177,"##illity":12178,"##assic":12179,"##assive":12180,"contort":12181,"contention":12182,"##ellation":12183,"meth":12184,"meter":12185,"##aryons":12186,"##arynx":12187,"impract":12188,"impetus":12189,"impudence":12190,"flip":12191,"##ogy":12192,"##ogging":12193,"##ogram":12194,"##ficient":12195,"submission":12196,"subfamily":12197,"strap":12198,"desk":12199,"desper":12200,"desolate":12201,"coax":12202,"uphold":12203,"attire":12204,"consult":12205,"hex":12206,"intoxic":12207,"scal":12208,"scall":12209,"sched":12210,"scatter":12211,"scarf":12212,"aging":12213,"drip":12214,"overs":12215,"overcoming":12216,"poverty":12217,"##ereal":12218,"needing":12219,"##ensation":12220,"cares":12221,"quite":12222,"quoted":12223,"quotation":12224,"indoor":12225,"indeterm":12226,"##icker":12227,"interact":12228,"intercept":12229,"grit":12230,"phleg":12231,"phantom":12232,"twisting":12233,"twitch":12234,"qualitative":12235,"qualifies":12236,"##aware":12237,"##istically":12238,"feather":12239,"##ictive":12240,"##plate":12241,"##rites":12242,"peak":12243,"thank":12244,"accused":12245,"grouped":12246,"ell":12247,"elite":12248,"decimal":12249,"typing":12250,"regiment":12251,"extant":12252,"deviates":12253,"surly":12254,"canvas":12255,"boot":12256,"boasting":12257,"boorish":12258,"##crutable":12259,"procession":12260,"##osting":12261,"##ditional":12262,"##iannual":12263,"insolent":12264,"insistence":12265,"insubstantial":12266,"inscrutable":12267,"##ysically":12268,"##ysics":12269,"effic":12270,"efficiency":12271,"endowed":12272,"emulation":12273,"eminent":12274,"eminence":12275,"generating":12276,"##iefly":12277,"offend":12278,"offended":12279,"slat":12280,"slaves":12281,"slanting":12282,"slosh":12283,"repul":12284,"reprehensible":12285,"largely":12286,"invoking":12287,"involuntarily":12288,"ski":12289,"knitted":12290,"##urrence":12291,"allot":12292,"##ricious":12293,"defl":12294,"default":12295,"##oyed":12296,"Uncle":12297,"##ermaph":12298,"conditioning":12299,"humid":12300,"coron":12301,"opium":12302,"performances":12303,"##cerned":12304,"buying":12305,"buxom":12306,"provider":12307,"provinc":12308,"provoke":12309,"province":12310,"proviso":12311,"legend":12312,"##enger":12313,"discol":12314,"discarded":12315,"waterproof":12316,"substitution":12317,"##ologies":12318,"periodical":12319,"moderation":12320,"Expect":12321,"Exagger":12322,"Exhaust":12323,"delim":12324,"afford":12325,"cheater":12326,"chewing":12327,"capabilities":12328,"capricious":12329,"considerate":12330,"advise":12331,"restoring":12332,"entreat":12333,"##roportion":12334,"owed":12335,"womanize":12336,"practising":12337,"sideboard":12338,"metals":12339,"planted":12340,"empirical":12341,"directional":12342,"visiting":12343,"switches":12344,"swallowing":12345,"signify":12346,"##obe":12347,"humanoid":12348,"behaves":12349,"patches":12350,"forceful":12351,"inflation":12352,"changeable":12353,"county":12354,"designation":12355,"Connected":12356,"glut":12357,"glance":12358,"glory":12359,"gloves":12360,"##raham":12361,"parish":12362,"parody":12363,"parcel":12364,"retinue":12365,"##unday":12366,"supercil":12367,"termination":12368,"protrudes":12369,"approbation":12370,"liquor":12371,"wrapped":12372,"ideals":12373,"lawyer":12374,"connotations":12375,"minerals":12376,"sensibilities":12377,"traded":12378,"curv":12379,"headache":12380,"broker":12381,"reception":12382,"guarant":12383,"obsession":12384,"detract":12385,"detectable":12386,"herd":12387,"uncivil":12388,"##ieving":12389,"nonchal":12390,"divinity":12391,"##veless":12392,"mottled":12393,"penit":12394,"adds":12395,"politic":12396,"equitable":12397,"equator":12398,"businesses":12399,"##rainian":12400,"##ushions":12401,"negation":12402,"negatively":12403,"promoted":12404,"miscegen":12405,"preserv":12406,"prescribed":12407,"armour":12408,"portrait":12409,"calabash":12410,"functionally":12411,"snap":12412,"owns":12413,"solar":12414,"solic":12415,"solitary":12416,"soluble":12417,"##ributive":12418,"charitable":12419,"charges":12420,"nearest":12421,"calling":12422,"precision":12423,"measurements":12424,"identified":12425,"raises":12426,"governed":12427,"daylight":12428,"editor":12429,"##strual":12430,"leaders":12431,"pays":12432,"angels":12433,"treatise":12434,"disputes":12435,"disproportion":12436,"bloodlet":12437,"regional":12438,"collects":12439,"successive":12440,"##holding":12441,"unsub":12442,"unsparingly":12443,"treas":12444,"specialist":12445,"hairs":12446,"hairstyle":12447,"##affe":12448,"revision":12449,"revival":12450,"lists":12451,"annual":12452,"laying":12453,"voluntarily":12454,"improbable":12455,"##umping":12456,"decorations":12457,"deceptive":12458,"awake":12459,"rotational":12460,"sleazy":12461,"counsel":12462,"lowering":12463,"hoop":12464,"attempted":12465,"Deb":12466,"logs":12467,"##ursive":12468,"Proceeding":12469,"puny":12470,"removable":12471,"denial":12472,"semiannual":12473,"horseman":12474,"##blemaker":12475,"youngest":12476,"##hester":12477,"Alone":12478,"sunset":12479,"speaks":12480,"garments":12481,"Disob":12482,"customarily":12483,"mechanically":12484,"participates":12485,"officials":12486,"gained":12487,"walks":12488,"communicating":12489,"Desc":12490,"sales":12491,"saliva":12492,"helmet":12493,"obstinate":12494,"hymn":12495,"lateral":12496,"pathology":12497,"sweetheart":12498,"racial":12499,"Appealing":12500,"Cloth":12501,"menacing":12502,"digits":12503,"digging":12504,"##eku":12505,"infert":12506,"troublemaker":12507,"squash":12508,"squirm":12509,"choir":12510,"seeming":12511,"imagine":12512,"handsome":12513,"roads":12514,"18th":12515,"Only":12516,"testicles":12517,"accomplishing":12518,"cycl":12519,"appropriately":12520,"occupies":12521,"straighten":12522,"harb":12523,"preventing":12524,"stimulating":12525,"stimulus":12526,"preposition":12527,"mistaken":12528,"tennis":12529,"splashing":12530,"acids":12531,"avoids":12532,"exceptionally":12533,"howl":12534,"thicker":12535,"concealment":12536,"sandstone":12537,"exactness":12538,"unusable":12539,"counterc":12540,"platitude":12541,"corrupting":12542,"corrupted":12543,"despair":12544,"preferential":12545,"##iffs":12546,"##ightenment":12547,"advocated":12548,"batting":12549,"batted":12550,"manufacturing":12551,"##ducive":12552,"weaker":12553,"dresses":12554,"enthusiast":12555,"imperceptible":12556,"balcony":12557,"civilized":12558,"attendance":12559,"polygon":12560,"assumes":12561,"harshly":12562,"ignoring":12563,"concluded":12564,"dissolve":12565,"##ocrat":12566,"##olean":12567,"fortitude":12568,"delaying":12569,"celebrate":12570,"universal":12571,"gentry":12572,"melt":12573,"melod":12574,"##alleled":12575,"connections":12576,"satisfying":12577,"oxid":12578,"glasses":12579,"Physically":12580,"Particular":12581,"binds":12582,"brownish":12583,"catches":12584,"rhyming":12585,"Insignificant":12586,"rods":12587,"requested":12588,"wildly":12589,"embarrassing":12590,"manipulated":12591,"manipulating":12592,"General":12593,"irritable":12594,"panic":12595,"innov":12596,"dragline":12597,"dragging":12598,"legislation":12599,"synthes":12600,"Greatly":12601,"Opposite":12602,"farms":12603,"latent":12604,"unequal":12605,"uneasiness":12606,"likes":12607,"liked":12608,"affections":12609,"heroin":12610,"unconcerned":12611,"improving":12612,"frozen":12613,"hunger":12614,"stems":12615,"patiently":12616,"silkworm":12617,"tribal":12618,"reduces":12619,"departed":12620,"departure":12621,"##uncheon":12622,"adorns":12623,"Affecting":12624,"Blunt":12625,"peduncle":12626,"answerable":12627,"Brutal":12628,"Empty":12629,"Web":12630,"alienated":12631,"repaired":12632,"improperly":12633,"awkwardness":12634,"bacterium":12635,"festivities":12636,"samples":12637,"significantly":12638,"Provence":12639,"Provided":12640,"releases":12641,"intransitive":12642,"strangely":12643,"upsetting":12644,"conspiracy":12645,"columns":12646,"calculation":12647,"microbes":12648,"Hebrew":12649,"rolling":12650,"tangent":12651,"chromatic":12652,"gratuit":12653,"buds":12654,"buddy":12655,"intersecting":12656,"validity":12657,"calculated":12658,"blem":12659,"arbitr":12660,"repetitive":12661,"constraints":12662,"Obv":12663,"Obst":12664,"renewed":12665,"tapestry":12666,"strokes":12667,"chaos":12668,"relaxed":12669,"possesses":12670,"functionality":12671,"Drunk":12672,"Second":12673,"Secret":12674,"luxurious":12675,"trimming":12676,"flavouring":12677,"flavoured":12678,"extracted":12679,"settlement":12680,"contribution":12681,"December":12682,"pillar":12683,"pillion":12684,"pillage":12685,"toughness":12686,"unbroken":12687,"bubble":12688,"15th":12689,"Frequ":12690,"gemstone":12691,"turbulence":12692,"wholesome":12693,"clubs":12694,"encountered":12695,"ghosts":12696,"Sunn":12697,"dinosaurs":12698,"golden":12699,"clicking":12700,"arousal":12701,"inconsistent":12702,"irrever":12703,"unsteadily":12704,"Modern":12705,"probable":12706,"clarity":12707,"consistently":12708,"Protestant":12709,"Muslims":12710,"eagerness":12711,"fertile":12712,"lucky":12713,"spells":12714,"impediment":12715,"gravel":12716,"gravitational":12717,"simpler":12718,"inventory":12719,"confirmed":12720,"Constantly":12721,"adoption":12722,"Boolean":12723,"stormy":12724,"perpet":12725,"delivering":12726,"folklore":12727,"trembling":12728,"ambiguous":12729,"augmentative":12730,"gambling":12731,"zealous":12732,"##ennium":12733,"procure":12734,"tranquillity":12735,"Influ":12736,"Philippine":12737,"proceedings":12738,"closest":12739,"surreal":12740,"independence":12741,"Harmful":12742,"cavities":12743,"##rodite":12744,"unintell":12745,"delicately":12746,"refraining":12747,"##uggish":12748,"untruth":12749,"harassment":12750,"enlargement":12751,"daughter":12752,"warrior":12753,"alleviate":12754,"intestines":12755,"cooperation":12756,"assertive":12757,"cryptic":12758,"Depending":12759,"President":12760,"nitrogen":12761,"villain":12762,"##feit":12763,"##hearted":12764,"chapter":12765,"sequential":12766,"implication":12767,"commodities":12768,"undergar":12769,"analyze":12770,"reciprocal":12771,"reciprocating":12772,"vulnerable":12773,"Queen":12774,"Signs":12775,"rudiments":12776,"sorry":12777,"sucking":12778,"unhappy":12779,"displeasing":12780,"lethal":12781,"lethar":12782,"appeals":12783,"survive":12784,"wrestling":12785,"diverse":12786,"expenditure":12787,"Indicating":12788,"mercenaries":12789,"Quickly":12790,"Hungarian":12791,"Restricted":12792,"glycemia":12793,"nerd":12794,"octop":12795,"dexterity":12796,"sponsor":12797,"alphabet":12798,"survey":12799,"surveill":12800,"excavator":12801,"negligible":12802,"miscellaneous":12803,"townsperson":12804,"diligent":12805,"browser":12806,"lodging":12807,"podcast":12808,"disclose":12809,"conservative":12810,"curtains":12811,"unclear":12812,"demeanor":12813,"hierarchy":12814,"Suggesting":12815,"Habitually":12816,"Social":12817,"mollus":12818,"riotous":12819,"vapor":12820,"##trusive":12821,"##omorphism":12822,"trumpet":12823,"pregnancy":12824,"pharmac":12825,"cranky":12826,"righteously":12827,"cultivars":12828,"epicene":12829,"crystalline":12830,"surreptitiously":12831,"Denoting":12832,"Surround":12833,"Sensitive":12834,"Typically":12835,"omnibus":12836,"pivot":12837,"tacit":12838,"submerged":12839,"cobwe":12840,"overextended":12841,"preoccupied":12842,"embracing":12843,"handicap":12844,"degenerate":12845,"facilitate":12846,"foreboding":12847,"sanctimonious":12848,"inadequately":12849,"Mustela":12850,"Polynesian":12851,"Ample":12852,"Maori":12853,"Violent":12854,"Wrong":12855,"Young":12856,"conduit":12857,"agenda":12858,"swampy":12859,"holiday":12860,"Continuing":12861,"prematurely":12862,"unlawful":12863,"Distinctive":12864,"nutrition":12865,"inconsiderate":12866,"endeavours":12867,"tuberculosis":12868,"Whyte":12869,"cinders":12870,"catering":12871,"darling":12872,"dusk":12873,"dubious":12874,"dazzling":12875,"gnaw":12876,"anchor":12877,"exemplifying":12878,"progenitor":12879,"unhealthy":12880,"sheriff":12881,"seizure":12882,"Intimate":12883,"oversee":12884,"grimy":12885,"incongruous":12886,"Uncomfortable":12887,"hereditary":12888,"Property":12889,"adjoining":12890,"lubricant":12891,"reestablishment":12892,"Terminating":12893,"Weary":12894,"astride":12895,"batsman":12896,"kirtle":12897,"tomato":12898,"toilet":12899,"concede":12900,"searched":12901,"resonance":12902,"##aternity":12903,"recycled":12904,"cranium":12905,"configuration":12906,"calamity":12907,"availability":12908,"autonomy":12909,"codomain":12910,"intermediary":12911,"inconvenience":12912,"Discouraging":12913,"aphorisms":12914,"zigzag":12915,"COVID":12916,"Filipino":12917,"Henry":12918,"Network":12919,"Tibet":12920,"Ukrainian":12921,"earthen":12922,"fellatio":12923,"fissure":12924,"fielder":12925,"gaseous":12926,"vassal":12927,"wafers":12928,"tokimeku":12929,"##rogynous":12930,"peripheral":12931,"procrast":12932,"unparalleled":12933,"Inferior":12934,"disastrous":12935,"arthropod":12936,"arithmetic":12937,"indeterminate":12938,"phlegm":12939,"Exaggerated":12940,"supercilious":12941,"uncivilized":12942,"miscegenation":12943,"bloodletting":12944,"22":12945,"37":12946,"300":12947,"86":12948,"Ach":12949,"Aud":12950,"Auth":12951,"Aware":12952,"Bro":12953,"Boy":12954,"Beng":12955,"Biblical":12956,"Baffled":12957,"Cel":12958,"Cab":12959,"Cool":12960,"Di":12961,"Der":12962,"Doc":12963,"Dish":12964,"Dread":12965,"Dex":12966,"Dressed":12967,"Doing":12968,"Ep":12969,"Euch":12970,"Fu":12971,"Fab":12972,"Four":12973,"Fore":12974,"Found":12975,"Fail":12976,"Final":12977,"Facing":12978,"Fresh":12979,"Facts":12980,"Fierce":12981,"Familiar":12982,"Faith":12983,"Gar":12984,"Gent":12985,"Gek":12986,"Hat":12987,"Hol":12988,"Hun":12989,"Holy":12990,"Holding":12991,"II":12992,"Icel":12993,"Jan":12994,"Lat":12995,"Late":12996,"Long":12997,"Lord":12998,"Link":12999,"Lusc":13000,"Mere":13001,"Manc":13002,"Mean":13003,"Nep":13004,"Od":13005,"Ow":13006,"Obl":13007,"Pac":13008,"Pomp":13009,"Rail":13010,"Raj":13011,"Sed":13012,"Sly":13013,"Sam":13014,"Sue":13015,"Significant":13016,"Te":13017,"Tre":13018,"Type":13019,"Ve":13020,"Vis":13021,"Verb":13022,"Wind":13023,"When":13024,"Warm":13025,"Walk":13026,"Waste":13027,"Whol":13028,"Wales":13029,"Youth":13030,"ae":13031,"acr":13032,"aunt":13033,"bip":13034,"bake":13035,"bass":13036,"bail":13037,"bale":13038,"bits":13039,"bitch":13040,"bump":13041,"barely":13042,"bastard":13043,"baryons":13044,"cu":13045,"citation":13046,"cessation":13047,"cumul":13048,"dome":13049,"dul":13050,"dood":13051,"dement":13052,"duck":13053,"dining":13054,"dovel":13055,"dastard":13056,"dandy":13057,"et":13058,"fiend":13059,"foment":13060,"fountain":13061,"fibr":13062,"fought":13063,"got":13064,"gown":13065,"guit":13066,"gaps":13067,"gait":13068,"golf":13069,"hoc":13070,"hick":13071,"haw":13072,"hub":13073,"hamm":13074,"harrow":13075,"hopes":13076,"hagg":13077,"jot":13078,"jest":13079,"junk":13080,"kins":13081,"lu":13082,"lion":13083,"lig":13084,"lib":13085,"lair":13086,"lute":13087,"lender":13088,"libr":13089,"lumber":13090,"laser":13091,"luncheon":13092,"mu":13093,"ming":13094,"mul":13095,"mos":13096,"mend":13097,"mason":13098,"mask":13099,"mocc":13100,"nur":13101,"nour":13102,"nun":13103,"nov":13104,"nurt":13105,"ninth":13106,"nasal":13107,"omit":13108,"omitted":13109,"pel":13110,"pence":13111,"paus":13112,"panc":13113,"pix":13114,"pants":13115,"pests":13116,"poul":13117,"rally":13118,"ray":13119,"rice":13120,"rog":13121,"rins":13122,"ranch":13123,"specially":13124,"sized":13125,"squal":13126,"sister":13127,"sophisticated":13128,"solved":13129,"soggy":13130,"saints":13131,"ta":13132,"tat":13133,"tires":13134,"tiles":13135,"ure":13136,"vit":13137,"vod":13138,"verm":13139,"vener":13140,"wre":13141,"wad":13142,"wake":13143,"wax":13144,"wishing":13145,"wager":13146,"wander":13147,"waffle":13148,"you":13149,"yard":13150,"##aise":13151,"##bal":13152,"##bag":13153,"##bility":13154,"##boot":13155,"##brows":13156,"##bait":13157,"##ytes":13158,"##oir":13159,"##oist":13160,"##lv":13161,"##lass":13162,"##mat":13163,"##mast":13164,"##mark":13165,"##moil":13166,"##tice":13167,"##eak":13168,"##eau":13169,"##fit":13170,"##farious":13171,"##ih":13172,"##iased":13173,"##iability":13174,"##iantly":13175,"##sil":13176,"##uent":13177,"##nost":13178,"##namic":13179,"##nui":13180,"##gal":13181,"##gar":13182,"##gative":13183,"##green":13184,"##pan":13185,"##posed":13186,"##pool":13187,"##paper":13188,"##picious":13189,"##rates":13190,"##riment":13191,"##che":13192,"##cim":13193,"##case":13194,"##cise":13195,"##zh":13196,"##zes":13197,"##kist":13198,"##xia":13199,"##vol":13200,"##wa":13201,"##ws":13202,"##well":13203,"##SO":13204,"##0th":13205,"##5N":13206,"##2O":13207,"##OM":13208,"##AN":13209,"##inant":13210,"##inae":13211,"##erse":13212,"##erated":13213,"##oned":13214,"##onants":13215,"##onucle":13216,"##athe":13217,"##atures":13218,"##atured":13219,"##atanus":13220,"##heat":13221,"##hement":13222,"##ena":13223,"##ality":13224,"##esters":13225,"##edent":13226,"##orated":13227,"##orine":13228,"##oristic":13229,"##orah":13230,"##orithm":13231,"tox":13232,"tourn":13233,"toppings":13234,"##ares":13235,"##arist":13236,"##icity":13237,"##icates":13238,"##omas":13239,"##lycemia":13240,"anest":13241,"angr":13242,"ants":13243,"anoint":13244,"anonym":13245,"##econ":13246,"##isel":13247,"##isqu":13248,"##oust":13249,"##reast":13250,"##entice":13251,"##entively":13252,"##thr":13253,"##thood":13254,"##though":13255,"##thra":13256,"##acial":13257,"thy":13258,"threes":13259,"##elines":13260,"##elike":13261,"##rox":13262,"##root":13263,"##roverted":13264,"##ivocal":13265,"##ulin":13266,"##uling":13267,"##ulic":13268,"beak":13269,"beard":13270,"beverages":13271,"whir":13272,"whine":13273,"stall":13274,"stale":13275,"stair":13276,"stony":13277,"staged":13278,"##otism":13279,"##stice":13280,"##stick":13281,"##static":13282,"ash":13283,"conqu":13284,"congest":13285,"##ura":13286,"##ila":13287,"##ilic":13288,"##ille":13289,"##ilate":13290,"##ilater":13291,"##oli":13292,"##olon":13293,"##olen":13294,"##igent":13295,"##igraph":13296,"##essions":13297,"##iduous":13298,"##ectual":13299,"##sex":13300,"##tertainment":13301,"perv":13302,"percept":13303,"perfor":13304,"periph":13305,"##emark":13306,"##emingly":13307,"sometime":13308,"##imb":13309,"##aviour":13310,"##avored":13311,"##etting":13312,"##utter":13313,"##utively":13314,"##irus":13315,"exotic":13316,"exerted":13317,"##abular":13318,"##gebra":13319,"prose":13320,"##aments":13321,"##cher":13322,"fract":13323,"fraction":13324,"freckles":13325,"##odge":13326,"##istible":13327,"Ant":13328,"##usions":13329,"##umen":13330,"##umbo":13331,"##umbs":13332,"##akh":13333,"##oser":13334,"comedy":13335,"depl":13336,"deaf":13337,"##estic":13338,"##estine":13339,"chic":13340,"chol":13341,"chir":13342,"chant":13343,"chron":13344,"chances":13345,"churning":13346,"unth":13347,"ungr":13348,"unless":13349,"unaffected":13350,"trite":13351,"trape":13352,"trends":13353,"truly":13354,"pricked":13355,"prince":13356,"shod":13357,"##ocritically":13358,"##andic":13359,"##anders":13360,"##uality":13361,"##tence":13362,"spy":13363,"spill":13364,"spind":13365,"spire":13366,"spool":13367,"spiced":13368,"spends":13369,"spattering":13370,"sprout":13371,"manages":13372,"manifold":13373,"##opal":13374,"##opol":13375,"##opular":13376,"##ibles":13377,"##ibenzo":13378,"notch":13379,"noticed":13380,"sees":13381,"seep":13382,"disres":13383,"disabled":13384,"ench":13385,"enormous":13386,"ennui":13387,"enthr":13388,"##ipel":13389,"compat":13390,"although":13391,"algebra":13392,"worst":13393,"##ovine":13394,"##ners":13395,"##agr":13396,"##agasc":13397,"##agwan":13398,"##ackers":13399,"relo":13400,"clash":13401,"##astful":13402,"##enders":13403,"##ptions":13404,"resonant":13405,"abl":13406,"abreast":13407,"##ormand":13408,"lex":13409,"league":13410,"##ouncing":13411,"##berg":13412,"##iceable":13413,"contiguous":13414,"contagious":13415,"##ellite":13416,"impl":13417,"imposing":13418,"impotent":13419,"fling":13420,"flint":13421,"flush":13422,"floral":13423,"flirt":13424,"##ficially":13425,"##aternal":13426,"subgen":13427,"sublim":13428,"submar":13429,"subsets":13430,"strive":13431,"straw":13432,"particularity":13433,"##kew":13434,"##keeping":13435,"##neesh":13436,"desert":13437,"coy":13438,"cox":13439,"coars":13440,"coordinate":13441,"genes":13442,"smile":13443,"smash":13444,"brim":13445,"consonants":13446,"scor":13447,"scour":13448,"sciences":13449,"lipped":13450,"aged":13451,"agnost":13452,"draft":13453,"overbo":13454,"overhead":13455,"overlook":13456,"overflow":13457,"pointer":13458,"posh":13459,"##yps":13460,"neur":13461,"nefarious":13462,"##derly":13463,"##ensical":13464,"carc":13465,"quo":13466,"quot":13467,"quart":13468,"characterizing":13469,"pretern":13470,"pretense":13471,"pretends":13472,"pretext":13473,"prehist":13474,"pretence":13475,"##othered":13476,"##reatment":13477,"##achment":13478,"interrog":13479,"interlock":13480,"gram":13481,"grapp":13482,"grime":13483,"phosph":13484,"pharynx":13485,"bland":13486,"blast":13487,"bloss":13488,"bloom":13489,"blissful":13490,"twentieth":13491,"soaked":13492,"recru":13493,"recond":13494,"recurrence":13495,"qualifications":13496,"incision":13497,"evac":13498,"unde":13499,"undam":13500,"##rowing":13501,"##awls":13502,"synd":13503,"noises":13504,"noxious":13505,"nobility":13506,"##istics":13507,"peasant":13508,"distracted":13509,"accent":13510,"accuse":13511,"##oky":13512,"elderly":13513,"##owered":13514,"decree":13515,"decency":13516,"smallness":13517,"largest":13518,"extingu":13519,"amen":13520,"bets":13521,"numbered":13522,"assure":13523,"assort":13524,"assuring":13525,"remind":13526,"insens":13527,"transient":13528,"##yses":13529,"Through":13530,"Thai":13531,"beckon":13532,"endors":13533,"endemic":13534,"emitted":13535,"generator":13536,"generosity":13537,"offers":13538,"memorable":13539,"slab":13540,"sloth":13541,"sloped":13542,"Char":13543,"Charm":13544,"Child":13545,"Changing":13546,"Chiefly":13547,"roam":13548,"roasted":13549,"weird":13550,"reposit":13551,"repulsive":13552,"infin":13553,"infill":13554,"infra":13555,"infants":13556,"infections":13557,"infamous":13558,"craving":13559,"crick":13560,"cresc":13561,"suppress":13562,"supposition":13563,"invite":13564,"invasion":13565,"invisible":13566,"skim":13567,"knot":13568,"knots":13569,"allure":13570,"alliance":13571,"allerg":13572,"defec":13573,"defile":13574,"defender":13575,"defended":13576,"imitating":13577,"##oyant":13578,"longitud":13579,"Unrelated":13580,"Unpleasantly":13581,"##ificate":13582,"coriar":13583,"corks":13584,"loach":13585,"##ternoon":13586,"backbone":13587,"varies":13588,"gooder":13589,"##ractable":13590,"powerless":13591,"powerfully":13592,"password":13593,"provisions":13594,"securities":13595,"polar":13596,"handgun":13597,"discount":13598,"discovered":13599,"waterfall":13600,"substant":13601,"substituted":13602,"modifier":13603,"Exam":13604,"Existence":13605,"societal":13606,"##ivided":13607,"coverage":13608,"vehement":13609,"collude":13610,"colloqu":13611,"delivers":13612,"airport":13613,"airline":13614,"purported":13615,"crepe":13616,"cape":13617,"structured":13618,"famil":13619,"advances":13620,"adventure":13621,"restless":13622,"##ircum":13623,"owning":13624,"practicing":13625,"courts":13626,"markets":13627,"locate":13628,"effectively":13629,"constriction":13630,"electrons":13631,"metric":13632,"##arranted":13633,"afraid":13634,"informally":13635,"visually":13636,"visibly":13637,"swelled":13638,"swinging":13639,"signifying":13640,"signboard":13641,"circuits":13642,"cleans":13643,"inflected":13644,"Reluct":13645,"designs":13646,"designing":13647,"Contained":13648,"Concise":13649,"##rael":13650,"requisite":13651,"paran":13652,"paraly":13653,"retic":13654,"terminate":13655,"shortcom":13656,"refusing":13657,"Standard":13658,"Strait":13659,"proton":13660,"protesters":13661,"preval":13662,"connective":13663,"mainmast":13664,"minister":13665,"static":13666,"statue":13667,"sensible":13668,"originate":13669,"##world":13670,"##iolumines":13671,"curry":13672,"curling":13673,"lessen":13674,"brooch":13675,"limp":13676,"limestone":13677,"##oidal":13678,"malevolent":13679,"guiding":13680,"grease":13681,"detest":13682,"socialist":13683,"profound":13684,"professed":13685,"studying":13686,"associates":13687,"monastic":13688,"monuments":13689,"monastery":13690,"destined":13691,"##veloped":13692,"experimental":13693,"arrival":13694,"arresting":13695,"violin":13696,"respiration":13697,"Represent":13698,"expans":13699,"expedient":13700,"expelled":13701,"verge":13702,"vertebrates":13703,"existential":13704,"##coal":13705,"promulg":13706,"prominently":13707,"indicative":13708,"##termined":13709,"prescription":13710,"armoured":13711,"referee":13712,
[...]
