{"version":"1.0","truncation":null,"padding":null,"added_tokens":[{"id":0,"special":true,"content":"<pad/>","single_word":false,"lstrip":false,"rstrip":false,"normalized":false},{"id":1,"special":true,"content":"</seq>","single_word":false,"lstrip":false,"rstrip":false,"normalized":false},{"id":2,"special":true,"content":"<seq>","single_word":false,"lstrip":false,"rstrip":false,"normalized":false},{"id":3,"special":true,"content":"<unk/>","single_word":false,"lstrip":false,"rstrip":false,"normalized":false},{"id":4,"special":true,"content":"<en>","single_word":false,"lstrip":false,"rstrip":false,"normalized":false},{"id":5,"special":true,"content":"<es>","single_word":false,"lstrip":false,"rstrip":false,"normalized":false},{"id":6,"special":true,"content":"<fr>","single_word":false,"lstrip":false,"rstrip":false,"normalized":false},{"id":7,"special":true,"content":"<it>","single_word":false,"lstrip":false,"rstrip":false,"normalized":false},{"id":8,"special":true,"content":"<ru>","single_word":false,"lstrip":false,"rstrip":false,"normalized":false}],"normalizer":null,"pre_tokenizer":{"type":"Whitespace"},"post_processor":null,"decoder":null,"model":{"type":"WordPiece","unk_token":"<unk/>","continuing_subword_prefix":"##","max_input_chars_per_word":100,"vocab":{"<pad/>":0,"</seq>":1,"<seq>":2,"<unk/>":3,"<en>":4,"<es>":5,"<fr>":6,"<it>":7,"<ru>":8,"!":9,"#":10,"$":11,"%":12,"&":13,"'":14,"(":15,")":16,"*":17,"+":18,",":19,"-":20,".":21,"/":22,"0":23,"1":24,"2":25,"3":26,"4":27,"5":28,"6":29,"7":30,"8":31,"9":32,":":33,";":34,"<":35,"=":36,">":37,"?":38,"@":39,"A":40,"B":41,"C":42,"D":43,"E":44,"F":45,"G":46,"H":47,"I":48,"J":49,"K":50,"L":51,"M":52,"N":53,"O":54,"P":55,"Q":56,"R":57,"S":58,"T":59,"U":60,"V":61,"W":62,"X":63,"Y":64,"Z":65,"[":66,"\\":67,"]":68,"^":69,"_":70,"`":71,"a":72,"b":73,"c":74,"d":75,"e":76,"f":77,"g":78,"h":79,"i":80,"j":81,"k":82,"l":83,"m":84,"n":85,"o":86,"p":87,"q":88,"r":89,"s":90,"t":91,"u":92,"v":93,"w":94,"x":95,"y":96,"z":97,"{":98,"|":99,"}":100,"~":101,"£":102,"¥":103,"¨":104,"­":105,"¯":106,"°":107,"²":108,"³":109,"·":110,"º":111,"½":112,"¾":113,"À":114,"Á":115,"Â":116,"È":117,"É":118,"Ê":119,"Î":120,"Ô":121,"×":122,"à":123,"á":124,"â":125,"ä":126,"å":127,"æ":128,"ç":129,"è":130,"é":131,"ê":132,"ë":133,"í":134,"î":135,"ï":136,"ñ":137,"ó":138,"ô":139,"ö":140,"ù":141,"ú":142,"û":143,"ü":144,"ý":145,"ā":146,"ą":147,"ę":148,"ō":149,"Œ":150,"œ":151,"ŕ":152,"ū":153,"ƒ":154,"ș":155,"ə":156,"ʼ":157,"ˌ":158,"́":159,"̉":160,"̧":161,"Α":162,"Ζ":163,"Η":164,"Θ":165,"Σ":166,"έ":167,"ή":168,"α":169,"β":170,"γ":171,"ζ":172,"η":173,"θ":174,"ι":175,"λ":176,"μ":177,"ν":178,"ο":179,"ρ":180,"ς":181,"σ":182,"τ":183,"υ":184,"φ":185,"χ":186,"ό":187,"Ϛ":188,"ϛ":189,"А":190,"Б":191,"В":192,"Г":193,"Д":194,"Е":195,"Ж":196,"З":197,"И":198,"Й":199,"К":200,"Л":201,"М":202,"Н":203,"О":204,"П":205,"Р":206,"С":207,"Т":208,"У":209,"Ф":210,"Х":211,"Ц":212,"Ч":213,"Ш":214,"Щ":215,"Ъ":216,"Ь":217,"Э":218,"Ю":219,"Я":220,"а":221,"б":222,"в":223,"г":224,"д":225,"е":226,"ж":227,"з":228,"и":229,"й":230,"к":231,"л":232,"м":233,"н":234,"о":235,"п":236,"р":237,"с":238,"т":239,"у":240,"ф":241,"х":242,"ц":243,"ч":244,"ш":245,"щ":246,"ъ":247,"ы":248,"ь":249,"э":250,"ю":251,"я":252,"ё":253,"і":254,"ѣ":255,"Ѧ":256,"ѧ":257,"Ѫ":258,"ѫ":259,"ѵ":260,"ء":261,"्":262,"ḫ":263,"‎":264,"‐":265,"–":266,"—":267,"―":268,"‘":269,"†":270,"•":271,"…":272,"′":273,"‹":274,"›":275,"‾":276,"‿":277,"⁄":278,"₁":279,"₂":280,"₄":281,"₅":282,"₆":283,"₈":284,"₨":285,"₳":286,"₴":287,"ℓ":288,"™":289,"℥":290,"⅙":291,"→":292,"∈":293,"−":294,"≃":295,"≈":296,"≠":297,"≡":298,"⊆":299,"⊇":300,"◆":301,"◌":302,"☐":303,"☑":304,"☧":305,"♠":306,"♣":307,"♥":308,"♦":309,"♭":310,"♯":311,"Ⱇ":312,"卍":313,"卐":314,"글":315,"한":316,"ﺀ":317,"🚃":318,"##е":319,"##з":320,"##р":321,"##а":322,"##с":323,"##у":324,"##д":325,"##т":326,"##в":327,"##о":328,"##f":329,"##i":330,"##r":331,"##m":332,"##к":333,"##л":334,"##и":335,"##п":336,"##ч":337,"##o":338,"##u":339,"##s":340,"##q":341,"##e":342,"##t":343,"##n":344,"##l":345,"##ь":346,"##н":347,"##ы":348,"##й":349,"##h":350,"##г":351,"##м":352,"##б":353,"##a":354,"##d":355,"##x":356,"##я":357,"##ю":358,"##é":359,"##p":360,"##b":361,"##g":362,"##c":363,"##y":364,"##щ":365,"##k":366,"##х":367,"##j":368,"##ш":369,"##ф":370,"##́":371,"##ж":372,"##œ":373,"##v":374,"##ц":375,"##3":376,"##O":377,"##4":378,"##ё":379,"##ê":380,"##9":381,"##2":382,"##B":383,"##C":384,"##1":385,"##ç":386,"##z":387,"##ъ":388,"##è":389,"##w":390,"##ï":391,"##ρ":392,"##ό":393,"##ν":394,"##η":395,"##σ":396,"##ι":397,"##ς":398,"##H":399,"##0":400,"##N":401,"##û":402,"##E":403,"##D":404,"##7":405,"##8":406,"##Н":407,"##î":408,"##5":409,"##6":410,"##P":411,"##I":412,"##S":413,"##â":414,"##О":415,"##К":416,"##_":417,"##ô":418,"##\\":419,"##T":420,"##V":421,"##Z":422,"##F":423,"##э":424,"##ë":425,"##П":426,"##С":427,"##|":428,"##M":429,"##-":430,"##И":431,"##R":432,"##ú":433,"##A":434,"##ʼ":435,"##А":436,"##Д":437,"##Г":438,"##Р":439,"##У":440,"##X":441,"##ö":442,"##U":443,"##Ф":444,"##З":445,"##ó":446,"##Л":447,"##Т":448,"##L":449,"##.":450,"##G":451,"##à":452,"##å":453,"##`":454,"##W":455,"##Х":456,"##í":457,"##ѧ":458,"##̉":459,"##χ":460,"##ή":461,"##τ":462,"##α":463,"##ý":464,"##á":465,"##º":466,"##Я":467,"##ü":468,"##−":469,"##υ":470,"##μ":471,"##έ":472,"##λ":473,"##В":474,"##і":475,"##=":476,"##·":477,"##ș":478,"##Ч":479,"##М":480,"##ō":481,"##ū":482,"##/":483,"##Б":484,"##—":485,"##Q":486,"##ο":487,"##γ":488,"##ѣ":489,"##Ц":490,"##Y":491,"##'":492,"##ñ":493,"##æ":494,"##ѫ":495,"##K":496,"##ù":497,"##Ш":498,"##ŕ":499,"##Â":500,"##→":501,"##ä":502,"##^":503,"##…":504,"##글":505,"##₂":506,"##ā":507,"##+":508,"##on":509,"##er":510,"##es":511,"##ti":512,"##en":513,"##in":514,"##ст":515,"##an":516,"##re":517,"##ен":518,"##ar":519,"##но":520,"de":521,"##it":522,"##al":523,"##ou":524,"##or":525,"or":526,"##is":527,"##le":528,"un":529,"##ent":530,"##om":531,"##he":532,"##ing":533,"##ны":534,"##ue":535,"of":536,"##tion":537,"##ро":538,"##te":539,"##ui":540,"##ер":541,"##ени":542,"in":543,"##ur":544,"##ан":545,"по":546,"##ат":547,"##го":548,"##ел":549,"##ie":550,"##ко":551,"##se":552,"##ce":553,"to":554,"##ли":555,"##at":556,"##ств":557,"##бо":558,"##ic":559,"##ра":560,"the":561,"##ro":562,"##ре":563,"an":564,"##il":565,"##ec":566,"##ит":567,"##ов":568,"##el":569,"la":570,"##на":571,"##ment":572,"##ra":573,"##ий":574,"##si":575,"en":576,"##st":577,"##que":578,"на":579,"ou":580,"ра":581,"par":582,"ли":583,"##ный":584,"##me":585,"##ig":586,"##ся":587,"et":588,"##ри":589,"##ol":590,"##ол":591,"##ant":592,"##ul":593,"##ne":594,"des":595,"qui":596,"une":597,"##ем":598,"##ly":599,"##то":600,"##et":601,"либо":602,"##ка":603,"##ать":604,"con":605,"не":606,"##ac":607,"##во":608,"To":609,"##ет":610,"##ation":611,"##as":612,"##ни":613,"со":614,"##ve":615,"##us":616,"##ir":617,"le":618,"##our":619,"##ers":620,"##ющ":621,"##de":622,"##ire":623,"##ель":624,"##ge":625,"##ot":626,"ex":627,"ch":628,"##ани":629,"ко":630,"au":631,"раз":632,"##ans":633,"th":634,"или":635,"##ri":636,"об":637,"##ру":638,"про":639,"##ля":640,"##ей":641,"##ta":642,"##ль":643,"##ес":644,"##ми":645,"##ки":646,"##ар":647,"##au":648,"les":649,"##pp":650,"for":651,"при":652,"##ла":653,"от":654,"pl":655,"##ter":656,"##ch":657,"##ble":658,"пер":659,"##ati":660,"re":661,"pro":662,"com":663,"##mp":664,"##ение":665,"##tre":666,"##ло":667,"##ten":668,"##ure":669,"on":670,"##ор":671,"##ения":672,"##qu":673,"##сти":674,"wh":675,"##ith":676,"##ine":677,"##res":678,"su":679,"из":680,"ac":681,"##og":682,"se":683,"##да":684,"and":685,"as":686,"est":687,"за":688,"##ить":689,"fa":690,"##ред":691,"##tic":692,"##сть":693,"##sion":694,"##ед":695,"##ier":696,"во":697,"##ally":698,"du":699,"que":700,"##erson":701,"Qui":702,"be":703,"##os":704,"##ée":705,"##ное":706,"##th":707,"##ng":708,"##ed":709,"##és":710,"##еств":711,"##ти":712,"разг":713,"##if":714,"dans":715,"##ного":716,"ка":717,"##сто":718,"##ér":719,"The":720,"with":721,"вы":722,"##ных":723,"##ate":724,"##ва":725,"##нач":726,"##ci":727,"##ной":728,"som":729,"##ющий":730,"qu":731,"##от":732,"##am":733,"##ци":734,"##ver":735,"##pec":736,"##од":737,"перен":738,"##ose":739,"##ско":740,"##tr":741,"##im":742,"##id":743,"##об":744,"##ction":745,"##сп":746,"Par":747,"An":748,"##ance":749,"##ique":750,"person":751,"##ый":752,"dé":753,"##чес":754,"ст":755,"##его":756,"by":757,"##ек":758,"##итель":759,"##ви":760,"##ous":761,"##age":762,"es":763,"##aire":764,"pour":765,"mo":766,"##ая":767,"для":768,"##ère":769,"##ная":770,"##um":771,"that":772,"fr":773,"ar":774,"##щий":775,"уст":776,"##ть":777,"ma":778,"##ill":779,"##ом":780,"##hing":781,"##ению":782,"man":783,"sur":784,"##end":785,"##av":786,"##ale":787,"##iv":788,"##ow":789,"pr":790,"знач":791,"##ess":792,"##op":793,"##ort":794,"##ont":795,"dis":796,"##ие":797,"##ut":798,"##ff":799,"In":800,"##ме":801,"##ос":802,"##and":803,"##bl":804,"##вать":805,"##ин":806,"##ité":807,"##igur":808,"##ез":809,"##ным":810,"pe":811,"су":812,"##ск":813,"##od":814,"##ad":815,"##им":816,"at":817,"##ейств":818,"##ав":819,"comp":820,"пред":821,"##iguré":822,"is":823,"tr":824,"av":825,"##ething":826,"##ap":827,"##du":828,"##tain":829,"##ll":830,"##ts":831,"##ществ":832,"Figuré":833,"##ux":834,"##ence":835,"##un":836,"##лу":837,"##из":838,"##ее":839,"св":840,"quel":841,"сп":842,"##ion":843,"##able":844,"значению":845,"##ay":846,"##ги":847,"##oc":848,"per":849,"##мен":850,"##ting":851,"##out":852,"##ры":853,"##ity":854,"##ность":855,"##ag":856,"устар":857,"##ogie":858,"та":859,"##кой":860,"app":861,"что":862,"##яз":863,"##peci":864,"##ма":865,"##оль":866,"##ле":867,"##ner":868,"##ace":869,"partic":870,"##té":871,"##ну":872,"##де":873,"##ich":874,"something":875,"etc":876,"##ais":877,"##oun":878,"##di":879,"from":880,"sp":881,"st":882,"so":883,"под":884,"##em":885,"##чи":886,"exten":887,"##анный":888,"чего":889,"##ания":890,"##ite":891,"one":892,"particul":893,"до":894,"##енный":895,"##ку":896,"ме":897,"po":898,"##му":899,"##ён":900,"##та":901,"##ab":902,"ча":903,"сво":904,"##elati":905,"действ":906,"##ard":907,"##pecially":908,"En":909,"##lle":910,"ré":911,"especially":912,"##igh":913,"gr":914,"##ke":915,"extension":916,"##ang":917,"##ание":918,"ob":919,"##жд":920,"##ча":921,"which":922,"##ens":923,"ne":924,"plus":925,"##sed":926,"##urs":927,"##ru":928,"##лов":929,"##der":930,"##щийся":931,"##ist":932,"pas":933,"##tique":934,"ser":935,"##ис":936,"##ct":937,"##ph":938,"##ран":939,"res":940,"##чно":941,"##нов":942,"##one":943,"##ces":944,"##атель":945,"##их":946,"##ain":947,"sh":948,"##orm":949,"ос":950,"##ong":951,"##all":952,"ce":953,"chose":954,"##ologie":955,"ad":956,"##ted":957,"##ilier":958,"##tit":959,"who":960,"cl":961,"##ual":962,"##ult":963,"##став":964,"##oup":965,"связ":966,"##нося":967,"##aving":968,"##уд":969,"##ство":970,"ре":971,"##tif":972,"##ой":973,"##ille":974,"tra":975,"##торо":976,"##her":977,"##рав":978,"##ise":979,"not":980,"##pr":981,"##ход":982,"Fam":983,"##ров":984,"##ности":985,"##ев":986,"##носящийся":987,"imp":988,"##елов":989,"avec":990,"##стоя":991,"Ch":992,"##зы":993,"Familier":994,"us":995,"од":996,"##жа":997,"##ня":998,"оп":999,"##аль":1000,"##lo":1001,"##che":1002,"##ких":1003,"##ect":1004,"ab":1005,"##ные":1006,"cer":1007,"челов":1008,"##ière":1009,"##раз":1010,"##én":1011,"##éd":1012,"form":1013,"cor":1014,"##мо":1015,"##are":1016,"Ar":1017,"al":1018,"##arac":1019,"some":1020,"##cl":1021,"##ois":1022,"##ых":1023,"##ées":1024,"##ide":1025,"dont":1026,"##он":1027,"##ели":1028,"quelque":1029,"си":1030,"##ди":1031,"##per":1032,"обы":1033,"пре":1034,"##oir":1035,"##ря":1036,"##кт":1037,"ви":1038,"aux":1039,"li":1040,"му":1041,"Of":1042,"##ante":1043,"comm":1044,"##ques":1045,"##ther":1046,"существ":1047,"##вер":1048,"##ца":1049,"ph":1050,"##оло":1051,"##га":1052,"##ков":1053,"ку":1054,"##па":1055,"##uis":1056,"##кого":1057,"##ord":1058,"соот":1059,"##ал":1060,"связанный":1061,"##elle":1062,"жи":1063,"##ari":1064,"sa":1065,"##ном":1066,"дру":1067,"##кий":1068,"##си":1069,"cons":1070,"##мя":1071,"##еб":1072,"##не":1073,"##ip":1074,"Action":1075,"##aux":1076,"Relati":1077,"##ouv":1078,"te":1079,"##ated":1080,"sta":1081,"обычно":1082,"##за":1083,"##iff":1084,"жен":1085,"##род":1086,"##ight":1087,"##éc":1088,"being":1089,"##ond":1090,"act":1091,"чем":1092,"inf":1093,"##дел":1094,"##ét":1095,"##ical":1096,"то":1097,"parl":1098,"##жи":1099,"##со":1100,"##min":1101,"##sition":1102,"##qui":1103,"sub":1104,"col":1105,"##est":1106,"##ber":1107,"ag":1108,"##tive":1109,"исп":1110,"##ments":1111,"воз":1112,"##iz":1113,"other":1114,"прост":1115,"##king":1116,"##ès":1117,"certain":1118,"int":1119,"pre":1120,"##до":1121,"##ign":1122,"##ég":1123,"##app":1124,"fait":1125,"##vi":1126,"##til":1127,"свой":1128,"##ound":1129,"##жн":1130,"##isme":1131,"##tin":1132,"##ении":1133,"##ком":1134,"mar":1135,"##ём":1136,"##ут":1137,"##sem":1138,"##ции":1139,"ин":1140,"##ell":1141,"##ят":1142,"co":1143,"rel":1144,"##кая":1145,"##ства":1146,"exp":1147,"##лен":1148,"son":1149,"ver":1150,"ист":1151,"##кое":1152,"##вод":1153,"действие":1154,"##illi":1155,"##мер":1156,"Relatif":1157,"нап":1158,"ter":1159,"##yp":1160,"used":1161,"##ser":1162,"##же":1163,"##ду":1164,"##тов":1165,"Vie":1166,"##ind":1167,"##са":1168,"gen":1169,"sy":1170,"##ара":1171,"##vel":1172,"##вет":1173,"ор":1174,"action":1175,"кни":1176,"##ке":1177,"``":1178,"##onn":1179,"истор":1180,"obj":1181,"##ons":1182,"Vieilli":1183,"produ":1184,"##ré":1185,"##int":1186,"##ех":1187,"##raph":1188,"fe":1189,"fl":1190,"сов":1191,"##ление":1192,"##orte":1193,"кого":1194,"##iè":1195,"состоя":1196,"существитель":1197,"Person":1198,"diff":1199,"соотносящийся":1200,"человек":1201,"##ющее":1202,"inter":1203,"име":1204,"aut":1205,"##cer":1206,"br":1207,"##tra":1208,"##roit":1209,"##ud":1210,"##честв":1211,"##cc":1212,"such":1213,"acc":1214,"##par":1215,"me":1216,"##ления":1217,"il":1218,"гл":1219,"без":1220,"##alement":1221,"parti":1222,"emp":1223,"particulier":1224,"Se":1225,"autre":1226,"rep":1227,"##мы":1228,"##ile":1229,"##ty":1230,"parlant":1231,"am":1232,"##ствен":1233,"##oire":1234,"##bre":1235,"##ия":1236,"##лю":1237,"##taining":1238,"##mes":1239,"которо":1240,"##ins":1241,"##ations":1242,"ру":1243,"##аться":1244,"##use":1245,"##ень":1246,"##еч":1247,"неп":1248,"##ary":1249,"Personne":1250,"ind":1251,"##ву":1252,"manner":1253,"спе":1254,"мо":1255,"##ach":1256,"##ore":1257,"##elui":1258,"bl":1259,"ét":1260,"être":1261,"##air":1262,"##ature":1263,"##ograph":1264,"##ies":1265,"существительным":1266,"ма":1267,"книжн":1268,"##ême":1269,"##сту":1270,"##жение":1271,"расп":1272,"wor":1273,"##gh":1274,"state":1275,"où":1276,"Having":1277,"##ющая":1278,"го":1279,"##ually":1280,"##ичес":1281,"так":1282,"как":1283,"##stru":1284,"##ское":1285,"##ive":1286,"anim":1287,"che":1288,"##ome":1289,"##omp":1290,"уп":1291,"rec":1292,"##ron":1293,"##ish":1294,"##ое":1295,"##ве":1296,"car":1297,"пос":1298,"##ix":1299,"##ime":1300,"соб":1301,"##ree":1302,"##dition":1303,"comme":1304,"##ник":1305,"са":1306,"##ением":1307,"faire":1308,"prop":1309,"off":1310,"entre":1311,"##иться":1312,"##ater":1313,"ком":1314,"ta":1315,"гру":1316,"##ской":1317,"фор":1318,"##lic":1319,"##gan":1320,"str":1321,"##endre":1322,"ве":1323,"##ange":1324,"##nes":1325,"are":1326,"##вед":1327,"##mo":1328,"##ющийся":1329,"##ven":1330,"##знач":1331,"##ient":1332,"##ait":1333,"qual":1334,"cour":1335,"quelqu":1336,"##ений":1337,"out":1338,"кон":1339,"go":1340,"##ется":1341,"##iel":1342,"##ifie":1343,"##ты":1344,"рас":1345,"##ded":1346,"no":1347,"gra":1348,"##iss":1349,"##мет":1350,"##вш":1351,"##еп":1352,"place":1353,"##ase":1354,"##ста":1355,"##lé":1356,"eff":1357,"##ир":1358,"he":1359,"##ными":1360,"##ien":1361,"##enti":1362,"##sique":1363,"opp":1364,"##щи":1365,"##arge":1366,"лю":1367,"##ps":1368,"##ough":1369,"forme":1370,"long":1371,"##ого":1372,"произ":1373,"##semble":1374,"##oses":1375,"вс":1376,"util":1377,"##rit":1378,"##les":1379,"nom":1380,"##рен":1381,"##oli":1382,"##ule":1383,"sans":1384,"##cep":1385,"##ors":1386,"##aracter":1387,"##onne":1388,"personne":1389,"##ful":1390,"particular":1391,"it":1392,"éc":1393,"##том":1394,"##редел":1395,"ни":1396,"##ктер":1397,"##ém":1398,"##osition":1399,"sc":1400,"##стро":1401,"##lec":1402,"make":1403,"trans":1404,"même":1405,"##oy":1406,"##érie":1407,"##ath":1408,"##tes":1409,"deux":1410,"##жения":1411,"Not":1412,"орг":1413,"all":1414,"cou":1415,"жар":1416,"ord":1417,"pu":1418,"##рат":1419,"##form":1420,"##ration":1421,"aff":1422,"##вание":1423,"##ieu":1424,"##лять":1425,"##вы":1426,"##mer":1427,"##ack":1428,"вре":1429,"##titu":1430,"##дер":1431,"group":1432,"##rop":1433,"##ass":1434,"##арактер":1435,"Ex":1436,"##лед":1437,"##up":1438,"##anique":1439,"##ial":1440,"fam":1441,"part":1442,"па":1443,"##vent":1444,"Any":1445,"dit":1446,"также":1447,"характер":1448,"мед":1449,"##ast":1450,"##tiv":1451,"##ouve":1452,"##особ":1453,"manière":1454,"##édec":1455,"met":1456,"##abit":1457,"##зу":1458,"##кры":1459,"organ":1460,"peut":1461,"im":1462,"rapp":1463,"боль":1464,"Qual":1465,"##рев":1466,"hum":1467,"кто":1468,"##емый":1469,"up":1470,"пло":1471,"##ific":1472,".-":1473,"relati":1474,"##дов":1475,"жарг":1476,"##ric":1477,"бы":1478,"into":1479,"##ole":1480,"##ette":1481,"имеющий":1482,"##inal":1483,"ми":1484,"##ши":1485,"пра":1486,"##ким":1487,"op":1488,"образ":1489,"##ок":1490,"##éri":1491,"sens":1492,"##ды":1493,"живо":1494,"определ":1495,"##édecine":1496,"dire":1497,"муж":1498,"##aract":1499,"having":1500,"сред":1501,"##уль":1502,"кра":1503,"раст":1504,"##cip":1505,"##ote":1506,"##ause":1507,"##li":1508,"##rib":1509,"##ande":1510,"sol":1511,"Un":1512,"##лин":1513,"gén":1514,"тот":1515,"choses":1516,"кото":1517,"имя":1518,"over":1519,"time":1520,"##igion":1521,"do":1522,"##ери":1523,"обла":1524,"##ésent":1525,"ла":1526,"reg":1527,"рез":1528,"can":1529,"##ус":1530,"ses":1531,"lang":1532,"слу":1533,"utilis":1534,"typ":1535,"##ear":1536,"##гра":1537,"thing":1538,"ass":1539,"ins":1540,"##ского":1541,"##ступ":1542,"pres":1543,"мат":1544,"##vant":1545,"proc":1546,"##mb":1547,"##sive":1548,"##tis":1549,"often":1550,"pos":1551,"Celui":1552,"conf":1553,"состояни":1554,"Au":1555,"Médecine":1556,"##лаг":1557,"##реб":1558,"Pe":1559,"sou":1560,"часть":1561,"##ращ":1562,"someone":1563,"полу":1564,"##ants":1565,"сем":1566,"##ry":1567,"any":1568,"##igne":1569,"##opul":1570,"исполь":1571,"div":1572,"##ять":1573,"temp":1574,"##other":1575,"mal":1576,"дел":1577,"##ур":1578,"usually":1579,"обо":1580,"##ative":1581,"##ieurs":1582,"''":1583,"##con":1584,"##ating":1585,"Rel":1586,"sec":1587,"##вая":1588,"mon":1589,"##хо":1590,"sm":1591,"воен":1592,"представ":1593,"виде":1594,"lo":1595,"tw":1596,"cont":1597,"Mar":1598,"##met":1599,"plusieurs":1600,"Con":1601,"spec":1602,"вер":1603,"##ека":1604,"##ave":1605,"character":1606,"##ами":1607,"##ub":1608,"##reat":1609,"##лич":1610,"num":1611,"##зов":1612,"supp":1613,"##row":1614,"appar":1615,"pri":1616,"##олн":1617,"##stance":1618,"One":1619,"##ром":1620,"дви":1621,"##мень":1622,"but":1623,"##we":1624,"##aus":1625,"##its":1626,"mor":1627,"##ёр":1628,"vi":1629,"объ":1630,"##itu":1631,"Fr":1632,"##по":1633,"##otanique":1634,"corps":1635,"sont":1636,"emplo":1637,"основ":1638,"##ют":1639,"##ête":1640,"##ere":1641,"выра":1642,"att":1643,"##ame":1644,"##ulture":1645,"##ательного":1646,"publ":1647,"##ust":1648,"##ck":1649,"orig":1650,"##гу":1651,"##фи":1652,"##ент":1653,"относящийся":1654,"поло":1655,"##ied":1656,"##ilit":1657,"##ech":1658,"Ph":1659,"Botanique":1660,"another":1661,"phy":1662,"##tions":1663,"##ённый":1664,"##зи":1665,"##ную":1666,"##bles":1667,"##жен":1668,"##ящ":1669,"##uet":1670,"рабо":1671,"##реч":1672,"##atif":1673,"pré":1674,"prin":1675,"пу":1676,"##бы":1677,"Pro":1678,"mus":1679,"бес":1680,"кру":1681,"##tem":1682,"##olog":1683,"pra":1684,"больш":1685,"##ании":1686,"пере":1687,"##меньш":1688,"живот":1689,"чу":1690,"##cial":1691,"esp":1692,"органи":1693,"##ере":1694,"inc":1695,"уменьш":1696,"слов":1697,"##ness":1698,"##ily":1699,"mem":1700,"##сь":1701,"##ней":1702,"génér":1703,"rés":1704,"##ld":1705,"##quel":1706,"than":1707,"consi":1708,"чему":1709,"##ures":1710,"fo":1711,"##ба":1712,"рели":1713,"##ving":1714,"прилаг":1715,"more":1716,"##ера":1717,"##тив":1718,"its":1719,"pertaining":1720,"##нут":1721,"Tr":1722,"##iti":1723,"##ines":1724,"пол":1725,"##каз":1726,"##cher":1727,"animal":1728,"occ":1729,"##ep":1730,"end":1731,"##ice":1732,"##ents":1733,"##lles":1734,"##got":1735,"##ony":1736,"свойство":1737,"soit":1738,"autres":1739,"##вания":1740,"##лек":1741,"##omie":1742,"mé":1743,"##ша":1744,"##val":1745,"Dés":1746,"яв":1747,"##ros":1748,"##quer":1749,"Qualifie":1750,"##ger":1751,"поли":1752,"##ense":1753,"##ody":1754,"fac":1755,"бо":1756,"##ственный":1757,"##tat":1758,"##гр":1759,"##ower":1760,"##пу":1761,"##яв":1762,"отно":1763,"Sp":1764,"##cien":1765,"##ob":1766,"##един":1767,"##ouvent":1768,"small":1769,"cause":1770,"has":1771,"фи":1772,"прилагательного":1773,"##ward":1774,"##вой":1775,"##ographie":1776,"##olu":1777,"тех":1778,"##istic":1779,"sex":1780,"19":1781,"бол":1782,"женск":1783,"гла":1784,"себ":1785,"Religion":1786,"##сов":1787,"nature":1788,"Th":1789,"hom":1790,"##jor":1791,"disp":1792,"Ce":1793,"##кие":1794,"высо":1795,"тел":1796,"##amp":1797,"##ision":1798,"prof":1799,"какой":1800,"Pl":1801,"небо":1802,"##ression":1803,"bet":1804,"##мени":1805,"##ress":1806,"without":1807,"##ту":1808,"##ющих":1809,"место":1810,"personnes":1811,"tout":1812,"древ":1813,"##енно":1814,"Désuet":1815,"fer":1816,"très":1817,"dép":1818,"Argot":1819,"objet":1820,"##ined":1821,"его":1822,"##ak":1823,"##ним":1824,"##ente":1825,"##eu":1826,"large":1827,"##ely":1828,"де":1829,"Gé":1830,"##ram":1831,"##льш":1832,"Dé":1833,"fem":1834,"##лет":1835,"cette":1836,"move":1837,"##жду":1838,"vo":1839,"кол":1840,"play":1841,"##ves":1842,"##onner":1843,"##ками":1844,"##осуд":1845,"кому":1846,"ск":1847,"##ours":1848,"anal":1849,"##sitif":1850,"##ваться":1851,"##ция":1852,"point":1853,"##cul":1854,"##inaire":1855,"##готов":1856,"##али":1857,"##ible":1858,"##ологи":1859,"set":1860,"##ству":1861,"специ":1862,"quality":1863,"мет":1864,"cap":1865,"use":1866,"##oll":1867,"partie":1868,"##cle":1869,"two":1870,"Vari":1871,"но":1872,"##oute":1873,"неко":1874,"способ":1875,"##ages":1876,"sert":1877,"##vice":1878,"##сы":1879,"Droit":1880,"caract":1881,"##ues":1882,"##asse":1883,"##ах":1884,"under":1885,"нареч":1886,"mét":1887,"disc":1888,"sl":1889,"éta":1890,"##face":1891,"##isse":1892,"prov":1893,"min":1894,"situ":1895,"##ые":1896,"Note":1897,"ép":1898,"##ым":1899,"inten":1900,"Som":1901,"##ople":1902,"habit":1903,"лиц":1904,"commun":1905,"air":1906,"##usique":1907,"vie":1908,"##рит":1909,"небольш":1910,"ди":1911,"уч":1912,"##ief":1913,"содер":1914,"char":1915,"bel":1916,"ду":1917,"##ника":1918,"##istoire":1919,"Faire":1920,"bec":1921,"##рой":1922,"bois":1923,"##ян":1924,"##ches":1925,"princip":1926,"##чный":1927,"части":1928,"##льный":1929,"комп":1930,"сторо":1931,"##ious":1932,"souvent":1933,"##uit":1934,"##led":1935,"##hed":1936,"чём":1937,"предна":1938,"предмет":1939,"process":1940,"##осудар":1941,"совер":1942,"семейств":1943,"наз":1944,"государ":1945,"##су":1946,"##тат":1947,"conn":1948,"##tend":1949,"стра":1950,"##ностью":1951,"матери":1952,"ан":1953,"##tice":1954,"condition":1955,"##own":1956,"##aires":1957,"Re":1958,"иск":1959,"##anc":1960,"##den":1961,"##leur":1962,"way":1963,"##ще":1964,"sous":1965,"предназнач":1966,"##iste":1967,"бу":1968,"vis":1969,"people":1970,"##ning":1971,"##ях":1972,"##ory":1973,"##ism":1974,"non":1975,"такой":1976,"спец":1977,"État":1978,"физ":1979,"##old":1980,"made":1981,"poli":1982,"##ита":1983,"##вор":1984,"relating":1985,"использу":1986,"cre":1987,"ав":1988,"##esse":1989,"##стем":1990,"друго":1991,"##ok":1992,"##tie":1993,"plur":1994,"number":1995,"##ween":1996,"Something":1997,"семейства":1998,"##uer":1999,"##jet":2000,"rapport":2001,"pay":2002,"состояние":2003,"Variante":2004,"##лем":2005,"##va":2006,"##oph":2007,"оч":2008,"##оз":2009,"##atique":2010,"##жащий":2011,"##верх":2012,"между":2013,"donn":2014,"пи":2015,"##ха":2016,"ста":2017,"Histoire":2018,"high":2019,"##енное":2020,"when":2021,"dist":2022,"##fin":2023,"город":2024,"##уществ":2025,"##ft":2026,"зву":2027,"##ture":2028,"position":2029,"##она":2030,"##éjor":2031,"##iques":2032,"##ème":2033,"##erie":2034,"mot":2035,"sing":2036,"систем":2037,"work":2038,"##тер":2039,"##été":2040,"ref":2041,"##ских":2042,"##стан":2043,"сдел":2044,"##те":2045,"##gn":2046,"public":2047,"##ив":2048,"##пп":2049,"lit":2050,"##ствие":2051,"##ras":2052,"Рос":2053,"би":2054,"##ший":2055,"проц":2056,"certaines":2057,"отнош":2058,"##imie":2059,"ар":2060,"##ount":2061,"pass":2062,"гор":2063,"##tical":2064,"выс":2065,"язы":2066,"##кра":2067,"cir":2068,"between":2069,"ve":2070,"val":2071,"Ensemble":2072,"pur":2073,"##oman":2074,"surface":2075,"gener":2076,"famille":2077,"mat":2078,"##lu":2079,"##arm":2080,"sim":2081,"##omm":2082,"##ved":2083,"направ":2084,"чув":2085,"cal":2086,"вз":2087,"##aî":2088,"force":2089,"цвет":2090,"##osed":2091,"inform":2092,"##ances":2093,"##ieux":2094,"dou":2095,"##aine":2096,"соз":2097,"##opulaire":2098,"##уч":2099,"##tient":2100,"состав":2101,"##pect":2102,"##ческий":2103,"ласк":2104,"we":2105,"##чин":2106,"тру":2107,"##ivid":2108,"##стей":2109,"##ilitaire":2110,"##éjoratif":2111,"##ib":2112,"действия":2113,"рег":2114,"France":2115,"por":2116,"гол":2117,"##ному":2118,"##ский":2119,"liqui":2120,"производ":2121,"##vers":2122,"##ock":2123,"упот":2124,"De":2125,"fin":2126,"жиз":2127,"##щение":2128,"##кон":2129,"##рых":2130,"человека":2131,"fon":2132,"##ато":2133,"##oth":2134,"thr":2135,"##be":2136,"##teur":2137,"качеств":2138,"rég":2139,"dur":2140,"##ges":2141,"##ница":2142,"leur":2143,"вид":2144,"sk":2145,"##жеств":2146,"нас":2147,"##вающий":2148,"main":2149,"peu":2150,"##ansitif":2151,"##présent":2152,"##vely":2153,"cri":2154,"ге":2155,"##ями":2156,"##uel":2157,"##рый":2158,"##ères":2159,"beh":2160,"vari":2161,"ус":2162,"зани":2163,"уча":2164,"##кру":2165,"##uct":2166,"##гих":2167,"##сии":2168,"мор":2169,"сло":2170,"##urr":2171,"##бор":2172,"certains":2173,"Or":2174,"##uire":2175,"свойственный":2176,"Qu":2177,"##ческой":2178,"like":2179,"état":2180,"ро":2181,"##ультат":2182,"результат":2183,"celle":2184,"sign":2185,"##ью":2186,"##ская":2187,"cent":2188,"##ick":2189,"время":2190,"##реп":2191,"религ":2192,"##жно":2193,"type":2194,"##ane":2195,"Bi":2196,"Ré":2197,"giv":2198,"sel":2199,"кем":2200,"##рот":2201,"laque":2202,"##лад":2203,"##орт":2204,"laquelle":2205,"Péjoratif":2206,"body":2207,"##кан":2208,"##ade":2209,"##lev":2210,"kn":2211,"ro":2212,"##vol":2213,"##vre":2214,"##ession":2215,"##ходя":2216,"Ang":2217,"ret":2218,"##ris":2219,"поверх":2220,"lequel":2221,"déc":2222,"часто":2223,"pluriel":2224,"through":2225,"процес":2226,"цер":2227,"##rage":2228,"specific":2229,"##вый":2230,"##анием":2231,"activ":2232,"##oci":2233,"Populaire":2234,"##lement":2235,"bo":2236,"##ёт":2237,"##rol":2238,"jus":2239,"чер":2240,"##би":2241,"##рон":2242,"analogie":2243,"Per":2244,"bas":2245,"мн":2246,"##ец":2247,"##гла":2248,"##sible":2249,"quan":2250,"##образ":2251,"Ag":2252,"Nom":2253,"bou":2254,"внут":2255,"жел":2256,"ле":2257,"##про":2258,"##личеств":2259,"##бой":2260,"##aise":2261,"##tite":2262,"##ческое":2263,"import":2264,"употреб":2265,"eau":2266,"plant":2267,"compos":2268,"название":2269,"определён":2270,"ис":2271,"род":2272,"##aut":2273,"lieu":2274,"##стру":2275,"количеств":2276,"mais":2277,"have":2278,"##ia":2279,"##лы":2280,"##ales":2281,"##роп":2282,"##ced":2283,"##nement":2284,"##rique":2285,"##echn":2286,"Ab":2287,"дву":2288,"##фор":2289,"##ваем":2290,"gar":2291,"sound":2292,"поэ":2293,"вып":2294,"##ates":2295,"одно":2296,"diffic":2297,"веществ":2298,"их":2299,"##ouver":2300,"##fois":2301,"##une":2302,"desc":2303,"##owing":2304,"rou":2305,"##цы":2306,"With":2307,"instru":2308,"##chit":2309,"мужское":2310,"usage":2311,"liv":2312,"loc":2313,"мы":2314,"цель":2315,"тер":2316,"##нос":2317,"##ческих":2318,"##вид":2319,"##ecture":2320,"object":2321,"ég":2322,"##ща":2323,"##казы":2324,"concer":2325,"какого":2326,"собир":2327,"##вший":2328,"généralement":2329,"##жда":2330,"poss":2331,"очень":2332,"App":2333,"##less":2334,"##нг":2335,"##tiqu":2336,"##ятель":2337,"individ":2338,"##ronom":2339,"gl":2340,"##ими":2341,"deg":2342,"##ized":2343,"lui":2344,"зем":2345,"arm":2346,"elle":2347,"##tir":2348,"неод":2349,"exc":2350,"Es":2351,"##ug":2352,"##uelle":2353,"##des":2354,"##ically":2355,"eng":2356,"destin":2357,"grand":2358,"друг":2359,"непри":2360,"di":2361,"##act":2362,"plan":2363,"spe":2364,"##anger":2365,"dom":2366,"кар":2367,"order":2368,"##руж":2369,"соверш":2370,"##isé":2371,"nombre":2372,"##lectr":2373,"##get":2374,"##ility":2375,"##uisine":2376,"##urn":2377,"##той":2378,"##auv":2379,"##тель":2380,"##ural":2381,"перед":2382,"жид":2383,"struct":2384,"прави":2385,"Dis":2386,"Musique":2387,"##çon":2388,"##licisme":2389,"espè":2390,"fra":2391,"ло":2392,"##лав":2393,"##ждения":2394,"év":2395,"##иро":2396,"##ительный":2397,"moins":2398,"Marine":2399,"##way":2400,"##ussi":2401,"arg":2402,"bre":2403,"много":2404,"##клю":2405,"##ude":2406,"##ler":2407,"##ape":2408,"##duc":2409,"бот":2410,"дет":2411,"##рост":2412,"##ication":2413,"characteristic":2414,"##буд":2415,"поме":2416,"simil":2417,"great":2418,"pat":2419,"сам":2420,"##рода":2421,"##ather":2422,"над":2423,"représent":2424,"зап":2425,"sty":2426,"располо":2427,"good":2428,"event":2429,"ва":2430,"пс":2431,"##ата":2432,"отд":2433,"Pronom":2434,"fil":2435,"мя":2436,"##дей":2437,"помо":2438,"ensemble":2439,"Pronominal":2440,"back":2441,"##iser":2442,"ann":2443,"contra":2444,"##воз":2445,"##цион":2446,"##нуть":2447,"Chimie":2448,"еди":2449,"##voir":2450,"обществ":2451,"суб":2452,"viol":2453,"power":2454,"where":2455,"genre":2456,"différ":2457,"##tte":2458,"##ités":2459,"прояв":2460,"такого":2461,"##ièce":2462,"caus":2463,"lég":2464,"##mis":2465,"##stem":2466,"##щее":2467,"temps":2468,"техн":2469,"As":2470,"##prit":2471,"дол":2472,"def":2473,"полов":2474,"##ительно":2475,"##ope":2476,"area":2477,"direction":2478,"Sorte":2479,"word":2480,"##éci":2481,"proper":2482,"##bling":2483,"##нять":2484,"некото":2485,"##sy":2486,"пов":2487,"conc":2488,"##обр":2489,"préc":2490,"объек":2491,"##зма":2492,"##чать":2493,"##red":2494,"##енная":2495,"##рез":2496,"##rup":2497,"That":2498,"Anglicisme":2499,"##hip":2500,"ang":2501,"ботан":2502,"cr":2503,"##бе":2504,"dep":2505,"enc":2506,"avant":2507,"utilisé":2508,"доб":2509,"Zo":2510,"же":2511,"leg":2512,"##tern":2513,"##iter":2514,"##éral":2515,"##няя":2516,"sé":2517,"разв":2518,"явля":2519,"поэт":2520,"Il":2521,"Sy":2522,"ren":2523,"vers":2524,"##man":2525,"##ленный":2526,"##ждение":2527,"других":2528,"viv":2529,"##00":2530,"##ently":2531,"##ках":2532,"##кими":2533,"##куп":2534,"##jec":2535,"change":2536,"России":2537,"##ват":2538,"##cy":2539,"##овать":2540,"esprit":2541,"again":2542,"псих":2543,"med":2544,"прен":2545,"##éb":2546,"##ском":2547,"занима":2548,"пренеб":2549,"##ules":2550,"стро":2551,"perform":2552,"system":2553,"Zoologie":2554,"vol":2555,"##atomie":2556,"rem":2557,"##ultat":2558,"##ouvement":2559,"Militaire":2560,"mer":2561,"##ior":2562,"##чения":2563,"##анное":2564,"##ular":2565,"peri":2566,"ры":2567,"ту":2568,"dess":2569,"mod":2570,"силь":2571,"га":2572,"##стой":2573,"Anatomie":2574,"##chitecture":2575,"similar":2576,"coup":2577,"hand":2578,"##оро":2579,"##omb":2580,"##uses":2581,"##ourn":2582,"метал":2583,"jou":2584,"оде":2585,"##ии":2586,"orth":2587,"enf":2588,"very":2589,"характерный":2590,"water":2591,"##az":2592,"##wn":2593,"##eng":2594,"##tement":2595,"##ату":2596,"линг":2597,"##вое":2598,"соедин":2599,"ги":2600,"##près":2601,"fun":2602,"##tant":2603,"comb":2604,"искус":2605,"fonction":2606,"port":2607,"где":2608,"уда":2609,"##жать":2610,"##лон":2611,"устрой":2612,"celui":2613,"##чь":2614,"##ned":2615,"comple":2616,"permet":2617,"ба":2618,"##ume":2619,"##ета":2620,"##лом":2621,"fab":2622,"делать":2623,"fle":2624,"дер":2625,"particularly":2626,"##ющие":2627,"pol":2628,"##яти":2629,"##ана":2630,"мел":2631,"##oud":2632,"себя":2633,"целью":2634,"doc":2635,"her":2636,"##хов":2637,"prog":2638,"соответ":2639,"period":2640,"cro":2641,"##дар":2642,"mater":2643,"исто":2644,"уз":2645,"##rin":2646,"##hic":2647,"##ération":2648,"##inte":2649,"##sembl":2650,"relig":2651,"представитель":2652,"деятель":2653,"Géographie":2654,"##при":2655,"##еля":2656,"##ull":2657,"отс":2658,"нибуд":2659,"employ":2660,"нибудь":2661,"bien":2662,"si":2663,"пут":2664,"##co":2665,"##isting":2666,"##стве":2667,"##ender":2668,"mis":2669,"##ute":2670,"phys":2671,"Le":2672,"light":2673,"тя":2674,"substance":2675,"propre":2676,"который":2677,"grande":2678,"bi":2679,"dés":2680,"emb":2681,"about":2682,"##мыс":2683,"##ведения":2684,"fix":2685,"цел":2686,"##бли":2687,"##ension":2688,"dec":2689,"##itation":2690,"##аний":2691,"##tity":2692,"animaux":2693,"миф":2694,"consid":2695,"purp":2696,"Cuisine":2697,"rais":2698,"tou":2699,"##mi":2700,"##iness":2701,"##ством":2702,"вызы":2703,"##имо":2704,"rép":2705,"лингв":2706,"##él":2707,"terre":2708,"differ":2709,"style":2710,"ple":2711,"проис":2712,"##ледов":2713,"dra":2714,"ско":2715,"элем":2716,"##бу":2717,"##tiques":2718,"appear":2719,"мест":2720,"женщи":2721,"Petit":2722,"Gr":2723,"hor":2724,"мол":2725,"##tim":2726,"##ize":2727,"fond":2728,"пл":2729,"##orme":2730,"##рии":2731,"Partie":2732,"мас":2733,"некоторых":2734,"id":2735,"ря":2736,"##tres":2737,"##нее":2738,"##II":2739,"##ющего":2740,"котором":2741,"##érieur":2742,"глу":2743,"##ying":2744,"##str":2745,"ext":2746,"tex":2747,"cover":2748,"##ческого":2749,"один":2750,"##onym":2751,"##гре":2752,"##щая":2753,"восп":2754,"aussi":2755,"##ую":2756,"##стра":2757,"##inguis":2758,"##table":2759,"##ись":2760,"bar":2761,"##жный":2762,"приз":2763,"музы":2764,"given":2765,"неодобр":2766,"structure":2767,"Poli":2768,"give":2769,"art":2770,"которого":2771,"voir":2772,"##вол":2773,"##гать":2774,"incl":2775,"него":2776,"##mple":2777,"situation":2778,"##écialement":2779,"фа":2780,"##лый":2781,"##что":2782,"##ряд":2783,"##struction":2784,"opposition":2785,"##пер":2786,"##сколь":2787,"животных":2788,"##ution":2789,"##usion":2790,"различ":2791,"##rip":2792,"super":2793,"осуществ":2794,"tradition":2795,"которой":2796,"offic":2797,"расс":2798,"résultat":2799,"pays":2800,"material":2801,"им":2802,"##чет":2803,"env":2804,"##ulg":2805,"produit":2806,"кри":2807,"##ний":2808,"##ery":2809,"présent":2810,"using":2811,"##titude":2812,"вол":2813,"длин":2814,"уг":2815,"чис":2816,"beau":2817,"##ides":2818,"##мент":2819,"##ception":2820,"couleur":2821,"après":2822,"norm":2823,"##ест":2824,"##isation":2825,"exer":2826,"##пад":2827,"Am":2828,"sus":2829,"speci":2830,"élé":2831,"сер":2832,"##чной":2833,"##gne":2834,"покры":2835,"лиш":2836,"same":2837,"rap":2838,"##ющееся":2839,"Some":2840,"сделать":2841,"mes":2842,"##того":2843,"несколь":2844,"accomp":2845,"рус":2846,"групп":2847,"At":2848,"mati":2849,"##яни":2850,"remo":2851,"##iller":2852,"stand":2853,"ув":2854,"##ун":2855,"déf":2856,"инстру":2857,"consider":2858,"##лект":2859,"become":2860,"hy":2861,"##opp":2862,"##ject":2863,"##sif":2864,"обращ":2865,"façon":2866,"atte":2867,"##ographique":2868,"гра":2869,"кре":2870,"тра":2871,"##ood":2872,"##ats":2873,"##rable":2874,"церк":2875,"af":2876,"##ices":2877,"social":2878,"langu":2879,"Su":2880,"ост":2881,"##mé":2882,"##ему":2883,"Architecture":2884,"divers":2885,"лицо":2886,"##sych":2887,"##ène":2888,"##ination":2889,"abs":2890,"само":2891,"oppos":2892,"##riculture":2893,"cas":2894,"porte":2895,"##зм":2896,"##чная":2897,"поз":2898,"##способ":2899,"fran":2900,"ordre":2901,"Man":2902,"пря":2903,"##ина":2904,"##ument":2905,"##nel":2906,"##ased":2907,"##iction":2908,"homme":2909,"автом":2910,"употребля":2911,"if":2912,"##lection":2913,"amount":2914,"Rare":2915,"вла":2916,"низ":2917,"##ман":2918,"##orter":2919,"рав":2920,"мех":2921,"écrit":2922,"let":2923,"сто":2924,"##so":2925,"##tile":2926,"petit":2927,"##вести":2928,"##ified":2929,"##érieure":2930,"пренебр":2931,"el":2932,"fir":2933,"зна":2934,"##вого":2935,"moy":2936,"arr":2937,"отдель":2938,"droit":2939,"ill":2940,"широ":2941,"##ks":2942,"##ils":2943,"contre":2944,"##обра":2945,"soci":2946,"Politique":2947,"Can":2948,"да":2949,"##ья":2950,"##ings":2951,"ouv":2952,"##емая":2953,"arri":2954,"предназначенный":2955,"lim":2956,"||":2957,"ох":2958,"пла":2959,"##side":2960,"sup":2961,"been":2962,"особ":2963,"образов":2964,"круп":2965,"##inguistique":2966,"ir":2967,"side":2968,"##port":2969,"##raire":2970,"##ige":2971,"##tenir":2972,"специаль":2973,"##onymie":2974,"тор":2975,"##br":2976,"##tier":2977,"##бот":2978,"##над":2979,"##руш":2980,"##tention":2981,"resp":2982,"collec":2983,"things":2984,"donné":2985,"obl":2986,"put":2987,"woman":2988,"##ild":2989,"доп":2990,"men":2991,"senti":2992,"##ующий":2993,"##uter":2994,"##tle":2995,"##tout":2996,"##щения":2997,"this":2998,"верх":2999,"более":3000,"base":3001,"пар":3002,"##ilos":3003,"##ection":3004,"##atic":3005,"##atiques":3006,"prac":3007,"##ющаяся":3008,"##ength":3009,"пти":3010,"##ited":3011,"перем":3012,"##llip":3013,"feui":3014,"процесс":3015,"##чных":3016,"##inion":3017,"##art":3018,"inte":3019,"##лой":3020,"каких":3021,"##aleur":3022,"##олько":3023,"жизни":3024,"ear":3025,"ste":3026,"вне":3027,"тол":3028,"##oles":3029,"сос":3030,"##циаль":3031,"él":3032,"степ":3033,"serv":3034,"common":3035,"Pr":3036,"распрост":3037,"##ield":3038,"##ébec":3039,"элект":3040,"##окуп":3041,"##жу":3042,"поч":3043,"##ческая":3044,"servant":3045,"constitu":3046,"интер":3047,"времени":3048,"край":3049,"женщина":3050,"Al":3051,"gre":3052,"pie":3053,"été":3054,"эк":3055,"##ian":3056,"##stème":3057,"необ":3058,"кор":3059,"совокуп":3060,"голов":3061,"Québec":3062,"отсут":3063,"только":3064,"##лении":3065,"##гда":3066,"##щу":3067,"##rain":3068,"##érer":3069,"##ведение":3070,"ordinaire":3071,"##енных":3072,"##asure":3073,"##agn":3074,"##кую":3075,"одного":3076,"commer":3077,"human":3078,"member":3079,"себе":3080,"cle":3081,"coun":3082,"##bres":3083,"##ties":3084,"their":3085,"вод":3086,"##ологии":3087,"Linguistique":3088,"её":3089,"зо":3090,"ки":3091,"##ывать":3092,"проти":3093,"pouv":3094,"тре":3095,"##лаго":3096,"вой":3097,"уста":3098,"Phy":3099,"Be":3100,"sw":3101,"тран":3102,"уни":3103,"##вёр":3104,"##aiss":3105,"feel":3106,"langue":3107,"ак":3108,"##èg":3109,"##tité":3110,"auth":3111,"##tenant":3112,"##циона":3113,"ess":3114,"Lit":3115,"##ae":3116,"rece":3117,"##тиви":3118,"class":3119,"trava":3120,"influ":3121,"bro":3122,"##ене":3123,"##ache":3124,"##льной":3125,"##ife":3126,"спорт":3127,"take":3128,"Com":3129,"der":3130,"lors":3131,"##ene":3132,"##ена":3133,"invol":3134,"##quence":3135,"##дающий":3136,"##éré":3137,"dési":3138,"opinion":3139,"##ilosoph":3140,"распростран":3141,"тек":3142,"##yant":3143,"##enir":3144,"возду":3145,"##ities":3146,"métonymie":3147,"сти":3148,"хим":3149,"##ode":3150,"contin":3151,"##ither":3152,"##давать":3153,"##thing":3154,"стран":3155,"##ously":3156,"Agriculture":3157,"cell":3158,"culture":3159,"tro":3160,"##лей":3161,"##ыт":3162,"##жность":3163,"##enne":3164,"##lect":3165,"##еть":3166,"ont":3167,"##transitif":3168,"language":3169,"ellip":3170,"pap":3171,"##коп":3172,"##тор":3173,"изготов":3174,"услов":3175,"activity":3176,"difficult":3177,"mu":3178,"sui":3179,"##fer":3180,"##це":3181,"народ":3182,"suc":3183,"людей":3184,"области":3185,"dim":3186,"##уш":3187,"##aque":3188,"##amm":3189,"состоящий":3190,"быть":3191,"food":3192,"##issement":3193,"behav":3194,"субстан":3195,"##мат":3196,"простран":3197,"Esp":3198,"зоол":3199,"down":3200,"дом":3201,"##креп":3202,"##sc":3203,"symb":3204,"effect":3205,"associ":3206,"фило":3207,"дерев":3208,"cô":3209,"cul":3210,"foll":3211,"офи":3212,"##gie":3213,"extra":3214,"##embling":3215,"service":3216,"also":3217,"кулин":3218,"physical":3219,"Tra":3220,"##ret":3221,"##isten":3222,"##termin":3223,"специали":3224,"information":3225,"внутрен":3226,"Without":3227,"donne":3228,"окру":3229,"сок":3230,"содерж":3231,"жидко":3232,"кла":3233,"шут":3234,"##тен":3235,"device":3236,"##ремен":3237,"##емое":3238,"##cience":3239,"expression":3240,"means":3241,"emploie":3242,"ball":3243,"##ум":3244,"##ium":3245,"##tible":3246,"##ark":3247,"##ational":3248,"Intransitif":3249,"particulière":3250,"Art":3251,"##érique":3252,"after":3253,"four":3254,"##entes":3255,"parts":3256,"##ющей":3257,"куда":3258,"parties":3259,"обознач":3260,"Someone":3261,"Met":3262,"ke":3263,"прав":3264,"##чка":3265,"##eux":3266,"##âtre":3267,"dem":3268,"##ouse":3269,"##rog":3270,"##ников":3271,"принад":3272,"succ":3273,"инфор":3274,"форма":3275,"open":3276,"страд":3277,"двух":3278,"##tiquité":3279,"устройство":3280,"принадле":3281,"cur":3282,"ти":3283,"##чение":3284,"##нер":3285,"##ail":3286,"##енного":3287,"prom":3288,"humain":3289,"single":3290,"different":3291,"механи":3292,"18":3293,"sal":3294,"siè":3295,"trop":3296,"бел":3297,"тем":3298,"extr":3299,"plac":3300,"измен":3301,"##echnique":3302,"degree":3303,"Dans":3304,"bus":3305,"rac":3306,"##ье":3307,"##duire":3308,"женское":3309,"support":3310,"origin":3311,"противо":3312,"Imp":3313,"La":3314,"mouvement":3315,"##ору":3316,"##ровать":3317,"ancien":3318,"неол":3319,"music":3320,"mil":3321,"rad":3322,"##чное":3323,"##try":3324,"##motion":3325,"использов":3326,"##ète":3327,"##ason":3328,"пери":3329,"##thers":3330,"какое":3331,"##ouveau":3332,"быстро":3333,"caractère":3334,"##чить":3335,"##ament":3336,"##ken":3337,"##мест":3338,"spir":3339,"syn":3340,"mettre":3341,"appartient":3342,"instrument":3343,"развит":3344,"cy":3345,"game":3346,"popul":3347,"sil":3348,"бран":3349,"##енной":3350,"##ects":3351,"##actique":3352,"exces":3353,"разно":3354,"fav":3355,"##ateur":3356,"Antiquité":3357,"surtout":3358,"свет":3359,"поверхности":3360,"##gether":3361,"ellipse":3362,"bui":3363,"pain":3364,"vit":3365,"##вос":3366,"charge":3367,"##velopp":3368,"##ières":3369,"cat":3370,"ед":3371,"зат":3372,"##iers":3373,"##rir":3374,"##жении":3375,"##ises":3376,"поступ":3377,"together":3378,"##elf":3379,"##ток":3380,"отли":3381,"##athém":3382,"caractér":3383,"правило":3384,"electr":3385,"mauv":3386,"oper":3387,"##рет":3388,"##ash":3389,"extre":3390,"sem":3391,"avoir":3392,"##duit":3393,"##indre":3394,"##ются":3395,"XV":3396,"kind":3397,"log":3398,"##чного":3399,"##ex":3400,"##ге":3401,"##anche":3402,"##иту":3403,"leurs":3404,"new":3405,"##cept":3406,"value":3407,"Ac":3408,"Comp":3409,"mul":3410,"##aking":3411,"##ple":3412,"##êt":3413,"sud":3414,"##ately":3415,"mark":3416,"Rendre":3417,"jeu":3418,"others":3419,"toute":3420,"##orn":3421,"общ":3422,"prote":3423,"##стью":3424,"анат":3425,"качестве":3426,"Pertaining":3427,"автомоб":3428,"совокупность":3429,"иг":3430,"##anch":3431,"##рос":3432,"проду":3433,"##оря":3434,"short":3435,"repres":3436,"после":3437,"##тивир":3438,"субстантивир":3439,"gros":3440,"вели":3441,"те":3442,"##iment":3443,"##ys":3444,"##ished":3445,"наход":3446,"peup":3447,"term":3448,"люб":3449,"растение":3450,"выража":3451,"cra":3452,"ide":3453,"гу":3454,"##дно":3455,"##dent":3456,"##кому":3457,"служ":3458,"##mettre":3459,"orthographique":3460,"внеш":3461,"Ad":3462,"Habit":3463,"вес":3464,"гов":3465,"примен":3466,"##idactique":3467,"##illes":3468,"##minist":3469,"prem":3470,"profession":3471,"était":3472,"##aître":3473,"author":3474,"sour":3475,"sense":3476,"tri":3477,"ут":3478,"##ède":3479,"##alité":3480,"нео":3481,"##ending":3482,"poin":3483,"куль":3484,"формы":3485,"крас":3486,"individual":3487,"Af":3488,"Didactique":3489,"hold":3490,"Éc":3491,"мно":3492,"##оми":3493,"##vo":3494,"##read":3495,"##action":3496,"##анию":3497,"приспособ":3498,"##цию":3499,"##vert":3500,"управ":3501,"Ou":3502,"pen":3503,"##чат":3504,"##kes":3505,"##atural":3506,"##ilité":3507,"##ulation":3508,"sujet":3509,"attention":3510,"Mettre":3511,"Caract":3512,"ayant":3513,"fre":3514,"tiss":3515,"Être":3516,"##пи":3517,"##ыми":3518,"##ict":3519,"##них":3520,"##имый":3521,"family":3522,"item":3523,"rendre":3524,"мал":3525,"##isée":3526,"##бов":3527,"биол":3528,"lar":3529,"цент":3530,"##ition":3531,"##arp":3532,"appro":3533,"##стоян":3534,"преим":3535,"помощ":3536,"property":3537,"Sub":3538,"mas":3539,"nouveau":3540,"след":3541,"твёр":3542,"##стр":3543,"##isant":3544,"##анных":3545,"##iles":3546,"conte":3547,"color":3548,"сы":3549,"##ling":3550,"##yth":3551,"indu":3552,"##рем":3553,"only":3554,"déb":3555,"##téraire":3556,"respect":3557,"музыка":3558,"трансп":3559,"influence":3560,"tas":3561,"tim":3562,"ору":3563,"##rer":3564,"##ливо":3565,"disting":3566,"##venir":3567,"purpose":3568,"règ":3569,"кро":3570,"##еро":3571,"##тно":3572,"##тый":3573,"##mit":3574,"##ox":3575,"##ables":3576,"##times":3577,"##iety":3578,"##ffe":3579,"возмо":3580,"призна":3581,"ju":3582,"##pond":3583,"##стов":3584,"toward":3585,"##ительное":3586,"relations":3587,"charg":3588,"мыс":3589,"grow":3590,"jo":3591,"##ше":3592,"отвер":3593,"##oupe":3594,"espèces":3595,"due":3596,"##ank":3597,"##als":3598,"law":3599,"обс":3600,"заклю":3601,"Petite":3602,"liquid":3603,"путём":3604,"Av":3605,"bâ":3606,"land":3607,"tête":3608,"##urer":3609,"##лить":3610,"suff":3611,"many":3612,"occup":3613,"ран":3614,"фун":3615,"##рё":3616,"##шего":3617,"##wor":3618,"instance":3619,"##анная":3620,"##stances":3621,"##aison":3622,"##ramm":3623,"bat":3624,"gu":3625,"pier":3626,"right":3627,"трав":3628,"сочет":3629,"ones":3630,"Inter":3631,"##ине":3632,"##ada":3633,"##illement":3634,"longue":3635,"растений":3636,"бесп":3637,"через":3638,"ev":3639,"хими":3640,"##dique":3641,"##ctive":3642,"постоян":3643,"##ili":3644,"##sib":3645,"thin":3646,"##rimer":3647,"##льного":3648,"изобра":3649,"запа":3650,"close":3651,"second":3652,"болез":3653,"высок":3654,"соответству":3655,"franç":3656,"piece":3657,"отсутствие":3658,"build":3659,"Fem":3660,"Po":3661,"équi":3662,"##étique":3663,"##pl":3664,"##pend":3665,"недо":3666,"##oss":3667,"ques":3668,"##aisse":3669,"march":3670,"strong":3671,"control":3672,"matière":3673,"##athématiques":3674,"лё":3675,"##orité":3676,"##ати":3677,"прод":3678,"##mpl":3679,"##oser":3680,"##ards":3681,"mean":3682,"всех":3683,"Biologie":3684,"care":3685,"ино":3686,"##nelle":3687,"##щих":3688,"##ола":3689,"##oney":3690,"##elles":3691,"арх":3692,"région":3693,"first":3694,"Eur":3695,"line":3696,"ал":3697,"##чки":3698,"##изу":3699,"objets":3700,"Ne":3701,"cut":3702,"each":3703,"male":3704,"тон":3705,"##кани":3706,"##gment":3707,"##ences":3708,"##ars":3709,"пок":3710,"##ител":3711,"Character":3712,"effort":3713,"полит":3714,"Spécialement":3715,"sexual":3716,"неприят":3717,"valeur":3718,"was":3719,"##aie":3720,"##élé":3721,"##женный":3722,"##orce":3723,"top":3724,"нес":3725,"##ние":3726,"##вает":3727,"стру":3728,"femme":3729,"Abs":3730,"Lieu":3731,"Sou":3732,"Ter":3733,"pièce":3734,"tre":3735,"вет":3736,"см":3737,"##рь":3738,"##действ":3739,"##цу":3740,"##onde":3741,"##omme":3742,"##ulaire":3743,"##нист":3744,"собой":3745,"thé":3746,"против":3747,"plantes":3748,"whe":3749,"сна":3750,"##лён":3751,"##него":3752,"##coup":3753,"##omen":3754,"##зии":3755,"тела":3756,"view":3757,"concerne":3758,"установ":3759,"мин":3760,"поль":3761,"##ected":3762,"приготов":3763,"##amment":3764,"полити":3765,"argent":3766,"name":3767,"puis":3768,"укра":3769,"##aï":3770,"##gy":3771,"##рин":3772,"##ляющий":3773,"##pper":3774,"face":3775,"motion":3776,"appel":3777,"head":3778,"against":3779,"On":3780,"mou":3781,"own":3782,"нов":3783,"сни":3784,"##дать":3785,"##шения":3786,"##respond":3787,"sever":3788,"separ":3789,"восто":3790,"каком":3791,"##ательный":3792,"собствен":3793,"physique":3794,"организа":3795,"self":3796,"Canada":3797,"Lang":3798,"nec":3799,"nav":3800,"##ring":3801,"##нев":3802,"##ency":3803,"##iner":3804,"red":3805,"##ived":3806,"groupe":3807,"материа":3808,"##ходящий":3809,"envir":3810,"переме":3811,"информа":3812,"Res":3813,"pied":3814,"ткан":3815,"чь":3816,"##рани":3817,"##лением":3818,"##нь":3819,"##cé":3820,"##ève":3821,"##рок":3822,"нача":3823,"##verse":3824,"##водить":3825,"##грани":3826,"Sport":3827,"permettant":3828,"éch":3829,"лит":3830,"ог":3831,"##дный":3832,"##aw":3833,"##лиз":3834,"согла":3835,"less":3836,"what":3837,"obser":3838,"##areil":3839,"sometimes":3840,"человеке":3841,"растения":3842,"большой":3843,"религи":3844,"function":3845,"tel":3846,"vue":3847,"##oque":3848,"conven":3849,"##есп":3850,"отдел":3851,"##ropri":3852,"moyen":3853,"функ":3854,"happ":3855,"pot":3856,"благо":3857,"вза":3858,"##ral":3859,"##erv":3860,"##сты":3861,"##ury":3862,"exper":3863,"раздел":3864,"##endant":3865,"##agne":3866,"alco":3867,"effet":3868,"upon":3869,"malad":3870,"moral":3871,"donner":3872,"either":3873,"fé":3874,"mach":3875,"oise":3876,"pens":3877,"écl":3878,"дене":3879,"ход":3880,"##tal":3881,"находя":3882,"застав":3883,"##tific":3884,"##ечение":3885,"transport":3886,"тяж":3887,"trois":3888,"сме":3889,"том":3890,"##bers":3891,"##acées":3892,"requi":3893,"##mpt":3894,"##tenu":3895,"##very":3896,"Ind":3897,"##abillement":3898,"adv":3899,"##prise":3900,"физичес":3901,"during":3902,"quantity":3903,"##éraldique":3904,"отлича":3905,"Ob":3906,"bad":3907,"hel":3908,"сч":3909,"ткани":3910,"этого":3911,"##уп":3912,"##ото":3913,"##pe":3914,"##шение":3915,"нар":3916,"##igure":3917,"##chie":3918,"лег":3919,"группы":3920,"хол":3921,"##кла":3922,"##af":3923,"##жная":3924,"##ций":3925,"пот":3926,"##rate":3927,"##rase":3928,"##льных":3929,"correspond":3930,"муз":3931,"measure":3932,"террит":3933,"элемен":3934,"Femme":3935,"Gen":3936,"pers":3937,"œu":3938,"вуль":3939,"лат":3940,"сек":3941,"##land":3942,"##ящий":3943,"##trer":3944,"trou":3945,"свобо":3946,"subject":3947,"accord":3948,"деятельности":3949,"Mathématiques":3950,"iden":3951,"tir":3952,"##вроп":3953,"most":3954,"distin":3955,"space":3956,"Relating":3957,"chez":3958,"vehic":3959,"complete":3960,"appearance":3961,"oblig":3962,"away":3963,"life":3964,"нос":3965,"хоро":3966,"##fore":3967,"##mely":3968,"##бить":3969,"##хран":3970,"##ieuse":3971,"неза":3972,"##istant":3973,"##meric":3974,"beaucoup":3975,"период":3976,"multi":3977,"Caractère":3978,"Americ":3979,"pal":3980,"игра":3981,"срав":3982,"##дь":3983,"##гат":3984,"##нок":3985,"uns":3986,"fort":3987,"real":3988,"##авли":3989,"iss":3990,"result":3991,"##ization":3992,"которы":3993,"circ":3994,"лёг":3995,"вульг":3996,"civ":3997,"ment":3998,"tal":3999,"##ием":4000,"##щать":4001,"##oment":4002,"faite":4003,"выдел":4004,"##trine":4005,"##ager":4006,"liquide":4007,"psych":4008,"буд":4009,"сла":4010,"##сса":4011,"##вар":4012,"##ding":4013,"##ям":4014,"##ших":4015,"##ёл":4016,"inj":4017,"##ится":4018,"##ird":4019,"##atis":4020,"места":4021,"post":4022,"explo":4023,"груп":4024,"образом":4025,"regard":4026,"##грам":4027,"движения":4028,"##onyme":4029,"автомоби":4030,"hau":4031,"jud":4032,"lum":4033,"vég":4034,"сев":4035,"##och":4036,"##line":4037,"##order":4038,"##еры":4039,"them":4040,"lac":4041,"корот":4042,"##duction":4043,"свер":4044,"Trans":4045,"Transitif":4046,"établ":4047,"гео":4048,"élev":4049,"член":4050,"##яй":4051,"##цен":4052,"неб":4053,"одной":4054,"##ратив":4055,"harm":4056,"haut":4057,"вним":4058,"имени":4059,"##mm":4060,"##écial":4061,"##ант":4062,"участ":4063,"##ilosophie":4064,"Emp":4065,"Héraldique":4066,"bal":4067,"ад":4068,"##son":4069,"##xim":4070,"##éta":4071,"##шая":4072,"##ering":4073,"##олня":4074,"##льное":4075,"attra":4076,"religion":4077,"характеризу":4078,"priv":4079,"selon":4080,"ordinairement":4081,"специалист":4082,"преимуществ":4083,"oneself":4084,"table":4085,"wr":4086,"ну":4087,"##itable":4088,"##роб":4089,"##ливый":4090,"##ваемый":4091,"дости":4092,"carry":4093,"opposed":4094,"typically":4095,"##ross":4096,"métal":4097,"насел":4098,"extent":4099,"business":4100,"Cap":4101,"дов":4102,"хран":4103,"##зр":4104,"##дания":4105,"##лё":4106,"##ool":4107,"##работ":4108,"level":4109,"##льно":4110,"забо":4111,"soft":4112,"последов":4113,"глав":4114,"##ulgaire":4115,"Physique":4116,"говор":4117,"run":4118,"##че":4119,"зако":4120,"mag":4121,"petite":4122,"доро":4123,"##ённых":4124,"част":4125,"##cles":4126,"repro":4127,"##mission":4128,"пись":4129,"уго":4130,"ци":4131,"##uve":4132,"##lay":4133,"##erve":4134,"##rect":4135,"##ites":4136,"обесп":4137,"##ляр":4138,"##idence":4139,"perf":4140,"##чай":4141,"press":4142,"various":4143,"feuilles":4144,"находящийся":4145,"er":4146,"emotion":4147,"fro":4148,"sn":4149,"sac":4150,"sorte":4151,"зан":4152,"##cing":4153,"##фичес":4154,"##жением":4155,"quick":4156,"though":4157,"вос":4158,"artic":4159,"##стоятель":4160,"courant":4161,"##lément":4162,"##ential":4163,"utilisée":4164,"организма":4165,"содержащий":4166,"pouvoir":4167,"Littéraire":4168,"Bel":4169,"Very":4170,"иде":4171,"##ores":4172,"##нии":4173,"three":4174,"cheval":4175,"помещение":4176,"Europe":4177,"террито":4178,"##hib":4179,"##timent":4180,"##net":4181,"##ющим":4182,"making":4183,"##чина":4184,"production":4185,"cours":4186,"court":4187,"##ляться":4188,"##ledge":4189,"composé":4190,"destiné":4191,"fabric":4192,"fleurs":4193,"mesure":4194,"увели":4195,"Mal":4196,"equ":4197,"well":4198,"смыс":4199,"фин":4200,"неу":4201,"Inform":4202,"спор":4203,"réc":4204,"neg":4205,"##ruit":4206,"origine":4207,"espèce":4208,"excessive":4209,"нор":4210,"##dle":4211,"containing":4212,"##qué":4213,"орган":4214,"Qualité":4215,"##olument":4216,"movement":4217,"belief":4218,"practice":4219,"помощью":4220,"Cour":4221,"Fait":4222,"tour":4223,"tend":4224,"telle":4225,"удар":4226,"##нем":4227,"##wise":4228,"##anisme":4229,"parfois":4230,"##pected":4231,"##вис":4232,"actions":4233,"форме":4234,"движение":4235,"attach":4236,"specifically":4237,"siècle":4238,"Pièce":4239,"low":4240,"mind":4241,"вед":4242,"нем":4243,"##тя":4244,"##tter":4245,"##tition":4246,"within":4247,"around":4248,"peau":4249,"##olution":4250,"particulièrement":4251,"Habitant":4252,"отверсти":4253,"Avec":4254,"Habillement":4255,"blo":4256,"ele":4257,"уси":4258,"чи":4259,"##éra":4260,"##oure":4261,"##ulier":4262,"сопро":4263,"cho":4264,"chim":4265,"##rim":4266,"##дав":4267,"compr":4268,"stud":4269,"##ённое":4270,"напоми":4271,"imag":4272,"principalement":4273,"бук":4274,"##rologie":4275,"jusqu":4276,"important":4277,"##uellement":4278,"sor":4279,"вп":4280,"кис":4281,"чрез":4282,"##ove":4283,"##шее":4284,"##asser":4285,"##стое":4286,"##illing":4287,"##еза":4288,"предо":4289,"réf":4290,"##альный":4291,"éto":4292,"know":4293,"иногда":4294,"hard":4295,"tous":4296,"##рать":4297,"##дом":4298,"##гаться":4299,"##ening":4300,"##reg":4301,"##arn":4302,"##ata":4303,"нау":4304,"##еты":4305,"##astique":4306,"rev":4307,"particip":4308,"##ательно":4309,"Philosophie":4310,"intended":4311,"##нерги":4312,"cré":4313,"natural":4314,"дере":4315,"ирон":4316,"##ам":4317,"##uits":4318,"##xual":4319,"##erm":4320,"##енным":4321,"enter":4322,"##olic":4323,"condu":4324,"##asant":4325,"##ush":4326,"child":4327,"may":4328,"речи":4329,"interest":4330,"heav":4331,"attrib":4332,"female":4333,"politique":4334,"generally":4335,"цвета":4336,"quantité":4337,"considered":4338,"Des":4339,"drin":4340,"fois":4341,"sen":4342,"year":4343,"удов":4344,"##asion":4345,"##xe":4346,"##jou":4347,"##ôt":4348,"##tively":4349,"##acking":4350,"##quent":4351,"издел":4352,"воды":4353,"administ":4354,"исполн":4355,"propri":4356,"region":4357,"incre":4358,"fact":4359,"небольшой":4360,"государства":4361,"refer":4362,"radi":4363,"free":4364,"mix":4365,"##ton":4366,"##anches":4367,"##itre":4368,"ent":4369,"сооб":4370,"отлич":4371,"plais":4372,"##ows":4373,"sport":4374,"soi":4375,"подвер":4376,"##ably":4377,"действий":4378,"руко":4379,"отношение":4380,"результате":4381,"describ":4382,"dessus":4383,"группа":4384,"Mét":4385,"bra":4386,"mê":4387,"mid":4388,"rend":4389,"stre":4390,"лет":4391,"хоз":4392,"##yer":4393,"##жности":4394,"##ze":4395,"##ût":4396,"##лит":4397,"##лия":4398,"наб":4399,"exce":4400,"обяз":4401,"prendre":4402,"##мента":4403,"shape":4404,"##velop":4405,"##ственное":4406,"course":4407,"все":4408,"работ":4409,"général":4410,"Plus":4411,"бума":4412,"##urring":4413,"количество":4414,"вещество":4415,"species":4416,"spirit":4417,"scien":4418,"ощу":4419,"##сси":4420,"##жной":4421,"##èce":4422,"##арат":4423,"##логи":4424,"##ческим":4425,"manque":4426,"manif":4427,"Plante":4428,"legal":4429,"##istence":4430,"building":4431,"vehicle":4432,"Che":4433,"##чу":4434,"##rier":4435,"##лое":4436,"détermin":4437,"dise":4438,"indic":4439,"worn":4440,"taille":4441,"##станов":4442,"положение":4443,"другим":4444,"различных":4445,"шутл":4446,"peuple":4447,"Technique":4448,"ces":4449,"sch":4450,"writ":4451,"пара":4452,"тов":4453,"ша":4454,"##сий":4455,"##cted":4456,"##ital":4457,"##isc":4458,"##вом":4459,"dég":4460,"moder":4461,"##ину":4462,"computer":4463,"former":4464,"genus":4465,"обладающий":4466,"##igned":4467,"металли":4468,"program":4469,"Co":4470,"musique":4471,"rot":4472,"rather":4473,"прит":4474,"##ак":4475,"##вых":4476,"##ience":4477,"##ware":4478,"##енные":4479,"##arily":4480,"##let":4481,"##дах":4482,"зад":4483,"before":4484,"##osé":4485,"орга":4486,"##ственно":4487,"##вест":4488,"distance":4489,"сравн":4490,"All":4491,"Cl":4492,"##пис":4493,"##поло":4494,"##ister":4495,"##atre":4496,"examp":4497,"plante":4498,"каким":4499,"Instru":4500,"старин":4501,"чувства":4502,"characteristics":4503,"éléments":4504,"country":4505,"sudden":4506,"points":4507,"fore":4508,"ni":4509,"син":4510,"смер":4511,"##ai":4512,"##ковой":4513,"fruit":4514,"##ждать":4515,"near":4516,"passion":4517,"passer":4518,"##ходящ":4519,"bring":4520,"##ечат":4521,"средство":4522,"физи":4523,"морск":4524,"words":4525,"much":4526,"Sh":4527,"rare":4528,"пр":4529,"##enn":4530,"contr":4531,"##amb":4532,"dém":4533,"front":4534,"phrase":4535,"sold":4536,"musical":4537,"endroit":4538,"provide":4539,"лоша":4540,"мифол":4541,"литер":4542,"elles":4543,"méd":4544,"vir":4545,"##uff":4546,"##tu":4547,"##ыты":4548,"##gin":4549,"##vaux":4550,"devant":4551,"##antes":4552,"##taine":4553,"прив":4554,"pron":4555,"whole":4556,"impression":4557,"phot":4558,"verb":4559,"système":4560,"##inture":4561,"feu":4562,"present":4563,"specified":4564,"occasion":4565,"интерес":4566,"clear":4567,"филос":4568,"малень":4569,"##рёх":4570,"bord":4571,"cui":4572,"sort":4573,"vent":4574,"ville":4575,"you":4576,"##се":4577,"##нит":4578,"##йти":4579,"dev":4580,"##лии":4581,"##раб":4582,"##stra":4583,"ради":4584,"##емого":4585,"Ancien":4586,"##aph":4587,"flat":4588,"##строй":4589,"player":4590,"склон":4591,"духов":4592,"другого":4593,"##вшийся":4594,"travail":4595,"приспособление":4596,"Jeu":4597,"aide":4598,"develop":4599,"construction":4600,"##riting":4601,"стол":4602,"##owed":4603,"предпри":4604,"##удо":4605,"##paration":4606,"office":4607,"originaire":4608,"работы":4609,"стороны":4610,"расположен":4611,"разновид":4612,"example":4613,"ap":4614,"based":4615,"hui":4616,"money":4617,"piè":4618,"she":4619,"tient":4620,"ограни":4621,"сим":4622,"##еш":4623,"##ог":4624,"##pare":4625,"##ones":4626,"нечто":4627,"excl":4628,"##ries":4629,"direct":4630,"выполн":4631,"истори":4632,"favor":4633,"обсц":4634,"напомина":4635,"dign":4636,"день":4637,"экон":4638,"энерги":4639,"##aille":4640,"##хи":4641,"##шей":4642,"##ortion":4643,"##sel":4644,"##лина":4645,"ener":4646,"lead":4647,"##ged":4648,"##ché":4649,"assi":4650,"##вин":4651,"##écess":4652,"coll":4653,"круг":4654,"единица":4655,"encore":4656,"волос":4657,"Absolument":4658,"far":4659,"moment":4660,"##stitu":4661,"##gique":4662,"##tits":4663,"##iture":4664,"##oul":4665,"inde":4666,"##атичес":4667,"lab":4668,"##stand":4669,"exe":4670,"выз":4671,"ground":4672,"produced":4673,"autorité":4674,"gover":4675,"doit":4676,"##яться":4677,"##ducation":4678,"являющийся":4679,"else":4680,"##aissance":4681,"relationship":4682,"Instrument":4683,"Vulgaire":4684,"day":4685,"fal":4686,"hon":4687,"pous":4688,"techn":4689,"vête":4690,"##вращ":4691,"##of":4692,"##uck":4693,"##гля":4694,"##жде":4695,"##till":4696,"##aring":4697,"##urb":4698,"наруш":4699,"##acher":4700,"##rid":4701,"откры":4702,"стрем":4703,"##ходить":4704,"##ряда":4705,"испыты":4706,"related":4707,"##part":4708,"ils":4709,"worth":4710,"образу":4711,"системы":4712,"употребляется":4713,"source":4714,"Langue":4715,"dri":4716,"##кти":4717,"##мой":4718,"##aient":4719,"##стить":4720,"##acle":4721,"##нима":4722,"разд":4723,"##cident":4724,"##ivers":4725,"##док":4726,"##fully":4727,"imm":4728,"переда":4729,"dépl":4730,"sentiment":4731,"продукт":4732,"question":4733,"Rec":4734,"curr":4735,"field":4736,"hyp":4737,"mâ":4738,"nar":4739,"апп":4740,"фами":4741,"##дить":4742,"##ément":4743,"##onc":4744,"##inary":4745,"ней":4746,"##iding":4747,"quelcon":4748,"notamment":4749,"##ched":4750,"##écanique":4751,"##vient":4752,"autom":4753,"##uding":4754,"blanc":4755,"область":4756,"получа":4757,"Orn":4758,"known":4759,"remove":4760,"знак":4761,"respon":4762,"птица":4763,"meaning":4764,"Ast":4765,"jour":4766,"близ":4767,"скры":4768,"##ié":4769,"##uf":4770,"##жить":4771,"лица":4772,"##acité":4773,"програм":4774,"##сток":4775,"quand":4776,"стар":4777,"##авший":4778,"##чивать":4779,"##вшее":4780,"всего":4781,"##onnement":4782,"времен":4783,"меди":4784,"служащий":4785,"##нутый":4786,"Géologie":4787,"importance":4788,"joue":4789,"Manière":4790,"сокр":4791,"XI":4792,"cau":4793,"жа":4794,"кат":4795,"кры":4796,"лес":4797,"ман":4798,"яр":4799,"##слу":4800,"##ost":4801,"##yn":4802,"##жных":4803,"##цев":4804,"##ента":4805,"##teurs":4806,"##rap":4807,"##ристи":4808,"contient":4809,"##resse":4810,"древне":4811,"материал":4812,"circul":4813,"general":4814,"rouge":4815,"инструмент":4816,"dimension":4817,"травяни":4818,"##atisf":4819,"кисло":4820,"Homme":4821,"aig":4822,"mort":4823,"nécess":4824,"есть":4825,"##ried":4826,"##нет":4827,"##цвет":4828,"inse":4829,"##icient":4830,"народа":4831,"размер":4832,"##mps":4833,"artis":4834,"##istance":4835,"resembling":4836,"преп":4837,"consisting":4838,"форму":4839,"матем":4840,"состоянии":4841,"##ologique":4842,"passage":4843,"##круг":4844,"Commer":4845,"взаим":4846,"fémin":4847,"Cor":4848,"den":4849,"danger":4850,"fit":4851,"hi":4852,"net":4853,"past":4854,"юр":4855,"##udi":4856,"##мот":4857,"deli":4858,"sequence":4859,"##érence":4860,"développ":4861,"##ковых":4862,"oiseaux":4863,"fille":4864,"his":4865,"milit":4866,"pit":4867,"race":4868,"sin":4869,"sau":4870,"vig":4871,"##lise":4872,"##жное":4873,"##ining":4874,"##anse":4875,"пор":4876,"##кор":4877,"##стин":4878,"измер":4879,"##тия":4880,"##ительности":4881,"##aves":4882,"одна":4883,"objects":4884,"repe":4885,"##lication":4886,"morale":4887,"учре":4888,"##aît":4889,"нескольких":4890,"behavi":4891,"применя":4892,"говорить":4893,"Informatique":4894,"Mem":4895,"wind":4896,"житель":4897,"умер":4898,"##лений":4899,"##ченный":4900,"##жим":4901,"##oration":4902,"##ison":4903,"##анного":4904,"##говор":4905,"##els":4906,"социаль":4907,"##ots":4908,"разме":4909,"read":4910,"comporte":4911,"река":4912,"ability":4913,"##кту":4914,"##живать":4915,"расстоя":4916,"##ology":4917,"pratique":4918,"теле":4919,"другой":4920,"рода":4921,"garn":4922,"условия":4923,"milieu":4924,"XVII":4925,"authority":4926,"архит":4927,"lacking":4928,"Acc":4929,"Pre":4930,"Sur":4931,"equi":4932,"péri":4933,"год":4934,"нер":4935,"сол":4936,"##abl":4937,"##фек":4938,"##êche":4939,"##onic":4940,"##енность":4941,"##ourd":4942,"exam":4943,"those":4944,"##riv":4945,"##рус":4946,"while":4947,"see":4948,"obsc":4949,"воздейств":4950,"insp":4951,"животного":4952,"engage":4953,"Disp":4954,"violent":4955,"côté":4956,"офиц":4957,"адми":4958,"разновидность":4959,"Caus":4960,"cin":4961,"cru":4962,"mess":4963,"nu":4964,"rig":4965,"tant":4966,"vé":4967,"writing":4968,"воло":4969,"уро":4970,"##ик":4971,"##ины":4972,"##чая":4973,"initi":4974,"##лиш":4975,"défin":4976,"petits":4977,"##und":4978,"##itement":4979,"add":4980,"otherwise":4981,"##réable":4982,"мона":4983,"средства":4984,"monde":4985,"некоторо":4986,"происхо":4987,"множеств":4988,"##work":4989,"camp":4990,"pâ":4991,"pun":4992,"pén":4993,"sang":4994,"tire":4995,"ген":4996,"##обо":4997,"##yond":4998,"##arras":4999,"поп":5000,"whose":5001,"##osph":5002,"своей":5003,"##чности":5004,"travers":5005,"конт":5006,"Exp":5007,"foot":5008,"capable":5009,"location":5010,"possession":5011,"speech":5012,"special":5013,"associated":5014,"represent":5015,"религиоз":5016,"геогр":5017,"quelconque":5018,"fur":5019,"étend":5020,"вн":5021,"пы":5022,"##rée":5023,"##oid":5024,"##tom":5025,"##ls":5026,"##onie":5027,"##arch":5028,"unit":5029,"##рас":5030,"защ":5031,"arb":5032,"доку":5033,"челове":5034,"##clé":5035,"презр":5036,"существов":5037,"##ological":5038,"film":5039,"Syn":5040,"draw":5041,"text":5042,"ouvrage":5043,"преимущественно":5044,"disease":5045,"pièces":5046,"Ornith":5047,"Typ":5048,"length":5049,"nour":5050,"treat":5051,"ска":5052,"##ести":5053,"##уча":5054,"##for":5055,"##ran":5056,"##лан":5057,"##ensive":5058,"##insi":5059,"inh":5060,"inst":5061,"##анные":5062,"##ствовать":5063,"##рей":5064,"desire":5065,"соору":5066,"exéc":5067,"champ":5068,"##riend":5069,"##вается":5070,"##umes":5071,"agit":5072,"свойства":5073,"qualité":5074,"anything":5075,"hommes":5076,"используемый":5077,"skin":5078,"skill":5079,"normal":5080,"Espèce":5081,"machine":5082,"заболе":5083,"Car":5084,"Eng":5085,"mass":5086,"nation":5087,"ven":5088,"wood":5089,"Ég":5090,"тан":5091,"##ска":5092,"##лению":5093,"##чит":5094,"##ax":5095,"##cts":5096,"##ye":5097,"##ху":5098,"##ancer":5099,"пог":5100,"##ело":5101,"коне":5102,"auc":5103,"reç":5104,"sug":5105,"dét":5106,"##unt":5107,"show":5108,"adj":5109,"travel":5110,"напит":5111,"animals":5112,"conditions":5113,"political":5114,"break":5115,"сильно":5116,"environ":5117,"Commerce":5118,"Ornithologie":5119,"Ser":5120,"ast":5121,"dir":5122,"hair":5123,"ана":5124,"##дание":5125,"##пов":5126,"lack":5127,"проф":5128,"dél":5129,"##ческие":5130,"ceux":5131,"impro":5132,"преступ":5133,"##ronomie":5134,"prim":5135,"объедин":5136,"naturelle":5137,"##ющихся":5138,"mots":5139,"высказы":5140,"Appareil":5141,"mauvaise":5142,"транспорт":5143,"Gramm":5144,"Li":5145,"ainsi":5146,"bon":5147,"couv":5148,"fau":5149,"size":5150,"вра":5151,"зр":5152,"##xt":5153,"##яс":5154,"##bo":5155,"##onique":5156,"##ese":5157,"inv":5158,"##рая":5159,"##med":5160,"chau":5161,"assembl":5162,"fruits":5163,"compar":5164,"##llect":5165,"rest":5166,"##ально":5167,"##elling":5168,"possible":5169,"относ":5170,"disposition":5171,"discours":5172,"légère":5173,"занимающийся":5174,"religious":5175,"мифологии":5176,"элемент":5177,"##strie":5178,"accompl":5179,"success":5180,"холод":5181,"blood":5182,"Grammaire":5183,"Les":5184,"figure":5185,"гре":5186,"##ид":5187,"##né":5188,"##стый":5189,"##astic":5190,"##ником":5191,"##tained":5192,"##тие":5193,"##отов":5194,"arbres":5195,"##llig":5196,"##тами":5197,"##tification":5198,"##ленное":5199,"слова":5200,"сторон":5201,"предметов":5202,"сделанный":5203,"чувство":5204,"herb":5205,"rapid":5206,"diverses":5207,"commerce":5208,"equal":5209,"Comm":5210,"Lacking":5211,"ed":5212,"mic":5213,"rom":5214,"ress":5215,"оз":5216,"ред":5217,"##uc":5218,"indi":5219,"enti":5220,"##риз":5221,"##риц":5222,"##rime":5223,"##trie":5224,"composition":5225,"##oche":5226,"##рования":5227,"agree":5228,"terme":5229,"produce":5230,"##люд":5231,"intention":5232,"causes":5233,"société":5234,"сосуд":5235,"feeling":5236,"larger":5237,"marchand":5238,"древнегре":5239,"Dont":5240,"Une":5241,"both":5242,"dig":5243,"ten":5244,"дли":5245,"##iens":5246,"conse":5247,"existence":5248,"##льная":5249,"##вающее":5250,"appl":5251,"ship":5252,"showing":5253,"sharp":5254,"certaine":5255,"##édé":5256,"collection":5257,"##udes":5258,"tax":5259,"##меть":5260,"espace":5261,"191":5262,"##нимать":5263,"учеб":5264,"языка":5265,"##risti":5266,"мяг":5267,"différentes":5268,"simple":5269,"необход":5270,"продол":5271,"Ma":5272,"cop":5273,"fire":5274,"hors":5275,"house":5276,"грани":5277,"хи":5278,"##xy":5279,"deb":5280,"##orer":5281,"##атр":5282,"##ющими":5283,"rele":5284,"white":5285,"quatre":5286,"atom":5287,"spécial":5288,"formal":5289,"marque":5290,"mél":5291,"book":5292,"living":5293,"horiz":5294,"торго":5295,"текст":5296,"последователь":5297,"админист":5298,"Fin":5299,"figur":5300,"ra":5301,"var":5302,"зн":5303,"мом":5304,"съ":5305,"##оруж":5306,"##to":5307,"##hod":5308,"##dre":5309,"##яющий":5310,"##by":5311,"##bon":5312,"##хват":5313,"##жений":5314,"##стато":5315,"##uid":5316,"##ator":5317,"наи":5318,"##емых":5319,"обработ":5320,"compan":5321,"stra":5322,"##чис":5323,"poiss":5324,"##жды":5325,"##онта":5326,"image":5327,"дела":5328,"одежда":5329,"ancienne":5330,"items":5331,"several":5332,"Genre":5333,"хранения":5334,"сопрово":5335,"Rég":5336,"Us":5337,"bonne":5338,"data":5339,"element":5340,"va":5341,"##ора":5342,"##iting":5343,"##oule":5344,"##ised":5345,"##ерт":5346,"too":5347,"##sively":5348,"##ulte":5349,"design":5350,"##gement":5351,"there":5352,"seule":5353,"prés":5354,"##нят":5355,"above":5356,"aliment":5357,"кур":5358,"мало":5359,"груб":5360,"strength":5361,"relatif":5362,"toutes":5363,"liter":5364,"représentant":5365,"месте":5366,"воспри":5367,"services":5368,"Afrique":5369,"American":5370,"Belgique":5371,"chimique":5372,"govern":5373,"fall":5374,"found":5375,"path":5376,"Европ":5377,"бор":5378,"бере":5379,"пе":5380,"худо":5381,"##енти":5382,"##ност":5383,"прос":5384,"proté":5385,"##érature":5386,"prend":5387,"##apon":5388,"##ённая":5389,"##rug":5390,"##ставля":5391,"##чество":5392,"которое":5393,"##вшая":5394,"##ification":5395,"диал":5396,"передви":5397,"vivant":5398,"молод":5399,"rapide":5400,"hyd":5401,"règles":5402,"минер":5403,"тяжё":5404,"energy":5405,"Occ":5406,"Tout":5407,"bur":5408,"ec":5409,"fine":5410,"fut":5411,"har":5412,"rid":5413,"ним":5414,"ум":5415,"##кро":5416,"##пит":5417,"##ung":5418,"##uous":5419,"##lam":5420,"##gr":5421,"##аты":5422,"anci":5423,"##нами":5424,"науч":5425,"chaque":5426,"кос":5427,"прода":5428,"##eding":5429,"avait":5430,"apply":5431,"частей":5432,"прек":5433,"##мыш":5434,"organization":5435,"rappro":5436,"служа":5437,"способность":5438,"созн":5439,"половой":5440,"intellect":5441,"культу":5442,"##jouter":5443,"young":5444,"Aff":5445,"Is":5446,"achie":5447,"bras":5448,"dam":5449,"élect":5450,"##iant":5451,"##бра":5452,"##жел":5453,"##ёма":5454,"##ern":5455,"##ностей":5456,"##alisme":5457,"##uring":5458,"похо":5459,"начать":5460,"##igner":5461,"audi":5462,"##tabl":5463,"##лок":5464,"establ":5465,"закры":5466,"##érité":5467,"##tric":5468,"предел":5469,"##ains":5470,"##ored":5471,"gras":5472,"##ceptible":5473,"##oyer":5474,"affec":5475,"contact":5476,"apparence":5477,"система":5478,"голос":5479,"##носить":5480,"совершить":5481,"степени":5482,"symbol":5483,"выражающий":5484,"knowledge":5485,"Métrologie":5486,"behaviour":5487,"Op":5488,"So":5489,"aw":5490,"dark":5491,"hos":5492,"pendant":5493,"мод":5494,"рек":5495,"три":5496,"##ball":5497,"##orique":5498,"##urgie":5499,"##ствия":5500,"рай":5501,"designed":5502,"##aces":5503,"##ached":5504,"reason":5505,"##вающая":5506,"compl":5507,"##aped":5508,"##луб":5509,"Christi":5510,"##uisse":5511,"intro":5512,"pred":5513,"previ":5514,"маши":5515,"##строн":5516,"##uerre":5517,"singulier":5518,"justice":5519,"présente":5520,"оружи":5521,"chargé":5522,"Membre":5523,"Synonyme":5524,"every":5525,"ur":5526,"кан":5527,"##они":5528,"##nage":5529,"##itter":5530,"##itaire":5531,"##ould":5532,"поряд":5533,"природ":5534,"plat":5535,"esc":5536,"tran":5537,"perce":5538,"##parer":5539,"##oyen":5540,"основанный":5541,"##ваемое":5542,"##oudre":5543,"осуществля":5544,"arrange":5545,"Being":5546,"mascul":5547,"христи":5548,"этно":5549,"##хой":5550,"##èle":5551,"##tig":5552,"##стар":5553,"поро":5554,"##бол":5555,"##аря":5556,"##лами":5557,"ответ":5558,"aspect":5559,"##ifier":5560,"mode":5561,"artific":5562,"surr":5563,"trouve":5564,"##ishment":5565,"tempor":5566,"##ваемая":5567,"несколько":5568,"necess":5569,"хозяй":5570,"Col":5571,"afin":5572,"voy":5573,"war":5574,"акт":5575,"лу":5576,"хле":5577,"##esti":5578,"ing":5579,"появ":5580,"##rages":5581,"##sitive":5582,"entr":5583,"##acer":5584,"какую":5585,"стр":5586,"réun":5587,"territ":5588,"flow":5589,"техни":5590,"сторону":5591,"составля":5592,"едини":5593,"обращение":5594,"suivant":5595,"дома":5596,"обознача":5597,"caractéris":5598,"Internet":5599,"XIX":5600,"административ":5601,"Toute":5602,"full":5603,"militaire":5604,"will":5605,"мле":5606,"них":5607,"##yl":5608,"##шать":5609,"##жей":5610,"##âche":5611,"##roite":5612,"##рия":5613,"##ogn":5614,"faisant":5615,"какому":5616,"##utation":5617,"true":5618,"stat":5619,"metal":5620,"souff":5621,"небольшая":5622,"belie":5623,"room":5624,"желез":5625,"events":5626,"susp":5627,"opposite":5628,"Ouv":5629,"Substance":5630,"Able":5631,"Cons":5632,"Donner":5633,"done":5634,"mur":5635,"nég":5636,"sav":5637,"swe":5638,"turn":5639,"voire":5640,"вли":5641,"зв":5642,"креп":5643,"мар":5644,"##ода":5645,"##чий":5646,"##tro":5647,"##alth":5648,"поб":5649,"##ustice":5650,"throw":5651,"##ому":5652,"##aint":5653,"##pris":5654,"alors":5655,"colour":5656,"intér":5657,"autour":5658,"black":5659,"посред":5660,"послед":5661,"века":5662,"relative":5663,"distrib":5664,"##armac":5665,"central":5666,"cultiv":5667,"bâtiment":5668,"drink":5669,"bird":5670,"od":5671,"sle":5672,"satisf":5673,"дев":5674,"кле":5675,"##ски":5676,"##нать":5677,"##анной":5678,"пото":5679,"##iling":5680,"наде":5681,"национа":5682,"conj":5683,"const":5684,"contenant":5685,"сохран":5686,"##uss":5687,"fré":5688,"сум":5689,"compte":5690,"опу":5691,"кусо":5692,"того":5693,"loi":5694,"prix":5695,"слово":5696,"##olume":5697,"глаза":5698,"intense":5699,"visible":5700,"Россий":5701,"weight":5702,"степень":5703,"окружа":5704,"keep":5705,"elements":5706,"чрезмер":5707,"bout":5708,"lower":5709,"trib":5710,"вращ":5711,"вмест":5712,"мон":5713,"фото":5714,"чёр":5715,"##mn":5716,"##cent":5717,"##шки":5718,"##orie":5719,"##asily":5720,"##deur":5721,"come":5722,"##quant":5723,"##ressed":5724,"fast":5725,"##érée":5726,"##скать":5727,"attend":5728,"мето":5729,"##ательное":5730,"members":5731,"расположенный":5732,"жидкости":5733,"extreme":5734,"pierre":5735,"христиан":5736,"17":5737,"Avoir":5738,"Celle":5739,"mari":5740,"гри":5741,"готов":5742,"пес":5743,"##тур":5744,"##rire":5745,"##body":5746,"##ked":5747,"##isser":5748,"##teau":5749,"##кам":5750,"constru":5751,"##ети":5752,"cher":5753,"autr":5754,"проме":5755,"##tage":5756,"отку":5757,"##лот":5758,"accep":5759,"beyond":5760,"##ésie":5761,"##ительного":5762,"Indi":5763,"предло":5764,"опис":5765,"совет":5766,"##ственных":5767,"##ступа":5768,"publique":5769,"pratiqu":5770,"церков":5771,"принадлежащий":5772,"extrême":5773,"##клады":5774,"thought":5775,"##self":5776,"Causing":5777,"сопровожда":5778,"drug":5779,"gouver":5780,"hal":5781,"jau":5782,"ligne":5783,"utter":5784,"окра":5785,"эти":5786,"##рю":5787,"##uble":5788,"##ump":5789,"##tien":5790,"##enting":5791,"##руд":5792,"suite":5793,"##цип":5794,"##ions":5795,"##гип":5796,"своих":5797,"##cession":5798,"##ellement":5799,"consiste":5800,"infl":5801,"world":5802,"taken":5803,"grav":5804,"##issant":5805,"которых":5806,"Construction":5807,"voix":5808,"небольшое":5809,"little":5810,"направление":5811,"causing":5812,"источ":5813,"уничи":5814,"cav":5815,"pi":5816,"riv":5817,"rank":5818,"Éducation":5819,"бед":5820,"нера":5821,"##шо":5822,"##inate":5823,"##sier":5824,"##stan":5825,"обна":5826,"stri":5827,"cloth":5828,"Chose":5829,"altern":5830,"возник":5831,"##выш":5832,"regular":5833,"##ustom":5834,"психи":5835,"Amérique":5836,"élément":5837,"distinguis":5838,"œuvre":5839,"органов":5840,"ca":5841,"gé":5842,"rob":5843,"клет":5844,"##fl":5845,"##чек":5846,"##хе":5847,"##œur":5848,"##rement":5849,"##енности":5850,"листь":5851,"##ulté":5852,"conce":5853,"##етичес":5854,"##ния":5855,"сор":5856,"переп":5857,"какие":5858,"##ident":5859,"##andes":5860,"parlée":5861,"##ленная":5862,"правос":5863,"femmes":5864,"предназначенное":5865,"звуки":5866,"вещества":5867,"##rupt":5868,"Système":5869,"document":5870,"civil":5871,"буду":5872,"describing":5873,"уничиж":5874,"Mouvement":5875,"ban":5876,"cult":5877,"science":5878,"vend":5879,"оцен":5880,"цели":5881,"##ским":5882,"##zy":5883,"##oncer":5884,"##este":5885,"##ено":5886,"##arde":5887,"##анным":5888,"##icy":5889,"прият":5890,"извест":5891,"somme":5892,"##аясь":5893,"##onté":5894,"commit":5895,"женщ":5896,"##onné":5897,"гориз":5898,"##ратить":5899,"langage":5900,"##tisme":5901,"##obile":5902,"portion":5903,"##лавян":5904,"doctrine":5905,"##имости":5906,"including":5907,"standard":5908,"supérieure":5909,"Prendre":5910,"lorsqu":5911,"##копита":5912,"Resembling":5913,"млекопита":5914,"autrui":5915,"cad":5916,"card":5917,"font":5918,"range":5919,"Азии":5920,"ль":5921,"лов":5922,"##зра":5923,"##бав":5924,"##éro":5925,"deal":5926,"##lever":5927,"наруж":5928,"##тое":5929,"##лоп":5930,"##тика":5931,"реш":5932,"Arme":5933,"intern":5934,"partir":5935,"любо":5936,"activité":5937,"земли":5938,"domes":5939,"деревян":5940,"extrém":5941,"alcoh":5942,"Objet":5943,"Rh":5944,"gaz":5945,"mun":5946,"ris":5947,"вст":5948,"нрав":5949,"уд":5950,"##ас":5951,"##дели":5952,"##прав":5953,"##ew":5954,"##ьев":5955,"##щего":5956,"##ёта":5957,"deep":5958,"##orting":5959,"##ример":5960,"##asing":5961,"##irm":5962,"##blem":5963,"кам":5964,"##обще":5965,"##ительных":5966,"mob":5967,"quelques":5968,"осво":5969,"реки":5970,"сильный":5971,"##oiries":5972,"parler":5973,"##жид":5974,"например":5975,"termin":5976,"product":5977,"##vention":5978,"##ienne":5979,"does":5980,"original":5981,"Très":5982,"because":5983,"##hicule":5984,"гражд":5985,"эксп":5986,"behavior":5987,"français":5988,"circum":5989,"вместе":5990,"Né":5991,"ble":5992,"bene":5993,"noir":5994,"vag":5995,"бан":5996,"вклю":5997,"моло":5998,"течение":5999,"усп":6000,"эмо":6001,"##uth":6002,"##ясь":6003,"##gon":6004,"##cte":6005,"##щие":6006,"##ège":6007,"##номи":6008,"##orth":6009,"they":6010,"contain":6011,"left":6012,"chief":6013,"redu":6014,"вообще":6015,"begin":6016,"тай":6017,"appr":6018,"spécialement":6019,"##onging":6020,"along":6021,"кустар":6022,"team":6023,"prepare":6024,"##доро":6025,"можно":6026,"method":6027,"institu":6028,"содержа":6029,"производить":6030,"исс":6031,"мыш":6032,"goods":6033,"электри":6034,"navire":6035,"материала":6036,"отличающийся":6037,"mental":6038,"government":6039,"Br":6040,"Meu":6041,"gain":6042,"glo":6043,"oxy":6044,"tu":6045,"télé":6046,"Сев":6047,"рес":6048,"##клон":6049,"##лол":6050,"##gner":6051,"##jours":6052,"##ёз":6053,"unc":6054,"##set":6055,"ans":6056,"parle":6057,"##iger":6058,"eth":6059,"conform":6060,"неё":6061,"##ussion":6062,"seul":6063,"##ider":6064,"##ocal":6065,"sole":6066,"resul":6067,"##ième":6068,"существительными":6069,"record":6070,"конца":6071,"affect":6072,"средств":6073,"##казать":6074,"соверша":6075,"геол":6076,"argument":6077,"pattern":6078,"depuis":6079,"ряда":6080,"дополн":6081,"involving":6082,"пространство":6083,"originally":6084,"##ителей":6085,"информации":6086,"pensée":6087,"Capable":6088,"false":6089,"откуда":6090,"Min":6091,"Off":6092,"Que":6093,"rh":6094,"rough":6095,"six":6096,"vide":6097,"гром":6098,"леч":6099,"ок":6100,"рем":6101,"##ван":6102,"##жного":6103,"##êcher":6104,"##time":6105,"##inage":6106,"##omé":6107,"##ulate":6108,"коп":6109,"прибор":6110,"##term":6111,"##ениях":6112,"branches":6113,"непос":6114,"aller":6115,"ordinal":6116,"secret":6117,"appartenant":6118,"взгля":6119,"crimin":6120,"armoiries":6121,"performance":6122,"raison":6123,"idée":6124,"охот":6125,"народов":6126,"##ashion":6127,"sembl":6128,"##ropriate":6129,"issue":6130,"обеспе":6131,"school":6132,"written":6133,"медици":6134,"féminin":6135,"Meuble":6136,"bac":6137,"bot":6138,"os":6139,"pin":6140,"sent":6141,"tur":6142,"vive":6143,"volume":6144,"##уго":6145,"##вяз":6146,"##ох":6147,"##исти":6148,"##ters":6149,"##lier":6150,"##crip":6151,"##фа":6152,"##vation":6153,"##çonner":6154,"##âce":6155,"##ielle":6156,"ense":6157,"plate":6158,"sun":6159,"acte":6160,"##ogue":6161,"вокруг":6162,"dén":6163,"makes":6164,"dish":6165,"чаще":6166,"##ided":6167,"##tivement":6168,"##ленно":6169,"##мери":6170,"terrain":6171,"коман":6172,"конц":6173,"##держи":6174,"From":6175,"способный":6176,"горя":6177,"maison":6178,"Écologie":6179,"tissu":6180,"française":6181,"quickly":6182,"защит":6183,"company":6184,"Rep":6185,"able":6186,"friend":6187,"ly":6188,"vin":6189,"wal":6190,"Élément":6191,"вме":6192,"вку":6193,"крат":6194,"праз":6195,"тём":6196,"убор":6197,"##fic":6198,"##кта":6199,"##ositif":6200,"##aim":6201,"##шеств":6202,"##жий":6203,"##ôle":6204,"пора":6205,"##aching":6206,"##етель":6207,"##rière":6208,"rempl":6209,"водо":6210,"##ids":6211,"adjec":6212,"Chasse":6213,"современ":6214,"года":6215,"нич":6216,"Extre":6217,"количестве":6218,"local":6219,"##ятие":6220,"тради":6221,"broad":6222,"развития":6223,"towards":6224,"lumière":6225,"végét":6226,"negative":6227,"Bois":6228,"cry":6229,"fish":6230,"get":6231,"лека":6232,"мен":6233,"##èse":6234,"##стный":6235,"пород":6236,"##ителя":6237,"ouver":6238,"##ires":6239,"##auté":6240,"приоб":6241,"причин":6242,"##еку":6243,"##ительной":6244,"Inj":6245,"свед":6246,"свящ":6247,"réal":6248,"возра":6249,"heat":6250,"произведения":6251,"право":6252,"авто":6253,"motor":6254,"жизн":6255,"##образов":6256,"speak":6257,"différents":6258,"##атуры":6259,"biens":6260,"decor":6261,"exerc":6262,"верхняя":6263,"extremely":6264,"times":6265,"организации":6266,"held":6267,"норма":6268,"exemple":6269,"horizont":6270,"горизонта":6271,"20":6272,"Mo":6273,"Psych":6274,"fiction":6275,"win":6276,"дос":6277,"иметь":6278,"рит":6279,"четы":6280,"##сом":6281,"##ror":6282,"##uite":6283,"##ьют":6284,"##onom":6285,"##irer":6286,"##tail":6287,"изуча":6288,"вопро":6289,"diss":6290,"##ander":6291,"предик":6292,"подоб":6293,"End":6294,"shaped":6295,"adap":6296,"imper":6297,"##énom":6298,"##дии":6299,"прес":6300,"consistant":6301,"goal":6302,"##ificant":6303,"look":6304,"##echan":6305,"полностью":6306,"below":6307,"informatique":6308,"porter":6309,"difficile":6310,"##ruption":6311,"вызывающий":6312,"##ormed":6313,"hyper":6314,"popular":6315,"отверстие":6316,"травянистое":6317,"урожен":6318,"##ométrie":6319,"Justice":6320,"Pré":6321,"cot":6322,"guerre":6323,"mol":6324,"mamm":6325,"tree":6326,"Élev":6327,"зло":6328,"##rant":6329,"##исп":6330,"##cra":6331,"##ener":6332,"##eness":6333,"del":6334,"##istre":6335,"##ствии":6336,"encl":6337,"намер":6338,"exception":6339,"перес":6340,"##ressive":6341,"##цией":6342,"суд":6343,"compe":6344,"##чиво":6345,"Chac":6346,"силы":6347,"превос":6348,"##ленг":6349,"города":6350,"##ronique":6351,"entreprise":6352,"langues":6353,"characterized":6354,"животное":6355,"анти":6356,"bouche":6357,"внутри":6358,"одежды":6359,"##ятия":6360,"toujours":6361,"horse":6362,"official":6363,"крим":6364,"кино":6365,"пользов":6366,"experience":6367,"которые":6368,"increase":6369,"некоторое":6370,"сооружение":6371,"10":6372,"Te":6373,"custom":6374,"ge":6375,"jur":6376,"mechan":6377,"now":6378,"round":6379,"soc":6380,"остро":6381,"пат":6382,"##used":6383,"##go":6384,"##шный":6385,"##шев":6386,"##onent":6387,"death":6388,"##ерж":6389,"##rait":6390,"##sid":6391,"##емые":6392,"##riage":6393,"seen":6394,"##дает":6395,"##стом":6396,"##idés":6397,"##чески":6398,"##ментов":6399,"##лег":6400,"series":6401,"##сона":6402,"substances":6403,"agir":6404,"autrefois":6405,"chem":6406,"itself":6407,"##держ":6408,"##графичес":6409,"филол":6410,"display":6411,"исклю":6412,"higher":6413,"арти":6414,"Rép":6415,"объект":6416,"medic":6417,"гид":6418,"religieux":6419,"intellig":6420,"mauvais":6421,"premier":6422,"центра":6423,"структу":6424,"distinct":6425,"спортив":6426,"military":6427,"Élevage":6428,"Moyen":6429,"Tex":6430,"aime":6431,"rien":6432,"rub":6433,"##бир":6434,"##asi":6435,"dece":6436,"uni":6437,"##urch":6438,"поведения":6439,"anti":6440,"##asm":6441,"##othing":6442,"prot":6443,"major":6444,"##illon":6445,"addition":6446,"##ходит":6447,"intérieur":6448,"напря":6449,"terres":6450,"fear":6451,"amb":6452,"propos":6453,"##тым":6454,"любов":6455,"произведение":6456,"нижн":6457,"organisation":6458,"организм":6459,"словами":6460,"Thé":6461,"understand":6462,"отношению":6463,"двумя":6464,"является":6465,"arrière":6466,"воздуха":6467,"##pleasant":6468,"première":6469,"frequ":6470,"advance":6471,"дерева":6472,"художеств":6473,"Vi":6474,"aj":6475,"aim":6476,"count":6477,"dér":6478,"flo":6479,"hit":6480,"rang":6481,"ест":6482,"очи":6483,"ожи":6484,"печ":6485,"сленг":6486,"##ские":6487,"##ging":6488,"##щаться":6489,"##шка":6490,"##lex":6491,"##urieux":6492,"##атур":6493,"назнач":6494,"##ets":6495,"оттен":6496,"plants":6497,"once":6498,"suit":6499,"##vered":6500,"##альных":6501,"cord":6502,"##ouvelle":6503,"Anything":6504,"solid":6505,"государствен":6506,"поверхность":6507,"violence":6508,"Ass":6509,"занимается":6510,"деятельность":6511,"traditional":6512,"papier":6513,"éclat":6514,"étoffe":6515,"естеств":6516,"Suisse":6517,"bour":6518,"ci":6519,"cet":6520,"ign":6521,"nord":6522,"pan":6523,"stim":6524,"бе":6525,"дра":6526,"##rom":6527,"##чным":6528,"##oï":6529,"##eal":6530,"##мов":6531,"##éder":6532,"##gue":6533,"##жая":6534,"##êter":6535,"##être":6536,"##oring":6537,"##orous":6538,"пост":6539,"пола":6540,"##бора":6541,"exec":6542,"прил":6543,"##cious":6544,"décl":6545,"##ounded":6546,"досто":6547,"grâce":6548,"##лови":6549,"usual":6550,"correct":6551,"##izing":6552,"express":6553,"##certain":6554,"brief":6555,"recher":6556,"organism":6557,"##ерии":6558,"emploi":6559,"naturel":6560,"Dési":6561,"voie":6562,"компьют":6563,"matter":6564,"насе":6565,"заним":6566,"##имость":6567,"электро":6568,"commercial":6569,"филосо":6570,"официаль":6571,"постоянно":6572,"момент":6573,"Doc":6574,"say":6575,"tom":6576,"élo":6577,"зер":6578,"##ren":6579,"##ah":6580,"##bly":6581,"##kn":6582,"##фер":6583,"##ists":6584,"univers":6585,"##лица":6586,"разруш":6587,"приём":6588,"отриц":6589,"сущ":6590,"такое":6591,"##чивый":6592,"##исч":6593,"ali":6594,"возбу":6595,"code":6596,"собы":6597,"##onneur":6598,"##ignement":6599,"чувств":6600,"выполня":6601,"однород":6602,"карт":6603,"covered":6604,"имп":6605,"уничто":6606,"актив":6607,"противополо":6608,"##итуа":6609,"беспоря":6610,"сниж":6611,"##ochimie":6612,"study":6613,"radio":6614,"фамилия":6615,"caused":6616,"лекар":6617,"Mécanique":6618,"age":6619,"dog":6620,"hist":6621,"tor":6622,"vesse":6623,"Écon":6624,"бого":6625,"пит":6626,"##ует":6627,"##fs":6628,"##щей":6629,"##хом":6630,"##шие":6631,"##eter":6632,"проник":6633,"##дами":6634,"personal":6635,"manières":6636,"soie":6637,"подви":6638,"##чины":6639,"classe":6640,"опера":6641,"somebody":6642,"##оне":6643,"непер":6644,"statement":6645,"##щик":6646,"United":6647,"представля":6648,"douce":6649,"Organ":6650,"également":6651,"évé":6652,"помощи":6653,"объектов":6654,"соединение":6655,"глубо":6656,"cyl":6657,"protection":6658,"terms":6659,"maladie":6660,"руковод":6661,"excell":6662,"Nord":6663,"case":6664,"fashion":6665,"gui":6666,"rich":6667,"smo":6668,"кли":6669,"##ubl":6670,"##usive":6671,"##нение":6672,"##ky":6673,"##medi":6674,"##uler":6675,"неисч":6676,"##acy":6677,"##veux":6678,"forces":6679,"##лого":6680,"##ениями":6681,"##quée":6682,"закреп":6683,"воде":6684,"##ift":6685,"перенос":6686,"##idae":6687,"##чик":6688,"своего":6689,"servent":6690,"##most":6691,"goût":6692,"плот":6693,"temper":6694,"перевоз":6695,"slow":6696,"станов":6697,"employé":6698,"touch":6699,"lettres":6700,"petites":6701,"supérieur":6702,"sentiments":6703,"symbole":6704,"ткань":6705,"trouble":6706,"completely":6707,"multiple":6708,"раздра":6709,"##raphe":6710,"ethn":6711,"непосред":6712,"Sc":6713,"dress":6714,"rules":6715,"tit":6716,"tub":6717,"étr":6718,"Во":6719,"жёл":6720,"рис":6721,"##ué":6722,"##do":6723,"##cour":6724,"##ètre":6725,"##ènes":6726,"##atory":6727,"##ective":6728,"приня":6729,"active":6730,"воин":6731,"quo":6732,"##version":6733,"##iving":6734,"need":6735,"реб":6736,"реги":6737,"impos":6738,"##ightly":6739,"blanche":6740,"morce":6741,"attack":6742,"fool":6743,"пищу":6744,"##чине":6745,"concern":6746,"destinée":6747,"angle":6748,"dessin":6749,"poly":6750,"considéré":6751,"сочетании":6752,"заставлять":6753,"wrong":6754,"территории":6755,"mêmes":6756,"Astronomie":6757,"masculin":6758,"достоин":6759,"cross":6760,"dure":6761,"home":6762,"native":6763,"tap":6764,"wall":6765,"Древ":6766,"кров":6767,"срок":6768,"трёх":6769,"эко":6770,"##есть":6771,"##сс":6772,"##вле":6773,"##fort":6774,"##uments":6775,"##бер":6776,"##жные":6777,"##leurs":6778,"##quelles":6779,"concept":6780,"##user":6781,"разных":6782,"##рующий":6783,"##taire":6784,"##лам":6785,"отряда":6786,"problem":6787,"##quante":6788,"выда":6789,"##illant":6790,"спир":6791,"stup":6792,"##istent":6793,"##éné":6794,"alter":6795,"vert":6796,"qualities":6797,"##issent":6798,"formed":6799,"вслед":6800,"##ваясь":6801,"##auss":6802,"métier":6803,"facile":6804,"ferme":6805,"combat":6806,"власти":6807,"Characteristic":6808,"puiss":6809,"separate":6810,"Emplo":6811,"физиол":6812,"аппарат":6813,"variety":6814,"освобо":6815,"празд":6816,"Injurieux":6817,"Économie":6818,"Cont":6819,"No":6820,"Pour":6821,"né":6822,"дво":6823,"ото":6824,"##fit":6825,"##iance":6826,"##oin":6827,"##oit":6828,"##ган":6829,"##бит":6830,"##cal":6831,"##arc":6832,"orient":6833,"##sement":6834,"destro":6835,"несо":6836,"##ources":6837,"обстоятель":6838,"провести":6839,"прин":6840,"##ительность":6841,"##ться":6842,"##illé":6843,"##adie":6844,"compris":6845,"##ability":6846,"связи":6847,"##гами":6848,"##ковый":6849,"##ignes":6850,"version":6851,"access":6852,"chevaux":6853,"площа":6854,"выражение":6855,"работа":6856,"voice":6857,"provo":6858,"située":6859,"visage":6860,"police":6861,"giving":6862,"психол":6863,"план":6864,"idées":6865,"ouvrages":6866,"странах":6867,"возможность":6868,"заключа":6869,"соглас":6870,"элементов":6871,"propriété":6872,"символ":6873,"comportement":6874,"Finance":6875,"неперех":6876,"100":6877,"national":6878,"soup":6879,"гер":6880,"дис":6881,"зу":6882,"оказы":6883,"ситуа":6884,"тж":6885,"это":6886,"##mon":6887,"##mosph":6888,"##кле":6889,"##жет":6890,"##vres":6891,"##arded":6892,"deme":6893,"##atter":6894,"entend":6895,"conv":6896,"conve":6897,"##uste":6898,"##rice":6899,"##аран":6900,"перво":6901,"##ortant":6902,"Indu":6903,"attitude":6904,"подчин":6905,"реже":6906,"trait":6907,"said":6908,"непо":6909,"indé":6910,"характеристи":6911,"rapporte":6912,"##like":6913,"оболо":6914,"##quels":6915,"États":6916,"звук":6917,"calcul":6918,"деталь":6919,"concent":6920,"simp":6921,"кресть":6922,"торжеств":6923,"essenti":6924,"крови":6925,"longueur":6926,"обязан":6927,"narrow":6928,"происхождения":6929,"профес":6930,"##çonnerie":6931,"Made":6932,"Morce":6933,"Ret":6934,"St":6935,"hence":6936,"later":6937,"loud":6938,"tar":6939,"âme":6940,"éner":6941,"уров":6942,"шер":6943,"эта":6944,"##кать":6945,"##itr":6946,"##ories":6947,"##ueur":6948,"поведение":6949,"##гом":6950,"##гово":6951,"##iche":6952,"##ases":6953,"прис":6954,"acide":6955,"##tically":6956,"##виа":6957,"##opt":6958,"##ades":6959,"serving":6960,"регу":6961,"##tifs":6962,"одина":6963,"##ального":6964,"formant":6965,"commune":6966,"relation":6967,"expl":6968,"##ленных":6969,"напис":6970,"##onnaie":6971,"мора":6972,"étant":6973,"cheveux":6974,"outside":6975,"utilise":6976,"organisme":6977,"которая":6978,"division":6979,"Conf":6980,"##женное":6981,"пун":6982,"анг":6983,"##finition":6984,"veut":6985,"enfants":6986,"Grande":6987,"прямо":6988,"electronic":6989,"находиться":6990,"Courant":6991,"смерти":6992,"Jeune":6993,"deliber":6994,"наибол":6995,"Minéral":6996,"наиболее":6997,"Prop":6998,"Rés":6999,"Rem":7000,"Sens":7001,"Tending":7002,"bul":7003,"fill":7004,"lin":7005,"mér":7006,"pati":7007,"др":7008,"остав":7009,"пис":7010,"свид":7011,"##ивать":7012,"##come":7013,"##onge":7014,"##tine":7015,"##ened":7016,"##стат":7017,"##oue":7018,"##atoire":7019,"##рак":7020,"##ование":7021,"enj":7022,"наступ":7023,"party":7024,"нев":7025,"отра":7026,"персона":7027,"##ographe":7028,"##ify":7029,"##куль":7030,"##lleg":7031,"##рованный":7032,"formule":7033,"corp":7034,"сил":7035,"##номер":7036,"agg":7037,"##viation":7038,"fluid":7039,"chemin":7040,"sensation":7041,"состояния":7042,"вертика":7043,"пути":7044,"##ologisme":7045,"Géométrie":7046,"государстве":7047,"отношении":7048,"язык":7049,"centre":7050,"possède":7051,"domaine":7052,"фам":7053,"superior":7054,"Supp":7055,"##médi":7056,"позво":7057,"collectively":7058,"содержания":7059,"класса":7060,"центр":7061,"convention":7062,"heavy":7063,"изделие":7064,"administration":7065,"dignité":7066,"marchandises":7067,"sweet":7068,"Néologisme":7069,"Extremely":7070,"Industrie":7071,"Gra":7072,"bru":7073,"bound":7074,"cœur":7075,"ful":7076,"gro":7077,"gens":7078,"rock":7079,"technique":7080,"Ép":7081,"дем":7082,"ном":7083,"оши":7084,"##rie":7085,"##rés":7086,"##arre":7087,"laisse":7088,"##ourner":7089,"##ames":7090,"##imal":7091,"##umer":7092,"près":7093,"##ённым":7094,"obtenir":7095,"forms":7096,"##estation":7097,"note":7098,"affaire":7099,"doing":7100,"##vantage":7101,"Pharmac":7102,"habitants":7103,"арми":7104,"направлении":7105,"участок":7106,"моря":7107,"fabri":7108,"происходящий":7109,"Grand":7110,"Groupe":7111,"лишённый":7112,"dimin":7113,"taste":7114,"потреб":7115,"хорошо":7116,"письмен":7117,"pressure":7118,"обеспечи":7119,"Cal":7120,"Cou":7121,"Diff":7122,"Stat":7123,"easily":7124,"fat":7125,"gir":7126,"pa":7127,"ray":7128,"roman":7129,"song":7130,"wat":7131,"За":7132,"вред":7133,"вяз":7134,"окон":7135,"твор":7136,"эф":7137,"##sp":7138,"##sme":7139,"##lée":7140,"##ню":7141,"##яя":7142,"##éographie":7143,"##фо":7144,"##inant":7145,"##ены":7146,"##атый":7147,"наси":7148,"##еди":7149,"queue":7150,"##ifique":7151,"кап":7152,"выпу":7153,"##ота":7154,"Inc":7155,"света":7156,"perman":7157,"spread":7158,"obst":7159,"##ательных":7160,"##tifique":7161,"train":7162,"formé":7163,"##гах":7164,"другу":7165,"infer":7166,"agent":7167,"vertical":7168,"branch":7169,"##usement":7170,"микро":7171,"##хода":7172,"основе":7173,"attached":7174,"душев":7175,"трудно":7176,"Biochimie":7177,"composée":7178,"##нослу":7179,"##tirer":7180,"общества":7181,"Assembl":7182,"##umeur":7183,"covering":7184,"difficulty":7185,"##amental":7186,"idea":7187,"task":7188,"востоке":7189,"заставить":7190,"северо":7191,"élevé":7192,"удоволь":7193,"achieve":7194,"исследов":7195,"chemical":7196,"Восто":7197,"Form":7198,"Mod":7199,"Wh":7200,"cand":7201,"dos":7202,"nive":7203,"ow":7204,"авиа":7205,"яс":7206,"##чность":7207,"##ses":7208,"##tent":7209,"##ноп":7210,"orn":7211,"##oming":7212,"##лий":7213,"##icité":7214,"##olique":7215,"expected":7216,"##рую":7217,"прот":7218,"##atively":7219,"закон":7220,"стан":7221,"moving":7222,"atmosph":7223,"poor":7224,"##arder":7225,"пребы":7226,"agréable":7227,"##сами":7228,"repl":7229,"##airs":7230,"courage":7231,"couvert":7232,"content":7233,"##rown":7234,"Proc":7235,"древес":7236,"коллек":7237,"called":7238,"созд":7239,"жизнь":7240,"добав":7241,"сильное":7242,"fixed":7243,"dern":7244,"сокращ":7245,"типа":7246,"##неве":7247,"conduct":7248,"middle":7249,"modern":7250,"энергии":7251,"ярко":7252,"расстояние":7253,"1917":7254,"психиатр":7255,"православ":7256,"Север":7257,"##craft":7258,"ax":7259,"city":7260,"fourn":7261,"gal":7262,"honneur":7263,"mont":7264,"Ин":7265,"Укра":7266,"вле":7267,"ды":7268,"дых":7269,"ты":7270,"тю":7271,"этой":7272,"##ост":7273,"##ию":7274,"##ира":7275,"##eun":7276,"##bs":7277,"##жным":7278,"##êts":7279,"##once":7280,"##енном":7281,"##urant":7282,"##urité":7283,"##рами":7284,"наг":7285,"##олю":7286,"cham":7287,"chré":7288,"reb":7289,"prol":7290,"seem":7291,"заме":7292,"##вающийся":7293,"##ительная":7294,"isol":7295,"appli":7296,"clim":7297,"##illed":7298,"étude":7299,"proposition":7300,"##вым":7301,"pression":7302,"##фии":7303,"большое":7304,"##itié":7305,"works":7306,"Disc":7307,"объекта":7308,"hands":7309,"гиб":7310,"процессе":7311,"войск":7312,"Characterized":7313,"##aïsme":7314,"##ennent":7315,"jaune":7316,"вследствие":7317,"Morceau":7318,"bes":7319,"foc":7320,"women":7321,"Кав":7322,"дав":7323,"луч":7324,"##дка":7325,"##oking":7326,"##tor":7327,"##гна":7328,"deh":7329,"unique":7330,"unpleasant":7331,"##ueux":7332,"##ател":7333,"ant":7334,"entra":7335,"нед":7336,"chant":7337,"##вают":7338,"##имое":7339,"##чих":7340,"sho":7341,"точки":7342,"имеющее":7343,"##ведении":7344,"##tives":7345,"определя":7346,"##cipient":7347,"##earing":7348,"possib":7349,"частью":7350,"physi":7351,"méta":7352,"явления":7353,"métall":7354,"предмета":7355,"road":7356,"speed":7357,"остров":7358,"особенно":7359,"твёрдо":7360,"##rimerie":7361,"software":7362,"cuir":7363,"current":7364,"измерения":7365,"période":7366,"контро":7367,"##clési":7368,"граждан":7369,"становиться":7370,"Dieu":7371,"Mot":7372,"file":7373,"squ":7374,"tourn":7375,"électr":7376,"укреп":7377,"хлоп":7378,"##лл":7379,"##лат":7380,"##ип":7381,"##чей":7382,"##чные":7383,"##oint":7384,"##ép":7385,"##éli":7386,"##pes":7387,"##цов":7388,"попу":7389,"потер":7390,"cond":7391,"##aste":7392,"изуч":7393,"издели":7394,"##ériel":7395,"выго":7396,"выход":7397,"magn":7398,"##омет":7399,"##avor":7400,"peine":7401,"##union":7402,"##гими":7403,"##альной":7404,"philosoph":7405,"куп":7406,"produits":7407,"безл":7408,"taking":7409,"noise":7410,"gramm":7411,"transp":7412,"transfer":7413,"плохо":7414,"практи":7415,"##фика":7416,"sexe":7417,"тело":7418,"диа":7419,"connected":7420,"составе":7421,"crime":7422,"livre":7423,"карто":7424,"совершать":7425,"повто":7426,"вызывать":7427,"extraord":7428,"demand":7429,"темпер":7430,"игры":7431,"indust":7432,"музыкальный":7433,"удовлет":7434,"vêtement":7435,"environment":7436,"влияни":7437,"niveau":7438,"Asi":7439,"Soci":7440,"bag":7441,"cath":7442,"furn":7443,"pul":7444,"vra":7445,"éd":7446,"Сред":7447,"дать":7448,"цар":7449,"##рб":7450,"##дий":7451,"##irable":7452,"##ake":7453,"##erver":7454,"##стая":7455,"##reh":7456,"determ":7457,"unw":7458,"##ателя":7459,"toile":7460,"entity":7461,"##кис":7462,"привод":7463,"##change":7464,"##resh":7465,"##ogéographie":7466,"зам":7467,"persons":7468,"##язы":7469,"clothing":7470,"formation":7471,"phen":7472,"человеку":7473,"грузов":7474,"qualités":7475,"longer":7476,"affaires":7477,"Extr":7478,"opération":7479,"резко":7480,"получения":7481,"supply":7482,"profit":7483,"caractères":7484,"create":7485,"другое":7486,"finan":7487,"instruction":7488,"années":7489,"##ционной":7490,"психичес":7491,"embarras":7492,"normally":7493,"collectif":7494,"верхней":7495,"крайне":7496,"followed":7497,"алкого":7498,"obligation":7499,"##езап":7500,"условиях":7501,"заболевание":7502,"poisson":7503,"прекращ":7504,"Islam":7505,"beginning":7506,"States":7507,"Jeux":7508,"just":7509,"mill":7510,"old":7511,"Гер":7512,"сне":7513,"славян":7514,"теп":7515,"яго":7516,"##суль":7517,"##rist":7518,"##ov":7519,"##нес":7520,"##crib":7521,"##жению":7522,"##iné":7523,"decl":7524,"##isl":7525,"##анно":7526,"##анавли":7527,"##гой":7528,"##кос":7529,"##овой":7530,"##asy":7531,"##ляя":7532,"запад":7533,"завис":7534,"faible":7535,"ворот":7536,"##тии":7537,"détr":7538,"##ческом":7539,"устанавли":7540,"##essing":7541,"##odes":7542,"таких":7543,"stone":7544,"soin":7545,"подраз":7546,"действием":7547,"ressembl":7548,"##новремен":7549,"##here":7550,"##oires":7551,"stage":7552,"возника":7553,"орнит":7554,"offer":7555,"##вших":7556,"humaine":7557,"плоско":7558,"мужчина":7559,"Unité":7560,"section":7561,"viande":7562,"membres":7563,"##wards":7564,"услу":7565,"участи":7566,"signal":7567,"Biogéographie":7568,"return":7569,"armée":7570,"запис":7571,"jouer":7572,"##ющиеся":7573,"самостоятель":7574,"охват":7575,"требо":7576,"жидкость":7577,"развитие":7578,"неожид":7579,"required":7580,"легко":7581,"изделий":7582,"reference":7583,"insect":7584,"нерв":7585,"внезап":7586,"документ":7587,"ancient":7588,"промежу":7589,"свидетель":7590,"15":7591,"For":7592,"Ger":7593,"Im":7594,"Ver":7595,"role":7596,"render":7597,"upper":7598,"vérité":7599,"блю":7600,"ков":7601,"нан":7602,"тро":7603,"указ":7604,"##ером":7605,"##чё":7606,"##jourd":7607,"##жка":7608,"##Ie":7609,"##ended":7610,"##ising":7611,"##ishing":7612,"##лище":7613,"##atures":7614,"##олнять":7615,"##nements":7616,"concl":7617,"незнач":7618,"невы":7619,"##acity":7620,"корен":7621,"produire":7622,"accident":7623,"asse":7624,"##érém":7625,"##сков":7626,"све":7627,"##рым":7628,"##anges":7629,"passe":7630,"##phone":7631,"##чном":7632,"одновремен":7633,"aband":7634,"куш":7635,"##зации":7636,"preuve":7637,"##ounding":7638,"##чества":7639,"accum":7640,"chef":7641,"конце":7642,"##léter":7643,"supporter":7644,"чуж":7645,"incor":7646,"époque":7647,"другом":7648,"газ":7649,"fonctions":7650,"угле":7651,"отдельных":7652,"feuille":7653,"необы":7654,"continu":7655,"твёрд":7656,"règle":7657,"mixture":7658,"scientifique":7659,"nourrit":7660,"девуш":7661,"Psychologie":7662,"Endroit":7663,"hyperb":7664,"Textile":7665,"повторя":7666,"Ajouter":7667,"Cer":7668,"XX":7669,"cate":7670,"call":7671,"dr":7672,"noun":7673,"ras":7674,"СШ":7675,"аб":7676,"фран":7677,"шум":7678,"##rite":7679,"##кли":7680,"##кло":7681,"##tés":7682,"##гнуть":7683,"##gé":7684,"##ёв":7685,"und":7686,"##роиз":7687,"##rob":7688,"lay":7689,"##sign":7690,"раск":7691,"paroles":7692,"exh":7693,"##rif":7694,"##руз":7695,"##льным":7696,"издавать":7697,"acting":7698,"fail":7699,"##throp":7700,"##illage":7701,"##рыв":7702,"application":7703,"spl":7704,"##aining":7705,"осла":7706,"clas":7707,"libre":7708,"топ":7709,"producing":7710,"interval":7711,"meat":7712,"partis":7713,"руб":7714,"распола":7715,"reconn":7716,"любой":7717,"##вые":7718,"определённый":7719,"##уска":7720,"monta":7721,"##valent":7722,"божеств":7723,"playing":7724,"комплек":7725,"double":7726,"##volving":7727,"désag":7728,"purposes":7729,"молеку":7730,"плат":7731,"сереб":7732,"attempt":7733,"absor":7734,"limit":7735,"constitué":7736,"following":7737,"population":7738,"Afric":7739,"покров":7740,"administra":7741,"маленький":7742,"rapidly":7743,"ecclési":7744,"future":7745,"кусок":7746,"орнитол":7747,"hyperbole":7748,"США":7749,"Fl":7750,"Gén":7751,"Sud":7752,"eye":7753,"figuré":7754,"ton":7755,"tab":7756,"vaisse":7757,"wide":7758,"бал":7759,"сель":7760,"титу":7761,"##rég":7762,"##чёт":7763,"##ttes":7764,"##yd":7765,"##vie":7766,"##0s":7767,"unf":7768,"##omper":7769,"##анта":7770,"пору":7771,"##гот":7772,"parf":7773,"нежел":7774,"##ники":7775,"##usse":7776,"кожи":7777,"оби":7778,"##лях":7779,"приводить":7780,"projet":7781,"##tenue":7782,"излиш":7783,"acqui":7784,"##одви":7785,"##imin":7786,"star":7787,"##ights":7788,"сид":7789,"##étés":7790,"cost":7791,"verre":7792,"имеет":7793,"block":7794,"scre":7795,"права":7796,"военнослу":7797,"богат":7798,"##olute":7799,"колеб":7800,"minor":7801,"belonging":7802,"Représent":7803,"variable":7804,"внутрь":7805,"##струк":7806,"проявление":7807,"повре":7808,"continue":7809,"##матри":7810,"соответствующий":7811,"независ":7812,"внимание":7813,"inhabit":7814,"хищ":7815,"оружия":7816,"домаш":7817,"intérêt":7818,"society":7819,"Doctrine":7820,"destroy":7821,"dehors":7822,"phenomen":7823,"Bl":7824,"bow":7825,"bod":7826,"dance":7827,"gau":7828,"graph":7829,"épr":7830,"оско":7831,"цве":7832,"юго":7833,"##зн":7834,"##щем":7835,"##жит":7836,"##œurs":7837,"##ъек":7838,"##onies":7839,"##itant":7840,"##ingly":7841,"invent":7842,"enth":7843,"exac":7844,"exhib":7845,"##рудов":7846,"##льном":7847,"прикреп":7848,"стать":7849,"pris":7850,"значение":7851,"достато":7852,"rév":7853,"claim":7854,"##альное":7855,"##соедин":7856,"account":7857,"может":7858,"working":7859,"recouv":7860,"люд":7861,"которую":7862,"##tisan":7863,"оборудов":7864,"##ящее":7865,"бесс":7866,"membr":7867,"méth":7868,"государство":7869,"производства":7870,"église":7871,"grandes":7872,"##ducing":7873,"pattes":7874,"вари":7875,"early":7876,"earth":7877,"logic":7878,"evil":7879,"végéta":7880,"attractive":7881,"лошади":7882,"Ancienne":7883,"огранич":7884,"испытывать":7885,"Type":7886,"edge":7887,"électrique":7888,"посредством":7889,"chiefly":7890,"mérite":7891,"Eff":7892,"Son":7893,"droite":7894,"gender":7895,"hol":7896,"sit":7897,"Бо":7898,"два":7899,"мир":7900,"нел":7901,"нит":7902,"уб":7903,"шко":7904,"##оп":7905,"##mment":7906,"##térature":7907,"##hat":7908,"##position":7909,"##kely":7910,"##фе":7911,"##onder":7912,"##enant":7913,"##стал":7914,"##uelles":7915,"##ications":7916,"##рави":7917,"##roc":7918,"##ster":7919,"leave":7920,"augment":7921,"отчество":7922,"перех":7923,"##atin":7924,"projec":7925,"acqu":7926,"sea":7927,"##ifice":7928,"##ateau":7929,"##вали":7930,"##tru":7931,"##ivision":7932,"##esser":7933,"dispar":7934,"##utes":7935,"compléter":7936,"предшеств":7937,"подготов":7938,"adver":7939,"prec":7940,"syll":7941,"feature":7942,"repos":7943,"всем":7944,"transform":7945,"##доволь":7946,"senses":7947,"Union":7948,"attache":7949,"положения":7950,"##blesse":7951,"dispos":7952,"better":7953,"circon":7954,"behind":7955,"исч":7956,"descend":7957,"individus":7958,"patron":7959,"legs":7960,"enfant":7961,"искусства":7962,"глуп":7963,"позвол":7964,"изображение":7965,"closely":7966,"article":7967,"Maladie":7968,"plaisir":7969,"pitch":7970,"Christianisme":7971,"perceived":7972,"sleep":7973,"aliments":7974,"Minéralogie":7975,"Герм":7976,"categ":7977,"Aut":7978,"Coup":7979,"Ironique":7980,"Quel":7981,"alle":7982,"even":7983,"god":7984,"illeg":7985,"loss":7986,"pure":7987,"séc":7988,"ul":7989,"Ка":7990,"ему":7991,"ид":7992,"мера":7993,"эн":7994,"##дие":7995,"##mic":7996,"##пы":7997,"##бка":7998,"##хот":7999,"попер":8000,"##елё":8001,"##icule":8002,"##нах":8003,"неиз":8004,"соста":8005,"exact":8006,"existing":8007,"прош":8008,"acid":8009,"accept":8010,"##eds":8011,"##iform":8012,"##aging":8013,"Entom":8014,"obtain":8015,"serious":8016,"abstra":8017,"quelquefois":8018,"силой":8019,"##дина":8020,"вино":8021,"##ouvoir":8022,"инди":8023,"которому":8024,"cartes":8025,"proportion":8026,"органа":8027,"представления":8028,"##itude":8029,"##ящая":8030,"mépris":8031,"played":8032,"страны":8033,"matéri":8034,"##urrence":8035,"engine":8036,"speaking":8037,"contraire":8038,"числа":8039,"susceptible":8040,"образование":8041,"paper":8042,"operation":8043,"болезни":8044,"недостат":8045,"théâtre":8046,"pieds":8047,"European":8048,"напоминающий":8049,"développe":8050,"rapprocher":8051,"intelligence":8052,"кушан":8053,"Fra":8054,"cast":8055,"fol":8056,"fant":8057,"myth":8058,"sand":8059,"Établ":8060,"ат":8061,"сход":8062,"##fe":8063,"##клад":8064,"##usi":8065,"##ina":8066,"##стер":8067,"##orde":8068,"##uille":8069,"##ерб":8070,"inté":8071,"incon":8072,"##атив":8073,"##anterie":8074,"##neau":8075,"сом":8076,"chance":8077,"провод":8078,"forte":8079,"привести":8080,"##лая":8081,"##еду":8082,"выб":8083,"##pective":8084,"##idden":8085,"disg":8086,"##мена":8087,"##anging":8088,"share":8089,"##рование":8090,"cerem":8091,"сигна":8092,"мусуль":8093,"command":8094,"существо":8095,"phénom":8096,"prevent":8097,"памя":8098,"solide":8099,"дело":8100,"явление":8101,"фигу":8102,"##летнее":8103,"intens":8104,"habitude":8105,"connaître":8106,"remar":8107,"opinions":8108,"пространстве":8109,"механизма":8110,"пользу":8111,"огне":8112,"emotional":8113,"отличие":8114,"nécessaire":8115,"véhicule":8116,"défini":8117,"редк":8118,"Région":8119,"protéger":8120,"necessary":8121,"будучи":8122,"extrémité":8123,"cylind":8124,"Entomologie":8125,"fing":8126,"gather":8127,"mi":8128,"my":8129,"rule":8130,"Âge":8131,"Фран":8132,"аль":8133,"вв":8134,"вступ":8135,"влад":8136,"##ipp":8137,"##romp":8138,"##кс":8139,"##лка":8140,"##otic":8141,"##nant":8142,"##мол":8143,"##aff":8144,"##cre":8145,"##шим":8146,"##vu":8147,"##zz":8148,"##стым":8149,"##anded":8150,"##нологи":8151,"##isp":8152,"##атор":8153,"##icale":8154,"enl":8155,"насы":8156,"##ulsion":8157,"нет":8158,"неот":8159,"##irurgie":8160,"##oter":8161,"church":8162,"then":8163,"forth":8164,"прим":8165,"prob":8166,"comes":8167,"вооруж":8168,"duty":8169,"##osexual":8170,"déj":8171,"maxim":8172,"##aisir":8173,"##ённого":8174,"своим":8175,"##aines":8176,"особо":8177,"Christ":8178,"formée":8179,"видов":8180,"друга":8181,"marquer":8182,"exprimer":8183,"genres":8184,"распредел":8185,"couleurs":8186,"средневе":8187,"muscles":8188,"большом":8189,"пережи":8190,"médi":8191,"aircraft":8192,"principal":8193,"используется":8194,"critic":8195,"Réunion":8196,"другие":8197,"avantage":8198,"medium":8199,"искусств":8200,"fixe":8201,"raised":8202,"commonly":8203,"greater":8204,"involved":8205,"désigne":8206,"Acte":8207,"evidence":8208,"тканей":8209,"identif":8210,"которым":8211,"##ерыв":8212,"население":8213,"напиток":8214,"длитель":8215,"distinguished":8216,"Boisson":8217,"экономи":8218,"Forme":8219,"Senti":8220,"bruit":8221,"cam":8222,"dram":8223,"fleur":8224,"hab":8225,"nuit":8226,"pou":8227,"pack":8228,"stic":8229,"vac":8230,"wine":8231,"âge":8232,"ém":8233,"én":8234,"ам":8235,"бро":8236,"пят":8237,"##дри":8238,"##вей":8239,"##ваний":8240,"##rent":8241,"##лённый":8242,"##eting":8243,"##шить":8244,"##жаться":8245,"##what":8246,"##ontaire":8247,"##arth":8248,"##oral":8249,"unre":8250,"uncertain":8251,"##ерь":8252,"inside":8253,"##кость":8254,"total":8255,"##итов":8256,"##итая":8257,"настро":8258,"неве":8259,"несу":8260,"##veur":8261,"exag":8262,"châ":8263,"chap":8264,"chair":8265,"chaî":8266,"разви":8267,"##tait":8268,"##aud":8269,"fortement":8270,"прину":8271,"proche":8272,"##tended":8273,"заг":8274,"замет":8275,"кажд":8276,"arbre":8277,"Involving":8278,"trick":8279,"perception":8280,"таким":8281,"appropriate":8282,"inférieure":8283,"exprime":8284,"Sexual":8285,"amér":8286,"молит":8287,"конструк":8288,"placed":8289,"affection":8290,"metaph":8291,"organe":8292,"облада":8293,"случай":8294,"contro":8295,"Prog":8296,"глаз":8297,"древнее":8298,"предназначенная":8299,"données":8300,"биох":8301,"отношения":8302,"doub":8303,"weak":8304,"peuvent":8305,"individu":8306,"powerful":8307,"flex":8308,"religieuse":8309,"массов":8310,"Trava":8311,"##veloppe":8312,"catch":8313,"Transport":8314,"running":8315,"наблюд":8316,"литератур":8317,"волок":8318,"относительно":8319,"cherche":8320,"mobile":8321,"позвоно":8322,"végétaux":8323,"..":8324,"200":8325,"Opp":8326,"Science":8327,"eux":8328,"how":8329,"iron":8330,"pet":8331,"route":8332,"sauv":8333,"tenir":8334,"yeux":8335,"аз":8336,"вд":8337,"вни":8338,"убе":8339,"##зин":8340,"##iration":8341,"##лес":8342,"##naire":8343,"##нный":8344,"##gent":8345,"##стя":8346,"##стых":8347,"dead":8348,"##omes":8349,"##tead":8350,"##uie":8351,"##urée":8352,"показ":8353,"##кового":8354,"##icament":8355,"##овых":8356,"lait":8357,"##ulière":8358,"chan":8359,"##лями":8360,"##tails":8361,"перек":8362,"##дая":8363,"заст":8364,"##ciation":8365,"##скому":8366,"##tré":8367,"##èrement":8368,"armes":8369,"manquante":8370,"disorder":8371,"Inf":8372,"tranch":8373,"tromper":8374,"##acement":8375,"##деб":8376,"действительности":8377,"neur":8378,"##дия":8379,"##thern":8380,"другими":8381,"##ipe":8382,"##мым":8383,"grade":8384,"всё":8385,"##tish":8386,"Peinture":8387,"Containing":8388,"##êtement":8389,"préf":8390,"plural":8391,"donnée":8392,"disturb":8393,"behave":8394,"определённой":8395,"degré":8396,"sépar":8397,"местности":8398,"texte":8399,"matières":8400,"крепо":8401,"водой":8402,"pouvant":8403,"recevoir":8404,"désigner":8405,"использования":8406,"транспор":8407,"смес":8408,"neck":8409,"бумаги":8410,"деньги":8411,"vêtements":8412,"aucune":8413,"half":8414,"медицин":8415,"ailes":8416,"cuisine":8417,"eu":8418,"fati":8419,"méc":8420,"wit":8421,"êtres":8422,"Аф":8423,"ез":8424,"иной":8425,"устой":8426,"##чками":8427,"##uine":8428,"##мый":8429,"##яр":8430,"##vision":8431,"##êtes":8432,"##onction":8433,"##eral":8434,"##esh":8435,"##гор":8436,"##eth":8437,"##каза":8438,"сот":8439,"##usc":8440,"##rimin":8441,"общее":8442,"провер":8443,"протя":8444,"season":8445,"заб":8446,"стен":8447,"став":8448,"manuf":8449,"spor":8450,"подс":8451,"подъ":8452,"traits":8453,"##жающий":8454,"##альная":8455,"##édant":8456,"formes":8457,"alph":8458,"liber":8459,"##сия":8460,"##доров":8461,"состоящая":8462,"emph":8463,"##aches":8464,"работе":8465,"беспо":8466,"générale":8467,"глаго":8468,"Définition":8469,"communication":8470,"##итай":8471,"использующий":8472,"пищи":8473,"насме":8474,"геомет":8475,"instruments":8476,"самол":8477,"мяса":8478,"субъек":8479,"птиц":8480,"болезн":8481,"régions":8482,"##arsh":8483,"материалов":8484,"alcool":8485,"слабо":8486,"небес":8487,"years":8488,"sports":8489,"favorable":8490,"препят":8491,"equip":8492,"Église":8493,"Occurring":8494,"клеток":8495,"Armement":8496,"institution":8497,"criminal":8498,"adjectif":8499,"Désigne":8500,"индиви":8501,"Франции":8502,"16":8503,"Ital":8504,"Mon":8505,"Str":8506,"em":8507,"job":8508,"jeun":8509,"mém":8510,"must":8511,"rab":8512,"tin":8513,"vient":8514,"Зем":8515,"Ма":8516,"атом":8517,"астрон":8518,"иму":8519,"око":8520,"паль":8521,"##сер":8522,"##врат":8523,"##iable":8524,"##пон":8525,"##over":8526,"##uted":8527,"##sh":8528,"##мос":8529,"##dy":8530,"##яющая":8531,"##vé":8532,"##çant":8533,"##СР":8534,"##tial":8535,"##anted":8536,"##temps":8537,"inves":8538,"поря":8539,"##ковое":8540,"##atur":8541,"##реть":8542,"laine":8543,"##anté":8544,"unex":8545,"leather":8546,"auquel":8547,"thus":8548,"threat":8549,"thick":8550,"провин":8551,"прибли":8552,"##char":8553,"suitable":8554,"выступ":8555,"##вами":8556,"##одоб":8557,"##idé":8558,"##ску":8559,"truth":8560,"достав":8561,"admi":8562,"Chirurgie":8563,"сила":8564,"##цам":8565,"actual":8566,"##étorique":8567,"sons":8568,"vern":8569,"accur":8570,"notice":8571,"ничто":8572,"##ouvements":8573,"##шими":8574,"краси":8575,"##услов":8576,"получ":8577,"spect":8578,"двигаться":8579,"работу":8580,"высокой":8581,"ferment":8582,"должность":8583,"рыба":8584,"pleasure":8585,"ряд":8586,"accompagn":8587,"derived":8588,"electric":8589,"нарко":8590,"tirer":8591,"внимания":8592,"характеризующийся":8593,"довер":8594,"performed":8595,"занят":8596,"немного":8597,"передачи":8598,"message":8599,"зрения":8600,"борь":8601,"damage":8602,"этногр":8603,"conceal":8604,"frequently":8605,"énergie":8606,"cérém":8607,"eight":8608,"lignes":8609,"nor":8610,"ol":8611,"ore":8612,"tes":8613,"tige":8614,"vic":8615,"vif":8616,"vocal":8617,"wid":8618,"ува":8619,"ши":8620,"##ув":8621,"##lor":8622,"##gg":8623,"##cop":8624,"##vable":8625,"##èmes":8626,"##ître":8627,"##rection":8628,"##orted":8629,"unus":8630,"##роз":8631,"inn":8632,"intr":8633,"##urance":8634,"##cell":8635,"parent":8636,"exchange":8637,"chac":8638,"присоедин":8639,"plut":8640,"##tendu":8641,"##орг":8642,"излу":8643,"##циони":8644,"##ческими":8645,"##ouss":8646,"##ousse":8647,"устра":8648,"manip":8649,"atta":8650,"compound":8651,"spéc":8652,"pointe":8653,"positive":8654,"Enf":8655,"restric":8656,"##ровки":8657,"опас":8658,"forming":8659,"Arch":8660,"empêcher":8661,"##ечения":8662,"grains":8663,"souver":8664,"via":8665,"публи":8666,"résulte":8667,"##публи":8668,"древних":8669,"звуков":8670,"matériel":8671,"тулови":8672,"металла":8673,"portent":8674,"progress":8675,"скоро":8676,"exerce":8677,"инструмента":8678,"церкви":8679,"sociale":8680,"пласти":8681,"counter":8682,"##матичес":8683,"изменение":8684,"поступок":8685,"representing":8686,"context":8687,"chargée":8688,"appelé":8689,"haute":8690,"beliefs":8691,"repeated":8692,"aucun":8693,"straight":8694,"Российском":8695,"oxyg":8696,"jurid":8697,"компьютер":8698,"title":8699,"enjoy":8700,"армии":8701,"удовольствие":8702,"свидетельству":8703,"блюдо":8704,"déjà":8705,"Long":8706,"Si":8707,"Sec":8708,"bu":8709,"date":8710,"dip":8711,"digne":8712,"fan":8713,"sad":8714,"té":8715,"titre":8716,"Électr":8717,"сф":8718,"##iver":8719,"##lish":8720,"##нения":8721,"##ds":8722,"##pic":8723,"##tious":8724,"##стное":8725,"##alle":8726,"##orologie":8727,"##orough":8728,"##hel":8729,"##urg":8730,"##анность":8731,"поко":8732,"пово":8733,"поле":8734,"##гов":8735,"chien":8736,"разре":8737,"##мин":8738,"forward":8739,"prostitu":8740,"quar":8741,"##ounce":8742,"store":8743,"##ждении":8744,"reste":8745,"client":8746,"##мок":8747,"marriage":8748,"##sert":8749,"products":8750,"meuble":8751,"маг":8752,"распоря":8753,"форм":8754,"вести":8755,"расстрой":8756,"longues":8757,"Exc":8758,"основной":8759,"полный":8760,"бога":8761,"Dép":8762,"étaient":8763,"planet":8764,"металл":8765,"гипо":8766,"complex":8767,"droits":8768,"давать":8769,"servir":8770,"интернет":8771,"sucre":8772,"succession":8773,"##ющейся":8774,"Imprimerie":8775,"Administ":8776,"управления":8777,"мысли":8778,"Terre":8779,"Terme":8780,"##цуз":8781,"mouth":8782,"сверх":8783,"Dispositif":8784,"необходим":8785,"previous":8786,"четырёх":8787,"гидро":8788,"крестьян":8789,"професси":8790,"grammatic":8791,"German":8792,"биохим":8793,"имуществ":8794,"Elle":8795,"Mété":8796,"Vo":8797,"bass":8798,"cab":8799,"hot":8800,"journ":8801,"lines":8802,"mut":8803,"nose":8804,"nerve":8805,"roll":8806,"Ét":8807,"Ру":8808,"бар":8809,"бое":8810,"звание":8811,"ри":8812,"сед":8813,"фар":8814,"хит":8815,"хво":8816,"эв":8817,"##зем":8818,"##дное":8819,"##вании":8820,"##ванием":8821,"##ming":8822,"##лки":8823,"##uation":8824,"##hood":8825,"##гая":8826,"##щенный":8827,"##шенный":8828,"##стые":8829,"##oured":8830,"##комо":8831,"##реча":8832,"anx":8833,"##ийти":8834,"enem":8835,"начин":8836,"##ulp":8837,"##lying":8838,"##вода":8839,"##usque":8840,"##елье":8841,"коро":8842,"обита":8843,"прибы":8844,"##terie":8845,"##tics":8846,"##тин":8847,"##стого":8848,"personn":8849,"dév":8850,"arme":8851,"arch":8852,"##illir":8853,"Inde":8854,"оса":8855,"advers":8856,"##ктов":8857,"##пасть":8858,"##uiserie":8859,"conscience":8860,"verbe":8861,"##ственного":8862,"конф":8863,"##вшего":8864,"transpar":8865,"allow":8866,"##ept":8867,"capacity":8868,"системе":8869,"center":8870,"определённом":8871,"обществе":8872,"properties":8873,"orthographe":8874,"plein":8875,"extérieur":8876,"углуб":8877,"образования":8878,"grec":8879,"join":8880,"западе":8881,"questions":8882,"Soutenu":8883,"échapp":8884,"help":8885,"счёт":8886,"автомобиль":8887,"дерево":8888,"прийти":8889,"development":8890,"labor":8891,"кислоты":8892,"entire":8893,"agreement":8894,"status":8895,"gouvernement":8896,"##cription":8897,"исключ":8898,"непосредственно":8899,"foolish":8900,"подраздел":8901,"титул":8902,"Bible":8903,"Men":8904,"Pra":8905,"Passer":8906,"Ren":8907,"Situ":8908,"best":8909,"eur":8910,"five":8911,"final":8912,"joy":8913,"listen":8914,"moun":8915,"vois":8916,"всп":8917,"вин":8918,"ев":8919,"нат":8920,"оруж":8921,"плем":8922,"##уда":8923,"##дви":8924,"##вящ":8925,"##ьи":8926,"##нить":8927,"##dit":8928,"##ûte":8929,"##стать":8930,"##rep":8931,"##ream":8932,"##orph":8933,"пого":8934,"tot":8935,"##личи":8936,"##итый":8937,"parole":8938,"##ulent":8939,"destru":8940,"##assion":8941,"chasse":8942,"завер":8943,"##osité":8944,"какими":8945,"стеб":8946,"##ousser":8947,"##aleurs":8948,"##ives":8949,"судно":8950,"##изма":8951,"##ocra":8952,"свою":8953,"should":8954,"живу":8955,"actes":8956,"prefer":8957,"##ленного":8958,"##ленности":8959,"vertu":8960,"##serie":8961,"море":8962,"форми":8963,"люди":8964,"##éma":8965,"scale":8966,"sculp":8967,"плохой":8968,"solution":8969,"canon":8970,"получить":8971,"видео":8972,"движу":8973,"ноги":8974,"discussion":8975,"created":8976,"другому":8977,"##ommun":8978,"liquides":8979,"Quan":8980,"##ouvert":8981,"##ways":8982,"annoy":8983,"##атура":8984,"atteint":8985,"letter":8986,"широко":8987,"специально":8988,"feelings":8989,"essential":8990,"деревьев":8991,"placé":8992,"marked":8993,"культур":8994,"заключ":8995,"##iliar":8996,"topic":8997,"conduite":8998,"##чув":8999,"вызвать":9000,"response":9001,"hipp":9002,"treatment":9003,"applique":9004,"женщине":9005,"recherche":9006,"перевозки":9007,"chréti":9008,"métallique":9009,"удовлетвор":9010,"Германии":9011,"мусульман":9012,"doubt":9013,"эвф":9014,"оружие":9015,"By":9016,"Cent":9017,"Fe":9018,"Fa":9019,"Mach":9020,"Sans":9021,"aqu":9022,"cel":9023,"dry":9024,"eat":9025,"gun":9026,"pé":9027,"pér":9028,"santé":9029,"бур":9030,"звер":9031,"истин":9032,"ово":9033,"пять":9034,"слиш":9035,"треб":9036,"цир":9037,"##дного":9038,"##оли":9039,"##mée":9040,"##гры":9041,"##bes":9042,"##шной":9043,"##onents":9044,"##ann":9045,"##reur":9046,"##oux":9047,"поня":9048,"ens":9049,"##ula":9050,"##етов":9051,"##ющем":9052,"##charge":9053,"##inement":9054,"##tices":9055,"##оты":9056,"##agement":9057,"Ins":9058,"##ольный":9059,"своём":9060,"##ighten":9061,"cordes":9062,"lib":9063,"##цами":9064,"sail":9065,"conserv":9066,"книга":9067,"совмест":9068,"meal":9069,"расход":9070,"grave":9071,"économ":9072,"##lected":9073,"случа":9074,"##граф":9075,"presque":9076,"divin":9077,"love":9078,"##зиров":9079,"полн":9080,"occurring":9081,"Déb":9082,"provin":9083,"principe":9084,"century":9085,"descent":9086,"glace":9087,"diver":9088,"Asie":9089,"rencon":9090,"равная":9091,"arriver":9092,"затруд":9093,"игро":9094,"penis":9095,"##rammation":9096,"cutting":9097,"whether":9098,"maladies":9099,"advoc":9100,"talent":9101,"##ссажи":9102,"впечат":9103,"##ссив":9104,"вызв":9105,"established":9106,"territoire":9107,"believe":9108,"монета":9109,"##гипет":9110,"medicine":9111,"facilement":9112,"metaphor":9113,"порядок":9114,"plutôt":9115,"Administration":9116,"Météorologie":9117,"Quantité":9118,"слишком":9119,"Roman":9120,"ber":9121,"boy":9122,"jui":9123,"lat":9124,"lois":9125,"mœurs":9126,"mouvements":9127,"pes":9128,"rude":9129,"sale":9130,"valeurs":9131,"жё":9132,"указы":9133,"яй":9134,"##ущий":9135,"##дки":9136,"##вес":9137,"##rale":9138,"##кнов":9139,"##кси":9140,"##ген":9141,"##cée":9142,"##шед":9143,"##ench":9144,"##ensible":9145,"##ouer":9146,"chat":9147,"##aume":9148,"пример":9149,"принимать":9150,"##ifères":9151,"##вари":9152,"##начально":9153,"##verage":9154,"dépar":9155,"ствол":9156,"arc":9157,"peinture":9158,"судеб":9159,"trouver":9160,"avoid":9161,"##tainment":9162,"perdu":9163,"##ольно":9164,"##téri":9165,"stop":9166,"свои":9167,"своё":9168,"##istes":9169,"respec":9170,"##cessive":9171,"##евых":9172,"likely":9173,"consomm":9174,"##ellow":9175,"relief":9176,"##ственные":9177,"упря":9178,"takes":9179,"##ратно":9180,"пассажи":9181,"organique":9182,"images":9183,"utilisant":9184,"confidence":9185,"выражения":9186,"prépar":9187,"Trou":9188,"древней":9189,"слой":9190,"земле":9191,"frame":9192,"année":9193,"defe":9194,"mista":9195,"##timate":9196,"ряде":9197,"##ющегося":9198,"Suite":9199,"arrive":9200,"Espace":9201,"jeune":9202,"approxim":9203,"##стрел":9204,"joint":9205,"occupe":9206,"##вропей":9207,"injury":9208,"##étaire":9209,"цилин":9210,"выполнения":9211,"стремление":9212,"##мотр":9213,"Prem":9214,"cinq":9215,"множество":9216,"install":9217,"romaine":9218,"entrée":9219,"ничем":9220,"традицион":9221,"оскорб":9222,"состава":9223,"alphab":9224,"enemy":9225,"Déc":9226,"Fac":9227,"Jap":9228,"Pay":9229,"Titre":9230,"Util":9231,"bitter":9232,"cit":9233,"fas":9234,"had":9235,"mise":9236,"masse":9237,"roy":9238,"vente":9239,"yield":9240,"évent":9241,"СС":9242,"гли":9243,"золо":9244,"ов":9245,"ори":9246,"ров":9247,"сан":9248,"тес":9249,"ше":9250,"##рить":9251,"##аки":9252,"##iquer":9253,"##кат":9254,"##пло":9255,"##aite":9256,"##day":9257,"##yr":9258,"##цени":9259,"##èche":9260,"##ètes":9261,"##стной":9262,"##ares":9263,"##ouiller":9264,"##orate":9265,"##organ":9266,"##hem":9267,"поля":9268,"##реции":9269,"радо":9270,"невоз":9271,"choc":9272,"коры":9273,"обман":9274,"прожи":9275,"промыш":9276,"##autique":9277,"lesquelles":9278,"sum":9279,"##дачи":9280,"##thy":9281,"##ifère":9282,"##cide":9283,"délic":9284,"сух":9285,"##ading":9286,"trust":9287,"avail":9288,"##лужи":9289,"appareil":9290,"obtained":9291,"resta":9292,"trade":9293,"usages":9294,"abond":9295,"вида":9296,"##ouvrir":9297,"telev":9298,"жена":9299,"женского":9300,"исполня":9301,"##égorie":9302,"Personnage":9303,"##iled":9304,"рука":9305,"indulg":9306,"carn":9307,"##motions":9308,"allong":9309,"##tivité":9310,"плод":9311,"relatively":9312,"soutenir":9313,"numéro":9314,"полож":9315,"smaller":9316,"192":9317,"глад":9318,"Déf":9319,"habituellement":9320,"communauté":9321,"частиц":9322,"connaissance":9323,"используемая":9324,"языков":9325,"направления":9326,"##versation":9327,"Devenir":9328,"##бивать":9329,"##образных":9330,"определённым":9331,"garde":9332,"frapp":9333,"самый":9334,"représenté":9335,"отдых":9336,"повтор":9337,"жесто":9338,"пренебре":9339,"рыбы":9340,"portant":9341,"числе":9342,"равно":9343,"столица":9344,"receive":9345,"suivi":9346,"succès":9347,"humains":9348,"механизм":9349,"vitesse":9350,"многих":9351,"fabrication":9352,"entour":9353,"това":9354,"network":9355,"сказу":9356,"Maçonnerie":9357,"seulement":9358,"Ouvrage":9359,"нераз":9360,"walk":9361,"ouverture":9362,"судна":9363,"vessel":9364,"impossible":9365,"##готавли":9366,"кушанье":9367,"Sentiment":9368,"профессиона":9369,"Cath":9370,"Dimin":9371,"Log":9372,"find":9373,"pow":9374,"wear":9375,"бер":9376,"гар":9377,"жан":9378,"игр":9379,"квар":9380,"тщ":9381,"цеп":9382,"юри":9383,"##тая":9384,"##iale":9385,"##uge":9386,"##ek":9387,"##lim":9388,"##ывающий":9389,"##étition":9390,"##жённый":9391,"##tire":9392,"dete":9393,"ornement":9394,"unité":9395,"##tel":9396,"постро":9397,"##лив":9398,"##iculture":9399,"anger":9400,"laisser":9401,"настоя":9402,"outer":9403,"parents":9404,"##dep":9405,"кораб":9406,"обуч":9407,"proced":9408,"fais":9409,"bed":9410,"##osing":9411,"Partisan":9412,"dériv":9413,"стек":9414,"##ительные":9415,"arts":9416,"##opé":9417,"предвар":9418,"avance":9419,"stor":9420,"poils":9421,"##ardinage":9422,"serve":9423,"связь":9424,"nothing":9425,"##разу":9426,"##мон":9427,"существующий":9428,"cold":9429,"возвыш":9430,"свойств":9431,"моно":9432,"recogn":9433,"carried":9434,"carbon":9435,"propres":9436,"комн":9437,"groups":9438,"conforme":9439,"193":9440,"principles":9441,"##oken":9442,"##ommod":9443,"excès":9444,"совершая":9445,"nombreuses":9446,"должно":9447,"defined":9448,"angl":9449,"vivants":9450,"##jection":9451,"merc":9452,"воспал":9453,"покрытый":9454,"absence":9455,"écriture":9456,"сосред":9457,"green":9458,"текста":9459,"изготовления":9460,"правитель":9461,"ideas":9462,"triang":9463,"неприятный":9464,"буквы":9465,"children":9466,"волосы":9467,"étendue":9468,"sugar":9469,"##board":9470,"##брасы":9471,"похожий":9472,"previously":9473,"успех":9474,"беспорядо":9475,"характеристика":9476,"авиац":9477,"focus":9478,"одновременно":9479,"француз":9480,"chaîne":9481,"Japan":9482,"television":9483,"12":9484,"Figure":9485,"Mus":9486,"Méd":9487,"ara":9488,"band":9489,"born":9490,"dw":9491,"kill":9492,"mel":9493,"pair":9494,"pull":9495,"poudre":9496,"tort":9497,"éche":9498,"Си":9499,"второ":9500,"волн":9501,"даль":9502,"клю":9503,"мер":9504,"пры":9505,"сно":9506,"уди":9507,"##ik":9508,"##aur":9509,"##cast":9510,"##ycl":9511,"##ôme":9512,"##ône":9513,"##anie":9514,"##redi":9515,"##lege":9516,"##omobile":9517,"порода":9518,"##кости":9519,"last":9520,"envers":9521,"##anter":9522,"conta":9523,"leaves":9524,"когда":9525,"просто":9526,"##pped":9527,"reven":9528,"summ":9529,"acts":9530,"стес":9531,"ступ":9532,"стерж":9533,"compagn":9534,"спос":9535,"##outure":9536,"чтобы":9537,"station":9538,"poids":9539,"obs":9540,"adh":9541,"admin":9542,"advantage":9543,"Char":9544,"преисп":9545,"substitu":9546,"##tiles":9547,"termes":9548,"meeting":9549,"repas":9550,"маш":9551,"событ":9552,"вещи":9553,"##вшись":9554,"health":9555,"##щими":9556,"##ought":9557,"transmit":9558,"immedi":9559,"мира":9560,"представляющий":9561,"contest":9562,"Prof":9563,"переход":9564,"194":9565,"лице":9566,"Reg":9567,"calm":9568,"contras":9569,"##няться":9570,"##атуре":9571,"considérée":9572,"traditionnelle":9573,"длинная":9574,"число":9575,"standing":9576,"остат":9577,"firm":9578,"désign":9579,"##ammation":9580,"follow":9581,"expressions":9582,"synth":9583,"contex":9584,"сыпу":9585,"ранее":9586,"pierres":9587,"противника":9588,"сексу":9589,"talk":9590,"write":9591,"froid":9592,"sortir":9593,"Chemin":9594,"huile":9595,"independ":9596,"нарушение":9597,"древнегреческое":9598,"literary":9599,"voyage":9600,"cultures":9601,"alcohol":9602,"приобрет":9603,"популяр":9604,"assez":9605,"enthusi":9606,"индивиду":9607,"mémoire":9608,"unexpected":9609,"СССР":9610,"сказуемого":9611,"событий":9612,"Dég":9613,"Fruit":9614,"It":9615,"Pol":9616,"Sé":9617,"dil":9618,"fen":9619,"fum":9620,"list":9621,"send":9622,"série":9623,"signe":9624,"Étend":9625,"Ар":9626,"Амери":9627,"зла":9628,"зим":9629,"китай":9630,"пить":9631,"пал":9632,"се":9633,"##зме":9634,"##тра":9635,"##тный":9636,"##оре":9637,"##iologie":9638,"##лли":9639,"##гий":9640,"##érable":9641,"##yse":9642,"##yau":9643,"##шир":9644,"##жки":9645,"##цей":9646,"##цеп":9647,"##èvre":9648,"##стями":9649,"##енными":9650,"##ission":9651,"##lets":9652,"unkn":9653,"##анном":9654,"##ics":9655,"наказ":9656,"desse":9657,"##actions":9658,"##acture":9659,"##ничать":9660,"##irect":9661,"chiff":9662,"##rimé":9663,"##ляемый":9664,"lesquels":9665,"forment":9666,"##mph":9667,"##ложение":9668,"##ured":9669,"##resser":9670,"избав":9671,"выступа":9672,"##вал":9673,"##esses":9674,"##encement":9675,"##гиб":9676,"##aisser":9677,"stock":9678,"действовать":9679,"rése":9680,"réaction":9681,"serves":9682,"ressemble":9683,"##ательная":9684,"cele":9685,"clair":9686,"impl":9687,"user":9688,"abund":9689,"преобразов":9690,"##aria":9691,"##нести":9692,"инт":9693,"expéri":9694,"interes":9695,"##люб":9696,"непро":9697,"веро":9698,"мужской":9699,"soul":9700,"divided":9701,"##олненный":9702,"voiture":9703,"capit":9704,"учё":9705,"veget":9706,"sky":9707,"sounds":9708,"livres":9709,"помещ":9710,"##нуться":9711,"рыб":9712,"fondé":9713,"воспроиз":9714,"removed":9715,"увле":9716,"consideration":9717,"irrit":9718,"округ":9719,"tissue":9720,"contemp":9721,"growth":9722,"функции":9723,"happen":9724,"смеш":9725,"judic":9726,"север":9727,"неблаго":9728,"imagination":9729,"soldats":9730,"verbal":9731,"катего":9732,"vigueur":9733,"Европе":9734,"odor":9735,"muni":9736,"bottom":9737,"smooth":9738,"obstacle":9739,"insectes":9740,"vernac":9741,"гипокор":9742,"Eth":9743,"Gros":9744,"We":9745,"dial":9746,"eaux":9747,"econ":9748,"fib":9749,"faut":9750,"ho":9751,"harsh":9752,"гро":9753,"гом":9754,"слег":9755,"фер":9756,"чин":9757,"##сол":9758,"##дор":9759,"##ially":9760,"##rète":9761,"##née":9762,"##nab":9763,"##bration":9764,"##çons":9765,"##rete":9766,"defin":9767,"##oucher":9768,"##omy":9769,"inex":9770,"##говат":9771,"##att":9772,"##icate":9773,"theory":9774,"##sile":9775,"parce":9776,"parall":9777,"conversation":9778,"##acée":9779,"chauss":9780,"разм":9781,"plain":9782,"remp":9783,"across":9784,"##ifying":9785,"personnel":9786,"##ousing":9787,"manche":9788,"значении":9789,"##unk":9790,"##ocking":9791,"##ательным":9792,"##ательства":9793,"cloud":9794,"одном":9795,"опер":9796,"##loir":9797,"Arr":9798,"phon":9799,"друж":9800,"##родный":9801,"##onnée":9802,"состоящее":9803,"blas":9804,"сах":9805,"grain":9806,"gradu":9807,"affected":9808,"regarded":9809,"procéd":9810,"деле":9811,"##личие":9812,"muscul":9813,"большого":9814,"membre":9815,"##inese":9816,"occurs":9817,"profonde":9818,"древнер":9819,"provides":9820,"provoque":9821,"mince":9822,"учение":9823,"##ancy":9824,"visual":9825,"пище":9826,"décor":9827,"процесса":9828,"basic":9829,"исход":9830,"проявлять":9831,"coups":9832,"physically":9833,"répand":9834,"##éléc":9835,"barre":9836,"парт":9837,"jugement":9838,"sufficient":9839,"hauteur":9840,"небре":9841,"препарат":9842,"assemblée":9843,"продолговат":9844,"Европы":9845,"хлеб":9846,"млекопитающее":9847,"reduce":9848,"однородных":9849,"tube":9850,"принци":9851,"дисцип":9852,"зуб":9853,"embarrass":9854,"storage":9855,"сосредото":9856,"Me":9857,"Pâ":9858,"dent":9859,"elev":9860,"gas":9861,"monnaie":9862,"nut":9863,"night":9864,"rum":9865,"sides":9866,"wed":9867,"would":9868,"вен":9869,"гр":9870,"здание":9871,"пев":9872,"ром":9873,"##ront":9874,"##чок":9875,"##nent":9876,"##tist":9877,"##inaison":9878,"##ентов":9879,"##ardi":9880,"##urity":9881,"поки":9882,"tox":9883,"##лива":9884,"##рам":9885,"##ражн":9886,"antic":9887,"entier":9888,"paras":9889,"convert":9890,"chrom":9891,"thorough":9892,"##лян":9893,"sein":9894,"semi":9895,"architecture":9896,"mains":9897,"##ivre":9898,"##diment":9899,"меся":9900,"##ённой":9901,"##ённость":9902,"Entre":9903,"##lled":9904,"##enser":9905,"##ательные":9906,"реак":9907,"##prendre":9908,"Chinese":9909,"live":9910,"кух":9911,"subord":9912,"испыт":9913,"empty":9914,"among":9915,"руки":9916,"##вшие":9917,"école":9918,"score":9919,"медленно":9920,"мужского":9921,"ласко":9922,"обос":9923,"numbers":9924,"##женная":9925,"##ящих":9926,"musul":9927,"incomp":9928,"foi":9929,"occur":9930,"occurrence":9931,"Spécial":9932,"198":9933,"деко":9934,"способности":9935,"publication":9936,"высшего":9937,"arms":9938,"contrad":9939,"contract":9940,"précède":9941,"dessous":9942,"##ombrable":9943,"кристал":9944,"moyens":9945,"крупный":9946,"mention":9947,"places":9948,"market":9949,"severe":9950,"issu":9951,"участник":9952,"private":9953,"населения":9954,"предохран":9955,"синт":9956,"photograph":9957,"##авшийся":9958,"##вшееся":9959,"жительница":9960,"свойствами":9961,"mélange":9962,"understanding":9963,"комплекс":9964,"tabac":9965,"Régionalisme":9966,"Sexualité":9967,"manufacture":9968,"equipment":9969,"наркоти":9970,"témo":9971,"Руси":9972,"département":9973,"Catholic":9974,"гряз":9975,"Full":9976,"Ir":9977,"Latin":9978,"Mé":9979,"Mauv":9980,"Mél":9981,"Nos":9982,"Nav":9983,"cuis":9984,"japon":9985,"lut":9986,"nous":9987,"pic":9988,"ring":9989,"rond":9990,"van":9991,"vision":9992,"zone":9993,"œil":9994,"греб":9995,"имен":9996,"плав":9997,"солн":9998,"тр":9999,"##зя":10000,"##уз":10001,"##ket":10002,"##ètres":10003,"##ester":10004,"##стор":10005,"delay":10006,"##ismes":10007,"##omach":10008,"##hetic":10009,"##head":10010,"##inge":10011,"insign":10012,"##ieuses":10013,"##ливать":10014,"##створ":10015,"ances":10016,"##quet":10017,"##ulated":10018,"quiet":10019,"##acé":10020,"lev":10021,"пропит":10022,"прип":10023,"##лады":10024,"отда":10025,"##quin":10026,"##стье":10027,"composed":10028,"tromp":10029,"спек":10030,"sph":10031,"extend":10032,"poil":10033,"действующий":10034,"##новых":10035,"adop":10036,"notes":10037,"опти":10038,"силу":10039,"##ordre":10040,"##aries":10041,"##ленные":10042,"##дум":10043,"sympt":10044,"features":10045,"##ечь":10046,"areas":10047,"конк":10048,"effects":10049,"ordin":10050,"среды":10051,"doig":10052,"Autre":10053,"loose":10054,"верхов":10055,"выражая":10056,"Produit":10057,"sexuel":10058,"196":10059,"##aked":10060,"##ологический":10061,"capacité":10062,"slender":10063,"politiques":10064,"highest":10065,"publics":10066,"##icked":10067,"représentation":10068,"volonté":10069,"combus":10070,"устройства":10071,"decision":10072,"considérable":10073,"présentant":10074,"лишить":10075,"обращения":10076,"atteinte":10077,"дающий":10078,"пластин":10079,"почти":10080,"pieces":10081,"caractérisée":10082,"professional":10083,"##стрель":10084,"##sibility":10085,"identity":10086,"carrying":10087,"foreign":10088,"pouss":10089,"dimensions":10090,"nécessaires":10091,"учреждение":10092,"representation":10093,"sugges":10094,"micro":10095,"consequence":10096,"административный":10097,"удоб":10098,"эмоциона":10099,"soleil":10100,"results":10101,"video":10102,"semblable":10103,"enseignement":10104,"защиты":10105,"уроженец":10106,"stimul":10107,"насеком":10108,"événement":10109,"fully":10110,"girl":10111,"inferior":10112,"candid":10113,"conclusion":10114,"огнестрель":10115,"Ethn":10116,"слегка":10117,"Nosologie":10118,"Bour":10119,"Cro":10120,"Cir":10121,"Danse":10122,"East":10123,"Gree":10124,"Out":10125,"Tirer":10126,"bab":10127,"basse":10128,"dents":10129,"danse":10130,"fines":10131,"fâche":10132,"glu":10133,"humeur":10134,"jet":10135,"lux":10136,"ov":10137,"pomp":10138,"ru":10139,"rail":10140,"wo":10141,"wish":10142,"веч":10143,"коль":10144,"като":10145,"слад":10146,"##рерыв":10147,"##ссии":10148,"##тать":10149,"##чее":10150,"##sons":10151,"##natural":10152,"##мом":10153,"##яги":10154,"##œu":10155,"##èles":10156,"##wer":10157,"##tiquer":10158,"##istique":10159,"##omet":10160,"повоз":10161,"##елый":10162,"##бою":10163,"##рах":10164,"##eless":10165,"contenu":10166,"неспособ":10167,"##riques":10168,"обуслов":10169,"проб":10170,"прису":10171,"##ching":10172,"##ifi":10173,"##cice":10174,"personnage":10175,"студ":10176,"moteur":10177,"trous":10178,"##apable":10179,"##изме":10180,"##enses":10181,"neu":10182,"restra":10183,"осве":10184,"adresse":10185,"##ставить":10186,"##удов":10187,"bright":10188,"accus":10189,"amour":10190,"##ственная":10191,"мастер":10192,"courte":10193,"произвед":10194,"affirm":10195,"##вычай":10196,"парус":10197,"характера":10198,"presence":10199,"apparent":10200,"положении":10201,"полигр":10202,"бог":10203,"profond":10204,"##oked":10205,"highly":10206,"созда":10207,"качества":10208,"durée":10209,"roi":10210,"basis":10211,"многолетнее":10212,"проявления":10213,"media":10214,"гастрон":10215,"porté":10216,"мелких":10217,"мелкие":10218,"соответствии":10219,"pleasant":10220,"призн":10221,"standards":10222,"трад":10223,"arrêter":10224,"step":10225,"электрон":10226,"голову":10227,"головной":10228,"clean":10229,"culte":10230,"внутренней":10231,"milk":10232,"неоп":10233,"occupation":10234,"équipe":10235,"недостато":10236,"несча":10237,"wheels":10238,"снаб":10239,"potential":10240,"effets":10241,"денег":10242,"денежная":10243,"секрет":10244,"fortune":10245,"местах":10246,"циф":10247,"##oureux":10248,"чрезвычай":10249,"stret":10250,"manifeste":10251,"rotation":10252,"сравнительно":10253,"passions":10254,"automobile":10255,"reçu":10256,"##вшаяся":10257,"Opération":10258,"arrangement":10259,"mariage":10260,"alcoholic":10261,"включа":10262,"resulting":10263,"sentence":10264,"Chacune":10265,"countries":10266,"эффек":10267,"изделия":10268,"требования":10269,"nourriture":10270,"Établissement":10271,"jeunes":10272,"невозмо":10273,"vernaculaire":10274,"Bande":10275,"Earth":10276,"Jew":10277,"Jardinage":10278,"Mes":10279,"Sal":10280,"Sol":10281,"axe":10282,"bill":10283,"cris":10284,"gest":10285,"gib":10286,"idi":10287,"jours":10288,"lieux":10289,"mén":10290,"sul":10291,"tum":10292,"Греции":10293,"бель":10294,"брать":10295,"брю":10296,"здоров":10297,"иду":10298,"сразу":10299,"чет":10300,"штат":10301,"эпо":10302,"юге":10303,"##дой":10304,"##чание":10305,"##uée":10306,"##norm":10307,"##ьян":10308,"##pital":10309,"##bel":10310,"##gle":10311,"##жном":10312,"##estion":10313,"deity":10314,"determin":10315,"##ouille":10316,"##istr":10317,"unable":10318,"##heur":10319,"##ueil":10320,"##ueuse":10321,"##коне":10322,"##ковая":10323,"##icit":10324,"##ilities":10325,"##rad":10326,"линии":10327,"##antly":10328,"conduit":10329,"неи":10330,"сою":10331,"сосу":10332,"##veal":10333,"chaleur":10334,"##chant":10335,"reach":10336,"faith":10337,"##idité":10338,"Animal":10339,"promp":10340,"значениях":10341,"stress":10342,"##там":10343,"##ательство":10344,"осно":10345,"uses":10346,"##énombrable":10347,"превращ":10348,"teeth":10349,"##quill":10350,"##quille":10351,"preparation":10352,"produces":10353,"interp":10354,"грубо":10355,"string":10356,"##angement":10357,"longtemps":10358,"écrire":10359,"couver":10360,"familiar":10361,"Prov":10362,"facult":10363,"situé":10364,"небольшого":10365,"principes":10366,"payment":10367,"языке":10368,"porta":10369,"##isément":10370,"проявля":10371,"добы":10372,"medical":10373,"volontaire":10374,"##umed":10375,"policy":10376,"##прият":10377,"рассчит":10378,"accompan":10379,"cellules":10380,"тип":10381,"един":10382,"теат":10383,"##литься":10384,"marché":10385,"tels":10386,"элементы":10387,"multip":10388,"лёгкий":10389,"достижения":10390,"смысле":10391,"manifest":10392,"товара":10393,"formerly":10394,"##ходящее":10395,"склонный":10396,"dangerous":10397,"address":10398,"генет":10399,"English":10400,"стрель":10401,"единиц":10402,"caractéristique":10403,"caractéristiques":10404,"чрезмерно":10405,"Rhétorique":10406,"competition":10407,"demeure":10408,"ecclésiastique":10409,"circonstances":10410,"développement":10411,"Programmation":10412,"Menuiserie":10413,"defeat":10414,"available":10415,"Bri":10416,"Sold":10417,"bond":10418,"dix":10419,"ep":10420,"ice":10421,"jam":10422,"noire":10423,"naissance":10424,"rod":10425,"tau":10426,"trip":10427,"ввод":10428,"зол":10429,"зво":10430,"иного":10431,"нена":10432,"пле":10433,"##сить":10434,"##ущ":10435,"##дной":10436,"##око":10437,"##oting":10438,"##oise":10439,"##lt":10440,"##ailles":10441,"##dra":10442,"##cs":10443,"##vet":10444,"##tise":10445,"##tiers":10446,"devo":10447,"##ourage":10448,"##omin":10449,"##ровой":10450,"ine":10451,"##ceeding":10452,"##лизи":10453,"##ливое":10454,"##итать":10455,"enn":10456,"нег":10457,"##veill":10458,"##ership":10459,"##dement":10460,"проз":10461,"прозра":10462,"##арата":10463,"принима":10464,"pla":10465,"##лось":10466,"duquel":10467,"##atement":10468,"##ительным":10469,"arom":10470,"##endance":10471,"##ivent":10472,"extended":10473,"##ённые":10474,"réalité":10475,"obtenue":10476,"resem":10477,"связанных":10478,"##iseau":10479,"corde":10480,"прежде":10481,"существу":10482,"substan":10483,"colère":10484,"##ятся":10485,"relève":10486,"имеющая":10487,"##ическое":10488,"##issance":10489,"opponent":10490,"##érieurs":10491,"##édecin":10492,"плотно":10493,"##olet":10494,"объём":10495,"##лекать":10496,"колон":10497,"сквоз":10498,"providing":10499,"épaisse":10500,"Ref":10501,"creux":10502,"##станавли":10503,"values":10504,"simult":10505,"труб":10506,"lives":10507,"égard":10508,"glass":10509,"детали":10510,"расположение":10511,"мясо":10512,"légumes":10513,"drag":10514,"масса":10515,"officielle":10516,"atteindre":10517,"грам":10518,"изготовленный":10519,"côtés":10520,"demande":10521,"electrical":10522,"ideal":10523,"oiseau":10524,"Individ":10525,"Indénombrable":10526,"выделя":10527,"err":10528,"работник":10529,"spiritual":10530,"##писи":10531,"cuivre":10532,"pousse":10533,"##цветных":10534,"hiér":10535,"солом":10536,"Typographie":10537,"improve":10538,"couvrir":10539,"faute":10540,"indiquer":10541,"машина":10542,"враща":10543,"extrêmement":10544,"circumstances":10545,"moléc":10546,"mechanical":10547,"protest":10548,"спирт":10549,"другую":10550,"condam":10551,"промежуток":10552,"девушка":10553,"Représentation":10554,"flexible":10555,"Travail":10556,"...":10557,"procedure":10558,"Ap":10559,"Happ":10560,"Myth":10561,"North":10562,"Wor":10563,"big":10564,"bind":10565,"bold":10566,"brown":10567,"bateau":10568,"fier":10569,"faux":10570,"ger":10571,"gout":10572,"hidden":10573,"lic":10574,"mine":10575,"mécanique":10576,"nouvelle":10577,"ram":10578,"rect":10579,"sti":10580,"vou":10581,"агре":10582,"бой":10583,"век":10584,"данных":10585,"заря":10586,"нен":10587,"он":10588,"оказ":10589,"сро":10590,"сви":10591,"тё":10592,"цит":10593,"##оти":10594,"##rical":10595,"##пол":10596,"##читься":10597,"##чную":10598,"##oot":10599,"##uded":10600,"##eded":10601,"##ыс":10602,"##put":10603,"##bra":10604,"##bed":10605,"##gré":10606,"##шен":10607,"##erving":10608,"##estin":10609,"##arse":10610,"##itor":10611,"##ality":10612,"union":10613,"##omber":10614,"##анти":10615,"понят":10616,"##кови":10617,"tool":10618,"##ити":10619,"lame":10620,"enne":10621,"наим":10622,"надо":10623,"##igation":10624,"##igare":10625,"##сят":10626,"##воря":10627,"##asting":10628,"##ницы":10629,"##veau":10630,"##otte":10631,"existe":10632,"##анин":10633,"прид":10634,"прич":10635,"привер":10636,"привы":10637,"принять":10638,"отказ":10639,"отправ":10640,"plomb":10641,"##chn":10642,"pros":10643,"project":10644,"зао":10645,"захват":10646,"beat":10647,"выраз":10648,"Partic":10649,"mois":10650,"arrog":10651,"##avant":10652,"##unction":10653,"спло":10654,"##менный":10655,"##agon":10656,"таба":10657,"story":10658,"допу":10659,"меб":10660,"next":10661,"##новение":10662,"cerveau":10663,"Often":10664,"живых":10665,"agric":10666,"##vious":10667,"objection":10668,"brut":10669,"##mob":10670,"graines":10671,"##érieures":10672,"organes":10673,"direc":10674,"Unis":10675,"получи":10676,"divine":10677,"price":10678,"##uster":10679,"явлений":10680,"высокий":10681,"скан":10682,"passé":10683,"signes":10684,"определённое":10685,"определённого":10686,"roues":10687,"терп":10688,"destination":10689,"логи":10690,"добро":10691,"целях":10692,"Att":10693,"инструмен":10694,"cases":10695,"войны":10696,"essence":10697,"распространение":10698,"semble":10699,"début":10700,"juge":10701,"химический":10702,"America":10703,"сверху":10704,"характеризующееся":10705,"наука":10706,"товар":10707,"suddenly":10708,"démon":10709,"worthless":10710,"жало":10711,"filled":10712,"pâte":10713,"существования":10714,"reçoit":10715,"Serving":10716,"applied":10717,"берегу":10718,"##ностями":10719,"молодой":10720,"служащая":10721,"составляющего":10722,"fréquent":10723,"обнару":10724,"bleu":10725,"container":10726,"тёмно":10727,"философ":10728,"обязанности":10729,"нелеп":10730,"illegal":10731,"попереч":10732,"Афри":10733,"Земли":10734,"spectacle":10735,"Machine":10736,"конкрет":10737,"Gl":10738,"High":10739,"Mob":10740,"Ori":10741,"Pal":10742,"Vêtement":10743,"bor":10744,"caf":10745,"fusion":10746,"mère":10747,"oc":10748,"purs":10749,"site":10750,"tan":10751,"were":10752,"yet":10753,"Вели":10754,"ас":10755,"бло":10756,"здания":10757,"лек":10758,"ску":10759,"укры":10760,"уха":10761,"ценно":10762,"шах":10763,"##rées":10764,"##mil":10765,"##lant":10766,"##aded":10767,"##év":10768,"##cence":10769,"##cées":10770,"##yé":10771,"##yed":10772,"##жь":10773,"##êle":10774,"##encer":10775,"##indi":10776,"##стных":10777,"##omic":10778,"##uré":10779,"##раво":10780,"##ования":10781,"##ового":10782,"##sière":10783,"ende":10784,"##вок":10785,"собою":10786,"##iring":10787,"##otyp":10788,"разгово":10789,"обе":10790,"обмен":10791,"отрас":10792,"##tery":10793,"reques":10794,"##tenance":10795,"изог":10796,"извле":10797,"acier":10798,"bearing":10799,"##éron":10800,"##pects":10801,"déli":10802,"maj":10803,"surf":10804,"discip":10805,"##имая":10806,"##tains":10807,"##agree":10808,"##aceae":10809,"added":10810,"##tiful":10811,"опыт":10812,"abnorm":10813,"##рян":10814,"consac":10815,"conscious":10816,"subjec":10817,"##égal":10818,"##onnes":10819,"##onsense":10820,"feet":10821,"flower":10822,"accro":10823,"améli":10824,"##вец":10825,"tail":10826,"strict":10827,"##тыми":10828,"ниже":10829,"ordinary":10830,"края":10831,"types":10832,"##хоз":10833,"load":10834,"большая":10835,"организов":10836,"##ереж":10837,"филь":10838,"199":10839,"высоко":10840,"professe":10841,"##entement":10842,"principle":10843,"компон":10844,"сторона":10845,"языку":10846,"calc":10847,"régulière":10848,"процессов":10849,"определённых":10850,"garment":10851,"##казывать":10852,"représente":10853,"мяс":10854,"angles":10855,"remark":10856,"##rink":10857,"массы":10858,"identi":10859,"длинный":10860,"opposé":10861,"élég":10862,"travaille":10863,"opening":10864,"утвер":10865,"individuals":10866,"управля":10867,"tissus":10868,"waste":10869,"wheel":10870,"украшение":10871,"appelée":10872,"тому":10873,"reality":10874,"street":10875,"привле":10876,"techniques":10877,"XVIII":10878,"##fortable":10879,"конец":10880,"primary":10881,"Like":10882,"release":10883,"poissons":10884,"rapidement":10885,"культуры":10886,"пределы":10887,"побереж":10888,"international":10889,"vague":10890,"Chacun":10891,"Temps":10892,"geograph":10893,"Théâtre":10894,"богослу":10895,"morceau":10896,"присут":10897,"англий":10898,"Couleur":10899,"romantic":10900,"протека":10901,"Sociologie":10902,"catholique":10903,"коренное":10904,"военнослужащий":10905,"category":10906,"##органи":10907,"цилиндри":10908,"réseau":10909,"декоратив":10910,"насекомых":10911,"заостр":10912,"Cette":10913,"Comb":10914,"Nouvelle":10915,"Over":10916,"Sta":10917,"Tur":10918,"apart":10919,"bande":10920,"coc":10921,"cens":10922,"dic":10923,"dot":10924,"gri":10925,"hat":10926,"jard":10927,"miss":10928,"page":10929,"push":10930,"test":10931,"wild":10932,"аром":10933,"впа":10934,"впер":10935,"дро":10936,"зд":10937,"заран":10938,"иных":10939,"лод":10940,"сет":10941,"стой":10942,"##дон":10943,"##очная":10944,"##iat":10945,"##лых":10946,"##oz":10947,"##tos":10948,"##bing":10949,"##щё":10950,"##шему":10951,"##êne":10952,"##isted":10953,"unp":10954,"unes":10955,"повыш":10956,"##литель":10957,"##eler":10958,"latin":10959,"enough":10960,"enreg":10961,"наза":10962,"##oler":10963,"##олне":10964,"##active":10965,"сооруж":10966,"##ющему":10967,"##otes":10968,"expect":10969,"разные":10970,"##rible":10971,"remettre":10972,"reveal":10973,"##лочка":10974,"##quences":10975,"изда":10976,"##одейств":10977,"##вище":10978,"molec":10979,"##umine":10980,"устран":10981,"manger":10982,"prison":10983,"##ops":10984,"##ortun":10985,"##ands":10986,"##bler":10987,"complément":10988,"##лега":10989,"spoken":10990,"##ёнными":10991,"##тах":10992,"##key":10993,"resources":10994,"##tifier":10995,"travaux":10996,"##жащих":10997,"Arbre":10998,"tele":10999,"##ignée":11000,"faits":11001,"инфек":11002,"brun":11003,"brusque":11004,"моз":11005,"carb":11006,"heure":11007,"ital":11008,"ними":11009,"Under":11010,"générique":11011,"température":11012,"morales":11013,"основных":11014,"##ologiques":11015,"полно":11016,"plays":11017,"нож":11018,"старо":11019,"douleur":11020,"significant":11021,"activités":11022,"boat":11023,"желание":11024,"землю":11025,"долго":11026,"длинной":11027,"угро":11028,"##sification":11029,"крупная":11030,"élève":11031,"трево":11032,"demon":11033,"curved":11034,"изменения":11035,"Outil":11036,"penet":11037,"возможности":11038,"growing":11039,"обслужи":11040,"suffering":11041,"приготовления":11042,"перемещение":11043,"начало":11044,"correspondant":11045,"référence":11046,"mixed":11047,"ощущение":11048,"déterminer":11049,"indicate":11050,"Aller":11051,"Corps":11052,"танец":11053,"транспортное":11054,"знаний":11055,"ridicule":11056,"сознания":11057,"Christian":11058,"природы":11059,"temporary":11060,"XIXe":11061,"distribution":11062,"советск":11063,"rivière":11064,"clothes":11065,"сорт":11066,"млекопитающих":11067,"prepared":11068,"священ":11069,"enclosed":11070,"##чивость":11071,"превосход":11072,"империи":11073,"excellent":11074,"ситуации":11075,"Запад":11076,"axis":11077,"phenomenon":11078,"около":11079,"Archaïsme":11080,"впечатление":11081,"dessein":11082,"##élécommun":11083,"католи":11084,"British":11085,"Mobilier":11086,"заранее":11087,"Cin":11088,"He":11089,"Lég":11090,"Red":11091,"Suit":11092,"ach":11093,"bir":11094,"hide":11095,"jeux":11096,"nouv":11097,"py":11098,"pig":11099,"paille":11100,"tight":11101,"брат":11102,"вну":11103,"жерт":11104,"иско":11105,"оке":11106,"рот":11107,"схват":11108,"фут":11109,"##mét":11110,"##oût":11111,"##utions":11112,"##ubles":11113,"##aill":11114,"##НК":11115,"##âcher":11116,"##anes":11117,"devoir":11118,"##itch":11119,"##itely":11120,"##isent":11121,"##isés":11122,"undes":11123,"##omo":11124,"##рони":11125,"inher":11126,"##ела":11127,"##ито":11128,"набор":11129,"напад":11130,"##anth":11131,"##емой":11132,"##качеств":11133,"несов":11134,"сочин":11135,"chir":11136,"auteur":11137,"развед":11138,"thread":11139,"##льные":11140,"plu":11141,"##vere":11142,"##скохоз":11143,"##ческую":11144,"Incl":11145,"##unal":11146,"appe":11147,"подт":11148,"cler":11149,"track":11150,"##ровых":11151,"impul":11152,"abd":11153,"##ared":11154,"alt":11155,"alg":11156,"consé":11157,"preced":11158,"##ignon":11159,"##жней":11160,"##ellation":11161,"interse":11162,"непрерыв":11163,"груз":11164,"##fulness":11165,"partner":11166,"##револю":11167,"быст":11168,"##érif":11169,"##tisserie":11170,"soud":11171,"contrib":11172,"движении":11173,"технологи":11174,"sexually":11175,"homosexual":11176,"склад":11177,"дух":11178,"principale":11179,"автор":11180,"purch":11181,"informations":11182,"durant":11183,"retr":11184,"иска":11185,"possessing":11186,"земной":11187,"##ировать":11188,"directions":11189,"##стойный":11190,"combination":11191,"drawn":11192,"##stral":11193,"русская":11194,"défense":11195,"letters":11196,"пространства":11197,"équip":11198,"##ителем":11199,"observation":11200,"according":11201,"автомобиля":11202,"территори":11203,"entertainment":11204,"исполнения":11205,"propriétés":11206,"подвергать":11207,"приток":11208,"старинная":11209,"получаемый":11210,"examen":11211,"##обом":11212,"exécuter":11213,"copy":11214,"##ground":11215,"Collec":11216,"хлеба":11217,"любое":11218,"лечеб":11219,"##мерикан":11220,"horizontal":11221,"ритор":11222,"coton":11223,"quoi":11224,"Pharmacie":11225,"paid":11226,"physiques":11227,"Extrême":11228,"incorrect":11229,"désagréable":11230,"сельскохоз":11231,"атмос":11232,"admiration":11233,"europé":11234,"юриди":11235,"Japanese":11236,"способом":11237,"unknown":11238,"Soldat":11239,"Mythologie":11240,"сельскохозяй":11241,"Cô":11242,"Free":11243,"Souvent":11244,"cout":11245,"fu":11246,"fus":11247,"hur":11248,"médecine":11249,"ner":11250,"odeur":11251,"pel":11252,"pêche":11253,"rit":11254,"ryth":11255,"sû":11256,"sab":11257,"tent":11258,"venir":11259,"want":11260,"wool":11261,"Пет":11262,"бру":11263,"блес":11264,"две":11265,"оку":11266,"пет":11267,"япон":11268,"##дц":11269,"##ias":11270,"##кет":11271,"##лым":11272,"##utable":11273,"##мать":11274,"##arer":11275,"demi":11276,"##alty":11277,"##ouc":11278,"##ourable":11279,"intim":11280,"town":11281,"##лие":11282,"##лиру":11283,"##icien":11284,"наличие":11285,"##оле":11286,"desp":11287,"##acles":11288,"##нику":11289,"least":11290,"##ired":11291,"##ельный":11292,"chin":11293,"changer":11294,"aujourd":11295,"##pping":11296,"sep":11297,"seigne":11298,"запу":11299,"bear":11300,"каза":11301,"##сторон":11302,"##cid":11303,"##pecific":11304,"##endent":11305,"значения":11306,"суп":11307,"судоро":11308,"comportant":11309,"troupe":11310,"спо":11311,"##agé":11312,"##мах":11313,"##леп":11314,"strip":11315,"##таль":11316,"gris":11317,"##oupes":11318,"одуш":11319,"somewhat":11320,"##сив":11321,"actually":11322,"точ":11323,"##ехать":11324,"flesh":11325,"bron":11326,"étud":11327,"##ght":11328,"recomm":11329,"propose":11330,"веж":11331,"going":11332,"notion":11333,"плодов":11334,"обоб":11335,"##личный":11336,"##ентра":11337,"большим":11338,"полез":11339,"facial":11340,"sexuelle":11341,"195":11342,"глава":11343,"setting":11344,"мете":11345,"slightly":11346,"Remettre":11347,"##ancier":11348,"используемое":11349,"##ивный":11350,"littéraire":11351,"создавать":11352,"web":11353,"weapon":11354,"лежать":11355,"descrip":11356,"мыть":11357,"concerned":11358,"grands":11359,"fils":11360,"vivre":11361,"строит":11362,"##мыслов":11363,"скоп":11364,"различные":11365,"самого":11366,"##nels":11367,"illust":11368,"перемест":11369,"servait":11370,"Littérature":11371,"broken":11372,"siège":11373,"cycle":11374,"величина":11375,"величине":11376,"находится":11377,"следу":11378,"industrie":11379,"guère":11380,"сочетание":11381,"химическим":11382,"##sibilité":11383,"начале":11384,"measurement":11385,"troubles":11386,"établissement":11387,"##ющимся":11388,"plaisanterie":11389,"virt":11390,"радио":11391,"honor":11392,"hypoc":11393,"манера":11394,"nucle":11395,"drawing":11396,"desired":11397,"высказывания":11398,"légèrement":11399,"figuratively":11400,"Usually":11401,"минерал":11402,"audience":11403,"осуществляемый":11404,"surrounding":11405,"ingredi":11406,"strike":11407,"женщин":11408,"cadre":11409,"dishon":11410,"уроженка":11411,"постеп":11412,"заниматься":11413,"ethnic":11414,"##course":11415,"concentration":11416,"permanent":11417,"Assemblage":11418,"исследования":11419,"determined":11420,"раскры":11421,"ослаб":11422,"насмеш":11423,"transparent":11424,"rencontre":11425,"жёст":11426,"Spécialiste":11427,"gibier":11428,"назад":11429,"14":11430,"Couture":11431,"Journ":11432,"Sign":11433,"Saint":11434,"Vé":11435,"bomb":11436,"cub":11437,"fly":11438,"fresh":11439,"gent":11440,"hém":11441,"iv":11442,"oce":11443,"ronde":11444,"sati":11445,"tac":11446,"tone":11447,"vel":11448,"vidé":11449,"éb":11450,"Ни":11451,"Тур":11452,"дур":11453,"ква":11454,"лом":11455,"оста":11456,"сча":11457,"сбор":11458,"сети":11459,"упа":11460,"##рание":11461,"##сед":11462,"##очет":11463,"##lom":11464,"##блей":11465,"##back":11466,"##yes":11467,"##щённый":11468,"##шем":11469,"##ёк":11470,"##ёнок":11471,"##èbre":11472,"##ero":11473,"##стки":11474,"details":11475,"##oulement":11476,"unm":11477,"inu":11478,"построй":11479,"##листи":11480,"##ствием":11481,"##ica":11482,"antique":11483,"##rag":11484,"ouvert":11485,"личности":11486,"##igé":11487,"##igre":11488,"##olaire":11489,"##тора":11490,"##ource":11491,"##ющую":11492,"chiens":11493,"##еса":11494,"приго":11495,"привет":11496,"измени":11497,"search":11498,"##еде":11499,"##тива":11500,"каз":11501,"##érant":11502,"##ateurs":11503,"##ваются":11504,"##cient":11505,"##tral":11506,"##ексу":11507,"artist":11508,"préd":11509,"##ffes":11510,"##odox":11511,"compassion":11512,"components":11513,"##aps":11514,"perdre":11515,"spin":11516,"поддерж":11517,"доступ":11518,"часа":11519,"##cture":11520,"training":11521,"Chine":11522,"phase":11523,"##elled":11524,"##arian":11525,"женская":11526,"infec":11527,"##izarre":11528,"marin":11529,"coat":11530,"##ленной":11531,"##ленным":11532,"produite":11533,"мощ":11534,"blow":11535,"bless":11536,"étroit":11537,"госп":11538,"вещ":11539,"##ведом":11540,"произвести":11541,"живого":11542,"overw":11543,"soumis":11544,"secre":11545,"##ёрт":11546,"##шающий":11547,"faculté":11548,"becoming":11549,"частично":11550,"connection":11551,"connaiss":11552,"труд":11553,"critical":11554,"##форм":11555,"possédant":11556,"Appar":11557,"##ционное":11558,"léger":11559,"развле":11560,"remain":11561,"гип":11562,"истории":11563,"appears":11564,"импер":11565,"##естеств":11566,"suspend":11567,"покрывать":11568,"absolute":11569,"почт":11570,"lorsque":11571,"caractérisé":11572,"protect":11573,"holding":11574,"distingue":11575,"##worthy":11576,"trees":11577,"ветер":11578,"организация":11579,"информацию":11580,"чьих":11581,"увелич":11582,"немец":11583,"##regular":11584,"##arnir":11585,"наблю":11586,"ощущения":11587,"indicating":11588,"Covered":11589,"склонность":11590,"продуктов":11591,"##arrasser":11592,"further":11593,"naturellement":11594,"продолж":11595,"обработки":11596,"anciens":11597,"##umption":11598,"##icycle":11599,"камня":11600,"osse":11601,"végétal":11602,"ajout":11603,"философии":11604,"питания":11605,"étrang":11606,"ошиб":11607,"chambre":11608,"Кавказа":11609,"entraî":11610,"métaux":11611,"square":11612,"opérations":11613,"##ovis":11614,"зависимости":11615,"inhabitant":11616,"membrane":11617,"глупый":11618,"позвоночных":11619,"économique":11620,"alphabet":11621,"##depte":11622,"compagnie":11623,"Étendue":11624,"тёп":11625,"Cr":11626,"Fil":11627,"My":11628,"Money":11629,"Sous":11630,"Vin":11631,"ait":11632,"amp":11633,"croit":11634,"cach":11635,"donc":11636,"fou":11637,"fête":11638,"gall":11639,"hes":11640,"kept":11641,"oil":11642,"pil":11643,"pét":11644,"populaire":11645,"rise":11646,"raise":11647,"tension":11648,"Бел":11649,"бле":11650,"вся":11651,"леп":11652,"оча":11653,"рим":11654,"релье":11655,"сб":11656,"##рги":11657,"##ость":11658,"##iaire":11659,"##пре":11660,"##ss":11661,"##ny":11662,"##ners":11663,"##émin":11664,"##bilité":11665,"##фт":11666,"##œuf":11667,"##ёс":11668,"##ert":11669,"##enc":11670,"##inent":11671,"##ana":11672,"##anim":11673,"##енную":11674,"##alk":11675,"##orge":11676,"##lette":11677,"units":11678,"##uide":11679,"покой":11680,"пози":11681,"покуп":11682,"##ливания":11683,"##ремя":11684,"##rac":11685,"найти":11686,"раствор":11687,"##рик":11688,"##olf":11689,"##ulé":11690,"conç":11691,"conver":11692,"сост":11693,"##using":11694,"##rive":11695,"##ляции":11696,"##мина":11697,"##арх":11698,"plum":11699,"##chty":11700,"rever":11701,"aspects":11702,"защи":11703,"##ifié":11704,"withdra":11705,"вычис":11706,"##вающих":11707,"##вающие":11708,"artill":11709,"##opl":11710,"disagree":11711,"##езд":11712,"compli":11713,"таком":11714,"spont":11715,"spring":11716,"дореволю":11717,"##ждений":11718,"needed":11719,"##новения":11720,"club":11721,"##ставлять":11722,"одну":11723,"##альным":11724,"##iffure":11725,"infin":11726,"subd":11727,"exprim":11728,"expressed":11729,"few":11730,"brû":11731,"груди":11732,"outward":11733,"noble":11734,"пале":11735,"##шивать":11736,"среде":11737,"##tissement":11738,"Marque":11739,"prior":11740,"полости":11741,"muscle":11742,"животном":11743,"фиг":11744,"voile":11745,"Variété":11746,"лицу":11747,"charp":11748,"##iously":11749,"государств":11750,"distress":11751,"звука":11752,"горных":11753,"высшей":11754,"вздор":11755,"трудом":11756,"porc":11757,"centrale":11758,"Récipient":11759,"##rison":11760,"##ociation":11761,"##ваемого":11762,"земля":11763,"##apeur":11764,"legisl":11765,"model":11766,"соединения":11767,"fund":11768,"considération":11769,"плать":11770,"глуб":11771,"воспит":11772,"superfic":11773,"рассматри":11774,"русской":11775,"прямой":11776,"collective":11777,"earlier":11778,"constitution":11779,"celles":11780,"информ":11781,"служеб":11782,"Langage":11783,"физическое":11784,"distinction":11785,"хороший":11786,"élevée":11787,"письма":11788,"error":11789,"восстанов":11790,"чисто":11791,"comprenant":11792,"букв":11793,"предоставля":11794,"scientific":11795,"developed":11796,"предприятие":11797,"indefin":11798,"mâle":11799,"программ":11800,"artistic":11801,"sauce":11802,"ready":11803,"Surtout":11804,"obscure":11805,"crust":11806,"монар":11807,"средствами":11808,"campagne":11809,"primarily":11810,"высказывание":11811,"районе":11812,"introdu":11813,"порядке":11814,"platform":11815,"источник":11816,"встреча":11817,"ресур":11818,"exceptional":11819,"насекомо":11820,"entendre":11821,"непонят":11822,"target":11823,"Résultat":11824,"демон":11825,"номером":11826,"Diffic":11827,"##нюю":11828,"transporter":11829,"édifice":11830,"financial":11831,"montagne":11832,"syllab":11833,"виногра":11834,"stick":11835,"вдоль":11836,"вниз":11837,"сотруд":11838,"destruction":11839,"contrasted":11840,"##nabis":11841,"picture":11842,"Happening":11843,"vouloir":11844,"привержен":11845,"Orient":11846,"Bruit":11847,"Dou":11848,"Great":11849,"Hor":11850,"Mid":11851,"Mex":11852,"Num":11853,"Propri":11854,"Sim":11855,"Used":11856,"bell":11857,"creat":11858,"drog":11859,"fid":11860,"fins":11861,"might":11862,"père":11863,"pale":11864,"paie":11865,"river":11866,"sche":11867,"saint":11868,"tang":11869,"tall":11870,"willing":11871,"Équ":11872,"équ":11873,"бли":11874,"вар":11875,"дня":11876,"двер":11877,"жер":11878,"иное":11879,"натура":11880,"плу":11881,"роз":11882,"фон":11883,"##сный":11884,"##сор":11885,"##ул":11886,"##ума":11887,"##дж":11888,"##ори":11889,"##ma":11890,"##ино":11891,"##иваться":11892,"##чего":11893,"##oie":11894,"##uant":11895,"##ship":11896,"##tée":11897,"##lin":11898,"##щим":11899,"##шь":11900,"##цем":11901,"##ёд":11902,"##estern":11903,"##ara":11904,"##archie":11905,"##alier":11906,"uniform":11907,"##uration":11908,"подав":11909,"##roph":11910,"##рец":11911,"##raine":11912,"##stream":11913,"наклон":11914,"соци":11915,"lear":11916,"lever":11917,"chag":11918,"придавать":11919,"отве":11920,"отступ":11921,"##chir":11922,"rear":11923,"whom":11924,"##ogen":11925,"fair":11926,"##edom":11927,"##érance":11928,"выну":11929,"motiv":11930,"##ffer":11931,"##ffic":11932,"##имого":11933,"troupes":11934,"##изи":11935,"start":11936,"##аниях":11937,"##ловой":11938,"shot":11939,"одним":11940,"##chet":11941,"преод":11942,"phras":11943,"conserver":11944,"##ondre":11945,"infra":11946,"исправ":11947,"intestin":11948,"##ignons":11949,"##vities":11950,"##tinct":11951,"##ypt":11952,"gene":11953,"intercourse":11954,"неправи":11955,"мог":11956,"##ических":11957,"##ического":11958,"##veness":11959,"произносить":11960,"écar":11961,"immob":11962,"плоский":11963,"##шивания":11964,"среди":11965,"выраженное":11966,"préposition":11967,"players":11968,"##сып":11969,"slight":11970,"небольших":11971,"создания":11972,"basket":11973,"лежа":11974,"importante":11975,"garan":11976,"excess":11977,"structures":11978,"greatly":11979,"angry":11980,"##ternal":11981,"performing":11982,"handle":11983,"fonctionnement":11984,"fabrique":11985,"путем":11986,"pleasing":11987,"extérieure":11988,"texture":11989,"barb":11990,"длинным":11991,"mesurer":11992,"remote":11993,"lettre":11994,"крайняя":11995,"key":11996,"catal":11997,"продук":11998,"grosse":11999,"любви":12000,"следует":12001,"laws":12002,"##iliation":12003,"##place":12004,"тонкий":12005,"снаря":12006,"penser":12007,"palm":12008,"lumine":12009,"harmon":12010,"главным":12011,"смысл":12012,"работать":12013,"смерть":12014,"лошадь":12015,"clearly":12016,"солд":12017,"монасты":12018,"пыль":12019,"Cartes":12020,"погреб":12021,"dirige":12022,"invest":12023,"древнегреческой":12024,"съед":12025,"hostile":12026,"urb":12027,"savoir":12028,"intérêts":12029,"последу":12030,"constant":12031,"Российской":12032,"##кладывать":12033,"клетки":12034,"листьями":12035,"benefit":12036,"приобре":12037,"deceive":12038,"организмов":12039,"ignor":12040,"morceaux":12041,"Noblesse":12042,"пункт":12043,"##médiaire":12044,"Северной":12045,"possibly":12046,"невысо":12047,"бессмыс":12048,"comestible":12049,"устойчи":12050,"геометр":12051,"fermentation":12052,"souverain":12053,"расстройство":12054,"Situation":12055,"indulgence":12056,"комната":12057,"прозвище":12058,"Individu":12059,"мебели":12060,"##éronautique":12061,"birth":12062,"дореволюционной":12063,"30":12064,"50":12065,"Bâ":12066,"Bre":12067,"Dire":12068,"Done":12069,"Est":12070,"Ly":12071,"Pier":12072,"Pêche":12073,"Sel":12074,"Télé":12075,"aur":12076,"cos":12077,"cous":12078,"cup":12079,"dull":12080,"egg":12081,"fes":12082,"gard":12083,"games":12084,"nois":12085,"nuis":12086,"pend":12087,"ster":12088,"stem":12089,"tomb":12090,"vom":12091,"vow":12092,"vulg":12093,"Сан":12094,"бра":12095,"вел":12096,"вор":12097,"идей":12098,"клад":12099,"пяти":12100,"рей":12101,"сю":12102,"сму":12103,"фра":12104,"ём":12105,"##сем":12106,"##чим":12107,"##oon":12108,"##eur":12109,"##hold":12110,"##баты":12111,"##aul":12112,"##pin":12113,"##crit":12114,"##yle":12115,"##ёлок":12116,"##enue":12117,"##arb":12118,"orb":12119,"inat":12120,"поя":12121,"##лик":12122,"##лиц":12123,"##icated":12124,"##рест":12125,"##ecess":12126,"layer":12127,"##siologie":12128,"entrer":12129,"сорев":12130,"##usting":12131,"##ride":12132,"проте":12133,"##atives":12134,"##ложения":12135,"##quis":12136,"ache":12137,"забот":12138,"fault":12139,"кален":12140,"камень":12141,"##umn":12142,"##uming":12143,"archit":12144,"##aper":12145,"##нутой":12146,"##нутым":12147,"подвод":12148,"ча́":12149,"действию":12150,"réduit":12151,"##ensation":12152,"neige":12153,"осо":12154,"adher":12155,"##уды":12156,"usité":12157,"##uish":12158,"subs":12159,"agitation":12160,"explic":12161,"##ственной":12162,"неподви":12163,"indication":12164,"étudi":12165,"распа":12166,"effec":12167,"noms":12168,"humans":12169,"мужская":12170,"матер":12171,"confused":12172,"loin":12173,"supposed":12174,"рабочий":12175,"круга":12176,"facts":12177,"femelle":12178,"habitation":12179,"connaît":12180,"distant":12181,"библей":12182,"match":12183,"производимый":12184,"употр":12185,"maintenir":12186,"roof":12187,"мнение":12188,"##ропри":12189,"земель":12190,"##ционный":12191,"строго":12192,"remon":12193,"documents":12194,"croix":12195,"employer":12196,"сколь":12197,"женщины":12198,"traditionally":12199,"##métique":12200,"irregular":12201,"птицы":12202,"Alg":12203,"спортс":12204,"воздуш":12205,"внутреннее":12206,"silk":12207,"театр":12208,"орудие":12209,"Point":12210,"efforts":12211,"неприятное":12212,"перемещаться":12213,"начала":12214,"happening":12215,"слаб":12216,"exploitation":12217,"закономер":12218,"tendency":12219,"comprendre":12220,"student":12221,"stream":12222,"хозя":12223,"déterminé":12224,"programme":12225,"Showing":12226,"литературы":12227,"историческая":12228,"drive":12229,"circular":12230,"artistique":12231,"взаимодейств":12232,"размеров":12233,"couvre":12234,"сторонник":12235,"района":12236,"машины":12237,"regularly":12238,"cardinal":12239,"decorative":12240,"изучающая":12241,"артилл":12242,"événements":12243,"ребён":12244,"несогла":12245,"первоначально":12246,"оконч":12247,"replace":12248,"declare":12249,"нанес":12250,"покровитель":12251,"administrative":12252,"убий":12253,"энтом":12254,"phénomènes":12255,"maximum":12256,"investig":12257,"углубление":12258,"еврей":12259,"воспаление":12260,"небрежно":12261,"метеоро":12262,"phrases":12263,"Dem":12264,"II":12265,"Ichty":12266,"Jés":12267,"Mag":12268,"Specific":12269,"Ur":12270,"XII":12271,"border":12272,"béné":12273,"célé":12274,"die":12275,"dau":12276,"dyn":12277,"eyes":12278,"pipe":12279,"rav":12280,"sable":12281,"sect":12282,"still":12283,"tending":12284,"vain":12285,"vote":12286,"игре":12287,"италь":12288,"ущ":12289,"уто":12290,"цен":12291,"##пор":12292,"##чер":12293,"##euse":12294,"##lv":12295,"##log":12296,"##ыск":12297,"##бан":12298,"##dh":12299,"##dom":12300,"##ящийся":12301,"##bility":12302,"##cil":12303,"##жник":12304,"##10":12305,"##where":12306,"##ît":12307,"##timents":12308,"detail":12309,"##aler":12310,"orange":12311,"##lete":12312,"uncon":12313,"повер":12314,"##лизов":12315,"##atri":12316,"##icier":12317,"##stent":12318,"partage":12319,"paralle":12320,"desirable":12321,"conduire":12322,"нез":12323,"негат":12324,"exter":12325,"кот":12326,"therm":12327,"обу":12328,"проводить":12329,"##арный":12330,"remb":12331,"##орный":12332,"##rest":12333,"изъ":12334,"избы":12335,"estate":12336,"заго":12337,"fausse":12338,"Paris":12339,"##вии":12340,"pours":12341,"устро":12342,"Infl":12343,"судь":12344,"compreh":12345,"предп":12346,"предосуд":12347,"предполо":12348,"##луч":12349,"##гина":12350,"perç":12351,"##ольное":12352,"strate":12353,"obtenu":12354,"##ждеств":12355,"resid":12356,"resear":12357,"связанное":12358,"impar":12359,"##éduire":12360,"##алей":12361,"stable":12362,"испу":12363,"marbre":12364,"##уты":12365,"cool":12366,"syst":12367,"##rément":12368,"flight":12369,"meet":12370,"meas":12371,"report":12372,"упражн":12373,"##venu":12374,"couronne":12375,"oppose":12376,"##щины":12377,"всей":12378,"##uleux":12379,"scrup":12380,"##athy":12381,"пап":12382,"imit":12383,"confuse":12384,"confusion":12385,"Phot":12386,"espagn":12387,"ends":12388,"capital":12389,"труда":12390,"Orig":12391,"##aneous":12392,"décision":12393,"box":12394,"неодуш":12395,"nombreux":12396,"полового":12397,"couple":12398,"искусственный":12399,"portée":12400,"##чьих":12401,"fleuve":12402,"fixer":12403,"fonds":12404,"casual":12405,"позд":12406,"употребляемый":12407,"головы":12408,"received":12409,"воздухе":12410,"белого":12411,"поступки":12412,"любитель":12413,"губ":12414,"##ливости":12415,"признаков":12416,"careful":12417,"##щихся":12418,"огня":12419,"observer":12420,"свободы":12421,"короткий":12422,"balance":12423,"récol":12424,"сопротив":12425,"choice":12426,"sensible":12427,"sortes":12428,"directly":12429,"leader":12430,"##вращение":12431,"déplacer":12432,"аппарата":12433,"responsibility":12434,"размера":12435,"порт":12436,"применяемый":12437,"Disposition":12438,"офицер":12439,"exécution":12440,"объединение":12441,"chaud":12442,"herbes":12443,"тяжёлый":12444,"служащее":12445,"обнаруж":12446,"громкий":12447,"cryst":12448,"exercise":12449,"изучающий":12450,"tomber":12451,"deliberately":12452,"patient":12453,"Pharmacologie":12454,"dernier":12455,"Индии":12456,"##фикации":12457,"внезапно":12458,"твёрдый":12459,"Бога":12460,"Automobile":12461,"sécurité":12462,"criticism":12463,"древнеегипет":12464,"fatigue":12465,"widely":12466,"подразделение":12467,"province":12468,"удив":12469,"ordinateur":12470,"театра":12471,"звон":12472,"rectang":12473,"наимен":12474,"étudie":12475,"господ":12476,"overwhel":12477,"состяз":12478,"Équitation":12479,"календар":12480,"Ichtyologie":12481,"Adepte":12482,"Dém":12483,"Fonction":12484,"Pri":12485,"Pass":12486,"Poss":12487,"Tiss":12488,"bud":12489,"boire":12490,"brain":12491,"bœuf":12492,"cow":12493,"dû":12494,"elect":12495,"lot":12496,"nations":12497,"péd":12498,"rôle":12499,"sque":12500,"sight":12501,"voc":12502,"émotion":12503,"Тол":12504,"брак":12505,"вверх":12506,"европей":12507,"коло":12508,"мень":12509,"оре":12510,"огра":12511,"оформ":12512,"сл":12513,"сра":12514,"сказ":12515,"##ано":12516,"##уме":12517,"##тни":12518,"##вит":12519,"##вов":12520,"##ости":12521,"##men":12522,"##чков":12523,"##чными":12524,"##oti":12525,"##otion":12526,"##utive":12527,"##ained":12528,"##éter":12529,"##rees":12530,"##нодоро":12531,"##oms":12532,"##рово":12533,"##анности":12534,"##елей":12535,"##коб":12536,"##ceau":12537,"##рава":12538,"##ийского":12539,"назы":12540,"convient":12541,"нево":12542,"недоволь":12543,"##acent":12544,"##acés":12545,"##acious":12546,"обряд":12547,"облег":12548,"проек":12549,"проход":12550,"forêt":12551,"придать":12552,"придания":12553,"##chée":12554,"proven":12555,"заслу":12556,"beverage":12557,"##osis":12558,"##érir":12559,"выстрел":12560,"quad":12561,"##pecified":12562,"##umin":12563,"franc":12564,"disapp":12565,"##uté":12566,"##осексу":12567,"component":12568,"perc":12569,"appui":12570,"appare":12571,"подда":12572,"récipient":12573,"##ждению":12574,"##ательной":12575,"##ательность":12576,"реали":12577,"опора":12578,"силе":12579,"точно":12580,"инду":12581,"coin":12582,"relie":12583,"##raphie":12584,"flot":12585,"interpr":12586,"intermédiaire":12587,"##мыка":12588,"blind":12589,"мага":12590,"упоми":12591,"посвящ":12592,"посёлок":12593,"комму":12594,"##ведением":12595,"outcome":12596,"hear":12597,"puzz":12598,"canal":12599,"##графии":12600,"##tiste":12601,"poste":12602,"##лагать":12603,"полученный":12604,"оборо":12605,"seconde":12606,"montre":12607,"Marked":12608,"Contr":12609,"Concer":12610,"полное":12611,"женский":12612,"##менитель":12613,"склады":12614,"pointu":12615,"discrimin":12616,"processus":12617,"Ord":12618,"quanti":12619,"Nombre":12620,"употребления":12621,"количества":12622,"frais":12623,"деталей":12624,"##ционных":12625,"couper":12626,"одежде":12627,"ударом":12628,"мелкий":12629,"целей":12630,"beautiful":12631,"exercice":12632,"низко":12633,"крупных":12634,"earn":12635,"Physiologie":12636,"derrière":12637,"страдания":12638,"использовать":12639,"использованием":12640,"favour":12641,"peuples":12642,"утрат":12643,"Écrit":12644,"##стовер":12645,"изображения":12646,"Poétique":12647,"New":12648,"South":12649,"собственной":12650,"environnement":12651,"функциони":12652,"ходь":12653,"corresponding":12654,"севере":12655,"Empire":12656,"privil":12657,"финан":12658,"attaché":12659,"attachée":12660,"интересов":12661,"shel":12662,"hypoth":12663,"воздействия":12664,"initial":12665,"Commun":12666,"relevant":12667,"applying":12668,"arranged":12669,"стрел":12670,"железнодоро":12671,"звёз":12672,"birds":12673,"tribunal":12674,"alternative":12675,"целиком":12676,"наружу":12677,"risk":12678,"громко":12679,"охотн":12680,"менее":12681,"stupid":12682,"puissance":12683,"convey":12684,"Украины":12685,"Asian":12686,"détruire":12687,"вариант":12688,"исчез":12689,"памяти":12690,"remarqu":12691,"juridiction":12692,"Pays":12693,"restaurant":12694,"жанр":12695,"гомосексу":12696,"Mesure":12697,"##veillance":12698,"surfaces":12699,"undesirable":12700,"подтвер":12701,"abdomen":12702,"preceding":12703,"##ovisuel":12704,"withdraw":12705,"соревнов":12706,"итальян":12707,"Atte":12708,"Fant":12709,"Fores":12710,"Où":12711,"Rome":12712,"Scien":12713,"bit":12714,"bête":12715,"bicycle":12716,"cuire":12717,"doute":12718,"farm":12719,"gam":12720,"hall":12721,"histoire":12722,"hope":12723,"lust":12724,"nerv":12725,"ped":12726,"saisir":12727,"zero":12728,"Éch":12729,"Ита":12730,"гг":12731,"дроб":12732,"ещё":12733,"млад":12734,"нему":12735,"окис":12736,"печат":12737,"роль":12738,"рых":12739,"соль":12740,"уме":12741,"увер":12742,"уже":12743,"фо":12744,"##дная":12745,"##fect":12746,"##io":12747,"##rure":12748,"##oi":12749,"##uyer":12750,"##tation":12751,"##яющее":12752,"##gnes":12753,"##judi":12754,"##шеч":12755,"##шок":12756,"##жат":12757,"##esis":12758,"##tidi":12759,"org":12760,"##isées":12761,"##isely":12762,"##анд":12763,"покор":12764,"##гоц":12765,"##лиза":12766,"conduc":12767,"##asin":12768,"##othe":12769,"third":12770,"обстанов":12771,"пропу":12772,"plane":12773,"rein":12774,"##ogne":12775,"seat":12776,"заведение":12777,"##osa":12778,"##érale":12779,"выше":12780,"##pection":12781,"Anthrop":12782,"строй":12783,"##ends":12784,"prise":12785,"dissi":12786,"##осочет":12787,"##ске":12788,"try":12789,"##чиной":12790,"##чиваться":12791,"меропри":12792,"neither":12793,"##titue":12794,"corn":12795,"##ouvenir":12796,"##сора":12797,"subse":12798,"##ленность":12799,"vertic":12800,"terrible":12801,"objec":12802,"meille":12803,"##ственности":12804,"##ической":12805,"посе":12806,"соба":12807,"offre":12808,"расшир":12809,"heart":12810,"opportun":12811,"всю":12812,"transmission":12813,"ordres":12814,"Excessive":12815,"familier":12816,"immédi":12817,"rappelle":12818,"doivent":12819,"regr":12820,"instead":12821,"Audi":12822,"monument":12823,"представление":12824,"butt":12825,"объё":12826,"выращи":12827,"##зиру":12828,"путь":12829,"словосочет":12830,"dispositif":12831,"dépour":12832,"analogue":12833,"##циях":12834,"habits":12835,"community":12836,"boissons":12837,"##ancé":12838,"informal":12839,"видом":12840,"Ornement":12841,"##aneously":12842,"boule":12843,"желуд":12844,"железа":12845,"выполнять":12846,"lively":12847,"жидкое":12848,"##apeau":12849,"patri":12850,"должности":12851,"cruel":12852,"sév":12853,"туп":12854,"газов":12855,"бактер":12856,"grandeur":12857,"##miers":12858,"серд":12859,"attemp":12860,"графичес":12861,"moyenne":12862,"широкий":12863,"распространя":12864,"continuous":12865,"условий":12866,"association":12867,"клас":12868,"supports":12869,"catégorie":12870,"holds":12871,"freely":12872,"approach":12873,"постоянный":12874,"trem":12875,"##лённая":12876,"require":12877,"Gener":12878,"établir":12879,"территория":12880,"спорта":12881,"comprend":12882,"подверг":12883,"rendu":12884,"старинный":12885,"médicament":12886,"предприятия":12887,"leading":12888,"assign":12889,"assimil":12890,"currency":12891,"временное":12892,"архитек":12893,"множества":12894,"##untary":12895,"figures":12896,"hospital":12897,"Ouvrier":12898,"окружающей":12899,"India":12900,"drugs":12901,"robe":12902,"оценочная":12903,"молока":12904,"tuber":12905,"answer":12906,"современной":12907,"сведения":12908,"mechanism":12909,"нижней":12910,"##lexion":12911,"событие":12912,"histor":12913,"slowly":12914,"Древней":12915,"влечение":12916,"потеря":12917,"##avorable":12918,"industri":12919,"Africa":12920,"gauche":12921,"##ербур":12922,"améric":12923,"смесь":12924,"занятий":12925,"chacun":12926,"spécifique":12927,"Enfant":12928,"Étude":12929,"mountain":12930,"##шедший":12931,"пассажиров":12932,"тщательно":12933,"стержень":12934,"independent":12935,"nutri":12936,"Mélange":12937,"получивший":12938,"café":12939,"побережье":12940,"plupart":12941,"Петербур":12942,"connaissances":12943,"Белору":12944,"особой":12945,"Jésus":12946,"негатив":12947,"Foresterie":12948,"Aéronautique":12949,"Bras":12950,"Division":12951,"Jud":12952,"Med":12953,"Pres":12954,"Péri":12955,"Sm":12956,"Tw":12957,"cél":12958,"dens":12959,"fi":12960,"gast":12961,"jug":12962,"jamb":12963,"mate":12964,"poll":12965,"sell":12966,"tender":12967,"telles":12968,"turb":12969,"vapeur":12970,"warm":12971,"wonder":12972,"élever":12973,"ôter":12974,"Кры":12975,"иер":12976,"кана":12977,"клуб":12978,"нель":12979,"слы":12980,"той":12981,"уми":12982,"удо":12983,"чёт":12984,"шест":12985,"##раться":12986,"##ден":12987,"##вказ":12988,"##игры":12989,"##пат":12990,"##uin":12991,"##бри":12992,"##жут":12993,"##ètement":12994,"##ïde":12995,"##стях":12996,"##anée":12997,"##ново":12998,"deck":12999,"##oré":13000,"##orded":13001,"##isible":13002,"##omét":13003,"##ueillir":13004,"##атывать":13005,"##елю":13006,"##ato":13007,"##attre":13008,"##eli":13009,"lav":13010,"late":13011,"enr":13012,"##sten":13013,"##калы":13014,"cong":13015,"недав":13016,"Top":13017,"##usé":13018,"##otation":13019,"exist":13020,"external":13021,"chron":13022,"changes":13023,"кош":13024,"кости":13025,"обраб":13026,"##руб":13027,"прото":13028,"отклон":13029,"plaque":13030,"pluie":13031,"##terous":13032,"перев":13033,"comment":13034,"##mpe":13035,"изоб":13036,"избе":13037,"изыск":13038,"заму":13039,"выт":13040,"Parti":13041,"стара":13042,"artif":13043,"discon":13044,"##осип":13045,"##dule":13046,"##гивать":13047,"perte":13048,"##рыз":13049,"подроб":13050,"##чия":13051,"gran":13052,"##angé":13053,"##чающий":13054,"passed":13055,"оси":13056,"adul":13057,"речь":13058,"##illet":13059,"abrupt":13060,"##édent":13061,"##кование":13062,"saill":13063,"colon":13064,"cooking":13065,"flag":13066,"autor":13067,"partially":13068,"reputation":13069,"##ечением":13070,"bloc":13071,"##ический":13072,"recour":13073,"формой":13074,"graine":13075,"##iennent":13076,"utilité":13077,"ник":13078,"sco":13079,"couche":13080,"##ropre":13081,"Extra":13082,"паде":13083,"определение":13084,"определения":13085,"Unable":13086,"typical":13087,"procure":13088,"##tism":13089,"conflic":13090,"Mars":13091,"suppose":13092,"полного":13093,"faces":13094,"facilit":13095,"##obiologie":13096,"hasard":13097,"высоком":13098,"деся":13099,"##ологическое":13100,"ног":13101,"undergo":13102,"discom":13103,"стороне":13104,"материи":13105,"circle":13106,"valant":13107,"mathem":13108,"weather":13109,"##verser":13110,"durable":13111,"участву":13112,"retenir":13113,"board":13114,"##ётся":13115,"juste":13116,"##глая":13117,"composés":13118,"difficulté":13119,"##lessly":13120,"évolution":13121,"breaking":13122,"детей":13123,"contrast":13124,"проявлении":13125,"crist":13126,"depression":13127,"жест":13128,"renfer":13129,"газа":13130,"одежду":13131,"##azard":13132,"мелкими":13133,"узкая":13134,"employe":13135,"employed":13136,"тяго":13137,"тяже":13138,"biological":13139,"difference":13140,"##struire":13141,"##волю":13142,"inclined":13143,"materials":13144,"крупное":13145,"respons":13146,"constituée":13147,"désir":13148,"стиль":13149,"Espagne":13150,"обозначение":13151,"общей":13152,"Caractér":13153,"distinguer":13154,"соответствующее":13155,"поклон":13156,"согласов":13157,"requiring":13158,"measured":13159,"persu":13160,"perspective":13161,"accordance":13162,"judge":13163,"judgment":13164,"reproduction":13165,"eleg":13166,"буква":13167,"ventre":13168,"exclusive":13169,"круглый":13170,"worthy":13171,"joueurs":13172,"манер":13173,"aigu":13174,"учреждения":13175,"punishment":13176,"относиться":13177,"воспринима":13178,"escape":13179,"necessarily":13180,"réunion":13181,"suspension":13182,"négative":13183,"метод":13184,"domestic":13185,"extrémités":13186,"содержащая":13187,"вместо":13188,"broadcast":13189,"delà":13190,"ambig":13191,"Théologie":13192,"оттенком":13193,"saying":13194,"excellence":13195,"обстоятельства":13196,"souple":13197,"indépend":13198,"насиль":13199,"prolong":13200,"твёрдого":13201,"extraordinary":13202,"Asia":13203,"financi":13204,"exhaus":13205,"bodies":13206,"intensité":13207,"##rompre":13208,"tranchant":13209,"threatening":13210,"Électricité":13211,"grammatical":13212,"bassin":13213,"chrétienne":13214,"eaten":13215,"mistake":13216,"второй":13217,"expérience":13218,"economic":13219,"произведений":13220,"Западной":13221,"##élécommunications":13222,"chirurg":13223,"seigneur":13224,"спокой":13225,"Véhicule":13226,"фигур":13227,"Санкт":13228,"велосип":13229,"architect":13230,"энтомол":13231,"Specifically":13232,"parallel":13233,"Белоруссии":13234,"нельзя":13235,"Alle":13236,"Bou":13237,"Cas":13238,"Réc":13239,"apl":13240,"aversion":13241,"ba":13242,"bizarre":13243,"don":13244,"hour":13245,"lou":13246,"lif":13247,"mout":13248,"pose":13249,"rent":13250,"rose":13251,"rug":13252,"rope":13253,"rights":13254,"Егип":13255,"Поль":13256,"бом":13257,"вов":13258,"крит":13259,"лы":13260,"оцени":13261,"утом":13262,"ху":13263,"шку":13264,"шести":13265,"##онов":13266,"##rance":13267,"##mine":13268,"##magne":13269,"##ил":13270,"##чник":13271,"##чённый":13272,"##uves":13273,"##lit":13274,"##édi":13275,"##bish":13276,"##щеп":13277,"##kward":13278,"##жностью":13279,"##onse":13280,"##tiennent":13281,"##стного":13282,"##antin":13283,"unin":13284,"until":13285,"##роде":13286,"##uil":13287,"inapp":13288,"потом":13289,"поним":13290,"побе":13291,"##раж":13292,"##ray":13293,"##rated":13294,"##olie":13295,"##ulous":13296,"##ney":13297,"нечи":13298,"##getic":13299,"cha":13300,"chall":13301,"разум":13302,"обез":13303,"##рурги":13304,"прогр":13305,"##льную":13306,"отры":13307,"отрез":13308,"prose":13309,"##лог":13310,"##ложен":13311,"##стие":13312,"##ogène":13313,"##ticulture":13314,"воли":13315,"##сторо":13316,"выбор":13317,"##оте":13318,"mast":13319,"manage":13320,"##ival":13321,"discharge":13322,"Inse":13323,"##осом":13324,"судов":13325,"##odique":13326,"##duct":13327,"такому":13328,"applic":13329,"appeal":13330,"##нутое":13331,"soins":13332,"##iteur":13333,"particuliers":13334,"poésie":13335,"##так":13336,"своему":13337,"shock":13338,"##ultant":13339,"traite":13340,"traitement":13341,"##рованное":13342,"impose":13343,"impact":13344,"опы":13345,"alien":13346,"almost":13347,"##рять":13348,"вина":13349,"винов":13350,"commission":13351,"stated":13352,"точка":13353,"intent":13354,"coord":13355,"coast":13356,"verte":13357,"##сам":13358,"##réh":13359,"interruption":13360,"brand":13361,"accent":13362,"accès":13363,"рук":13364,"courtes":13365,"##iels":13366,"##ставать":13367,"ниж":13368,"affairs":13369,"пас":13370,"organized":13371,"мужчине":13372,"regret":13373,"резкий":13374,"insin":13375,"Austral":13376,"supporting":13377,"vibration":13378,"French":13379,"выражать":13380,"##ustes":13381,"##ящего":13382,"préparer":13383,"praise":13384,"memory":13385,"##бай":13386,"197":13387,"##совых":13388,"##ологических":13389,"##ophone":13390,"##стана":13391,"##rasse":13392,"направленный":13393,"качествами":13394,"excitement":13395,"frapper":13396,"violente":13397,"concrete":13398,"créd":13399,"renfor":13400,"баш":13401,"узор":13402,"mission":13403,"рядом":13404,"негод":13405,"supernatural":13406,"осуществлять":13407,"рассе":13408,"лишь":13409,"инструментов":13410,"##sifier":13411,"languages":13412,"Super":13413,"острым":13414,"власть":13415,"стоя":13416,"illness":13417,"limits":13418,"специальных":13419,"steal":13420,"swim":13421,"воздух":13422,"cells":13423,"типо":13424,"placée":13425,"races":13426,"продукта":13427,"велико":13428,"управлять":13429,"сыр":13430,"jump":13431,"Poésie":13432,"смот":13433,"снаряд":13434,"чьё":13435,"началь":13436,"referring":13437,"entoure":13438,"рукоят":13439,"soldier":13440,"bords":13441,"labour":13442,"крыль":13443,"garni":13444,"equivalent":13445,"inspire":13446,"inspiration":13447,"tantôt":13448,"pâle":13449,"pénible":13450,"présence":13451,"тяжёлое":13452,"audio":13453,"обозначается":13454,"Consisting":13455,"cultivée":13456,"odd":13457,"переплет":13458,"domestique":13459,"деревянный":13460,"мышц":13461,"республи":13462,"ничего":13463,"mammifères":13464,"##бирать":13465,"deceit":13466,"bourge":13467,"рисун":13468,"достоинством":13469,"Emploi":13470,"символом":13471,"essentiellement":13472,"регуляр":13473,"тыся":13474,"тюр":13475,"instructions":13476,"воротником":13477,"устанавливать":13478,"parfum":13479,"достаточно":13480,"Quelque":13481,"ceremony":13482,"cylindrique":13483,"finger":13484,"euph":13485,"unusual":13486,"туловища":13487,"grecque":13488,"Central":13489,"случае":13490,"гармо":13491,"dwelling":13492,"преисполненный":13493,"fibres":13494,"размно":13495,"сахар":13496,"партн":13497,"insignificant":13498,"goutte":13499,"telephone":13500,"dishonest":13501,"plumage":13502,"Италии":13503,"иерарх":13504,"Bet":13505,"D0":13506,"Dess":13507,"Ple":13508,"câ":13509,"din":13510,"fel":13511,"fight":13512,"fold":13513,"gorge":13514,"hô":13515,"hind":13516,"kne":13517,"lu":13518,"mild":13519,"nette":13520,"ride":13521,"sod":13522,"sick":13523,"vendre":13524,"Éto":13525,"Гру":13526,"Кита":13527,"Ри":13528,"аг":13529,"арен":13530,"гал":13531,"лед":13532,"пш":13533,"пех":13534,"плет":13535,"сня":13536,"фру":13537,"фраз":13538,"фанта":13539,"хром":13540,"шел":13541,"шну":13542,"##скими":13543,"##ующее":13544,"##остро":13545,"##mise":13546,"##чие":13547,"##light":13548,"##hand":13549,"##pro":13550,"##cup":13551,"##шно":13552,"##жар":13553,"##êtres":13554,"##zen":13555,"##èque":13556,"##onomie":13557,"##oncé":13558,"##era":13559,"##tivities":13560,"##uivre":13561,"inqui":13562,"##uries":13563,"##анг":13564,"##анском":13565,"пока":13566,"laiss":13567,"##насти":13568,"надел":13569,"накоп":13570,"ouest":13571,"##рица":13572,"##ulations":13573,"##acc":13574,"##astiques":13575,"##нике":13576,"##irt":13577,"обрат":13578,"приходить":13579,"приёма":13580,"proxim":13581,"asser":13582,"зарос":13583,"##érées":13584,"##вающего":13585,"sommet":13586,"##спек":13587,"Parler":13588,"détail":13589,"##ческому":13590,"##ительном":13591,"mand":13592,"##мец":13593,"##скую":13594,"предме":13595,"предус":13596,"tronc":13597,"##меня":13598,"##outes":13599,"spot":13600,"stro":13601,"подлый":13602,"чай":13603,"##ждением":13604,"##ждённый":13605,"servi":13606,"served":13607,"##phal":13608,"residence":13609,"adorn":13610,"clar":13611,"##альные":13612,"corrupt":13613,"жилище":13614,"sait":13615,"beings":13616,"agriculture":13617,"prepar":13618,"##ignant":13619,"marche":13620,"coque":13621,"coarse":13622,"наполн":13623,"##onnête":13624,"##réviation":13625,"flé":13626,"рукой":13627,"руками":13628,"indisc":13629,"мото":13630,"cheer":13631,"offensive":13632,"écu":13633,"scolaire":13634,"##former":13635,"Exer":13636,"было":13637,"лаг":13638,"cannabis":13639,"confus":13640,"Peup":13641,"оборот":13642,"monter":13643,"военных":13644,"Maroc":13645,"primi":13646,"morph":13647,"перевод":13648,"телом":13649,"древний":13650,"dépense":13651,"situated":13652,"души":13653,"частица":13654,"бух":13655,"##ismatique":13656,"##шийся":13657,"wealth":13658,"gives":13659,"retour":13660,"throughout":13661,"однок":13662,"excite":13663,"domin":13664,"мяч":13665,"séparer":13666,"искусстве":13667,"doctr":13668,"embell":13669,"fixé":13670,"целое":13671,"toucher":13672,"происходит":13673,"музыки":13674,"осуществить":13675,"русского":13676,"группе":13677,"крем":13678,"opposing":13679,"limited":13680,"practices":13681,"Beh":13682,"classes":13683,"curve":13684,"183":13685,"cycl":13686,"утра":13687,"##чатый":13688,"##ливость":13689,"think":13690,"политических":13691,"ownership":13692,"observ":13693,"ходе":13694,"œuvres":13695,"explosion":13696,"короткая":13697,"участников":13698,"частях":13699,"perfect":13700,"sciences":13701,"сравнению":13702,"honour":13703,"circulation":13704,"nett":13705,"напитков":13706,"improper":13707,"assemblage":13708,"micros":13709,"границы":13710,"Using":13711,"thereof":13712,"печа":13713,"пределах":13714,"awkward":13715,"порядка":13716,"artificielle":13717,"потомок":13718,"keeping":13719,"готовность":13720,"constructed":13721,"accepted":13722,"acceptable":13723,"встреч":13724,"roughly":13725,"##уголь":13726,"любовь":13727,"organisms":13728,"vessels":13729,"операция":13730,"Organe":13731,"этап":13732,"##optère":13733,"Former":13734,"owner":13735,"Кавказ":13736,"extraordinaire":13737,"determine":13738,"failure":13739,"partisan":13740,"располага":13741,"éprouve":13742,"matériaux":13743,"habile":13744,"##ерьёз":13745,"атомным":13746,"свидетельствуя":13747,"магнит":13748,"éventuellement":13749,"délicat":13750,"carniv":13751,"##ommoder":13752,"древнерим":13753,"Catholicisme":13754,"japonais":13755,"невозможно":13756,"ценностей":13757,"Suitable":13758,"блест":13759,"fundamental":13760,"vulgar":13761,"метеорол":13762,"предпола":13763,"research":13764,"Anthropologie":13765,"discomfort":13766,"Bien":13767,"Cos":13768,"Cré":13769,"Dét":13770,"Emb":13771,"Fau":13772,"God":13773,"Lim":13774,"Mamm":13775,"Making":13776,"Monnaie":13777,"Pap":13778,"Sor":13779,"Table":13780,"Vol":13781,"aid":13782,"cé":13783,"hop":13784,"hole":13785,"killing":13786,"là":13787,"nul":13788,"pont":13789,"rate":13790,"rain":13791,"roche":13792,"vigne":13793,"yellow":13794,"Анг":13795,"Ба":13796,"Та":13797,"астро":13798,"бест":13799,"вход":13800,"вал":13801,"ввести":13802,"гран":13803,"зё":13804,"злой":13805,"зелё":13806,"мёрт":13807,"нём":13808,"останов":13809,"тря":13810,"твер":13811,"хва":13812,"яд":13813,"##сное":13814,"##слов":13815,"##rat":13816,"##rill":13817,"##чт":13818,"##uper":13819,"##tt":13820,"##бный":13821,"##da":13822,"##ято":13823,"##can":13824,"##car":13825,"##cope":13826,"##щении":13827,"##шением":13828,"##жную":13829,"##œud":13830,"##zed":13831,"##èves":13832,"##erved":13833,"##tiveness":13834,"##стран":13835,"##стям":13836,"##енос":13837,"##енты":13838,"deci":13839,"##itary":13840,"##isive":13841,"##istrer":13842,"##ley":13843,"пода":13844,"побу":13845,"##елен":13846,"##лием":13847,"##ствов":13848,"theme":13849,"##рес":13850,"anne":13851,"enveloppe":13852,"наст":13853,"наличи":13854,"outil":13855,"лист":13856,"неров":13857,"##ними":13858,"##юще":13859,"коми":13860,"проведения":13861,"##auc":13862,"##ppe":13863,"forb":13864,"plug":13865,"plâtre":13866,"перего":13867,"перера":13868,"retirer":13869,"##ложить":13870,"##стил":13871,"acade":13872,"зави":13873,"вообра":13874,"вывод":13875,"moon":13876,"устрем":13877,"manœu":13878,"atten":13879,"предот":13880,"##лубо":13881,"свар":13882,"spéci":13883,"подлин":13884,"подзем":13885,"##ighting":13886,"nez":13887,"serp":13888,"serré":13889,"adult":13890,"##ставление":13891,"##равед":13892,"опор":13893,"##ector":13894,"abri":13895,"превы":13896,"преув":13897,"commencement":13898,"phosph":13899,"teaching":13900,"statis":13901,"parlé":13902,"##сок":13903,"marine":13904,"flav":13905,"See":13906,"непре":13907,"indirect":13908,"моги":13909,"годах":13910,"собрание":13911,"сад":13912,"вечно":13913,"groupes":13914,"Excell":13915,"палочка":13916,"imme":13917,"большими":13918,"определить":13919,"utiliser":13920,"assurer":13921,"insuff":13922,"souh":13923,"получать":13924,"семьи":13925,"веру":13926,"верши":13927,"numer":13928,"##rows":13929,"attacher":13930,"##зид":13931,"##ящие":13932,"##uette":13933,"printed":13934,"pratiques":13935,"полной":13936,"minim":13937,"creating":13938,"очер":13939,"##стане":13940,"цветками":13941,"создать":13942,"голу":13943,"производящий":13944,"наслед":13945,"рост":13946,"domain":13947,"évê":13948,"éviter":13949,"ваго":13950,"différente":13951,"половина":13952,"##iterran":13953,"строение":13954,"modèle":13955,"enfer":13956,"employée":13957,"целом":13958,"музыкан":13959,"осуществления":13960,"envoy":13961,"прямым":13962,"отдельное":13963,"irré":13964,"sentir":13965,"партии":13966,"##atically":13967,"корпу":13968,"extrait":13969,"класси":13970,"tropical":13971,"radical":13972,"termine":13973,"службы":13974,"penalty":13975,"Substan":13976,"музыкального":13977,"мысль":13978,"заключения":13979,"болезнь":13980,"équili":13981,"strongly":13982,"##nellement":13983,"украин":13984,"potenti":13985,"благодар":13986,"troisième":13987,"persistent":13988,"circuit":13989,"Capacité":13990,"закона":13991,"magic":13992,"snow":13993,"неуда":13994,"étoffes":13995,"participate":13996,"créer":13997,"сообщение":13998,"продукты":13999,"fitting":14000,"nuclé":14001,"péné":14002,"champs":14003,"England":14004,"adjust":14005,"successful":14006,"хирурги":14007,"atomique":14008,"alimentaire":14009,"literature":14010,"establishment":14011,"grasp":14012,"affecting":14013,"реке":14014,"thrown":14015,"pratiquée":14016,"оценка":14017,"любого":14018,"rhyth":14019,"bacter":14020,"##oïde":14021,"сущность":14022,"##ublic":14023,"раздражение":14024,"ребёнок":14025,"Древнем":14026,"оболочки":14027,"simplement":14028,"сокращение":14029,"##cribed":14030,"неожиданно":14031,"révolution":14032,"людям":14033,"Quelqu":14034,"идти":14035,"Frapper":14036,"sportive":14037,"Italie":14038,"приблиз":14039,"accurate":14040,"ничтожный":14041,"chocol":14042,"отдыха":14043,"powder":14044,"интел":14045,"rempli":14046,"дисциплина":14047,"Greek":14048,"request":14049,"##vereign":14050,"Extrêmement":14051,"vidéo":14052,"вещь":14053,"рельеф":14054,"насекомое":14055,"Pierre":14056,"обуви":14057,"remarquable":14058,"Période":14059,"Грузии":14060,"Риме":14061,"пшени":14062,"преувели":14063,"25":14064,"Bro":14065,"Conn":14066,"Fre":14067,"Foot":14068,"Hyd":14069,"Large":14070,"Ligne":14071,"Lib":14072,"Mor":14073,"Most":14074,"Rapp":14075,"Sa":14076,"Télécommunications":14077,"bun":14078,"buff":14079,"cogn":14080,"gang":14081,"hun":14082,"lancer":14083,"linge":14084,"morte":14085,"messe":14086,"mètres":14087,"san":14088,"sain":14089,"stil":14090,"tell":14091,"tonne":14092,"taches":14093,"vul":14094,"wet":14095,"wife":14096,"Хри":14097,"Южной":14098,"бить":14099,"буты":14100,"гон":14101,"дым":14102,"иным":14103,"иуда":14104,"рос":14105,"сказать":14106,"троп":14107,"уко":14108,"убить":14109,"улуч":14110,"фос":14111,"##дин":14112,"##iée":14113,"##ibles":14114,"##rh":14115,"##кнуть":14116,"##чкой":14117,"##чке":14118,"##яб":14119,"##ker":14120,"##шке":14121,"##O2":14122,"##êté":14123,"##zing":14124,"##H1":14125,"##esive":14126,"##ennes":14127,"##inet":14128,"##стри":14129,"##anish":14130,"##argon":14131,"dex":14132,"##itanie":14133,"##alf":14134,"##ued":14135,"##роя":14136,"##teaux":14137,"##urre":14138,"##ане":14139,"попад":14140,"##еле":14141,"##елем":14142,"##ceed":14143,"##rod":14144,"##elve":14145,"las":14146,"laid":14147,"ench":14148,"расту":14149,"##iges":14150,"##olly":14151,"##нивать":14152,"сог":14153,"exists":14154,"кори":14155,"these":14156,"##rived":14157,"##рует":14158,"##льными":14159,"прибо":14160,"пригла":14161,"##лах":14162,"отчёт":14163,"##terre":14164,"первый":14165,"##atio":14166,"reaction":14167,"probl":14168,"изв":14169,"воду":14170,"вырез":14171,"##спеш":14172,"Parfois":14173,"moitié":14174,"surprise":14175,"##essus":14176,"discer":14177,"disbel":14178,"##andom":14179,"peace":14180,"##авшее":14181,"perd":14182,"##рывать":14183,"##nerie":14184,"##десят":14185,"fromage":14186,"sovereign":14187,"месту":14188,"##ённо":14189,"Enveloppe":14190,"##ловых":14191,"##иска":14192,"##tités":14193,"claire":14194,"решения":14195,"режим":14196,"trading":14197,"Champ":14198,"одному":14199,"##жай":14200,"abat":14201,"прежн":14202,"##пами":14203,"column":14204,"##izes":14205,"verd":14206,"##сад":14207,"##onnais":14208,"objective":14209,"meubles":14210,"empêche":14211,"##мывать":14212,"руках":14213,"indig":14214,"étroite":14215,"recre":14216,"recorded":14217,"сами":14218,"propag":14219,"конта":14220,"Exam":14221,"upset":14222,"бытов":14223,"door":14224,"assure":14225,"confer":14226,"Aujourd":14227,"полуост":14228,"семян":14229,"divide":14230,"lost":14231,"looking":14232,"основанная":14233,"##филь":14234,"полоса":14235,"Phili":14236,"большие":14237,"больших":14238,"##ерации":14239,"disposé":14240,"высоким":14241,"analog":14242,"##ология":14243,"наречие":14244,"provision":14245,"boisson":14246,"предметы":14247,"processes":14248,"##ancing":14249,"creuse":14250,"refuse":14251,"горю":14252,"взять":14253,"##ocks":14254,"finish":14255,"качество":14256,"duration":14257,"насла":14258,"signific":14259,"décomp":14260,"bov":14261,"желания":14262,"Abréviation":14263,"##ваемых":14264,"##ваемые":14265,"##ouverte":14266,"термин":14267,"карти":14268,"совершенно":14269,"breast":14270,"помещения":14271,"greatest":14272,"заполн":14273,"расположения":14274,"différence":14275,"causer":14276,"Symb":14277,"performs":14278,"рыбо":14279,"combine":14280,"complet":14281,"hero":14282,"decay":14283,"raisonnement":14284,"вызывая":14285,"местность":14286,"traditionnel":14287,"русский":14288,"##opping":14289,"absur":14290,"Manif":14291,"специальной":14292,"respir":14293,"oblique":14294,"practical":14295,"commerci":14296,"стих":14297,"принадлежа":14298,"promise":14299,"весь":14300,"управление":14301,"помощь":14302,"следующий":14303,"timber":14304,"##oxy":14305,"thinking":14306,"carefully":14307,"приготовленный":14308,"перемещения":14309,"##aws":14310,"transportation":14311,"счита":14312,"unspecified":14313,"attract":14314,"magistr":14315,"perfection":14316,"snack":14317,"увеличение":14318,"drinking":14319,"сообществ":14320,"moderne":14321,"органы":14322,"contrat":14323,"soldat":14324,"расположенных":14325,"assig":14326,"##ridge":14327,"circulaire":14328,"умершего":14329,"inspiring":14330,"football":14331,"существование":14332,"ressources":14333,"редко":14334,"мягкая":14335,"predic":14336,"artificial":14337,"марки":14338,"relativement":14339,"pratiqué":14340,"источника":14341,"эксплу":14342,"лечения":14343,"turned":14344,"вмести":14345,"породы":14346,"сведений":14347,"fictional":14348,"центральной":14349,"структуры":14350,"unimp":14351,"additional":14352,"Viol":14353,"floor":14354,"riches":14355,"##клето":14356,"шерсти":14357,"##optères":14358,"deliberate":14359,"персонаж":14360,"fabriqué":14361,"обеспечивающий":14362,"Восточной":14363,"atmosphère":14364,"Procédé":14365,"électronique":14366,"температуры":14367,"Средней":14368,"ressemblant":14369,"участие":14370,"охваты":14371,"незначительный":14372,"African":14373,"независимо":14374,"exhibiting":14375,"людях":14376,"примес":14377,"cérémonies":14378,"устраи":14379,"nerveux":14380,"sculpture":14381,"Façon":14382,"овощ":14383,"consommation":14384,"immediate":14385,"abundance":14386,"романти":14387,"thoroughly":14388,"combustion":14389,"Ethnobiologie":14390,"Jewish":14391,"arrogant":14392,"отрасль":14393,"nouvelles":14394,"osseux":14395,"Propriété":14396,"drogue":14397,"chagrin":14398,
[...]
