{"version":"1.0","truncation":null,"padding":null,"added_tokens":[{"id":0,"special":true,"content":"<pad/>","single_word":false,"lstrip":false,"rstrip":false,"normalized":false},{"id":1,"special":true,"content":"</seq>","single_word":false,"lstrip":false,"rstrip":false,"normalized":false},{"id":2,"special":true,"content":"<seq>","single_word":false,"lstrip":false,"rstrip":false,"normalized":false},{"id":3,"special":true,"content":"<unk/>","single_word":false,"lstrip":false,"rstrip":false,"normalized":false},{"id":4,"special":true,"content":"<en>","single_word":false,"lstrip":false,"rstrip":false,"normalized":false},{"id":5,"special":true,"content":"<es>","single_word":false,"lstrip":false,"rstrip":false,"normalized":false},{"id":6,"special":true,"content":"<fr>","single_word":false,"lstrip":false,"rstrip":false,"normalized":false},{"id":7,"special":true,"content":"<it>","single_word":false,"lstrip":false,"rstrip":false,"normalized":false},{"id":8,"special":true,"content":"<ru>","single_word":false,"lstrip":false,"rstrip":false,"normalized":false}],"normalizer":null,"pre_tokenizer":{"type":"Whitespace"},"post_processor":null,"decoder":null,"model":{"type":"WordPiece","unk_token":"<unk/>","continuing_subword_prefix":"##","max_input_chars_per_word":100,"vocab":{"<pad/>":0,"</seq>":1,"<seq>":2,"<unk/>":3,"<en>":4,"<es>":5,"<fr>":6,"<it>":7,"<ru>":8,"!":9,"#":10,"%":11,"&":12,"'":13,"(":14,")":15,"*":16,"+":17,",":18,"-":19,".":20,"/":21,"0":22,"1":23,"2":24,"3":25,"4":26,"5":27,"6":28,"7":29,"8":30,"9":31,":":32,";":33,"<":34,"=":35,">":36,"?":37,"@":38,"A":39,"B":40,"C":41,"D":42,"E":43,"F":44,"G":45,"H":46,"I":47,"J":48,"K":49,"L":50,"M":51,"N":52,"O":53,"P":54,"Q":55,"R":56,"S":57,"T":58,"U":59,"V":60,"W":61,"X":62,"Y":63,"Z":64,"[":65,"\\":66,"]":67,"^":68,"_":69,"`":70,"a":71,"b":72,"c":73,"d":74,"e":75,"f":76,"g":77,"h":78,"i":79,"j":80,"k":81,"l":82,"m":83,"n":84,"o":85,"p":86,"q":87,"r":88,"s":89,"t":90,"u":91,"v":92,"w":93,"x":94,"y":95,"z":96,"{":97,"|":98,"}":99,"~":100,"§":101,"¯":102,"°":103,"µ":104,"·":105,"º":106,"Å":107,"È":108,"É":109,"×":110,"Ü":111,"à":112,"á":113,"â":114,"ç":115,"è":116,"é":117,"ê":118,"ë":119,"ì":120,"í":121,"î":122,"ï":123,"ò":124,"ó":125,"õ":126,"ö":127,"ù":128,"ú":129,"û":130,"ü":131,"ā":132,"ī":133,"ō":134,"ʿ":135,"͵":136,"Α":137,"Ε":138,"Θ":139,"Κ":140,"Ξ":141,"Ο":142,"Π":143,"Ρ":144,"Σ":145,"Υ":146,"Φ":147,"Χ":148,"Ψ":149,"Ω":150,"ή":151,"α":152,"β":153,"ε":154,"θ":155,"ι":156,"κ":157,"λ":158,"μ":159,"ξ":160,"ο":161,"π":162,"ρ":163,"ς":164,"σ":165,"τ":166,"υ":167,"φ":168,"ψ":169,"ω":170,"‐":171,"‑":172,"—":173,"‘":174,"•":175,"⁃":176,"€":177,"→":178,"∇":179,"−":180,"##a":181,"##r":182,"##n":183,"##s":184,"##l":185,"##i":186,"##t":187,"##o":188,"##m":189,"##e":190,"##c":191,"##g":192,"##v":193,"##p":194,"##d":195,"##z":196,"##h":197,"##b":198,"##é":199,"##f":200,"##u":201,"##1":202,"##2":203,"##ì":204,"##à":205,"##q":206,"##y":207,"##x":208,"##k":209,"##í":210,"##6":211,"##9":212,"##8":213,"##3":214,"##ò":215,"##H":216,"##5":217,"##w":218,"##4":219,"##7":220,"##I":221,"##0":222,"##ù":223,"##V":224,"##õ":225,"##î":226,"##T":227,"##N":228,"##A":229,"##P":230,"##\\":231,"##R":232,"##D":233,"##E":234,"##ú":235,"##G":236,"##Y":237,"##á":238,"##X":239,"##ó":240,"##O":241,"##è":242,"##j":243,"##M":244,"##S":245,"##_":246,"##ü":247,"##â":248,"##C":249,"##ō":250,"##F":251,"##μ":252,"##/":253,"##ï":254,"##L":255,"##'":256,"##û":257,"##ā":258,"##ë":259,"##ī":260,"##ç":261,"##W":262,"##ρ":263,"##ι":264,"##σ":265,"##κ":266,"##ε":267,"##λ":268,"##ή":269,"##ς":270,"##-":271,"##U":272,"##B":273,"##º":274,"##.":275,"##Z":276,"##`":277,"##K":278,"##•":279,"##ö":280,"##ê":281,"##on":282,"##er":283,"##en":284,"##to":285,"##ic":286,"di":287,"##ia":288,"##re":289,"##ra":290,"##ta":291,"##ol":292,"##te":293,"##ti":294,"##el":295,"in":296,"##ica":297,"##le":298,"##ion":299,"un":300,"ch":301,"##in":302,"##ri":303,"##ione":304,"##ro":305,"##al":306,"##ss":307,"che":308,"per":309,"##an":310,"##or":311,"##om":312,"##og":313,"del":314,"##os":315,"con":316,"##is":317,"##ar":318,"##la":319,"##men":320,"al":321,"##et":322,"##li":323,"##zione":324,"##ogia":325,"##ma":326,"##io":327,"##za":328,"##ologia":329,"##ura":330,"##do":331,"##ig":332,"##eg":333,"##ere":334,"##st":335,"##tt":336,"##cc":337,"la":338,"##ens":339,"##im":340,"qu":341,"##un":342,"com":343,"##tto":344,"una":345,"me":346,"pro":347,"##ina":348,"##di":349,"##ci":350,"da":351,"##ico":352,"an":353,"##pp":354,"##are":355,"##es":356,"##it":357,"##tiv":358,"su":359,"##ch":360,"il":361,"##ec":362,"ca":363,"##mento":364,"ma":365,"##ui":366,"##mente":367,"sp":368,"##si":369,"##bi":370,"##ale":371,"##ente":372,"##ato":373,"##ter":374,"nel":375,"##mp":376,"si":377,"##no":378,"##ess":379,"est":380,"par":381,"##lo":382,"##da":383,"mo":384,"ar":385,"della":386,"##tica":387,"ra":388,"qual":389,"##ce":390,"de":391,"fa":392,"##gg":393,"med":394,"##tan":395,"comp":396,"##enza":397,"##us":398,"##ensione":399,"pre":400,"fig":401,"##onom":402,"tra":403,"##eri":404,"##de":405,"sens":406,"##zza":407,"estensione":408,"for":409,"##ff":410,"##vi":411,"figura":412,"##olo":413,"##zion":414,"##imica":415,"##ria":416,"##mi":417,"senso":418,"##sp":419,"##ru":420,"so":421,"pi":422,"##tivo":423,"sc":424,"##onomia":425,"medic":426,"##ità":427,"##mo":428,"ri":429,"dal":430,"##du":431,"medicina":432,"##tà":433,"figurato":434,"##ine":435,"qualc":436,"fis":437,"##osa":438,"or":439,"##lia":440,"##etto":441,"##va":442,"##tra":443,"non":444,"chi":445,"##iologia":446,"dell":447,"po":448,"ele":449,"ad":450,"##ici":451,"chimica":452,"##era":453,"##egn":454,"le":455,"##enti":456,"##ian":457,"##me":458,"##so":459,"##ecn":460,"tecn":461,"app":462,"##ritto":463,"pa":464,"dei":465,"pers":466,"##tare":467,"ing":468,"##rio":469,"##vo":470,"##ich":471,"##ona":472,"##po":473,"##tu":474,"##sc":475,"##sa":476,"##zioni":477,"##ola":478,"##ali":479,"diritto":480,"##eria":481,"##ver":482,"ec":483,"##ve":484,"vi":485,"gra":486,"modo":487,"##fia":488,"##ua":489,"tecnologia":490,"cor":491,"##oso":492,"##one":493,"biologia":494,"##ono":495,"delle":496,"##ue":497,"##tro":498,"più":499,"##tura":500,"rel":501,"##na":502,"##uto":503,"##ni":504,"##vol":505,"col":506,"ci":507,"##ssi":508,"##bb":509,"alla":510,"##tti":511,"prop":512,"forma":513,"##fica":514,"ingegn":515,"##sso":516,"##co":517,"fi":518,"ingegneria":519,"##pa":520,"man":521,"cui":522,"fisica":523,"##ing":524,"##zz":525,"pol":526,"##matica":527,"##che":528,"##osi":529,"economia":530,"##dica":531,"##ca":532,"sta":533,"##ene":534,"##chi":535,"##gan":536,"##end":537,"parte":538,"imp":539,"se":540,"qualcosa":541,"##ero":542,"pu":543,"all":544,"##iche":545,"##ttura":546,"ess":547,"sto":548,"##bile":549,"##se":550,"cos":551,"##ron":552,"elett":553,"##ten":554,"re":555,"ge":556,"##gia":557,"##oli":558,"##pi":559,"##for":560,"do":561,"##enta":562,"##ini":563,"##uar":564,"persona":565,"rig":566,"##tta":567,"##uo":568,"organ":569,"##cia":570,"lo":571,"ter":572,"gen":573,"##per":574,"##zia":575,"##lu":576,"##ral":577,"##ssa":578,"av":579,"far":580,"ris":581,"##ratt":582,"##menti":583,"riguar":584,"acc":585,"storia":586,"polit":587,"##mb":588,"ba":589,"##uno":590,"te":591,"##esso":592,"##ul":593,"##cch":594,"aral":595,"##mm":596,"##ino":597,"st":598,"inter":599,"##imo":600,"anche":601,"ling":602,"na":603,"essere":604,"li":605,"##ole":606,"zo":607,"come":608,"ver":609,"##tico":610,"riguarda":611,"##eno":612,"att":613,"alt":614,"mol":615,"##egli":616,"ha":617,"##ne":618,"let":619,"co":620,"##olare":621,"##ano":622,"sos":623,"zoologia":624,"ne":625,"##um":626,"politica":627,"car":628,"es":629,"fil":630,"pri":631,"##tera":632,"mate":633,"leg":634,"##bili":635,"##ven":636,"##etti":637,"en":638,"##rafia":639,"ti":640,"##ccan":641,"##tiva":642,"qualcuno":643,"nella":644,"caratt":645,"matematica":646,"due":647,"uno":648,"cons":649,"meccan":650,"ac":651,"archi":652,"##ung":653,"##tere":654,"relig":655,"archite":656,"''":657,"at":658,"bo":659,"lu":660,"##tic":661,"##orta":662,"pres":663,"gi":664,"ga":665,"##anza":666,"vol":667,"filoso":668,"esp":669,"rela":670,"mi":671,"indi":672,"araldica":673,"ed":674,"##sie":675,"##lica":676,"##imi":677,"lettera":678,"##cio":679,"ogg":680,"dis":681,"ps":682,"prof":683,"##osto":684,"##ggio":685,"architettura":686,"insie":687,"##iglia":688,"senza":689,"ag":690,"insieme":691,"ta":692,"##str":693,"stru":694,"degli":695,"mus":696,"##tili":697,"sul":698,"##tal":699,"tu":700,"##uis":701,"ste":702,"va":703,"##zi":704,"##ello":705,"quan":706,"##mer":707,"ric":708,"##ografia":709,"comun":710,"##ze":711,"##ure":712,"##mpo":713,"può":714,"reg":715,"##mina":716,"filosofia":717,"##ismo":718,"sec":719,"meccanica":720,"##ga":721,"##esti":722,"##dere":723,"dalla":724,"##iste":725,"ass":726,"##ppo":727,"inc":728,"raro":729,"rif":730,"##res":731,"##dia":732,"##tato":733,"##tanza":734,"spor":735,"acq":736,"``":737,"##ist":738,"##met":739,"##liare":740,"ger":741,"opp":742,"super":743,"##ran":744,"##stronomia":745,"religione":746,"gli":747,"farma":748,"rapp":749,"alc":750,"##ante":751,"utili":752,"nell":753,"det":754,"##zzo":755,"geografia":756,"indivi":757,"##icc":758,"##rig":759,"##uta":760,"partic":761,"##oni":762,"##zio":763,"##ondo":764,"aff":765,"##endere":766,"us":767,"##ioni":768,"sci":769,"colo":770,"##iante":771,"##almente":772,"botan":773,"mater":774,"altri":775,"botanica":776,"abb":777,"disp":778,"##mia":779,"##qui":780,"spe":781,"ecc":782,"stato":783,"op":784,"elettron":785,"cri":786,"##età":787,"produ":788,"##alo":789,"no":790,"pun":791,"##ggi":792,"atto":793,"propri":794,"pr":795,"picc":796,"##gi":797,"soci":798,"##cologia":799,"altro":800,"ro":801,"inf":802,"##tore":803,"##iale":804,"ins":805,"dall":806,"gran":807,"num":808,"##aria":809,"mani":810,"gerg":811,"stu":812,"##ssione":813,"##tin":814,"musica":815,"##rre":816,"##tazione":817,"farmacologia":818,"##vis":819,"##mma":820,"infor":821,"##ala":822,"##tr":823,"diff":824,"sua":825,"##zzato":826,"fin":827,"fun":828,"##essi":829,"##pe":830,"commer":831,"##tamente":832,"fami":833,"mar":834,"anato":835,"metal":836,"##ogo":837,"speci":838,"gergale":839,"##ice":840,"res":841,"##ento":842,"##tante":843,"relativo":844,"##rica":845,"familiare":846,"soli":847,"##isce":848,"##essione":849,"bio":850,"##razione":851,"##ba":852,"##rib":853,"lavo":854,"corpo":855,"##sse":856,"alcun":857,"eff":858,"sa":859,"##bo":860,"anatomia":861,"tempo":862,"conf":863,"am":864,"gru":865,"conc":866,"molto":867,"##lio":868,"linguis":869,"##rsi":870,"sol":871,"arte":872,"##iore":873,"##ella":874,"psic":875,"ai":876,"fisiologia":877,"qua":878,"gio":879,"cla":880,"simi":881,"##dine":882,"commercio":883,"cel":884,"nei":885,"cal":886,"oggetto":887,"sport":888,"alle":889,"persone":890,"##tol":891,"##tte":892,"##osizione":893,"genere":894,"cer":895,"mis":896,"spre":897,"##tività":898,"bioch":899,"compi":900,"seg":901,"ciò":902,"fe":903,"linguistica":904,"individu":905,"##ur":906,"biochimica":907,"mili":908,"##eni":909,"spesso":910,"##sti":911,"##rare":912,"##giativo":913,"sociologia":914,"##id":915,"tras":916,"##rato":917,"##fa":918,"##ena":919,"##cip":920,"##endo":921,"##vole":922,"luogo":923,"##lmente":924,"psicologia":925,"diver":926,"quale":927,"##esta":928,"##ond":929,"lingua":930,"sotto":931,"siste":932,"##fici":933,"letterario":934,"##uito":935,"##osta":936,"##sia":937,"acqua":938,"sono":939,"##ome":940,"fare":941,"ser":942,"##essu":943,"##dio":944,"condi":945,"##stica":946,"##ando":947,"##esimo":948,"comple":949,"sop":950,"rappres":951,"##min":952,"deter":953,"spregiativo":954,"auto":955,"appar":956,"organica":957,"##vere":958,"gener":959,"indica":960,"edi":961,"met":962,"caratter":963,"gastronomia":964,"riferi":965,"sin":966,"##tologia":967,"can":968,"##osc":969,"##ccia":970,"usato":971,"contra":972,"##cità":973,"opera":974,"cir":975,"professione":976,"elettronica":977,"risp":978,"pian":979,"parti":980,"gruppo":981,"##ogli":982,"##tale":983,"nelle":984,"##orto":985,"attività":986,"militare":987,"lung":988,"ve":989,"usa":990,"prodo":991,"##etta":992,"pia":993,"tro":994,"##man":995,"azione":996,"orig":997,"##ie":998,"abi":999,"##onda":1000,"scu":1001,"colore":1002,"cre":1003,"##ista":1004,"##val":1005,"pl":1006,"individuo":1007,"##cca":1008,"ato":1009,"##bilità":1010,"##ge":1011,"tal":1012,"fam":1013,"##elli":1014,"##volta":1015,"ott":1016,"applica":1017,"##ende":1018,"##arsi":1019,"oppure":1020,"stra":1021,"comporta":1022,"informatica":1023,"determina":1024,"##sta":1025,"##lare":1026,"finanza":1027,"##olog":1028,"grado":1029,"grande":1030,"pes":1031,"chim":1032,"##ficazione":1033,"conten":1034,"to":1035,"pe":1036,"costi":1037,"dove":1038,"secondo":1039,"numero":1040,"fra":1041,"##urale":1042,"term":1043,"sistema":1044,"scienti":1045,"rappresenta":1046,"antico":1047,"particolare":1048,"loro":1049,"proprio":1050,"verso":1051,"bu":1052,"##uzione":1053,"##alità":1054,"##tivi":1055,"circ":1056,"pop":1057,"crist":1058,"##gn":1059,"plurale":1060,"##tre":1061,"##gni":1062,"##rie":1063,"fine":1064,"sia":1065,"##male":1066,"capa":1067,"famiglia":1068,"detto":1069,"nor":1070,"##fic":1071,"##omo":1072,"arti":1073,"sostanza":1074,"struttura":1075,"asp":1076,"rip":1077,"cristian":1078,"au":1079,"id":1080,"##gra":1081,"proc":1082,"##elle":1083,"disc":1084,"inte":1085,"##alogia":1086,"possi":1087,"attrib":1088,"lib":1089,"##vare":1090,"altra":1091,"spa":1092,"##qu":1093,"mala":1094,"valo":1095,"propria":1096,"cen":1097,"##azione":1098,"##usa":1099,"talvolta":1100,"ambi":1101,"composto":1102,"elettro":1103,"##dico":1104,"sco":1105,"min":1106,"dello":1107,"liqui":1108,"prin":1109,"classi":1110,"##zzata":1111,"vita":1112,"cellu":1113,"atti":1114,"sit":1115,"##icol":1116,"stesso":1117,"##isi":1118,"##ensi":1119,"uso":1120,"##anti":1121,"##he":1122,"##mato":1123,"anim":1124,"misura":1125,"natura":1126,"ucc":1127,"##orre":1128,"formato":1129,"##que":1130,"suo":1131,"elemento":1132,"tip":1133,"fo":1134,"perio":1135,"##omet":1136,"##ggia":1137,"otten":1138,"stati":1139,"pubb":1140,"##tec":1141,"##elo":1142,"prote":1143,"er":1144,"scientifica":1145,"##ele":1146,"sessu":1147,"##der":1148,"##dina":1149,"fatto":1150,"occ":1151,"punto":1152,"dec":1153,"animali":1154,"spec":1155,"##lla":1156,"comune":1157,"##erci":1158,"fer":1159,"dire":1160,"##esto":1161,"##zionale":1162,"sim":1163,"##vato":1164,"##enze":1165,"##tità":1166,"##tive":1167,"movi":1168,"prima":1169,"dura":1170,"ani":1171,"##mpio":1172,"cristianesimo":1173,"##ese":1174,"viene":1175,"caratteri":1176,"tass":1177,"##tecn":1178,"nome":1179,"ogni":1180,"##dare":1181,"fuo":1182,"bene":1183,"##lico":1184,"##dis":1185,"##trop":1186,"classificazione":1187,"##utto":1188,"##ionale":1189,"femm":1190,"##go":1191,"##iali":1192,"##istra":1193,"##uire":1194,"sca":1195,"proprietà":1196,"sch":1197,"permet":1198,"##nte":1199,"ordine":1200,"geomet":1201,"capacità":1202,"base":1203,"##gli":1204,"##uro":1205,"tassonomia":1206,"##gare":1207,"rendere":1208,"cosa":1209,"san":1210,"##ire":1211,"pass":1212,"geologia":1213,"apparten":1214,"##uc":1215,"solo":1216,"indu":1217,"condizione":1218,"termine":1219,"ven":1220,"##rità":1221,"maniera":1222,"marina":1223,"des":1224,"##cchi":1225,"##erente":1226,"quin":1227,"##mico":1228,"ini":1229,"utilizzato":1230,"socia":1231,"sal":1232,"##zo":1233,"##cco":1234,"cia":1235,"##unto":1236,"attra":1237,"situa":1238,"##rale":1239,"chimico":1240,"##gio":1241,"##hi":1242,"elettr":1243,"materiale":1244,"rispetto":1245,"prodotto":1246,"ese":1247,"##tici":1248,"elementi":1249,"cose":1250,"amm":1251,"antrop":1252,"poco":1253,"letteratura":1254,"bi":1255,"##forma":1256,"##tiene":1257,"alcuni":1258,"fac":1259,"trasp":1260,"##tecnica":1261,"##rito":1262,"sulla":1263,"sf":1264,"sig":1265,"meno":1266,"ob":1267,"fre":1268,"##sioni":1269,"##dente":1270,"##zzi":1271,"animale":1272,"##sto":1273,"##gna":1274,"##iare":1275,"##zzare":1276,"vo":1277,"var":1278,"oggetti":1279,"##anno":1280,"antica":1281,"succ":1282,"ciasc":1283,"dimin":1284,"dai":1285,"##rattutto":1286,"pianta":1287,"princip":1288,"##van":1289,"ali":1290,"semp":1291,"simile":1292,"soprattutto":1293,"periodo":1294,"deri":1295,"##mon":1296,"colle":1297,"superfici":1298,"##sole":1299,"##talia":1300,"##rgia":1301,"##uti":1302,"##vero":1303,"##ata":1304,"##care":1305,"tipo":1306,"geometria":1307,"antropologia":1308,"mamm":1309,"costit":1310,"##gno":1311,"##tali":1312,"##stra":1313,"avere":1314,"giu":1315,"fru":1316,"##tezza":1317,"quantità":1318,"por":1319,"abbiglia":1320,"quindi":1321,"parla":1322,"femmini":1323,"##cato":1324,"uni":1325,"organi":1326,"abbigliamento":1327,"##enom":1328,"int":1329,"##esa":1330,"araldico":1331,"attributo":1332,"##fico":1333,"dimen":1334,"##rire":1335,"esempio":1336,"som":1337,"uomo":1338,"##una":1339,"##cita":1340,"ester":1341,"estre":1342,"aer":1343,"esa":1344,"##mos":1345,"##gono":1346,"camb":1347,"nuo":1348,"produrre":1349,"valore":1350,"sti":1351,"##ela":1352,"reali":1353,"specie":1354,"elettrotecnica":1355,"ov":1356,"lavoro":1357,"##gu":1358,"##utica":1359,"##ana":1360,"##and":1361,"quando":1362,"statistica":1363,"ten":1364,"obsole":1365,"chia":1366,"##usto":1367,"attraver":1368,"ru":1369,"sé":1370,"##glia":1371,"allo":1372,"##mmi":1373,"##orso":1374,"orni":1375,"##cchio":1376,"cul":1377,"pra":1378,"occu":1379,"consi":1380,"##ziale":1381,"altre":1382,"##ute":1383,"contro":1384,"##ettu":1385,"##esi":1386,"mammalogia":1387,"variante":1388,"neg":1389,"##tri":1390,"ornitologia":1391,"##iori":1392,"##ositivo":1393,"astronomia":1394,"corri":1395,"studia":1396,"obsoleto":1397,"##pre":1398,"##essa":1399,"movimento":1400,"femminile":1401,"viv":1402,"espre":1403,"def":1404,"go":1405,"nec":1406,"atte":1407,"vari":1408,"quanto":1409,"caratteris":1410,"imma":1411,"##stico":1412,"##ichia":1413,"strumento":1414,"##istiche":1415,"generalmente":1416,"porta":1417,"##tanze":1418,"scuola":1419,"superficie":1420,"don":1421,"##amento":1422,"ide":1423,"interno":1424,"off":1425,"eserci":1426,"risul":1427,"simili":1428,"rom":1429,"##cu":1430,"##colo":1431,"##scia":1432,"solitamente":1433,"servi":1434,"posto":1435,"senti":1436,"scri":1437,"simb":1438,"ul":1439,"##llo":1440,"forza":1441,"##nifica":1442,"corrisp":1443,"fu":1444,"##vilu":1445,"varia":1446,"##sione":1447,"unità":1448,"##gue":1449,"##lizia":1450,"##olari":1451,"tre":1452,"##lic":1453,"##oria":1454,"##cido":1455,"prece":1456,"##zzazione":1457,"dalle":1458,"oss":1459,"##oma":1460,"contin":1461,"spi":1462,"conseg":1463,"riferito":1464,"et":1465,"##tor":1466,"##dita":1467,"mezzo":1468,"raggi":1469,"##uso":1470,"stessa":1471,"complesso":1472,"comportamento":1473,"significa":1474,"manif":1475,"scher":1476,"svilu":1477,"econom":1478,"agr":1479,"appartenente":1480,"segn":1481,"##gere":1482,"dif":1483,"##egno":1484,"presenta":1485,"piccolo":1486,"be":1487,"line":1488,"tess":1489,"legno":1490,"caratteristiche":1491,"ab":1492,"quello":1493,"gior":1494,"dimensioni":1495,"mon":1496,"arg":1497,"colui":1498,"occupa":1499,"imb":1500,"mal":1501,"meri":1502,"rit":1503,"dist":1504,"##ose":1505,"##etro":1506,"trami":1507,"pal":1508,"rim":1509,"ramo":1510,"corre":1511,"liquido":1512,"tramite":1513,"##ersi":1514,"##dimento":1515,"macch":1516,"manc":1517,"funzione":1518,"fuori":1519,"sog":1520,"conosc":1521,"ang":1522,"##reno":1523,"intere":1524,"dare":1525,"racc":1526,"form":1527,"presente":1528,"svol":1529,"##ialmente":1530,"edilizia":1531,"lungo":1532,"fenom":1533,"##lli":1534,"##ris":1535,"##trol":1536,"##omento":1537,"alb":1538,"##more":1539,"scopo":1540,"durante":1541,"##dito":1542,"temp":1543,"mettere":1544,"##ficio":1545,"immag":1546,"appa":1547,"dov":1548,"abitante":1549,"rica":1550,"##lle":1551,"sud":1552,"passa":1553,"causa":1554,"appunto":1555,"##onautica":1556,"organo":1557,"##istenza":1558,"##lici":1559,"##ché":1560,"origine":1561,"evi":1562,"##fo":1563,"capi":1564,"tale":1565,"##lina":1566,"aeronautica":1567,"##ume":1568,"miner":1569,"inerente":1570,"##osti":1571,"moto":1572,"forte":1573,"trasforma":1574,"terra":1575,"avver":1576,"religi":1577,"##siasi":1578,"aper":1579,"mor":1580,"val":1581,"##bra":1582,"mas":1583,"qualsiasi":1584,"atomico":1585,"impor":1586,"piccola":1587,"ol":1588,"##menta":1589,"##este":1590,"cine":1591,"##fi":1592,"quella":1593,"tessuto":1594,"pla":1595,"##cri":1596,"##erra":1597,"##ttia":1598,"malattia":1599,"ovvero":1600,"negli":1601,"qualità":1602,"carb":1603,"alcune":1604,"piante":1605,"##rina":1606,"parole":1607,"##ture":1608,"corr":1609,"sangue":1610,"##grafia":1611,"##vin":1612,"##usti":1613,"prepa":1614,"##vamente":1615,"collo":1616,"volon":1617,"##uita":1618,"##vata":1619,"dopo":1620,"effettu":1621,"##tru":1622,"anni":1623,"##vento":1624,"attraverso":1625,"gre":1626,"##osci":1627,"##tanti":1628,"poss":1629,"tutti":1630,"compito":1631,"riferimento":1632,"defini":1633,"imm":1634,"usata":1635,"pratica":1636,"ori":1637,"##vano":1638,"##ordo":1639,"processo":1640,"##icoltura":1641,"bre":1642,"bian":1643,"veg":1644,"##be":1645,"control":1646,"##ettivo":1647,"dispositivo":1648,"differ":1649,"##tria":1650,"##anta":1651,"mod":1652,"loc":1653,"##utivo":1654,"##qua":1655,"sostanze":1656,"ener":1657,"tutto":1658,"funzion":1659,"velo":1660,"##rico":1661,"##edi":1662,"##mentare":1663,"aria":1664,"ricon":1665,"ulti":1666,"equi":1667,"is":1668,"##dui":1669,"##enda":1670,"faci":1671,"viol":1672,"molec":1673,"espri":1674,"agli":1675,"superiore":1676,"posizione":1677,"uman":1678,"##ede":1679,"conven":1680,"##ttro":1681,"##enso":1682,"##entemente":1683,"lega":1684,"vege":1685,"on":1686,"##tiche":1687,"##icolo":1688,"##uni":1689,"maggio":1690,"organismo":1691,"metallo":1692,"uccello":1693,"situazione":1694,"agricoltura":1695,"cura":1696,"gia":1697,"muo":1698,"via":1699,"##ddis":1700,"##fer":1701,"favo":1702,"individui":1703,"cultura":1704,"##via":1705,"##ccio":1706,"acido":1707,"##itu":1708,"caval":1709,"quali":1710,"##erazione":1711,"appro":1712,"proprie":1713,"##oglie":1714,"##mmif":1715,"vista":1716,"conta":1717,"##olazione":1718,"sopra":1719,"limi":1720,"testa":1721,"##onimo":1722,"compr":1723,"effetto":1724,"quattro":1725,"sessualità":1726,"##icamente":1727,"compon":1728,"##trale":1729,"chiru":1730,"informa":1731,"permette":1732,"dol":1733,"cap":1734,"terreno":1735,"determinato":1736,"ambiente":1737,"specialmente":1738,"simbolo":1739,"##alisi":1740,"conte":1741,"alto":1742,"volgare":1743,"##ogliere":1744,"##cipi":1745,"soff":1746,"appare":1747,"##entale":1748,"sm":1749,"##rui":1750,"para":1751,"##tivamente":1752,"desti":1753,"vis":1754,"##ed":1755,"##rane":1756,"##tata":1757,"##uncia":1758,"##evo":1759,"##mare":1760,"sogg":1761,"aggi":1762,"dena":1763,"obb":1764,"##sci":1765,"##chio":1766,"privo":1767,"luce":1768,"comunica":1769,"diminutivo":1770,"nega":1771,"era":1772,"gro":1773,"pato":1774,"##ula":1775,"capo":1776,"##erie":1777,"##zze":1778,"##istente":1779,"rapporto":1780,"diverse":1781,"atteggia":1782,"denaro":1783,"rec":1784,"mammif":1785,"costru":1786,"rice":1787,"calcio":1788,"origina":1789,"donna":1790,"consegu":1791,"ban":1792,"##dini":1793,"##rea":1794,"##eli":1795,"prog":1796,"musicale":1797,"quasi":1798,"peso":1799,"bra":1800,"##durre":1801,"mano":1802,"avente":1803,"tea":1804,"carattere":1805,"materia":1806,"infer":1807,"quad":1808,"gioco":1809,"successi":1810,"mancanza":1811,"né":1812,"diven":1813,"##tario":1814,"##stro":1815,"vive":1816,"volta":1817,"nu":1818,"dip":1819,"aspetto":1820,"cellula":1821,"oltre":1822,"agg":1823,"##ontan":1824,"##tano":1825,"##iglio":1826,"##cci":1827,"edificio":1828,"trova":1829,"sing":1830,"mediante":1831,"riv":1832,"tito":1833,"spazio":1834,"caratteristica":1835,"fal":1836,"im":1837,"italia":1838,"meto":1839,"poi":1840,"pari":1841,"altrui":1842,"incon":1843,"energia":1844,"pan":1845,"tend":1846,"##log":1847,"##ttivo":1848,"##cra":1849,"##cere":1850,"campo":1851,"##usione":1852,"tran":1853,"scar":1854,"##ungere":1855,"scienza":1856,"esc":1857,"##uale":1858,"lati":1859,"piano":1860,"##ette":1861,"dato":1862,"arma":1863,"##duzione":1864,"studio":1865,"costituito":1866,"##vvis":1867,"unione":1868,"territo":1869,"utilizzata":1870,"ferro":1871,"cin":1872,"od":1873,"##amente":1874,"##glio":1875,"##dità":1876,"rep":1877,"materiali":1878,"confron":1879,"attin":1880,"In":1881,"cro":1882,"mer":1883,"tele":1884,"uff":1885,"##mano":1886,"##ell":1887,"comb":1888,"ant":1889,"eseg":1890,"##visione":1891,"sociale":1892,"cinemato":1893,"obbli":1894,"veri":1895,"##cono":1896,"formata":1897,"##forme":1898,"regionale":1899,"acquis":1900,"cellule":1901,"ottenere":1902,"frequ":1903,"##stre":1904,"##ttà":1905,"nello":1906,"modi":1907,"gram":1908,"produzione":1909,"scherz":1910,"##rne":1911,"##erato":1912,"camp":1913,"##ichi":1914,"##lurgia":1915,"psichia":1916,"metallurgia":1917,"pubblico":1918,"##tando":1919,"sov":1920,"pelle":1921,"alter":1922,"provo":1923,"##gamento":1924,"desid":1925,"ammin":1926,"corrispond":1927,"breve":1928,"psichiatria":1929,"ela":1930,"##rata":1931,"inv":1932,"avven":1933,"trasporto":1934,"posi":1935,"##orr":1936,"##ordina":1937,"caso":1938,"prec":1939,"##vazione":1940,"centro":1941,"##nato":1942,"##bito":1943,"compa":1944,"compre":1945,"città":1946,"batt":1947,"primo":1948,"entra":1949,"distanza":1950,"ben":1951,"pos":1952,"##mologia":1953,"##taria":1954,"caus":1955,"impre":1956,"produce":1957,"tempera":1958,"ner":1959,"sor":1960,"##lin":1961,"##ssimo":1962,"##arca":1963,"##stria":1964,"##missione":1965,"tecnica":1966,"volte":1967,"azioni":1968,"##vità":1969,"##omp":1970,"proce":1971,"dati":1972,"molti":1973,"legge":1974,"comunque":1975,"indicare":1976,"popolare":1977,"uffic":1978,"ada":1979,"momento":1980,"pare":1981,"vic":1982,"##ani":1983,"suono":1984,"male":1985,"elettrica":1986,"##stitu":1987,"maschi":1988,"fonda":1989,"gh":1990,"##inaria":1991,"##rog":1992,"##ssocia":1993,"risultato":1994,"convenzionale":1995,"##fiche":1996,"##tati":1997,"fase":1998,"relazione":1999,"scherzoso":2000,"gu":2001,"##tenza":2002,"##mere":2003,"ind":2004,"perce":2005,"##etra":2006,"##etico":2007,"##ppa":2008,"lavora":2009,"fino":2010,"rin":2011,"dia":2012,"inten":2013,"##itta":2014,"motore":2015,"dott":2016,"naturale":2017,"macchina":2018,"passaggio":2019,"atteggiamento":2020,"atta":2021,"##mità":2022,"##vello":2023,"parola":2024,"##erire":2025,"scon":2026,"varie":2027,"##zie":2028,"ripro":2029,"frutto":2030,"parlata":2031,"amministra":2032,"cio":2033,"pensi":2034,"##coli":2035,"##oggia":2036,"possibile":2037,"sviluppo":2038,"cu":2039,"dolo":2040,"ir":2041,"sotti":2042,"fisico":2043,"sepa":2044,"detta":2045,"consid":2046,"linea":2047,"corrente":2048,"infia":2049,"##cchia":2050,"coper":2051,"##mettere":2052,"foto":2053,"Ca":2054,"lar":2055,"pen":2056,"serie":2057,"##denza":2058,"##tile":2059,"messa":2060,"##viene":2061,"atten":2062,"possibilità":2063,"amp":2064,"cuo":2065,"##ide":2066,"##bbia":2067,"distin":2068,"secolo":2069,"##ucle":2070,"sociali":2071,"memb":2072,"##teri":2073,"presso":2074,"interna":2075,"ento":2076,"infiamma":2077,"azi":2078,"associa":2079,"beni":2080,"##lice":2081,"ann":2082,"morale":2083,"##voli":2084,"metalli":2085,"diversi":2086,"scudo":2087,"carbon":2088,"diventare":2089,"entomologia":2090,"tor":2091,"##dici":2092,"forni":2093,"##spi":2094,"piccoli":2095,"sinonimo":2096,"significato":2097,"abitu":2098,"fenomeno":2099,"chirurgia":2100,"grammatica":2101,"ce":2102,"evento":2103,"nucle":2104,"pale":2105,"contiene":2106,"rag":2107,"##versi":2108,"semi":2109,"nasc":2110,"consiste":2111,"solido":2112,"compiere":2113,"industria":2114,"albero":2115,"mondo":2116,"ruo":2117,"##ttie":2118,"basso":2119,"legg":2120,"malattie":2121,"centrale":2122,"##torno":2123,"mineralogia":2124,"zona":2125,"##erisce":2126,"##inare":2127,"##egna":2128,"##formi":2129,"ricer":2130,"eccessi":2131,"funzioni":2132,"maggiore":2133,"fl":2134,"##ompa":2135,"##lità":2136,"sub":2137,"potere":2138,"conser":2139,"già":2140,"caratterizzata":2141,"esterno":2142,"patolog":2143,"Italia":2144,"om":2145,"##ican":2146,"formazione":2147,"stre":2148,"seguito":2149,"lunghe":2150,"atomi":2151,"umano":2152,"##venti":2153,"docu":2154,"organico":2155,"dolce":2156,"##lan":2157,"##ezione":2158,"diale":2159,"##lato":2160,"##teriore":2161,"politico":2162,"gas":2163,"sinte":2164,"costitu":2165,"facente":2166,"ciascuna":2167,"sempre":2168,"precedente":2169,"Pa":2170,"ipo":2171,"squa":2172,"##nare":2173,"##imento":2174,"##fon":2175,"armi":2176,"costr":2177,"serve":2178,"operazione":2179,"##lind":2180,"dottrina":2181,"mic":2182,"rico":2183,"##ieg":2184,"##bre":2185,"##cce":2186,"comm":2187,"##ppi":2188,"pressione":2189,"##merica":2190,"vedi":2191,"pubblica":2192,"necessa":2193,"manifesta":2194,"suddi":2195,"Roma":2196,"em":2197,"pron":2198,"tessi":2199,"testo":2200,"##ttiva":2201,"##icità":2202,"##ogra":2203,"progra":2204,"raff":2205,"medicinale":2206,"corso":2207,"cilind":2208,"seconda":2209,"punti":2210,"voce":2211,"espressione":2212,"servizio":2213,"volontà":2214,"dan":2215,"foglie":2216,"mone":2217,"##dore":2218,"radio":2219,"scritto":2220,"impro":2221,"abba":2222,"discorso":2223,"tipico":2224,"attinente":2225,"miglio":2226,"inca":2227,"prob":2228,"anti":2229,"cibo":2230,"impieg":2231,"verità":2232,"sulle":2233,"passato":2234,"gover":2235,"interesse":2236,"emo":2237,"fron":2238,"log":2239,"zu":2240,"##uma":2241,"##uter":2242,"sue":2243,"soddis":2244,"##pore":2245,"società":2246,"difficol":2247,"##ologico":2248,"ambito":2249,"consider":2250,"molecola":2251,"bar":2252,"##eti":2253,"##onde":2254,"perc":2255,"consa":2256,"##mentale":2257,"sensi":2258,"pur":2259,"esseri":2260,"##umin":2261,"psican":2262,"suoi":2263,"viventi":2264,"posta":2265,"meta":2266,"medi":2267,"add":2268,"##erata":2269,"##media":2270,"##ficare":2271,"esperi":2272,"grandi":2273,"norma":2274,"valori":2275,"psicanalisi":2276,"##mica":2277,"##alto":2278,"##isione":2279,"lascia":2280,"questo":2281,"studi":2282,"linguaggio":2283,"autorità":2284,"ciascuno":2285,"cavallo":2286,"##icoli":2287,"indo":2288,"##anto":2289,"##unque":2290,"ordina":2291,"acca":2292,"prodotti":2293,"pesce":2294,"pezzo":2295,"ugu":2296,"##cente":2297,"##erne":2298,"##entra":2299,"##tori":2300,"##ortare":2301,"sosti":2302,"ente":2303,"discip":2304,"deco":2305,"controllo":2306,"teatro":2307,"mos":2308,"##ttare":2309,"##est":2310,"##oste":2311,"##ismi":2312,"##etica":2313,"##esco":2314,"tratta":2315,"colpi":2316,"##cora":2317,"sosten":2318,"agire":2319,"particolari":2320,"liber":2321,"sessuale":2322,"merito":2323,"istitu":2324,"##ll":2325,"##inali":2326,"livello":2327,"sottop":2328,"fuoco":2329,"proble":2330,"##gente":2331,"##dato":2332,"##ssare":2333,"dagli":2334,"medio":2335,"##bbe":2336,"real":2337,"##ttamente":2338,"strada":2339,"direzione":2340,"giudi":2341,"intens":2342,"titolo":2343,"obi":2344,"##frica":2345,"##iso":2346,"supp":2347,"casa":2348,"qualche":2349,"person":2350,"##tuale":2351,"##nata":2352,"vertica":2353,"carte":2354,"certo":2355,"liquidi":2356,"bis":2357,"mare":2358,"mente":2359,"tessu":2360,"##itore":2361,"perché":2362,"catto":2363,"massa":2364,"trasc":2365,"estrema":2366,"necess":2367,"conoscenza":2368,"temperatura":2369,"cioè":2370,"tessuti":2371,"fiori":2372,"conce":2373,"##damento":2374,"artic":2375,"##cea":2376,"dep":2377,"##turo":2378,"presenza":2379,"soluzione":2380,"segno":2381,"diverso":2382,"ottenuto":2383,"##monio":2384,"vivente":2385,"informazioni":2386,"cinematografia":2387,"sovra":2388,"micro":2389,"ap":2390,"età":2391,"##op":2392,"##lazione":2393,"##unta":2394,"mezzi":2395,"ancora":2396,"##ppia":2397,"parlare":2398,"computer":2399,"forze":2400,"accompa":2401,"carta":2402,"atomo":2403,"popolo":2404,"principale":2405,"somma":2406,"cambio":2407,"etn":2408,"possono":2409,"tendenza":2410,"territorio":2411,"combusti":2412,"maschile":2413,"azienda":2414,"tessile":2415,"blo":2416,"calo":2417,"gua":2418,"ur":2419,"##olar":2420,"anno":2421,"arche":2422,"risol":2423,"lie":2424,"cop":2425,"regole":2426,"##pevole":2427,"giovan":2428,"riten":2429,"soggetto":2430,"dolore":2431,"asc":2432,"dom":2433,"##ati":2434,"##dre":2435,"##00":2436,"##enzia":2437,"##orti":2438,"condu":2439,"##igeno":2440,"questi":2441,"##cire":2442,"civi":2443,"letter":2444,"presenti":2445,"rifle":2446,"colori":2447,"specifica":2448,"resid":2449,"cambia":2450,"comunicazione":2451,"originario":2452,"inferiore":2453,"flui":2454,"zucch":2455,"##line":2456,"##erenza":2457,"div":2458,"##olta":2459,"##endente":2460,"coin":2461,"soste":2462,"intelle":2463,"elettrico":2464,"semplice":2465,"osser":2466,"du":2467,"fran":2468,"mu":2469,"tenta":2470,"tosc":2471,"##ore":2472,"##gh":2473,"##tture":2474,"data":2475,"anal":2476,"animo":2477,"deve":2478,"apposi":2479,"vir":2480,"impa":2481,"reazione":2482,"numer":2483,"specifico":2484,"vengono":2485,"etc":2486,"italiano":2487,"aver":2488,"bor":2489,"citta":2490,"fini":2491,"##erio":2492,"##entare":2493,"##rati":2494,"cong":2495,"##arti":2496,"##matico":2497,"accordo":2498,"molte":2499,"rappresentazione":2500,"erba":2501,"riconosci":2502,"confronti":2503,"difficoltà":2504,"evol":2505,"vig":2506,"##dice":2507,"##mentazione":2508,"##ettare":2509,"##ttore":2510,"##ggere":2511,"potenza":2512,"colon":2513,"cosci":2514,"carica":2515,"tutte":2516,"note":2517,"prendere":2518,"costituita":2519,"elabo":2520,"nerv":2521,"toscano":2522,"fon":2523,"veni":2524,"visi":2525,"##vig":2526,"##ffa":2527,"##ssima":2528,"così":2529,"terre":2530,"affetto":2531,"opin":2532,"elettronico":2533,"respi":2534,"##ficiale":2535,"inizia":2536,"estremità":2537,"mammifero":2538,"Ma":2539,"assi":2540,"gesti":2541,"altera":2542,"##iand":2543,"profess":2544,"regione":2545,"alcol":2546,"rosso":2547,"generale":2548,"libro":2549,"caratterizzato":2550,"bianco":2551,"guerra":2552,"attenzione":2553,"ossi":2554,"vin":2555,"##simo":2556,"##cro":2557,"ina":2558,"##esia":2559,"##cee":2560,"fabb":2561,"##erimento":2562,"formare":2563,"reale":2564,"strumenti":2565,"piccole":2566,"uccelli":2567,"sottile":2568,"realtà":2569,"Dio":2570,"Gre":2571,"ore":2572,"##scita":2573,"intro":2574,"##meno":2575,"##egg":2576,"##inale":2577,"##inazione":2578,"##dizione":2579,"ille":2580,"sposta":2581,"##mpa":2582,"poter":2583,"ecologia":2584,"manu":2585,"attre":2586,"bocca":2587,"determinata":2588,"passare":2589,"spiri":2590,"manifes":2591,"ret":2592,"##vale":2593,"##dra":2594,"##uato":2595,"stabili":2596,"carne":2597,"sull":2598,"identi":2599,"erro":2600,"##trimonio":2601,"umana":2602,"bal":2603,"fung":2604,"rend":2605,"sale":2606,"##gato":2607,"##erma":2608,"disa":2609,"divis":2610,"##iscono":2611,"##ettiva":2612,"##ime":2613,"##eso":2614,"mag":2615,"pietra":2616,"nave":2617,"##gazione":2618,"particolar":2619,"affi":2620,"punta":2621,"diffici":2622,"lunga":2623,"piace":2624,"inizio":2625,"nuovo":2626,"componenti":2627,"pensiero":2628,"sostegno":2629,"cur":2630,"hanno":2631,"sb":2632,"za":2633,"##pon":2634,"##utare":2635,"dimos":2636,"##isti":2637,"##eggia":2638,"mete":2639,"forme":2640,"aspetti":2641,"facol":2642,"idee":2643,"distrib":2644,"velocità":2645,"ultimo":2646,"equili":2647,"carbonio":2648,"programma":2649,"disciplina":2650,"dimostra":2651,"cron":2652,"pens":2653,"##tone":2654,"##vola":2655,"##dotta":2656,"coda":2657,"##trice":2658,"gruppi":2659,"norm":2660,"derivato":2661,"ossigeno":2662,"costruzione":2663,"ricerca":2664,"adi":2665,"bru":2666,"danno":2667,"fond":2668,"lan":2669,"mino":2670,"vento":2671,"intorno":2672,"rile":2673,"rivol":2674,"pagamento":2675,"mitologia":2676,"assol":2677,"incar":2678,"disposizione":2679,"grandezza":2680,"descri":2681,"imbarca":2682,"lunghezza":2683,"ora":2684,"vu":2685,"##con":2686,"##tello":2687,"##anzia":2688,"##osità":2689,"quelli":2690,"##inato":2691,"illu":2692,"fatti":2693,"scel":2694,"orna":2695,"grave":2696,"manten":2697,"rea":2698,"este":2699,"asse":2700,"riferisce":2701,"concetto":2702,"solle":2703,"scamb":2704,"##uropa":2705,"caratteristico":2706,"fronte":2707,"cli":2708,"irre":2709,"merci":2710,"##ton":2711,"##cer":2712,"##olato":2713,"##ssato":2714,"##omi":2715,"##oglia":2716,"andare":2717,"suoni":2718,"##zzati":2719,"sott":2720,"pieno":2721,"##versa":2722,"eccesso":2723,"condizioni":2724,"collega":2725,"continua":2726,"metodi":2727,"corrispondente":2728,"cuc":2729,"eli":2730,"esso":2731,"epi":2732,"gui":2733,"##smo":2734,"##gine":2735,"##ghi":2736,"##pro":2737,"##ondere":2738,"##istico":2739,"##ettato":2740,"preval":2741,"paral":2742,"impian":2743,"avv":2744,"bamb":2745,"tur":2746,"regola":2747,"##ologica":2748,"idrog":2749,"movimenti":2750,"giorno":2751,"favore":2752,"rivesti":2753,"esperienza":2754,"calore":2755,"fabbrica":2756,"19":2757,"denti":2758,"nato":2759,"##tono":2760,"##ord":2761,"maggi":2762,"##tane":2763,"figure":2764,"avvol":2765,"cris":2766,"operazioni":2767,"comportamenti":2768,"organizzazione":2769,"sentimento":2770,"soddisfa":2771,"meteor":2772,"Europa":2773,"lon":2774,"togliere":2775,"##oti":2776,"alfa":2777,"##ccare":2778,"##bita":2779,"ripa":2780,"##vati":2781,"corte":2782,"mangia":2783,"lingue":2784,"insetti":2785,"classe":2786,"contenuto":2787,"popolazione":2788,"aumento":2789,"processi":2790,"elettrici":2791,"apparato":2792,"infiammazione":2793,"Grecia":2794,"idrogeno":2795,"maggior":2796,"fia":2797,"gal":2798,"osta":2799,"pel":2800,"sola":2801,"##omb":2802,"conto":2803,"##dire":2804,"##ingere":2805,"geni":2806,"attor":2807,"effetti":2808,"concentra":2809,"fenomeni":2810,"morte":2811,"vegetale":2812,"alterna":2813,"improvvis":2814,"consapevole":2815,"archeologia":2816,"An":2817,"America":2818,"eventi":2819,"metà":2820,"ut":2821,"uo":2822,"vanta":2823,"##golare":2824,"##atore":2825,"piedi":2826,"persino":2827,"riguard":2828,"strutture":2829,"stim":2830,"vegetali":2831,"apparecchio":2832,"smalto":2833,"mostra":2834,"ari":2835,"cic":2836,"dà":2837,"men":2838,"##pend":2839,"inno":2840,"##lievo":2841,"latte":2842,"prova":2843,"##itti":2844,"cavità":2845,"fissa":2846,"##cata":2847,"atmos":2848,"class":2849,"tipica":2850,"stile":2851,"raggiungere":2852,"avversa":2853,"facoltà":2854,"cristal":2855,"Si":2856,"dic":2857,"oper":2858,"tron":2859,"vesti":2860,"##erto":2861,"perdita":2862,"cond":2863,"altezza":2864,"estra":2865,"rapi":2866,"##iando":2867,"##volmente":2868,"sem":2869,"dotato":2870,"termina":2871,"interpre":2872,"consistente":2873,"oppor":2874,"##visi":2875,"respon":2876,"veicolo":2877,"contenente":2878,"differenti":2879,"esprimere":2880,"particolarmente":2881,"divi":2882,"lato":2883,"arro":2884,"medico":2885,"##ettore":2886,"appre":2887,"##tudine":2888,"##ciare":2889,"consu":2890,"comunità":2891,"solito":2892,"troppo":2893,"esercizio":2894,"segnali":2895,"veloce":2896,"pronuncia":2897,"La":2898,"area":2899,"ere":2900,"retti":2901,"##moni":2902,"##eta":2903,"##genza":2904,"##arne":2905,"##mentali":2906,"quelle":2907,"mobile":2908,"sopp":2909,"##duto":2910,"poesia":2911,"##zzon":2912,"##cazione":2913,"leggi":2914,"specifici":2915,"giuri":2916,"portare":2917,"orizzon":2918,"verifica":2919,"equilib":2920,"parall":2921,"guar":2922,"schi":2923,"tera":2924,"tende":2925,"##rone":2926,"##FF":2927,"alta":2928,"##lie":2929,"##dazione":2930,"teoria":2931,"presta":2932,"##zima":2933,"principi":2934,"##disp":2935,"esterna":2936,"servizi":2937,"importanza":2938,"cuore":2939,"moneta":2940,"responsa":2941,"Africa":2942,"el":2943,"muni":2944,"set":2945,"umi":2946,"##iu":2947,"##car":2948,"##bol":2949,"##tari":2950,"intra":2951,"##ritti":2952,"##oghi":2953,"##igura":2954,"##stiche":2955,"##tton":2956,"proven":2957,"##tero":2958,"arri":2959,"arco":2960,"qualunque":2961,"##gge":2962,"##ruzione":2963,"poten":2964,"##ulla":2965,"stri":2966,"##gimento":2967,"contenitore":2968,"varietà":2969,"sentimenti":2970,"difesa":2971,"muoversi":2972,"immedia":2973,"eseguire":2974,"vuole":2975,"itti":2976,"ono":2977,"sesso":2978,"##col":2979,"##volo":2980,"##stia":2981,"anello":2982,"preve":2983,"##ffici":2984,"fisiche":2985,"avviene":2986,"primi":2987,"enzima":2988,"regolare":2989,"##ranti":2990,"influ":2991,"principalmente":2992,"argomento":2993,"angolo":2994,"immagine":2995,"culturale":2996,"mammiferi":2997,"immo":2998,"cinque":2999,"nervoso":3000,"ittiologia":3001,"..":3002,"amore":3003,"cres":3004,"dice":3005,"ispi":3006,"nero":3007,"tri":3008,"vero":3009,"##ren":3010,"##cidi":3011,"racchi":3012,"media":3013,"pittura":3014,"tecniche":3015,"##vers":3016,"allung":3017,"##minare":3018,"lavorazione":3019,"misc":3020,"##stino":3021,"trasf":3022,"circos":3023,"proteina":3024,"esame":3025,"svolge":3026,"evitare":3027,"funzionamento":3028,"facilmente":3029,"contatto":3030,"destinato":3031,"##crazia":3032,"esclu":3033,"epo":3034,"glo":3035,"osse":3036,"##iente":3037,"##ghe":3038,"##arra":3039,"quest":3040,"##bire":3041,"prem":3042,"vivere":3043,"accesso":3044,"atle":3045,"profonda":3046,"agi":3047,"##mette":3048,"segue":3049,"contrapp":3050,"strato":3051,"circuito":3052,"procura":3053,"speciali":3054,"permettere":3055,"bevan":3056,"giorn":3057,"dovuta":3058,"apertura":3059,"preparazione":3060,"documento":3061,"zucchero":3062,"otti":3063,"olio":3064,"sali":3065,"tria":3066,"##mone":3067,"##uri":3068,"##ramente":3069,"##ogene":3070,"convin":3071,"##chia":3072,"cam":3073,"arre":3074,"paura":3075,"coordina":3076,"elettroni":3077,"certa":3078,"circolare":3079,"idra":3080,"vendita":3081,"##risce":3082,"giallo":3083,"studioso":3084,"coinvol":3085,"meteorologia":3086,"as":3087,"pec":3088,"##ius":3089,"##tate":3090,"cont":3091,"almeno":3092,"##eggio":3093,"proba":3094,"cas":3095,"cate":3096,"spetta":3097,"##dati":3098,"##tanto":3099,"essa":3100,"mil":3101,"opere":3102,"sap":3103,"normale":3104,"aumentare":3105,"esag":3106,"realizzare":3107,"economico":3108,"importante":3109,"greco":3110,"##beto":3111,"precedentemente":3112,"squadra":3113,"normalmente":3114,"alfabeto":3115,"aere":3116,"azz":3117,"aero":3118,"cru":3119,"##idi":3120,"##ud":3121,"dirig":3122,"perdere":3123,"##ccato":3124,"##unzione":3125,"sui":3126,"composta":3127,"rius":3128,"pazi":3129,"impegno":3130,"semb":3131,"recipi":3132,"capace":3133,"religioso":3134,"componente":3135,"##orrere":3136,"dome":3137,"edu":3138,"grig":3139,"richi":3140,"sole":3141,"tela":3142,"##cale":3143,"##colare":3144,"##dino":3145,"##NA":3146,"##rosa":3147,"##ssioni":3148,"perf":3149,"suolo":3150,"##bil":3151,"##zzate":3152,"sosp":3153,"esec":3154,"relazioni":3155,"##zioso":3156,"##rante":3157,"automo":3158,"frase":3159,"discu":3160,"situazioni":3161,"tenere":3162,"trasformare":3163,"fotografia":3164,"guada":3165,"spirituale":3166,"...":3167,"fanta":3168,"son":3169,"tr":3170,"##il":3171,"##ubb":3172,"##quis":3173,"##rali":3174,"##roso":3175,"##anze":3176,"conn":3177,"##las":3178,"##mata":3179,"rami":3180,"addi":3181,"ingre":3182,"intero":3183,"interiore":3184,"esistenza":3185,"luoghi":3186,"rapporti":3187,"resistenza":3188,"diversa":3189,"contratto":3190,"buro":3191,"ripet":3192,"intestino":3193,"nuovamente":3194,"futuro":3195,"effettuare":3196,"esprime":3197,"onde":3198,"ricevere":3199,"singolare":3200,"percepi":3201,"considera":3202,"verticale":3203,"bisog":3204,"fluido":3205,"piacevole":3206,"imbarcazione":3207,"attorno":3208,"opport":3209,"recipiente":3210,"even":3211,"fale":3212,"vetro":3213,"##nza":3214,"##gliare":3215,"##bri":3216,"##ude":3217,"##II":3218,"##enziale":3219,"##rana":3220,"provvis":3221,"anteriore":3222,"magn":3223,"##mpe":3224,"motivo":3225,"medicinali":3226,"ripe":3227,"colpo":3228,"##ssivo":3229,"##inge":3230,"poli":3231,"entità":3232,"acuta":3233,"comuni":3234,"assenza":3235,"##resci":3236,"concre":3237,"aiuto":3238,"totale":3239,"possiede":3240,"fred":3241,"trasformazione":3242,"irri":3243,"sostitu":3244,"intensità":3245,"franc":3246,"cucina":3247,"idraul":3248,"falegna":3249,"oro":3250,"stan":3251,"##lus":3252,"##onia":3253,"##unti":3254,"##cito":3255,"silla":3256,"##devole":3257,"##zionali":3258,"ridurre":3259,"adeg":3260,"##iana":3261,"gravi":3262,"fila":3263,"impedi":3264,"imped":3265,"riser":3266,"##umere":3267,"priva":3268,"acque":3269,"affron":3270,"insegn":3271,"finanzia":3272,"piatto":3273,"deriva":3274,"frutti":3275,"nego":3276,"locale":3277,"aggre":3278,"desiderio":3279,"ghiand":3280,"ragion":3281,"medie":3282,"giudizio":3283,"terrestre":3284,"difficile":3285,"epoca":3286,"trian":3287,"Asia":3288,"Il":3289,"aro":3290,"bol":3291,"deg":3292,"mono":3293,"##vanti":3294,"##erare":3295,"inti":3296,"##isa":3297,"##istro":3298,"##ditore":3299,"moder":3300,"pasta":3301,"paesi":3302,"colla":3303,"bassa":3304,"gamb":3305,"stessi":3306,"particelle":3307,"noti":3308,"##valente":3309,"pezza":3310,"situato":3311,"durata":3312,"conoscenze":3313,"raccolta":3314,"dovuto":3315,"religiosa":3316,"violenza":3317,"ricev":3318,"progre":3319,"##ontane":3320,"transi":3321,"governo":3322,"coscienza":3323,"guida":3324,"equilibrio":3325,"astra":3326,"fondo":3327,"fur":3328,"ria":3329,"ton":3330,"vino":3331,"##ossi":3332,"##denti":3333,"##enne":3334,"##ane":3335,"##dotto":3336,"comba":3337,"##esc":3338,"riun":3339,"gradi":3340,"allontan":3341,"costante":3342,"accresci":3343,"esig":3344,"abband":3345,"dispre":3346,"commercia":3347,"contraddis":3348,"chimiche":3349,"top":3350,"rumore":3351,"scrivere":3352,"formula":3353,"immagini":3354,"possesso":3355,"legame":3356,"capelli":3357,"percezione":3358,"sintesi":3359,"giovane":3360,"minore":3361,"pellic":3362,"contraddistin":3363,"10":3364,"ogn":3365,"pon":3366,"##pia":3367,"##dri":3368,"##ulo":3369,"inn":3370,"##icato":3371,"##lata":3372,"fatta":3373,"sensazione":3374,"forn":3375,"pieg":3376,"ingle":3377,"##utore":3378,"fidu":3379,"##osito":3380,"##endosi":3381,"##tentr":3382,"rete":3383,"verb":3384,"architetton":3385,"profi":3386,"abbond":3387,"trasmissione":3388,"edifici":3389,"circa":3390,"##ensivo":3391,"principio":3392,"idea":3393,"corrisponde":3394,"variabile":3395,"economica":3396,"greca":3397,"provoca":3398,"ufficiale":3399,"medioevo":3400,"combustione":3401,"cronica":3402,"##ubblica":3403,"idraulica":3404,"vende":3405,"##ari":3406,"##ttive":3407,"##tar":3408,"##tina":3409,"##ssia":3410,"prov":3411,"provin":3412,"analisi":3413,"##itica":3414,"casi":3415,"##dae":3416,"prezzo":3417,"predisp":3418,"scala":3419,"corpi":3420,"imper":3421,"sequ":3422,"recip":3423,"##inoa":3424,"nativo":3425,"verde":3426,"vario":3427,"##utazione":3428,"sapore":3429,"giochi":3430,"giocato":3431,"##fatto":3432,"contenere":3433,"buona":3434,"schia":3435,"salute":3436,"plastica":3437,"adatta":3438,"fornito":3439,"necessario":3440,"residente":3441,"recipro":3442,"Fran":3443,"br":3444,"sic":3445,"##liche":3446,"##meria":3447,"##gon":3448,"##dic":3449,"##dono":3450,"##organ":3451,"##istere":3452,"proi":3453,"provare":3454,"subito":3455,"armon":3456,"ragg":3457,"deb":3458,"composizione":3459,"prep":3460,"##onoma":3461,"piede":3462,"scor":3463,"coltiva":3464,"fiume":3465,"storico":3466,"assegn":3467,"trovare":3468,"applicazione":3469,"termini":3470,"nord":3471,"direttamente":3472,"scrittura":3473,"argom":3474,"aperto":3475,"volontaria":3476,"negativo":3477,"nucleo":3478,"dialetto":3479,"logica":3480,"obiettivo":3481,"lieve":3482,"settentr":3483,"miscela":3484,"dichia":3485,"ep":3486,"là":3487,"sv":3488,"sel":3489,"utile":3490,"vali":3491,"##sce":3492,"dig":3493,"##omini":3494,"##stri":3495,"later":3496,"##use":3497,"viss":3498,"##tendo":3499,"accor":3500,"taglia":3501,"afferma":3502,"metallico":3503,"cercare":3504,"##identale":3505,"sinistra":3506,"ottenuta":3507,"pubblici":3508,"##urope":3509,"cambiare":3510,"spieg":3511,"merid":3512,"facili":3513,"##raneo":3514,"frequenza":3515,"vicino":3516,"problemi":3517,"accompagna":3518,"utensi":3519,"fiducia":3520,"mom":3521,"ove":3522,"odore":3523,"positivo":3524,"sorta":3525,"##abile":3526,"##lismo":3527,"##tus":3528,"##bio":3529,"##ulare":3530,"congi":3531,"conosci":3532,"##istica":3533,"##arto":3534,"##stici":3535,"lasc":3536,"mesc":3537,"capp":3538,"caccia":3539,"sper":3540,"arb":3541,"dedica":3542,"fasc":3543,"compet":3544,"competi":3545,"forti":3546,"##nivo":3547,"fili":3548,"##cche":3549,"gara":3550,"volume":3551,"filosofica":3552,"##minazione":3553,"numeri":3554,"specifiche":3555,"concerne":3556,"fed":3557,"originaria":3558,"chimici":3559,"sessuali":3560,"ciascun":3561,"ultima":3562,"mercato":3563,"ruota":3564,"danni":3565,"incapa":3566,"uguali":3567,"decora":3568,"rettan":3569,"impianto":3570,"falegnameria":3571,"ama":3572,"finale":3573,"occa":3574,"occhi":3575,"sfor":3576,"tanto":3577,"##ep":3578,"##vante":3579,"##uli":3580,"inver":3581,"unico":3582,"##ardo":3583,"##igno":3584,"##ece":3585,"spontane":3586,"##mpi":3587,"rilievo":3588,"##vamento":3589,"##sco":3590,"grazie":3591,"geogra":3592,"interval":3593,"nata":3594,"navi":3595,"neolog":3596,"registra":3597,"assumere":3598,"utilizzo":3599,"##utamente":3600,"soltanto":3601,"cerca":3602,"completamente":3603,"cane":3604,"piacere":3605,"pezzi":3606,"aut":3607,"idro":3608,"tipografia":3609,"chiaro":3610,"raggiung":3611,"motori":3612,"aggiunta":3613,"dann":3614,"considerato":3615,"necessaria":3616,"ripeti":3617,"Ar":3618,"Ba":3619,"Terra":3620,"danza":3621,"esi":3622,"lumin":3623,"occhio":3624,"porre":3625,"stare":3626,"sala":3627,"uomini":3628,"##ate":3629,"##sare":3630,"##mine":3631,"##cella":3632,"##olto":3633,"##oglio":3634,"delimi":3635,"raga":3636,"##erito":3637,"ripi":3638,"passione":3639,"filo":3640,"mandare":3641,"carico":3642,"disegno":3643,"segua":3644,"##urro":3645,"sistemi":3646,"appartiene":3647,"risposta":3648,"integ":3649,"intelli":3650,"svilupp":3651,"svolgere":3652,"antichi":3653,"causare":3654,"patologica":3655,"commesti":3656,"tentativo":3657,"manifestazione":3658,"concentrazione":3659,"mentre":3660,"classica":3661,"francese":3662,"inglese":3663,"emb":3664,"flu":3665,"gri":3666,"iron":3667,"osc":3668,"tel":3669,"testi":3670,"##lusione":3671,"##tente":3672,"##edere":3673,"##onare":3674,"conforme":3675,"##ign":3676,"matrimonio":3677,"##teriori":3678,"faccia":3679,"fascia":3680,"polvere":3681,"red":3682,"##uovere":3683,"meccanico":3684,"opposto":3685,"altrimenti":3686,"cele":3687,"proteine":3688,"##licesimo":3689,"modalità":3690,"riconosc":3691,"approfon":3692,"apparecchia":3693,"grosso":3694,"conseguenza":3695,"obbligo":3696,"ruote":3697,"personale":3698,"cattolicesimo":3699,"condan":3700,"18":3701,"Sa":3702,"denom":3703,"emettere":3704,"fusto":3705,"lis":3706,"os":3707,"ost":3708,"sg":3709,"vet":3710,"##cola":3711,"##gica":3712,"##pria":3713,"##ern":3714,"##ramento":3715,"invol":3716,"##anda":3717,"##ettivi":3718,"questa":3719,"raramente":3720,"medica":3721,"presc":3722,"piena":3723,"scal":3724,"dallo":3725,"##chezza":3726,"stoma":3727,"accetta":3728,"neu":3729,"taglio":3730,"nota":3731,"autore":3732,"buon":3733,"aumenta":3734,"libero":3735,"iniziale":3736,"elettricità":3737,"intenso":3738,"realizzazione":3739,"limite":3740,"contesto":3741,"sofferenza":3742,"conseguenze":3743,"manov":3744,"nutri":3745,"metodo":3746,"ufficio":3747,"raffigura":3748,"colpire":3749,"errore":3750,"diviso":3751,"zampe":3752,"scelta":3753,"settentrionale":3754,"neologismo":3755,"Al":3756,"Bi":3757,"astr":3758,"asta":3759,"den":3760,"fle":3761,"gom":3762,"glu":3763,"gusto":3764,"lit":3765,"osso":3766,"rimo":3767,"##golo":3768,"##varsi":3769,"##ber":3770,"##toria":3771,"##iano":3772,"##alismo":3773,"##dimenti":3774,"spin":3775,"deci":3776,"tratti":3777,"##egni":3778,"##sca":3779,"genera":3780,"bast":3781,"tiro":3782,"##talmente":3783,"ricor":3784,"prol":3785,"insetto":3786,"mette":3787,"partito":3788,"scuro":3789,"creare":3790,"credito":3791,"artificiale":3792,"##ggiare":3793,"protezione":3794,"amminoa":3795,"scritta":3796,"segnale":3797,"##mentari":3798,"comprendere":3799,"contempo":3800,"successiva":3801,"antonoma":3802,"cinematogra":3803,"invece":3804,"batteri":3805,"adatto":3806,"parete":3807,"ipote":3808,"supporto":3809,"etnologia":3810,"cittadini":3811,"distribuzione":3812,"pensare":3813,"scambio":3814,"burocrazia":3815,"freddo":3816,"provincia":3817,"bran":3818,"tru":3819,"tono":3820,"vul":3821,"##ndo":3822,"##miche":3823,"##goria":3824,"##pol":3825,"##pera":3826,"##dro":3827,"##fera":3828,"##umi":3829,"##oll":3830,"##tebra":3831,"##letta":3832,"##oggio":3833,"##ard":3834,"##mati":3835,"##ttu":3836,"fasti":3837,"scio":3838,"##duta":3839,"##osamente":3840,"chiesa":3841,"viva":3842,"##endono":3843,"coa":3844,"coppia":3845,"esal":3846,"incro":3847,"utilizza":3848,"materie":3849,"abbre":3850,"diffuso":3851,"amici":3852,"concetti":3853,"celeste":3854,"completa":3855,"metri":3856,"vedere":3857,"crea":3858,"siano":3859,"trasportare":3860,"successione":3861,"principali":3862,"continuo":3863,"linee":3864,"formano":3865,"differenza":3866,"riproduzione":3867,"profession":3868,"attrezzo":3869,"curva":3870,"eventu":3871,"antonomasia":3872,"amb":3873,"emissione":3874,"mina":3875,"pru":3876,"sba":3877,"volo":3878,"##ric":3879,"##cino":3880,"##dendo":3881,"##fe":3882,"deli":3883,"##stru":3884,"##citi":3885,"spal":3886,"destra":3887,"tratto":3888,"elevata":3889,"##entato":3890,"##entali":3891,"interme":3892,"naso":3893,"verbo":3894,"film":3895,"presti":3896,"oggi":3897,"rifi":3898,"critica":3899,"infa":3900,"ammi":3901,"militari":3902,"fram":3903,"artistico":3904,"erpe":3905,"comunemente":3906,"alberi":3907,"immer":3908,"chirur":3909,"procedimento":3910,"ghia":3911,"patologico":3912,"necessità":3913,"evoluzione":3914,"opinioni":3915,"##cerdo":3916,"sequenza":3917,"Stati":3918,"eu":3919,"ebra":3920,"fiore":3921,"mura":3922,"tensione":3923,"vuo":3924,"##lone":3925,"##eci":3926,"##cal":3927,"##fra":3928,"##usi":3929,"diritti":3930,"inde":3931,"però":3932,"conv":3933,"##ttere":3934,"motivi":3935,"possa":3936,"elevato":3937,"impu":3938,"sezione":3939,"farsi":3940,"riguardo":3941,"accum":3942,"cora":3943,"espl":3944,"agisce":3945,"##minato":3946,"lavorare":3947,"sacerdo":3948,"abita":3949,"##formazione":3950,"facendo":3951,"sfru":3952,"diminuzione":3953,"somiglia":3954,"aeromo":3955,"distur":3956,"tempi":3957,"causata":3958,"evidente":3959,"importanti":3960,"immuni":3961,"##viazione":3962,"latino":3963,"televisi":3964,"impresa":3965,"coperto":3966,"membrana":3967,"ragione":3968,"uguale":3969,"munito":3970,"ottiene":3971,"aerop":3972,"grigio":3973,"stomaco":3974,"prolung":3975,"erpetologia":3976,"ara":3977,"bordo":3978,"fan":3979,"lin":3980,"osti":3981,"rende":3982,"##mbi":3983,"##tteri":3984,"suscita":3985,"##uiti":3986,"##bilmente":3987,"##esse":3988,"scola":3989,"scorre":3990,"##duce":3991,"poetico":3992,"##ichità":3993,"propone":3994,"formaggio":3995,"impossi":3996,"sede":3997,"costu":3998,"personaggio":3999,"##zialmente":4000,"bas":4001,"ted":4002,"sostan":4003,"tipi":4004,"tumore":4005,"##urezza":4006,"secre":4007,"sportivo":4008,"superiori":4009,"ecci":4010,"solida":4011,"solu":4012,"gioia":4013,"veicoli":4014,"appartenenti":4015,"diminuire":4016,"##rismo":4017,"italiana":4018,"pane":4019,"antichità":4020,"amministrazione":4021,"associazione":4022,"vigore":4023,"illeg":4024,"uovo":4025,"vantaggio":4026,"orizzontale":4027,"striscia":4028,"esclusi":4029,"impedire":4030,"medievale":4031,"debole":4032,"Mar":4033,"bron":4034,"dra":4035,"imi":4036,"igno":4037,"mul":4038,"oli":4039,"posti":4040,"trib":4041,"##tene":4042,"##ei":4043,"##pti":4044,"##plica":4045,"##udere":4046,"##erlo":4047,"##olla":4048,"peri":4049,"##esce":4050,"spese":4051,"composti":4052,"prezzi":4053,"##ffo":4054,"pie":4055,"scomp":4056,"poca":4057,"paci":4058,"ingan":4059,"##olazioni":4060,"cibi":4061,"polig":4062,"stor":4063,"stoffa":4064,"organismi":4065,"basa":4066,"navig":4067,"luci":4068,"giusti":4069,"volto":4070,"muscolo":4071,"calcolo":4072,"generico":4073,"partire":4074,"ped":4075,"norme":4076,"attiene":4077,"misurare":4078,"naturali":4079,"scacchi":4080,"alimenti":4081,"frutta":4082,"porzione":4083,"donne":4084,"esercito":4085,"monta":4086,"legami":4087,"grossa":4088,"progetto":4089,"compreso":4090,"nascosto":4091,"industriale":4092,"omogene":4093,"considerare":4094,"sostit":4095,"accompagn":4096,"blocco":4097,"civile":4098,"opinione":4099,"##eggiante":4100,"atmosfer":4101,"crescita":4102,"sonno":4103,"addiri":4104,"negozio":4105,"selva":4106,"Stato":4107,"ado":4108,"ast":4109,"adu":4110,"azo":4111,"cere":4112,"mona":4113,"mentale":4114,"vel":4115,"##ora":4116,"##cando":4117,"##vente":4118,"##vono":4119,"din":4120,"divisione":4121,"##ial":4122,"intre":4123,"##lesia":4124,"##all":4125,"##anzi":4126,"##matici":4127,"comando":4128,"mem":4129,"##tand":4130,"fisici":4131,"orto":4132,"pasto":4133,"corda":4134,"##gante":4135,"##endenza":4136,"sedi":4137,"intera":4138,"meccanismo":4139,"assom":4140,"superficiale":4141,"##ranza":4142,"infi":4143,"metallica":4144,"fede":4145,"comportarsi":4146,"determinati":4147,"artistica":4148,"possibili":4149,"tipicamente":4150,"romana":4151,"giorni":4152,"molecole":4153,"corrispondenza":4154,"avvenimento":4155,"entrare":4156,"posteriore":4157,"ampia":4158,"estremamente":4159,"##ceae":4160,"cambiamento":4161,"analitica":4162,"virus":4163,"prevalentemente":4164,"bambini":4165,"rivestimento":4166,"consapevolezza":4167,"prevede":4168,"##fficiente":4169,"bisogno":4170,"accrescitivo":4171,"meridionale":4172,"seguace":4173,"##tebrati":4174,"addirittura":4175,"Per":4176,"bri":4177,"cog":4178,"dor":4179,"ero":4180,"fel":4181,"lim":4182,"palo":4183,"sfa":4184,"vice":4185,"##cic":4186,"##ha":4187,"##fono":4188,"##enico":4189,"diss":4190,"inci":4191,"##orsi":4192,"coniu":4193,"##etu":4194,"##igli":4195,"##egato":4196,"##cimento":4197,"cavo":4198,"parziale":4199,"medesimo":4200,"rie":4201,"##duo":4202,"##iani":4203,"pavi":4204,"##scop":4205,"##verso":4206,"##entata":4207,"risor":4208,"accia":4209,"politici":4210,"lettere":4211,"sostiene":4212,"##venire":4213,"esperto":4214,"tutta":4215,"##metro":4216,"stupi":4217,"reso":4218,"effica":4219,"compiuto":4220,"##ministra":4221,"autori":4222,"sinc":4223,"##cciato":4224,"##ologici":4225,"##ologiche":4226,"toss":4227,"buono":4228,"permettono":4229,"##glie":4230,"trasporta":4231,"realizzato":4232,"romano":4233,"precede":4234,"distru":4235,"raccogliere":4236,"isola":4237,"destina":4238,"incontro":4239,"compresa":4240,"lavoratore":4241,"attacca":4242,"pensieri":4243,"pressoché":4244,"paleon":4245,"suddivis":4246,"percorso":4247,"libertà":4248,"respirato":4249,"spostamento":4250,"identifica":4251,"adibito":4252,"incarico":4253,"mantenere":4254,"avvic":4255,"avversario":4256,"glob":4257,"osseo":4258,"spettacolo":4259,"raggru":4260,"utensile":4261,"memoria":4262,"Me":4263,"Uni":4264,"abilità":4265,"ampio":4266,"cl":4267,"otto":4268,"ospi":4269,"pena":4270,"sgra":4271,"sette":4272,"tali":4273,"vera":4274,"##rus":4275,"##losa":4276,"##lano":4277,"##eme":4278,"##erta":4279,"##torica":4280,"dial":4281,"inorgan":4282,"unire":4283,"##rizione":4284,"##etiche":4285,"##zare":4286,"prom":4287,"madre":4288,"spos":4289,"##teria":4290,"##tersi":4291,"##data":4292,"ormone":4293,"chiuso":4294,"pagare":4295,"propor":4296,"farina":4297,"politiche":4298,"muscoli":4299,"vaso":4300,"inclina":4301,"utilizz":4302,"usare":4303,"disposi":4304,"ecclesia":4305,"noto":4306,"roccia":4307,"contrario":4308,"piani":4309,"abito":4310,"rappresentata":4311,"libera":4312,"fattori":4313,"univers":4314,"somministra":4315,"variazione":4316,"segni":4317,"corretto":4318,"apparire":4319,"muove":4320,"limiti":4321,"comprensione":4322,"confronto":4323,"assieme":4324,"alterazione":4325,"tronco":4326,"proveniente":4327,"bevanda":4328,"pecu":4329,"impedisce":4330,"rimozione":4331,"Ges":4332,"Le":4333,"amma":4334,"cera":4335,"eso":4336,"gare":4337,"muc":4338,"nulla":4339,"##rla":4340,"##pica":4341,"##risto":4342,"condurre":4343,"##lari":4344,"##cipa":4345,"antici":4346,"##ppio":4347,"spro":4348,"spar":4349,"radica":4350,"presa":4351,"##zionato":4352,"##riale":4353,"scim":4354,"##mori":4355,"vie":4356,"corsa":4357,"reato":4358,"retorica":4359,"##perto":4360,"gass":4361,"rotazione":4362,"confid":4363,"rappresen":4364,"autove":4365,"pesci":4366,"cellulare":4367,"attitudine":4368,"misurazione":4369,"alimentare":4370,"chiamato":4371,"espressa":4372,"argento":4373,"palla":4374,"interessi":4375,"bianca":4376,"umani":4377,"muovere":4378,"visione":4379,"negativa":4380,"aggettivo":4381,"cromos":4382,"acquisto":4383,"provocare":4384,"separazione":4385,"notevole":4386,"mangiare":4387,"giuridico":4388,"contrib":4389,"paziente":4390,"ingresso":4391,"toponimo":4392,"commestibile":4393,"assomiglia":4394,"viceversa":4395,"Gesù":4396,"ossa":4397,"pig":4398,"pone":4399,"##rlo":4400,"##stare":4401,"##centi":4402,"##veg":4403,"##dd":4404,"##bbi":4405,"dign":4406,"divin":4407,"##ania":4408,"##oga":4409,"##magn":4410,"##ttuale":4411,"##une":4412,"davanti":4413,"camm":4414,"massimo":4415,"morali":4416,"##usura":4417,"##erita":4418,"grasso":4419,"mand":4420,"manico":4421,"##endersi":4422,"terza":4423,"avanza":4424,"##mbre":4425,"##eglio":4426,"acuto":4427,"relativamente":4428,"indiri":4429,"indiff":4430,"##tilità":4431,"punte":4432,"prende":4433,"funzionale":4434,"segre":4435,"##iede":4436,"femmina":4437,"collegamento":4438,"estremo":4439,"espresso":4440,"angoli":4441,"capito":4442,"minerali":4443,"informazione":4444,"pareti":4445,"rinuncia":4446,"eccessivo":4447,"impiegato":4448,"sottoposto":4449,"fondato":4450,"lontano":4451,"richiesta":4452,"commerciale":4453,"bruno":4454,"apparecchiatura":4455,"dignità":4456,"divinità":4457,"Chi":4458,"cute":4459,"peli":4460,"sen":4461,"sino":4462,"##ario":4463,"##nti":4464,"##su":4465,"##tia":4466,"##uare":4467,"dietro":4468,"##rate":4469,"##tella":4470,"inda":4471,"##into":4472,"##ride":4473,"##osce":4474,"condotta":4475,"##ismatica":4476,"##lati":4477,"##ettivamente":4478,"##lire":4479,"##ttica":4480,"quoti":4481,"messo":4482,"prosp":4483,"anz":4484,"tradi":4485,"##ettori":4486,"##vate":4487,"chiusura":4488,"paese":4489,"corde":4490,"file":4491,"impe":4492,"terzo":4493,"str":4494,"nascita":4495,"legis":4496,"legato":4497,"endo":4498,"##ortazione":4499,"esplici":4500,"tavola":4501,"stella":4502,"quanti":4503,"##diale":4504,"rov":4505,"numismatica":4506,"diffusa":4507,"soldati":4508,"metrica":4509,"abitanti":4510,"strade":4511,"sangu":4512,"##licità":4513,"rimuovere":4514,"raccon":4515,"svolgimento":4516,"capire":4517,"valutare":4518,"cinema":4519,"controllare":4520,"comprende":4521,"soggetti":4522,"##sciu":4523,"comunicare":4524,"conseguente":4525,"croce":4526,"messaggio":4527,"abitudine":4528,"eccessiva":4529,"istituto":4530,"combustibile":4531,"errori":4532,"crud":4533,"esecuzione":4534,"adegua":4535,"degra":4536,"fornisce":4537,"Francia":4538,"risorse":4539,"acciaio":4540,"paleontologia":4541,"cran":4542,"essi":4543,"fos":4544,"melo":4545,"veli":4546,"##gico":4547,"##gne":4548,"##bina":4549,"dita":4550,"dina":4551,"##iorità":4552,"quo":4553,"##inario":4554,"subire":4555,"cadere":4556,"##damente":4557,"motiva":4558,"fatica":4559,"scia":4560,"rib":4561,"appoggia":4562,"patrimonio":4563,"propa":4564,"partecip":4565,"impul":4566,"pul":4567,"rigi":4568,"intervento":4569,"carro":4570,"carnivo":4571,"psich":4572,"profondo":4573,"tubo":4574,"vaga":4575,"assor":4576,"farmaco":4577,"finali":4578,"compie":4579,"segu":4580,"rappresentare":4581,"abitazione":4582,"determinate":4583,"frasi":4584,"disco":4585,"liquida":4586,"##ensibile":4587,"situata":4588,"successo":4589,"semplici":4590,"roman":4591,"spirito":4592,"economici":4593,"economiche":4594,"conoscere":4595,"fortemente":4596,"preparare":4597,"effettua":4598,"orientale":4599,"cavalli":4600,"destinata":4601,"successivamente":4602,"modifica":4603,"causato":4604,"fotogra":4605,"larghe":4606,"conservare":4607,"stretto":4608,"documenti":4609,"costituisce":4610,"problema":4611,"giovani":4612,"letteraria":4613,"erbacea":4614,"visibile":4615,"manufatto":4616,"eliminare":4617,"interpretazione":4618,"terape":4619,"sapere":4620,"riuscire":4621,"affrontare":4622,"insegnamento":4623,"ragionamento":4624,"lasciare":4625,"riconoscere":4626,"FFF":4627,"Na":4628,"Vi":4629,"bg":4630,"festa":4631,"vendere":4632,"##ltà":4633,"##tù":4634,"##ck":4635,"##varne":4636,"##bato":4637,"##AA":4638,"##E0":4639,"##FE0":4640,"##iono":4641,"##rimere":4642,"##ssion":4643,"perman":4644,"##urare":4645,"##eca":4646,"cattivo":4647,"moda":4648,"compra":4649,"##eriformi":4650,"posse":4651,"leone":4652,"##bbra":4653,"fibre":4654,"partecipa":4655,"aventi":4656,"privata":4657,"prestazione":4658,"dista":4659,"vasi":4660,"superare":4661,"insegna":4662,"differente":4663,"cerim":4664,"##idale":4665,"credere":4666,"determinare":4667,"totalmente":4668,"circonda":4669,"aspi":4670,"ausi":4671,"speciale":4672,"special":4673,"schel":4674,"indumento":4675,"giudica":4676,"##andosi":4677,"culto":4678,"esercita":4679,"ritmo":4680,"correnti":4681,"favorire":4682,"##ranea":4683,"braccio":4684,"successivo":4685,"acquisi":4686,"moltiplica":4687,"copertura":4688,"fornire":4689,"eccessivamente":4690,"suddivisione":4691,"risolvere":4692,"conduce":4693,"professionale":4694,"stabilire":4695,"assoluto":4696,"parallele":4697,"onore":4698,"##color":4699,"trasferimento":4700,"volontariamente":4701,"competizione":4702,"ironico":4703,"Bibbia":4704,"adul":4705,"FFFFE0":4706,"bgcolor":4707,"gon":4708,"richia":4709,"zone":4710,"##rine":4711,"##reni":4712,"##sità":4713,"##stante":4714,"##ibile":4715,"##gina":4716,"##gola":4717,"##gua":4718,"##fare":4719,"##uità":4720,"##quo":4721,"##toso":4722,"##arlo":4723,"suona":4724,"cata":4725,"matura":4726,"##datti":4727,"mobili":4728,"radia":4729,"depre":4730,"compia":4731,"compro":4732,"presi":4733,"##vile":4734,"ingen":4735,"##tur":4736,"##ficato":4737,"polim":4738,"stampa":4739,"##ttale":4740,"zoo":4741,"indietro":4742,"tagliare":4743,"##uisce":4744,"ricco":4745,"##istici":4746,"german":4747,"utilizzare":4748,"##onima":4749,"##onimento":4750,"infini":4751,"compiti":4752,"trasmettere":4753,"serp":4754,"prodotta":4755,"intesa":4756,"##dersi":4757,"alimentazione":4758,"uniforme":4759,"dimensione":4760,"fuorius":4761,"capitale":4762,"religiosi":4763,"preparato":4764,"effettuata":4765,"locali":4766,"culturali":4767,"rivel":4768,"tranqui":4769,"campi":4770,"considerazione":4771,"sovrapp":4772,"lievi":4773,"potenziale":4774,"allungata":4775,"azzurro":4776,"discussione":4777,"ricevuto":4778,"abbreviazione":4779,"esplosi":4780,"aeromobile":4781,"legisla":4782,"San":4783,"Sole":4784,"XV":4785,"aran":4786,"detti":4787,"iper":4788,"muro":4789,"meglio":4790,"of":4791,"osci":4792,"ran":4793,"toll":4794,"urina":4795,"vela":4796,"##gione":4797,"##par":4798,"##dig":4799,"##fal":4800,"##fero":4801,"##fini":4802,"##udo":4803,"##rano":4804,"pericolo":4805,"conver":4806,"##etici":4807,"##dori":4808,"queste":4809,"prossimo":4810,"##ppe":4811,"rad":4812,"fautore":4813,"tradizione":4814,"##zionare":4815,"appunti":4816,"pace":4817,"vite":4818,"grano":4819,"coll":4820,"cito":4821,"cielo":4822,"##bbio":4823,"##endone":4824,"seta":4825,"esse":4826,"##pito":4827,"##form":4828,"dotata":4829,"##ciato":4830,"avanti":4831,"acco":4832,"basi":4833,"##ulsione":4834,"codice":4835,"legale":4836,"tiene":4837,"profon":4838,"##ziosa":4839,"regioni":4840,"sportiva":4841,"oppone":4842,"uscire":4843,"insu":4844,"sapi":4845,"temporale":4846,"alleg":4847,"cerchio":4848,"##ratori":4849,"##cciare":4850,"libri":4851,"occidentale":4852,"anima":4853,"##zoica":4854,"ruolo":4855,"##esima":4856,"lineare":4857,"avversione":4858,"dolci":4859,"singolo":4860,"scarsa":4861,"preciso":4862,"leggera":4863,"omonima":4864,"dialettale":4865,"ipocri":4866,"costruito":4867,"ricop":4868,"metabol":4869,"urb":4870,"virtù":4871,"venire":4872,"alterazioni":4873,"funghi":4874,"soddisfazione":4875,"ostacolo":4876,"##carb":4877,"influenza":4878,"embr":4879,"flusso":4880,"aeroplano":4881,"16":4882,"RNA":4883,"blas":4884,"clo":4885,"fian":4886,"lenta":4887,"mini":4888,"omos":4889,"setti":4890,"##rgan":4891,"##ttività":4892,"##onato":4893,"digi":4894,"##lea":4895,"pericol":4896,"##isioni":4897,"##tten":4898,"##ccu":4899,"##unità":4900,"mezz":4901,"andamento":4902,"supera":4903,"mai":4904,"massima":4905,"spig":4906,"arto":4907,"radici":4908,"radice":4909,"pregio":4910,"riduzione":4911,"riesce":4912,"corona":4913,"colpa":4914,"##ssiva":4915,"sei":4916,"##ziali":4917,"riscal":4918,"accezione":4919,"interro":4920,"versi":4921,"nemico":4922,"prime":4923,"enti":4924,"attivo":4925,"relativa":4926,"tute":4927,"##metri":4928,"disponi":4929,"##alora":4930,"##gire":4931,"canale":4932,"pesante":4933,"scientifiche":4934,"rappresentato":4935,"iden":4936,"idone":4937,"fores":4938,"vocale":4939,"minerale":4940,"definita":4941,"locuzione":4942,"facilità":4943,"visc":4944,"brano":4945,"televisione":4946,"investi":4947,"accade":4948,"domin":4949,"letteralmente":4950,"veniva":4951,"ossidazione":4952,"inasp":4953,"disagio":4954,"ciclo":4955,"responsabilità":4956,"elen":4957,"immediatamente":4958,"automobile":4959,"guadagno":4960,"ghiandole":4961,"gambe":4962,"notizie":4963,"verbale":4964,"idrocarb":4965,"Con":4966,"Cristo":4967,"Ger":4968,"ala":4969,"cess":4970,"fusione":4971,"genti":4972,"ioni":4973,"letto":4974,"lana":4975,"tim":4976,"vesco":4977,"##rol":4978,"##rino":4979,"##rendere":4980,"##sma":4981,"##ttivi":4982,"##tuna":4983,"##messo":4984,"##ezioni":4985,"##cos":4986,"##pio":4987,"##pare":4988,"##hy":4989,"iner":4990,"unica":4991,"##rietà":4992,"##omor":4993,"conti":4994,"##mai":4995,"##inata":4996,"and":4997,"antic":4998,"##itura":4999,"cav":5000,"cara":5001,"arca":5002,"prete":5003,"figli":5004,"figlio":5005,"papa":5006,"##natura":5007,"##zzante":5008,"##cati":5009,"secco":5010,"essenziale":5011,"##tena":5012,"molle":5013,"coi":5014,"privato":5015,"giro":5016,"second":5017,"assume":5018,"##metica":5019,"dette":5020,"##onie":5021,"diffusione":5022,"canto":5023,"elettromagn":5024,"scopi":5025,"elettriche":5026,"alimentari":5027,"esercitare":5028,"precedenza":5029,"sviluppa":5030,"difetto":5031,"macchine":5032,"effettuato":5033,"modello":5034,"locomo":5035,"##ferenza":5036,"parassi":5037,"bandi":5038,"teatrale":5039,"Inter":5040,"merce":5041,"combinazione":5042,"cause":5043,"intento":5044,"cuoio":5045,"membro":5046,"necessari":5047,"cilindro":5048,"impiego":5049,"addome":5050,"trattamento":5051,"sostenere":5052,"intensa":5053,"epite":5054,"atmosfera":5055,"pronunciare":5056,"sillaba":5057,"esigenze":5058,"incapacità":5059,"rettangolare":5060,"intervallo":5061,"coraggio":5062,"dinanzi":5063,"utilizzando":5064,"cranio":5065,"omosessu":5066,"DNA":5067,"Rep":5068,"Ta":5069,"acidi":5070,"ber":5071,"bic":5072,"dorso":5073,"fri":5074,"les":5075,"rich":5076,"resti":5077,"sche":5078,"settore":5079,"talora":5080,"usi":5081,"##nello":5082,"##sale":5083,"##ir":5084,"##gin":5085,"##poli":5086,"##detto":5087,"##bro":5088,"##uali":5089,"##icola":5090,"##resc":5091,"##tamento":5092,"##olec":5093,"##telli":5094,"perpend":5095,"##orno":5096,"##isto":5097,"##ettere":5098,"lama":5099,"prostitu":5100,"##dibile":5101,"anom":5102,"fasi":5103,"preo":5104,"previs":5105,"trarre":5106,"trattare":5107,"forno":5108,"##mora":5109,"##iché":5110,"grazia":5111,"##bbero":5112,"formale":5113,"##ficata":5114,"##endenti":5115,"##entamento":5116,"personaggi":5117,"rigo":5118,"accen":5119,"copre":5120,"estin":5121,"##vendo":5122,"consente":5123,"acu":5124,"disin":5125,"psico":5126,"agenti":5127,"stesse":5128,"assic":5129,"disporre":5130,"noci":5131,"rot":5132,"rotante":5133,"musicali":5134,"solenne":5135,"calenda":5136,"completo":5137,"metro":5138,"canna":5139,"trovano":5140,"circosc":5141,"decomp":5142,"diretta":5143,"primatologia":5144,"passegg":5145,"tentare":5146,"morf":5147,"valutazione":5148,"maschio":5149,"benz":5150,"irra":5151,"considerata":5152,"larga":5153,"cilindrico":5154,"migliore":5155,"emozioni":5156,"obiettivi":5157,"microrgan":5158,"intellettuale":5159,"dubbio":5160,"colonna":5161,"sbarra":5162,"ornamento":5163,"reazioni":5164,"##tanea":5165,"long":5166,"uova":5167,"riguardante":5168,"provve":5169,"geografica":5170,"intelligenza":5171,"coagu":5172,"vuoto":5173,"costumi":5174,"multi":5175,"azoto":5176,"Medio":5177,"Uniti":5178,"dialogo":5179,"custo":5180,"dar":5181,"fol":5182,"flo":5183,"foglio":5184,"fegato":5185,"mera":5186,"nom":5187,"peggio":5188,"timo":5189,"tris":5190,"vano":5191,"##riche":5192,"##nice":5193,"##sch":5194,"##lino":5195,"##can":5196,"##cali":5197,"##viare":5198,"##pisce":5199,"##dinali":5200,"##bia":5201,"##ualmente":5202,"##tarsi":5203,"##tire":5204,"##tismo":5205,"indis":5206,"##ridi":5207,"##ormente":5208,"conquis":5209,"##dioso":5210,"ana":5211,"sugli":5212,"cavi":5213,"cassa":5214,"catali":5215,"spia":5216,"##sima":5217,"parzialmente":5218,"##datura":5219,"modu":5220,"componimento":5221,"pioggia":5222,"##liarità":5223,"pochi":5224,"potre":5225,"##turi":5226,"##veva":5227,"grafica":5228,"corro":5229,"corna":5230,"proposizione":5231,"mantello":5232,"polpa":5233,"imposta":5234,"storica":5235,"accettare":5236,"batte":5237,"esiste":5238,"meccaniche":5239,"esposizione":5240,"mira":5241,"vapore":5242,"ricchezza":5243,"superiorità":5244,"affer":5245,"coloranti":5246,"elettronici":5247,"##gitto":5248,"resi":5249,"resistente":5250,"solidi":5251,"biotecn":5252,"concern":5253,"##tolog":5254,"mettersi":5255,"vecchio":5256,"crede":5257,"strani":5258,"contenuti":5259,"artigli":5260,"centri":5261,"foro":5262,"decisione":5263,"bilan":5264,"traspar":5265,"nuova":5266,"simbol":5267,"simboli":5268,"ritro":5269,"ricavato":5270,"evidenza":5271,"religiose":5272,"istin":5273,"approf":5274,"negative":5275,"originale":5276,"banda":5277,"repubblica":5278,"fondamentale":5279,"leggero":5280,"commesso":5281,"suddivi":5282,"concezione":5283,"congegno":5284,"identità":5285,"magistra":5286,"improvviso":5287,"arit":5288,"velocemente":5289,"giornal":5290,"categoria":5291,"domestico":5292,"ognuno":5293,"profilo":5294,"abbondante":5295,"momenti":5296,"amicizia":5297,"esclusivamente":5298,"poligono":5299,"raggrupp":5300,"ecclesiastico":5301,"Chiesa":5302,"larghezza":5303,"terapeu":5304,"preoccu":5305,"Ch":5306,"bro":5307,"bos":5308,"belle":5309,"deno":5310,"eter":5311,"fogli":5312,"gol":5313,"gin":5314,"ira":5315,"nit":5316,"ness":5317,"omon":5318,"pelo":5319,"the":5320,"venti":5321,"zero":5322,"##idere":5323,"##cin":5324,"##cento":5325,"##cendo":5326,"##genti":5327,"##vera":5328,"##bare":5329,"dio":5330,"dieci":5331,"##ollo":5332,"unisce":5333,"##orme":5334,"##igna":5335,"##tivato":5336,"cattura":5337,"case":5338,"ramp":5339,"##ceo":5340,"prepo":5341,"rila":5342,"ormai":5343,"##liar":5344,"poche":5345,"##ianti":5346,"tecnico":5347,"inganno":5348,"ingius":5349,"gradu":5350,"polie":5351,"stamp":5352,"essendo":5353,"organici":5354,"##perta":5355,"##ralmente":5356,"##ssata":5357,"rischi":5358,"attrazione":5359,"matematico":5360,"leggere":5361,"consistenza":5362,"presentare":5363,"sullo":5364,"##istenti":5365,"puni":5366,"rocce":5367,"alcuna":5368,"sacri":5369,"gioi":5370,"caldo":5371,"spessore":5372,"determin":5373,"piana":5374,"##mana":5375,"##manti":5376,"strati":5377,"popolazioni":5378,"strutturale":5379,"uccidere":5380,"fossi":5381,"diretto":5382,"sfera":5383,"alimento":5384,"##guere":5385,"risulta":5386,"definito":5387,"violento":5388,"umane":5389,"onda":5390,"favori":5391,"favorisce":5392,"appropria":5393,"##raneamente":5394,"erano":5395,"quadro":5396,"crosta":5397,"veriti":5398,"giudizia":5399,"questioni":5400,"apposito":5401,"cittadino":5402,"##prote":5403,"bambino":5404,"semic":5405,"prestabili":5406,"milioni":5407,"dirige":5408,"ponte":5409,"architettonico":5410,"giocatore":5411,"armonia":5412,"involon":5413,"dentro":5414,"gomma":5415,"litur":5416,"intermedio":5417,"sacerdote":5418,"sfrutta":5419,"quotid":5420,"zootecnica":5421,"fuoriuscita":5422,"profondità":5423,"secondaria":5424,"longitu":5425,"12":5426,"bel":5427,"ex":5428,"less":5429,"lento":5430,"pala":5431,"retta":5432,"retro":5433,"ster":5434,"tar":5435,"##rin":5436,"##th":5437,"##em":5438,"##europe":5439,"##gersi":5440,"##vio":5441,"##plas":5442,"##ware":5443,"##iato":5444,"##rebbe":5445,"##tilla":5446,"##rimento":5447,"##ssime":5448,"##istan":5449,"alte":5450,"##ettive":5451,"##iovan":5452,"##iglie":5453,"lava":5454,"laure":5455,"##die":5456,"##ciò":5457,"##esca":5458,"catena":5459,"arra":5460,"armato":5461,"precipi":5462,"scru":5463,"nonché":5464,"chiudere":5465,"poteri":5466,"pad":5467,"ingi":5468,"viola":5469,"grassi":5470,"stabile":5471,"##tende":5472,"genetico":5473,"batta":5474,"mollus":5475,"privile":5476,"entro":5477,"garanti":5478,"mille":5479,"age":5480,"incre":5481,"##rando":5482,"affin":5483,"abbia":5484,"disposti":5485,"nobile":5486,"rocci":5487,"gergo":5488,"conclusione":5489,"soldato":5490,"certezza":5491,"cercando":5492,"compimento":5493,"apparentemente":5494,"cann":5495,"canz":5496,"abiti":5497,"cresc":5498,"contenuta":5499,"circond":5500,"finestra":5501,"spada":5502,"ambienti":5503,"protegge":5504,"appartenenza":5505,"parlato":5506,"universi":5507,"organizza":5508,"portato":5509,"offensivo":5510,"risultati":5511,"variazioni":5512,"difetti":5513,"becco":5514,"pallone":5515,"rimpro":5516,"##ditori":5517,"definire":5518,"definizione":5519,"funzionare":5520,"equivalente":5521,"##edro":5522,"ferrovia":5523,"telefon":5524,"obbligato":5525,"modificare":5526,"##eratore":5527,"procedimenti":5528,"attacco":5529,"riprodu":5530,"sottili":5531,"ampie":5532,"cemento":5533,"subordina":5534,"stretta":5535,"costruire":5536,"programmi":5537,"soddisfare":5538,"sensibilità":5539,"articolazione":5540,"coprire":5541,"questione":5542,"appositi":5543,"numerose":5544,"colonne":5545,"##eggiare":5546,"ornamentale":5547,"assemb":5548,"ripara":5549,"ostacoli":5550,"responsabile":5551,"immobile":5552,"educazione":5553,"sostituzione":5554,"pelliccia":5555,"ognuna":5556,"sicurezza":5557,"argomenta":5558,"condanna":5559,"veter":5560,"bastone":5561,"amminoacido":5562,"chirurgica":5563,"immunitario":5564,"tedesco":5565,"metabolismo":5566,"minima":5567,"Repubblica":5568,"biotecnologia":5569,"Pro":5570,"XI":5571,"barca":5572,"cento":5573,"isc":5574,"lontan":5575,"mali":5576,"ni":5577,"nar":5578,"ren":5579,"stanza":5580,"sorre":5581,"tan":5582,"trig":5583,"van":5584,"zol":5585,"|-":5586,"##rli":5587,"##ste":5588,"##guar":5589,"##geni":5590,"##vanza":5591,"##dale":5592,"##ssic":5593,"perciò":5594,"##ogna":5595,"align":5596,"##ster":5597,"labo":5598,"##ensa":5599,"##ensare":5600,"##unica":5601,"##ttori":5602,"mese":5603,"##diti":5604,"sugg":5605,"mac":5606,"maius":5607,"argi":5608,"demo":5609,"compenso":5610,"preso":5611,"preghi":5612,"##mitt":5613,"rido":5614,"##eratamente":5615,"##voca":5616,"gradevole":5617,"##zzarsi":5618,"##ganza":5619,"##endolo":5620,"pudore":5621,"terreni":5622,"##ludere":5623,"##ssamento":5624,"interni":5625,"meccanismi":5626,"giungere":5627,"indipend":5628,"disegni":5629,"music":5630,"opposizione":5631,"superfic":5632,"uscita":5633,"coloro":5634,"##giu":5635,"marino":5636,"lavori":5637,"##bossi":5638,"##cciata":5639,"contrasto":5640,"popoli":5641,"##grado":5642,"center":5643,"beneficio":5644,"esemp":5645,"voto":5646,"anticamente":5647,"nuove":5648,"realizza":5649,"sentire":5650,"raggiunto":5651,"riman":5652,"ricavarne":5653,"morti":5654,"modelli":5655,"viso":5656,"aggiungere":5657,"grosse":5658,"dipende":5659,"titoli":5660,"campa":5661,"separa":5662,"tornare":5663,"abitudini":5664,"indoeurope":5665,"civiltà":5666,"riconoscimento":5667,"gestione":5668,"introduzione":5669,"clima":5670,"genitori":5671,"vestito":5672,"terapia":5673,"atleta":5674,"contrapposizione":5675,"bevande":5676,"sembra":5677,"astratto":5678,"riunione":5679,"reciproco":5680,"affermazione":5681,"conosciuto":5682,"astrologia":5683,"branca":5684,"accumulo":5685,"navigazione":5686,"dispositivi":5687,"università":5688,"gassoso":5689,"tutela":5690,"elenco":5691,"calendario":5692,"Medioevo":5693,"Car":5694,"Spa":5695,"assa":5696,"adotta":5697,"duro":5698,"equ":5699,"elli":5700,"fec":5701,"narra":5702,"retto":5703,"tond":5704,"vola":5705,"vana":5706,"##rici":5707,"##net":5708,"##sato":5709,"##logia":5710,"##veri":5711,"##done":5712,"##bus":5713,"##bria":5714,"##ft":5715,"##fis":5716,"##ut":5717,"##ermente":5718,"##red":5719,"##olu":5720,"##olti":5721,"inta":5722,"##letto":5723,"##riera":5724,"##alti":5725,"convi":5726,"##isten":5727,"##arsa":5728,"alti":5729,"macro":5730,"matrice":5731,"sposa":5732,"debito":5733,"pref":5734,"formanti":5735,"scin":5736,"rid":5737,"ritor":5738,"##dure":5739,"ord":5740,"elementare":5741,"appella":5742,"appoggio":5743,"passi":5744,"vivo":5745,"cima":5746,"proposito":5747,"##patia":5748,"seme":5749,"essenza":5750,"ristre":5751,"teo":5752,"nazione":5753,"molta":5754,"copi":5755,"carenza":5756,"enuncia":5757,"disg":5758,"taba":5759,"ricos":5760,"##tatore":5761,"deten":5762,"affa":5763,"disper":5764,"insta":5765,"marrone":5766,"sacra":5767,"confer":5768,"solvente":5769,"calza":5770,"individuale":5771,"complemento":5772,"pianeta":5773,"##mania":5774,"toccare":5775,"sfer":5776,"signo":5777,"##andone":5778,"attraversare":5779,"malato":5780,"corretta":5781,"valuta":5782,"masch":5783,"brevi":5784,"bianchi":5785,"differenzia":5786,"inferiori":5787,"India":5788,"posizioni":5789,"poste":5790,"temperature":5791,"sorveg":5792,"intenzione":5793,"intenzioni":5794,"separare":5795,"largo":5796,"industriali":5797,"necessarie":5798,"manifestazioni":5799,"addetto":5800,"cattolica":5801,"ritenuto":5802,"semplicemente":5803,"collegati":5804,"eliminazione":5805,"riguardano":5806,"innova":5807,"cristalli":5808,"vestiti":5809,"dividere":5810,"arrivare":5811,"probabilità":5812,"aerei":5813,"fantasia":5814,"sillabe":5815,"triangolo":5816,"giocatori":5817,"coltivazione":5818,"raggiungimento":5819,"glucos":5820,"montagna":5821,"distruggere":5822,"sgradevole":5823,"quantita":5824,"glucosio":5825,"20":5826,"Ru":5827,"Rom":5828,"Ti":5829,"ade":5830,"aqui":5831,"america":5832,"asciu":5833,"foglia":5834,"pic":5835,"rosa":5836,"tetto":5837,"##rà":5838,"##rena":5839,"##stanza":5840,"##otti":5841,"##marsi":5842,"##cul":5843,"##gini":5844,"##venza":5845,"##ki":5846,"##ervi":5847,"##enn":5848,"##tosi":5849,"##tazioni":5850,"intr":5851,"inuti":5852,"##rosi":5853,"perp":5854,"conci":5855,"##ettazione":5856,"##strato":5857,"quarti":5858,"comin":5859,"##dite":5860,"antiche":5861,"cade":5862,"parl":5863,"partici":5864,"prefi":5865,"##dezza":5866,"scorrere":5867,"rito":5868,"ritiene":5869,"##icilia":5870,"leva":5871,"fissare":5872,"##endendo":5873,"implica":5874,"puro":5875,"doppio":5876,"avendo":5877,"accento":5878,"##ullo":5879,"nautica":5880,"prim":5881,"privare":5882,"entus":5883,"giusto":5884,"game":5885,"filosofo":5886,"tasti":5887,"##istema":5888,"farmace":5889,"particella":5890,"noi":5891,"##trici":5892,"confuso":5893,"conferire":5894,"aiutare":5895,"##minali":5896,"apparente":5897,"apparenza":5898,"indicazione":5899,"lunghi":5900,"pepti":5901,"buone":5902,"circon":5903,"asportazione":5904,"cristiana":5905,"minimo":5906,"induce":5907,"indurre":5908,"derivata":5909,"occup":5910,"ricavare":5911,"motocic":5912,"carbura":5913,"legati":5914,"giar":5915,"##ferisce":5916,"riceve":5917,"falsa":5918,"incontra":5919,"panc":5920,"sorgente":5921,"procedere":5922,"diagn":5923,"leggermente":5924,"Pass":5925,"cilindrica":5926,"abbastanza":5927,"ordinato":5928,"istituzione":5929,"personali":5930,"civili":5931,"cambiamenti":5932,"impasto":5933,"orecchio":5934,"manifestare":5935,"continuamente":5936,"impianti":5937,"##ittima":5938,"rapida":5939,"sopportare":5940,"premio":5941,"specializzato":5942,"telaio":5943,"laterale":5944,"autonom":5945,"celeb":5946,"fastidio":5947,"eventuali":5948,"sostantivo":5949,"giustizia":5950,"inorganica":5951,"impedimento":5952,"carnivoro":5953,"scheletro":5954,"presidente":5955,"ipocrita":5956,"cloro":5957,"aritmetica":5958,"omonimo":5959,"##plasma":5960,"veterinaria":5961,"zolfo":5962,"appellativo":5963,"participio":5964,"entusia":5965,"Di":5966,"Nella":5967,"Qu":5968,"Un":5969,"der":5970,"ego":5971,"ebre":5972,"europe":5973,"ful":5974,"gente":5975,"lus":5976,"petto":5977,"pene":5978,"porto":5979,"treno":5980,"##azioni":5981,"##rono":5982,"##lom":5983,"##ttiv":5984,"##ttan":5985,"##mme":5986,"##dura":5987,"##falo":5988,"##ule":5989,"invero":5990,"invia":5991,"##ritta":5992,"##omba":5993,"##ombo":5994,"##arch":5995,"alp":5996,"##urato":5997,"##egui":5998,"labbra":5999,"##inati":6000,"##cile":6001,"ante":6002,"caff":6003,"##essere":6004,"##ticamente":6005,"complica":6006,"tratten":6007,"##zzamento":6008,"##zionata":6009,"##mie":6010,"scena":6011,"ridu":6012,"rivolta":6013,"fisi":6014,"ordini":6015,"##trali":6016,"##erati":6017,"pasc":6018,"padre":6019,"##onazione":6020,"##pote":6021,"gravità":6022,"fib":6023,"##cab":6024,"stabilità":6025,"##gano":6026,"pugi":6027,"allumin":6028,"##roni":6029,"accel":6030,"##cchie":6031,"cotto":6032,"cottura":6033,"cardinali":6034,"enologia":6035,"muscolare":6036,"affettiva":6037,"disposte":6038,"nove":6039,"infezione":6040,"calcare":6041,"certi":6042,"cani":6043,"rispetta":6044,"##iezione":6045,"ottico":6046,"applicare":6047,"##ologie":6048,"scientifico":6049,"artista":6050,"aust":6051,"discre":6052,"periodica":6053,"vocab":6054,"femminili":6055,"pratiche":6056,"ideale":6057,"offrire":6058,"presentano":6059,"formando":6060,"plastiche":6061,"prepara":6062,"colloqu":6063,"violenta":6064,"curare":6065,"parag":6066,"atteggiamenti":6067,"recu":6068,"quadrato":6069,"eseguito":6070,"positiva":6071,"entrambi":6072,"nervo":6073,"sorte":6074,"ufficiali":6075,"palese":6076,"costruita":6077,"ricopre":6078,"emozione":6079,"liberare":6080,"istituzioni":6081,"##llante":6082,"sottoporre":6083,"verticali":6084,"deposito":6085,"microscop":6086,"apice":6087,"fluidi":6088,"riconosciuto":6089,"elaborare":6090,"iniziativa":6091,"spiritu":6092,"funge":6093,"esteso":6094,"prestazioni":6095,"proveni":6096,"ispirazione":6097,"racchiude":6098,"##quisi":6099,"abbandono":6100,"abbondanza":6101,"adattamento":6102,"momen":6103,"speranza":6104,"sforzo":6105,"spinta":6106,"ricorda":6107,"cinematografica":6108,"ghiaccio":6109,"soluzioni":6110,"cereali":6111,"cogni":6112,"radicale":6113,"cromosomi":6114,"crudele":6115,"velivolo":6116,"oscilla":6117,"accoppia":6118,"sapienza":6119,"arcaico":6120,"bandiera":6121,"timore":6122,"catalizza":6123,"bellezza":6124,"pancrea":6125,"lusing":6126,"Po":6127,"Ver":6128,"dente":6129,"fanno":6130,"monom":6131,"niente":6132,"orale":6133,"pess":6134,"sele":6135,"##len":6136,"##luso":6137,"##tuito":6138,"##cre":6139,"##gl":6140,"##don":6141,"##ho":6142,"##fre":6143,"##utato":6144,"##ongono":6145,"##enni":6146,"##ellu":6147,"ine":6148,"invi":6149,"##icare":6150,"chio":6151,"##anche":6152,"##ogeno":6153,"conosce":6154,"alge":6155,"##mate":6156,"proto":6157,"prove":6158,"anali":6159,"##ppare":6160,"##ppie":6161,"##eco":6162,"cass":6163,"sito":6164,"debi":6165,"##olore":6166,"##ziona":6167,"##egnato":6168,"paga":6169,"##core":6170,"fissato":6171,"manca":6172,"polmoni":6173,"##cario":6174,"cosmet":6175,"reci":6176,"##entate":6177,"genetica":6178,"teor":6179,"strisce":6180,"interamente":6181,"liv":6182,"vertici":6183,"attenta":6184,"cotone":6185,"religioni":6186,"registro":6187,"##estione":6188,"##diano":6189,"eccell":6190,"sag":6191,"linguistico":6192,"seguire":6193,"##ratorio":6194,"contrasta":6195,"vede":6196,"trovarsi":6197,"applicazioni":6198,"circolazione":6199,"##gnare":6200,"strutturali":6201,"integra":6202,"attribuzione":6203,"uccide":6204,"periodi":6205,"errone":6206,"simmet":6207,"##vatore":6208,"salva":6209,"biologico":6210,"collettivo":6211,"unito":6212,"attraversa":6213,"romani":6214,"variabili":6215,"conseguire":6216,"mondiale":6217,"correggere":6218,"mancanze":6219,"appassion":6220,"aperta":6221,"funzionali":6222,"soprav":6223,"limitato":6224,"smar":6225,"recente":6226,"costruzioni":6227,"trans":6228,"territoriale":6229,"precis":6230,"precisione":6231,"benessere":6232,"fondata":6233,"rinno":6234,"intende":6235,"sconf":6236,"membri":6237,"annulla":6238,"abitualmente":6239,"grammaticale":6240,"subisce":6241,"squadre":6242,"pubblicazione":6243,"migliorare":6244,"miglioramento":6245,"sensibile":6246,"deposi":6247,"finito":6248,"respirazione":6249,"lancia":6250,"favorevole":6251,"riparo":6252,"fiato":6253,"terminale":6254,"profondamente":6255,"casuale":6256,"aereo":6257,"connettivo":6258,"concreto":6259,"triangolare":6260,"intima":6261,"transito":6262,"disprezzo":6263,"contraddistinto":6264,"##dicesimo":6265,"preposto":6266,"decorativo":6267,"occasione":6268,"ripetizione":6269,"ragazzo":6270,"ostilità":6271,"ipotesi":6272,"prestigio":6273,"secrezione":6274,"peculiarità":6275,"autoveicolo":6276,"##dattili":6277,"radiazioni":6278,"germanica":6279,"serpente":6280,"ricoprire":6281,"embrione":6282,"foresti":6283,"perpendic":6284,"passeggeri":6285,"concernente":6286,"denota":6287,"ampiezza":6288,"Spagna":6289,"teorie":6290,"15":6291,"22":6292,"Cor":6293,"Mon":6294,"Pu":6295,"Regno":6296,"Sal":6297,"Tur":6298,"ace":6299,"aveva":6300,"centi":6301,"cure":6302,"etero":6303,"emette":6304,"gel":6305,"lui":6306,"nos":6307,"ple":6308,"pet":6309,"pura":6310,"panno":6311,"stro":6312,"tena":6313,"vesc":6314,"##ara":6315,"##tun":6316,"##var":6317,"##ps":6318,"##diche":6319,"##fato":6320,"##ressione":6321,"conca":6322,"confor":6323,"##igni":6324,"anten":6325,"anteriori":6326,"##itico":6327,"sur":6328,"susci":6329,"##chim":6330,"mae":6331,"parente":6332,"razionale":6333,"##cei":6334,"detiene":6335,"compare":6336,"pregia":6337,"##ffi":6338,"##zionalmente":6339,"##mide":6340,"piutto":6341,"##morosa":6342,"qualcos":6343,"orolog":6344,"chiese":6345,"##erate":6346,"appena":6347,"paglia":6348,"patria":6349,"##olata":6350,"grafico":6351,"corto":6352,"##ttimento":6353,"fibra":6354,"manuale":6355,"costo":6356,"##forico":6357,"lotta":6358,"rischio":6359,"accon":6360,"accosta":6361,"intermedia":6362,"liti":6363,"verte":6364,"conson":6365,"##unge":6366,"garan":6367,"disordina":6368,"profu":6369,"tab":6370,"secoli":6371,"incomp":6372,"incisione":6373,"producono":6374,"produttiva":6375,"##gie":6376,"infanzia":6377,"insul":6378,"inserimento":6379,"metalliche":6380,"sabbia":6381,"confli":6382,"confini":6383,"gioca":6384,"allevamento":6385,"trasmette":6386,"sottoline":6387,"sopran":6388,"riferirsi":6389,"partiti":6390,"vecchia":6391,"usati":6392,"creazione":6393,"famiglie":6394,"applicato":6395,"pezze":6396,"ripre":6397,"riparti":6398,"attribuire":6399,"spagn":6400,"ministro":6401,"##ensiva":6402,"fosse":6403,"decisioni":6404,"santo":6405,"parlate":6406,"##gliato":6407,"fumo":6408,"spirale":6409,"schermo":6410,"difendere":6411,"malgrado":6412,"macchia":6413,"ricava":6414,"ultimi":6415,"maggiori":6416,"braccia":6417,"quadrata":6418,"successivi":6419,"divenire":6420,"falso":6421,"scarico":6422,"escre":6423,"replica":6424,"esegue":6425,"obbligazione":6426,"frequente":6427,"frequentemente":6428,"campione":6429,"desideri":6430,"positivi":6431,"posteriori":6432,"maschili":6433,"fondamento":6434,"ampli":6435,"conserva":6436,"pronto":6437,"migliora":6438,"barba":6439,"accadere":6440,"articolo":6441,"blocca":6442,"conduttore":6443,"letterale":6444,"cosciente":6445,"elaborazione":6446,"spostarsi":6447,"descrivere":6448,"solleci":6449,"##taneo":6450,"maggiormente":6451,"improvvisa":6452,"vantaggi":6453,"stimolo":6454,"operare":6455,"rapido":6456,"consumo":6457,"rettiline":6458,"intran":6459,"agitazione":6460,"procurare":6461,"camera":6462,"percepire":6463,"magnetico":6464,"sostituisce":6465,"finanziaria":6466,"dispregiativo":6467,"reciproca":6468,"proietti":6469,"argomenti":6470,"dichiarazione":6471,"vissuto":6472,"spiegazione":6473,"competenza":6474,"approfondimento":6475,"vivace":6476,"ambig":6477,"frammenti":6478,"disturbi":6479,"ingannare":6480,"camminare":6481,"capitoli":6482,"racconto":6483,"giudicare":6484,"depressione":6485,"fianco":6486,"anticor":6487,"residuo":6488,"preoccupa":6489,"musicista":6490,"sorveglia":6491,"circonferenza":6492,"caffè":6493,"piuttosto":6494,"Au":6495,"Imp":6496,"Mo":6497,"bia":6498,"bul":6499,"bella":6500,"cing":6501,"fum":6502,"fren":6503,"gene":6504,"glic":6505,"mine":6506,"moglie":6507,"nera":6508,"timi":6509,"vettore":6510,"##stazione":6511,"##mismo":6512,"##colari":6513,"##viglia":6514,"##pere":6515,"##pola":6516,"##dolo":6517,"##bisce":6518,"##retto":6519,"##ratura":6520,"##olano":6521,"##olante":6522,"##til":6523,"ines":6524,"##allo":6525,"##ogg":6526,"condotto":6527,"##arli":6528,"##archia":6529,"##late":6530,"##mendo":6531,"##eter":6532,"##mazione":6533,"##ttico":6534,"lacri":6535,"quel":6536,"anid":6537,"ansia":6538,"##itra":6539,"caduta":6540,"mari":6541,"maiale":6542,"##uite":6543,"##enteo":6544,"##atori":6545,"##terraneo":6546,"estrazione":6547,"deformazione":6548,"face":6549,"##vidi":6550,"##vizz":6551,"##zionamento":6552,"pila":6553,"##dute":6554,"##liari":6555,"elevate":6556,"##entire":6557,"##entino":6558,"##vore":6559,"##podi":6560,"colei":6561,"proposi":6562,"##ficazioni":6563,"mantiene":6564,"stata":6565,"sepol":6566,"costella":6567,"dovere":6568,"generi":6569,"##ziano":6570,"##lude":6571,"avuto":6572,"accedere":6573,"##mbo":6574,"vertebrati":6575,"attua":6576,"consenso":6577,"botte":6578,"gatto":6579,"esplo":6580,"distilla":6581,"agente":6582,"stemma":6583,"##mersi":6584,"assistenza":6585,"incolore":6586,"opposta":6587,"affari":6588,"ecce":6589,"criteri":6590,"notte":6591,"attore":6592,"##gibile":6593,"inserire":6594,"stupe":6595,"studente":6596,"resto":6597,"resta":6598,"febb":6599,"##fatti":6600,"sistematica":6601,"sinto":6602,"piatta":6603,"tropica":6604,"determinazione":6605,"##ologicamente":6606,"sistematico":6607,"finestre":6608,"artific":6609,"minus":6610,"##dinale":6611,"simula":6612,"caratterizzati":6613,"##gorie":6614,"geometrica":6615,"indul":6616,"bib":6617,"vocali":6618,"##vanta":6619,"porte":6620,"universo":6621,"nuovi":6622,"realizzata":6623,"tenuto":6624,"defin":6625,"attesa":6626,"offesa":6627,"scrive":6628,"significati":6629,"bestia":6630,"argenteo":6631,"malva":6632,"collocato":6633,"facile":6634,"soffre":6635,"visto":6636,"##ranei":6637,"dipendente":6638,"reparto":6639,"acquisire":6640,"batterio":6641,"fondamentali":6642,"scontro":6643,"internazionale":6644,"nucleoti":6645,"scrittore":6646,"abbassare":6647,"colpito":6648,"diventa":6649,"intelletto":6650,"apposite":6651,"numerosi":6652,"borsa":6653,"elabora":6654,"fonte":6655,"ossidri":6656,"rivolto":6657,"sottra":6658,"avvolto":6659,"avvolgere":6660,"giuridica":6661,"onori":6662,"milione":6663,"sospensione":6664,"ingredi":6665,"opportunità":6666,"provvisoria":6667,"polizia":6668,"ghiandola":6669,"##escenza":6670,"digerente":6671,"ovest":6672,"incapace":6673,"occasioni":6674,"necessariamente":6675,"ostenta":6676,"professionista":6677,"ammirazione":6678,"somiglianza":6679,"ostina":6680,"riemp":6681,"pavimento":6682,"efficace":6683,"scimmia":6684,"indagine":6685,"impulsi":6686,"Viene":6687,"cavali":6688,"bicic":6689,"richiede":6690,"decomposizione":6691,"potrebbe":6692,"trasparente":6693,"raggruppamento":6694,"rimprovero":6695,"Passeriformi":6696,"alluminio":6697,"17":6698,"24":6699,"Bo":6700,"Gal":6701,"Mus":6702,"Pi":6703,"Par":6704,"Se":6705,"bere":6706,"degno":6707,"denso":6708,"dunque":6709,"eva":6710,"fen":6711,"frazione":6712,"fuso":6713,"gesto":6714,"osp":6715,"tesa":6716,"tesi":6717,"veste":6718,"##rdine":6719,"##sio":6720,"##cor":6721,"##gion":6722,"##vando":6723,"##danza":6724,"##fu":6725,"##uf":6726,"##uria":6727,"##utili":6728,"##enna":6729,"dito":6730,"dimora":6731,"inven":6732,"##rile":6733,"##rioso":6734,"pertin":6735,"##ordine":6736,"##mens":6737,"##etre":6738,"##matiche":6739,"lampa":6740,"quar":6741,"sufficiente":6742,"##chetto":6743,"casta":6744,"mastica":6745,"part":6746,"armoni":6747,"rame":6748,"rabbia":6749,"devo":6750,"preven":6751,"pregiu":6752,"##erite":6753,"riti":6754,"ridotto":6755,"qualcun":6756,"chiusa":6757,"poeta":6758,"adol":6759,"addo":6760,"append":6761,"vivan":6762,"##nazionale":6763,"cifra":6764,"##bbene":6765,"mansioni":6766,"allar":6767,"essenzia":6768,"costa":6769,"recita":6770,"##pido":6771,"##uove":6772,"organiche":6773,"terzi":6774,"accogliere":6775,"accettato":6776,"##mbe":6777,"bagno":6778,"interazione":6779,"natante":6780,"attrito":6781,"carbossi":6782,"esisten":6783,"enig":6784,"consuma":6785,"bov":6786,"giù":6787,"relativi":6788,"miliar":6789,"agu":6790,"stelle":6791,"regno":6792,"##minale":6793,"##gazz":6794,"utilità":6795,"utilizzati":6796,"affettu":6797,"disputa":6798,"nobil":6799,"fune":6800,"margin":6801,"amiche":6802,"##ttezza":6803,"segmento":6804,"autov":6805,"automatico":6806,"generare":6807,"cancella":6808,"contrazione":6809,"pesca":6810,"peccato":6811,"aspro":6812,"aspetta":6813,"attribuito":6814,"spazi":6815,"propriamente":6816,"attirare":6817,"ferma":6818,"attraente":6819,"derivazione":6820,"derivante":6821,"organizzato":6822,"esterni":6823,"esteriore":6824,"vivono":6825,"offre":6826,"precedenti":6827,"giornata":6828,"distruzione":6829,"dovrebbe":6830,"ricavata":6831,"carbone":6832,"orifi":6833,"molecolare":6834,"maggioranza":6835,"proprietario":6836,"comprensibile":6837,"aggiun":6838,"nutre":6839,"##cciola":6840,"titolare":6841,"attinenza":6842,"desiderato":6843,"elastico":6844,"avveni":6845,"imprese":6846,"guer":6847,"diametro":6848,"riprodurre":6849,"coperta":6850,"distinguere":6851,"##teriormente":6852,"abituale":6853,"##landa":6854,"emis":6855,"raffred":6856,"concedere":6857,"sovrano":6858,"copia":6859,"coprica":6860,"ritenuta":6861,"osserva":6862,"osservare":6863,"muri":6864,"fungo":6865,"render":6866,"divisa":6867,"imbarcazioni":6868,"scelte":6869,"soddisfatto":6870,"estratto":6871,"estrarre":6872,"semis":6873,"arrot":6874,"rettile":6875,"rettili":6876,"arriva":6877,"circostanze":6878,"considerati":6879,"ponti":6880,"profitto":6881,"assegnato":6882,"validità":6883,"telec":6884,"reddito":6885,"denominazione":6886,"manovra":6887,"sciocca":6888,"prua":6889,"ebraica":6890,"ostile":6891,"imitazione":6892,"sostituire":6893,"efficacia":6894,"##losass":6895,"sprop":6896,"segreto":6897,"quota":6898,"ausilio":6899,"rancore":6900,"idoneo":6901,"Germania":6902,"gentile":6903,"assicura":6904,"tristezza":6905,"##proteina":6906,"involontaria":6907,"battaglia":6908,"preghiera":6909,"tondeggiante":6910,"tabacco":6911,"carburante":6912,"forestier":6913,"garanzia":6914,"anidride":6915,"osped":6916,"Egitto":6917,"Gia":6918,"Nuo":6919,"Te":6920,"aci":6921,"asti":6922,"etica":6923,"eru":6924,"ferita":6925,"gar":6926,"gla":6927,"gus":6928,"gino":6929,"glico":6930,"isti":6931,"otta":6932,"pin":6933,"prio":6934,"plu":6935,"pung":6936,"rina":6937,"rall":6938,"sè":6939,"settori":6940,"teg":6941,"tetra":6942,"teso":6943,"uva":6944,"vele":6945,"voglia":6946,"##rini":6947,"##ner":6948,"##nia":6949,"##nici":6950,"##nome":6951,"##stin":6952,"##ler":6953,"##messi":6954,"##com":6955,"##cenza":6956,"##pus":6957,"##ht":6958,"##fie":6959,"##onc":6960,"##onente":6961,"##ondu":6962,"##rativo":6963,"##tio":6964,"##tion":6965,"ino":6966,"##icata":6967,"##less":6968,"ungh":6969,"##indere":6970,"##rore":6971,"perso":6972,"##ogi":6973,"conno":6974,"contorno":6975,"##ttoni":6976,"quie":6977,"como":6978,"coman":6979,"mesti":6980,"pros":6981,"ano":6982,"anfi":6983,"##terio":6984,"##tana":6985,"preda":6986,"sensazioni":6987,"fortuna":6988,"##rupe":6989,"scegli":6990,"ritorno":6991,"chiedere":6992,"pote":6993,"poppa":6994,"eletto":6995,"adesi":6996,"aderire":6997,"##egnare":6998,"appeti":6999,"parità":7000,"pagina":7001,"ingran":7002,"corta":7003,"propenso":7004,"stabil":7005,"imperatore":7006,"sebbene":7007,"pure":7008,"puli":7009,"doti":7010,"##uotere":7011,"generazione":7012,"##lum":7013,"risto":7014,"accura":7015,"accettazione":7016,"tempio":7017,"##cchiare":7018,"interventi":7019,"lettura":7020,"neve":7021,"neuro":7022,"cariche":7023,"ence":7024,"attiva":7025,"ricomp":7026,"assimi":7027,"alcal":7028,"affid":7029,"noia":7030,"nozioni":7031,"rossi":7032,"conferimento":7033,"amante":7034,"concorr":7035,"quaran":7036,"calce":7037,"compiuta":7038,"##ondersi":7039,"riferimenti":7040,"contrad":7041,"creato":7042,"ottica":7043,"strava":7044,"comportamentali":7045,"buccia":7046,"liberazione":7047,"vitalità":7048,"proteggere":7049,"fermo":7050,"direzioni":7051,"venditore":7052,"sfuma":7053,"derivano":7054,"chiave":7055,"chiacchi":7056,"espressioni":7057,"offerta":7058,"rompere":7059,"scritti":7060,"ossia":7061,"plasma":7062,"esprimersi":7063,"capra":7064,"apparecchi":7065,"smalti":7066,"patologia":7067,"quadri":7068,"singola":7069,"singoli":7070,"tendente":7071,"##cratico":7072,"compressione":7073,"battere":7074,"diagon":7075,"ciocc":7076,"Cas":7077,"penet":7078,"distingue":7079,"costituiscono":7080,"Paesi":7081,"##ografico":7082,"discipline":7083,"concepi":7084,"coinci":7085,"dubbi":7086,"border":7087,"iniziare":7088,"gestisce":7089,"vincolo":7090,"rendersi":7091,"dimostrare":7092,"rilevante":7093,"clienti":7094,"avversari":7095,"guardia":7096,"racchiuso":7097,"allungato":7098,"probabile":7099,"esageratamente":7100,"automobili":7101,"provvisto":7102,"gamba":7103,"astratti":7104,"tonalità":7105,"laterali":7106,"fedele":7107,"prescindere":7108,"amminoacidi":7109,"esaltazione":7110,"incrocia":7111,"prestito":7112,"rifiuto":7113,"impossibilità":7114,"accompagnato":7115,"##etudine":7116,"somministrazione":7117,"mucosa":7118,"confidenza":7119,"indifferenza":7120,"endoc":7121,"polimero":7122,"legislativo":7123,"citoplasma":7124,"blasona":7125,"omosessuale":7126,"multip":7127,"semicondu":7128,"XIX":7129,"campagna":7130,"Russia":7131,"salvaguar":7132,"##vizzera":7133,"stupefa":7134,"febbre":7135,"sintomi":7136,"copricapo":7137,"telecom":7138,"5em":7139,"Atene":7140,"Ga":7141,"Ro":7142,"bello":7143,"emer":7144,"eman":7145,"elico":7146,"gola":7147,"io":7148,"isole":7149,"los":7150,"legna":7151,"penta":7152,"sla":7153,"torre":7154,"##toni":7155,"##ozoica":7156,"##mor":7157,"##mella":7158,"##messa":7159,"##eto":7160,"##cla":7161,"##pse":7162,"##dicità":7163,"##dollo":7164,"##boli":7165,"##uda":7166,"##ugna":7167,"##uccio":7168,"##razioni":7169,"##rabile":7170,"##oline":7171,"##timento":7172,"##tino":7173,"##elet":7174,"##icale":7175,"unicamente":7176,"##inanza":7177,"##inismo":7178,"##alia":7179,"##ssimi":7180,"perenne":7181,"##arla":7182,"##etus":7183,"##lidi":7184,"##ttero":7185,"mesi":7186,"meso":7187,"proiezione":7188,"##inamento":7189,"aneste":7190,"##ppro":7191,"catene":7192,"##entezza":7193,"##terra":7194,"silic":7195,"parto":7196,"##loc":7197,"moralmente":7198,"deforma":7199,"facc":7200,"medesima":7201,"previene":7202,"prezioso":7203,"prevenire":7204,"preferisce":7205,"sensor":7206,"pilo":7207,"ridotta":7208,"##ianno":7209,"##sore":7210,"tecnici":7211,"##voco":7212,"vide":7213,"vitale":7214,"corsi":7215,"corruzione":7216,"color":7217,"colpevole":7218,"cifre":7219,"statu":7220,"pulire":7221,"aller":7222,"alloggia":7223,"alloggio":7224,"termo":7225,"riso":7226,"riscon":7227,"risiede":7228,"accessi":7229,"bassi":7230,"##nea":7231,"##neo":7232,"enorme":7233,"##tice":7234,"gira":7235,"filosofico":7236,"esporre":7237,"midollo":7238,"dison":7239,"tatto":7240,"muscolari":7241,"sporco":7242,"acqu":7243,"abbelli":7244,"disposto":7245,"nobili":7246,"proli":7247,"infettiva":7248,"##trico":7249,"diffondere":7250,"##pevolmente":7251,"margine":7252,"##fazione":7253,"complessa":7254,"genericamente":7255,"caratteristici":7256,"rispettivamente":7257,"##ccati":7258,"tora":7259,"riporta":7260,"##gramma":7261,"discorsi":7262,"vitali":7263,"erbe":7264,"fermare":7265,"##zoi":7266,"collezione":7267,"tenue":7268,"chiara":7269,"chiamata":7270,"gode":7271,"attesta":7272,"offendere":7273,"continuità":7274,"segnala":7275,"monu":7276,"imbotti":7277,"anglosass":7278,"raccoglie":7279,"##llità":7280,"avverbio":7281,"orientamento":7282,"modella":7283,"violentemente":7284,"quadrupe":7285,"territori":7286,"eseguita":7287,"avvenire":7288,"entrambe":7289,"lavorazioni":7290,"amministrativa":7291,"annuale":7292,"carbonica":7293,"ricercato":7294,"ricoperto":7295,"monete":7296,"esperienze":7297,"ascendente":7298,"riflessione":7299,"divino":7300,"osservazione":7301,"incaricato":7302,"descrive":7303,"cliente":7304,"##omito":7305,"collegata":7306,"corteccia":7307,"riguardanti":7308,"cristallino":7309,"dicio":7310,"dicianno":7311,"operatore":7312,"eredita":7313,"umidità":7314,"circostanza":7315,"accessorio":7316,"atleti":7317,"atletica":7318,"dirigere":7319,"##III":7320,"filamento":7321,"collapse":7322,"allontanare":7323,"commerciali":7324,"pellicola":7325,"predisposizione":7326,"facilitare":7327,"spontaneamente":7328,"intervalli":7329,"registrazione":7330,"danneggia":7331,"ripieg":7332,"sguar":7333,"involuc":7334,"medicamento":7335,"aumentarne":7336,"flessi":7337,"incrocio":7338,"frammento":7339,"disturbo":7340,"linfa":7341,"impossibile":7342,"perifer":7343,"pietanza":7344,"atmosferica":7345,"dormi":7346,"sfavore":7347,"globuli":7348,"spostare":7349,"inclinazione":7350,"mucose":7351,"anticipo":7352,"stringere":7353,"motivazioni":7354,"rigido":7355,"vagamente":7356,"seguendo":7357,"giovanile":7358,"permanente":7359,"cerimonia":7360,"specialista":7361,"##guaglia":7362,"allegria":7363,"dominio":7364,"accentu":7365,"custodia":7366,"##ssiccio":7367,"maiuscola":7368,"ridotte":7369,"disgusto":7370,"maschera":7371,"aquila":7372,"tastiera":7373,"diagnos":7374,"ebrei":7375,"pancreas":7376,"algeb":7377,"livelli":7378,"suscitare":7379,"devozione":7380,"orifizio":7381,"avvenimenti":7382,"forestierismo":7383,"21":7384,"30":7385,"60":7386,"Col":7387,"Da":7388,"Gali":7389,"Mess":7390,"Sistema":7391,"Vene":7392,"bon":7393,"bigli":7394,"dando":7395,"feste":7396,"getto":7397,"lic":7398,"lig":7399,"mel":7400,"morta":7401,"muta":7402,"mentali":7403,"pista":7404,"poggia":7405,"rumin":7406,"sd":7407,"sess":7408,"sva":7409,"sera":7410,"seno":7411,"santi":7412,"vog":7413,"vetto":7414,"vanno":7415,"##rice":7416,"##nico":7417,"##stato":7418,"##lis":7419,"##ili":7420,"##iki":7421,"##ty":7422,"##ori":7423,"##mar":7424,"##mini":7425,"##cone":7426,"##gene":7427,"##pto":7428,"##beria":7429,"##onale":7430,"##tola":7431,"##icchi":7432,"##ree":7433,"##tele":7434,"##tila":7435,"##tipo":7436,"##eltà":7437,"inso":7438,"##inta":7439,"##inante":7440,"##inarsi":7441,"##inqu":7442,"##ande":7443,"cono":7444,"alve":7445,"##ettamente":7446,"##eguire":7447,"##ttur":7448,"quarto":7449,"comand":7450,"commettere":7451,"proviene":7452,"anelli":7453,"succo":7454,"supre":7455,"##chiare":7456,"cari":7457,"cada":7458,"cattiva":7459,"catar":7460,"macella":7461,"spesa":7462,"##mpere":7463,"fasce":7464,"composte":7465,"comparsa":7466,"preis":7467,"predi":7468,"##eriforme":7469,"##ffare":7470,"##zionalità":7471,"soft":7472,"piuma":7473,"pietre":7474,"scan":7475,"##mozione":7476,"rima":7477,"ritar":7478,"orbita":7479,"poetica":7480,"adia":7481,"ades":7482,"past":7483,"patto":7484,"colmo":7485,"coltivato":7486,"##ttina":7487,"fisso":7488,"mancata":7489,"doppia":7490,"genitore":7491,"##perare":7492,"risal":7493,"bacino":7494,"attuale":7495,"cotta":7496,"carn":7497,"cardia":7498,"legali":7499,"legitti":7500,"##ettibile":7501,"tirare":7502,"consul":7503,"consiglio":7504,"botti":7505,"esplica":7506,"diste":7507,"tavolo":7508,"muso":7509,"tubi":7510,"alcalo":7511,"usuf":7512,"dispone":7513,"nottur":7514,"rota":7515,"rotta":7516,"infiore":7517,"##pedia":7518,"marchio":7519,"metallici":7520,"conferma":7521,"calcoli":7522,"feud":7523,"deterio":7524,"generali":7525,"##cciati":7526,"##ettata":7527,"otteni":7528,"contenute":7529,"##gnia":7530,"artig":7531,"strutturalmente":7532,"cristiane":7533,"discon":7534,"inteso":7535,"ambiti":7536,"minu":7537,"fermentazione":7538,"induzione":7539,"indumenti":7540,"salsa":7541,"biom":7542,"biologica":7543,"derivati":7544,"collettiva":7545,"collegato":7546,"##talità":7547,"porzioni":7548,"portante":7549,"esatto":7550,"stima":7551,"tenuta":7552,"##etture":7553,"portata":7554,"montu":7555,"imbara":7556,"maligno":7557,"palpe":7558,"apertamente":7559,"morbi":7560,"carboni":7561,"collocare":7562,"possano":7563,"ultime":7564,"ond":7565,"viaggio":7566,"viaggia":7567,"qualifica":7568,"approvazione":7569,"gross":7570,"banca":7571,"##cciolo":7572,"pantal":7573,"armatura":7574,"cinqu":7575,"merc":7576,"telefono":7577,"obbligare":7578,"verificare":7579,"frequenta":7580,"campana":7581,"desidera":7582,"compagnia":7583,"entrata":7584,"indec":7585,"penne":7586,"cuocere":7587,"associazioni":7588,"fluo":7589,"conservazione":7590,"monetaria":7591,"radioa":7592,"radiofon":7593,"logico":7594,"lasciato":7595,"lasciarsi":7596,"aprire":7597,"etnia":7598,"etnico":7599,"risoluzione":7600,"ritenere":7601,"residenza":7602,"divina":7603,"moltep":7604,"manufatti":7605,"attrezzi":7606,"curve":7607,"adibita":7608,"assolutamente":7609,"descrizione":7610,"fiamma":7611,"galle":7612,"mostrare":7613,"innocente":7614,"fissata":7615,"tronca":7616,"condens":7617,"interpretare":7618,"divide":7619,"guardare":7620,"prevedere":7621,"##fficienza":7622,"trasferire":7623,"categorie":7624,"domestici":7625,"discutere":7626,"trenta":7627,"percepita":7628,"riserva":7629,"allontanamento":7630,"piegare":7631,"cappello":7632,"rettangolo":7633,"delimita":7634,"sviluppata":7635,"grigia":7636,"celebra":7637,"condannato":7638,"manovre":7639,"ricordare":7640,"delib":7641,"infatti":7642,"televisivo":7643,"scolastica":7644,"scolastico":7645,"pacifica":7646,"basata":7647,"sincero":7648,"promessa":7649,"scimmie":7650,"autoveicoli":7651,"anziché":7652,"string":7653,"distacco":7654,"esplosivi":7655,"digitale":7656,"Internazionale":7657,"bersa":7658,"disintere":7659,"coagulazione":7660,"suddividere":7661,"ingiustamente":7662,"laurea":7663,"affinità":7664,"assemblea":7665,"laboratorio":7666,"superficiali":7667,"pugilato":7668,"maestro":7669,"sorveglianza":7670,"nucleotidi":7671,"bicicletta":7672,"nobiltà":7673,"amichevole":7674,"scegliere":7675,"stupefacenti":7676,"telecomunica":7677,"software":7678,"infioresc":7679,"23":7680,"200":7681,"Cro":7682,"Medi":7683,"Nord":7684,"Ri":7685,"Svizzera":7686,"aus":7687,"ava":7688,"africa":7689,"burro":7690,"cm":7691,"dog":7692,"darsi":7693,"elica":7694,"empi":7695,"foggia":7696,"iso":7697,"igi":7698,"legn":7699,"ottan":7700,"posa":7701,"pali":7702,"pran":7703,"sare":7704,"sven":7705,"udito":7706,"vente":7707,"vene":7708,"vend":7709,"##at":7710,"##rle":7711,"##nze":7712,"##tenti":7713,"##ger":7714,"##viale":7715,"##ph":7716,"##pic":7717,"##prio":7718,"##dome":7719,"##denzia":7720,"##brale":7721,"##fl":7722,"##ugn":7723,"##ka":7724,"##kistan":7725,"##erti":7726,"##reta":7727,"##tevole":7728,"insi":7729,"inse":7730,"##les":7731,"##leo":7732,"##ionali":7733,"##rivere":7734,"##latazione":7735,"lac":7736,"lastra":7737,"comme":7738,"commette":7739,"mesch":7740,"##cite":7741,"##cipe":7742,"##cibilità":7743,"##esp":7744,"suss":7745,"spet":7746,"spingere":7747,"##sivo":7748,"##bizione":7749,"##biliare":7750,"silen":7751,"arp":7752,"arteri":7753,"rav":7754,"radi":7755,"facce":7756,"pred":7757,"prevar":7758,"##onomet":7759,"tramon":7760,"pitto":7761,"pietà":7762,"piombo":7763,"scul":7764,"riven":7765,"orbi":7766,"aderisce":7767,"##ianze":7768,"tecnologico":7769,"passo":7770,"pausa":7771,"##scente":7772,"##olarità":7773,"vib":7774,"##volenza":7775,"propensione":7776,"fir":7777,"##passare":7778,"##ingi":7779,"##cate":7780,"imperia":7781,"impegna":7782,"impetu":7783,"puri":7784,"avan":7785,"avve":7786,"farfal":7787,"batti":7788,"habita":7789,"sosta":7790,"carni":7791,"cartila":7792,"privati":7793,"consegna":7794,"gius":7795,"volutamente":7796,"espan":7797,"relative":7798,"mitolog":7799,"disordine":7800,"ago":7801,"tagli":7802,"vacc":7803,"ricur":7804,"regolari":7805,"assunzione":7806,"incisi":7807,"incline":7808,"sportive":7809,"##istono":7810,"opposti":7811,"##iccare":7812,"affli":7813,"affini":7814,"colorante":7815,"criterio":7816,"rottura":7817,"roditore":7818,"infli":7819,"instal":7820,"finanche":7821,"resa":7822,"sacro":7823,"temporanea":7824,"confondere":7825,"soluto":7826,"aiuta":7827,"giocare":7828,"calma":7829,"calda":7830,"cervello":7831,"##enito":7832,"trasfor":7833,"##fago":7834,"##ondare":7835,"acquatico":7836,"condivi":7837,"##minante":7838,"indicativamente":7839,"meticol":7840,"sinda":7841,"sindro":7842,"cand":7843,"cantare":7844,"partita":7845,"abitato":7846,"##ccatura":7847,"straordina":7848,"grandezze":7849,"buoni":7850,"spaziale":7851,"cenere":7852,"elettrodome":7853,"vitamina":7854,"##antile":7855,"tipiche":7856,"periodico":7857,"pubbliche":7858,"protestante":7859,"occid":7860,"scafo":7861,"ventre":7862,"inibisce":7863,"elettrone":7864,"antropomor":7865,"trasporti":7866,"sfu":7867,"costituire":7868,"giudice":7869,"organizzare":7870,"sommità":7871,"esterne":7872,"continente":7873,"meriti":7874,"rime":7875,"mancante":7876,"immagina":7877,"immaginario":7878,"suddetto":7879,"evidenti":7880,"aperture":7881,"correre":7882,"funzionalità":7883,"istante":7884,"vegetazione":7885,"approssima":7886,"##sciutto":7887,"patogeni":7888,"reca":7889,"costruttivo":7890,"aggra":7891,"rivela":7892,"falsità":7893,"tranne":7894,"provocato":7895,"corrispondenti":7896,"invaria":7897,"avvengono":7898,"precisa":7899,"compatto":7900,"vicende":7901,"maledu":7902,"rinfor":7903,"dottrine":7904,"attenua":7905,"associato":7906,"annul":7907,"nascondere":7908,"sintetica":7909,"emesso":7910,"impropria":7911,"governa":7912,"indossare":7913,"ordinamento":7914,"decorazione":7915,"cattolico":7916,"trascura":7917,"averne":7918,"gestire":7919,"orecchie":7920,"introdurre":7921,"illecito":7922,"renderlo":7923,"dimostrazione":7924,"minori":7925,"rilevanza":7926,"rivoluzione":7927,"estetica":7928,"stimolare":7929,"cristallo":7930,"consumare":7931,"umilia":7932,"influsso":7933,"convincere":7934,"arreca":7935,"guadagni":7936,"##ilano":7937,"riservato":7938,"aggregazione":7939,"architettonica":7940,"imperme":7941,"armonico":7942,"assegnazione":7943,"vissuta":7944,"fedeli":7945,"autonomia":7946,"esito":7947,"intelligente":7948,"vulcan":7949,"spalla":7950,"criticare":7951,"prolungato":7952,"fanci":7953,"tedesca":7954,"illegalmente":7955,"debolezza":7956,"selvatico":7957,"velen":7958,"limone":7959,"stupido":7960,"indifferente":7961,"sanguigni":7962,"impulso":7963,"romanesco":7964,"adulto":7965,"maturazione":7966,"tranquillità":7967,"lentamente":7968,"riscaldamento":7969,"idrocarburi":7970,"vescovo":7971,"##hylum":7972,"microrganismo":7973,"provvedimento":7974,"spiace":7975,"artiglieria":7976,"bilancio":7977,"approfit":7978,"boschi":7979,"ginna":7980,"graduale":7981,"poliedro":7982,"stampato":7983,"prestabilito":7984,"trigonomet":7985,"argilla":7986,"ordinaria":7987,"ristretto":7988,"ricostr":7989,"americano":7990,"attentamente":7991,"annullamento":7992,"perpendicolare":7993,"petrol":7994,"tabella":7995,"anticorpi":7996,"faceva":7997,"ingredienti":7998,"pregiudi":7999,"esistenziale":8000,"emisfero":8001,"quaranta":8002,"semiconduttore":8003,"sguardo":8004,"involucro":8005,"dormire":8006,"alcaloide":8007,"biomolec":8008,"telecomunicazioni":8009,"habitat":8010,"sindrome":8011,"11":8012,"Ci":8013,"Ha":8014,"Is":8015,"Pla":8016,"Ra":8017,"asia":8018,"bur":8019,"cica":8020,"cano":8021,"cessione":8022,"cogliere":8023,"eti":8024,"etico":8025,"fico":8026,"luna":8027,"odi":8028,"oce":8029,"omb":8030,"sente":8031,"##nese":8032,"##sim":8033,"##sche":8034,"##lista":8035,"##ietto":8036,"##mera":8037,"##miglia":8038,"##eo":8039,"##cen":8040,"##gen":8041,"##pit":8042,"##zanti":8043,"##bola":8044,"##fisi":8045,"##utico":8046,"##erzione":8047,"##icia":8048,"##tarie":8049,"inal":8050,"inchi":8051,"indisp":8052,"chiare":8053,"##ins":8054,"##inanti":8055,"##rime":8056,"##rirsi":8057,"##alta":8058,"##alla":8059,"##orra":8060,"##orza":8061,"##orbi":8062,"##ordia":8063,"##omato":8064,"##oglo":8065,"##oscia":8066,"##stero":8067,"lago":8068,"##ense":8069,"##unare":8070,"comanda":8071,"meti":8072,"messi":8073,"##esid":8074,"suonare":8075,"##ecento":8076,"spettato":8077,"##siva":8078,"##essioni":8079,"estere":8080,"estranei":8081,"arres":8082,"fama":8083,"##ggine":8084,"composi":8085,"comprare":8086,"##usato":8087,"predica":8088,"##onomico":8089,"trama":8090,"traff":8091,"##zionario":8092,"##milia":8093,"pizz":8094,"scosc":8095,"rifor":8096,"##trare":8097,"povero":8098,"potente":8099,"##iane":8100,"passivo":8101,"ingrana":8102,"vitto":8103,"##ueto":8104,"##nidi":8105,"colonie":8106,"colpisce":8107,"proposta":8108,"##pace":8109,"mania":8110,"mancato":8111,"stadio":8112,"##endoli":8113,"impar":8114,"impero":8115,"pulizia":8116,"allude":8117,"remi":8118,"##pidi":8119,"dover":8120,"righe":8121,"##ciata":8122,"farlo":8123,"risco":8124,"accanto":8125,"test":8126,"interi":8127,"interc":8128,"interp":8129,"interruzione":8130,"intervenire":8131,"internet":8132,"nazioni":8133,"verg":8134,"versa":8135,"attualmente":8136,"neur":8137,"esce":8138,"esistente":8139,"leghe":8140,"legata":8141,"consum":8142,"meccanici":8143,"lucente":8144,"lubri":8145,"##ortabile":8146,"volere":8147,"indire":8148,"insiemi":8149,"tappo":8150,"strumentale":8151,"musul":8152,"tub":8153,"vasta":8154,"vasca":8155,"##ziosi":8156,"ricorr":8157,"##gari":8158,"##ranno":8159,"farmaci":8160,"usando":8161,"nodo":8162,"nobiliare":8163,"attori":8164,"pronom":8165,"##gimenti":8166,"insistenza":8167,"numerazione":8168,"marca":8169,"solide":8170,"effici":8171,"temporaneamente":8172,"confe":8173,"confusione":8174,"configura":8175,"concorso":8176,"sottordine":8177,"complessi":8178,"indicazioni":8179,"edili":8180,"sinistro":8181,"canon":8182,"contrass":8183,"contraria":8184,"contrastare":8185,"pianeti":8186,"partizione":8187,"crema":8188,"taluni":8189,"termica":8190,"cristiano":8191,"##ficia":8192,"artifici":8193,"artistiche":8194,"riportare":8195,"protegg":8196,"##dinamica":8197,"sfi":8198,"sfre":8199,"##monte":8200,"unita":8201,"uniti":8202,"organizzata":8203,"intendere":8204,"estremi":8205,"esaus":8206,"pratici":8207,"controver":8208,"godimento":8209,"ideali":8210,"offic":8211,"sentirsi":8212,"continuare":8213,"conseguito":8214,"monte":8215,"imbrog":8216,"svolto":8217,"doveri":8218,"dovute":8219,"terrafer":8220,"località":8221,"riconosce":8222,"gialla":8223,"limitata":8224,"compongono":8225,"contemp":8226,"negativi":8227,"dipinto":8228,"cellulari":8229,"incons":8230,"incontrol":8231,"##ellere":8232,"obbliga":8233,"grammo":8234,"sovran":8235,"altern":8236,"vicenda":8237,"indig":8238,"indesid":8239,"attaccato":8240,"separato":8241,"Cara":8242,"penale":8243,"aziende":8244,"ceta":8245,"tessili":8246,"emotivo":8247,"emotiva":8248,"percorrere":8249,"meditazione":8250,"indossa":8251,"ordinata":8252,"trattato":8253,"personalità":8254,"verticalmente":8255,"ascol":8256,"residui":8257,"zuccheri":8258,"##ghese":8259,"analog":8260,"vigo":8261,"notevoli":8262,"fonetica":8263,"stabilito":8264,"ballo":8265,"affida":8266,"affidamento":8267,"sbar":8268,"pensa":8269,"normali":8270,"lancio":8271,"sotterra":8272,"avvolge":8273,"genitali":8274,"alternativa":8275,"stimoli":8276,"eredità":8277,"arrivo":8278,"immediato":8279,"immobili":8280,"cresce":8281,"ispira":8282,"circostante":8283,"accessori":8284,"giornale":8285,"arrecare":8286,"coordinate":8287,"esagerato":8288,"esagerata":8289,"ripetutamente":8290,"magnetici":8291,"stand":8292,"aromatico":8293,"intimo":8294,"moderna":8295,"collabo":8296,"notizia":8297,"progresso":8298,"combattimento":8299,"accrescimento":8300,"verbalmente":8301,"episo":8302,"accompagnata":8303,"mescola":8304,"cappuccio":8305,"arbusto":8306,"dedicato":8307,"competenze":8308,"competizioni":8309,"spontaneo":8310,"delimitata":8311,"ragazza":8312,"sviluppato":8313,"oscura":8314,"teleg":8315,"liscio":8316,"pienamente":8317,"accettabile":8318,"decidere":8319,"minacci":8320,"spalle":8321,"eufe":8322,"eccitazione":8323,"illegale":8324,"bronchi":8325,"intreccio":8326,"ortodo":8327,"sedile":8328,"felicità":8329,"stupida":8330,"sincera":8331,"suddiviso":8332,"respiratorio":8333,"clor":8334,"liberamente":8335,"rappresentanza":8336,"mandor":8337,"tradizioni":8338,"roves":8339,"partecipare":8340,"ingenua":8341,"##dorientale":8342,"pericoloso":8343,"disponibile":8344,"inaspettato":8345,"cessare":8346,"rotonda":8347,"microrganismi":8348,"brodo":8349,"fossile":8350,"extra":8351,"crescere":8352,"lontani":8353,"indoeuropea":8354,"ellissi":8355,"quartiere":8356,"monomeri":8357,"recitare":8358,"accostamento":8359,"disordinato":8360,"preoccupazione":8361,"##eterminato":8362,"artificialmente":8363,"ossidrile":8364,"riempire":8365,"evapo":8366,"guscio":8367,"ginocchio":8368,"mestiere":8369,"encefalo":8370,"stravagante":8371,"silicio":8372,"diciotte":8373,"##guaglianza":8374,"svago":8375,"feudale":8376,"pantaloni":8377,"Mediterraneo":8378,"pranzo":8379,"petrolio":8380,"terraferma":8381,"Ber":8382,"Cina":8383,"Gi":8384,"Giovan":8385,"Li":8386,"Maria":8387,"Milano":8388,"Sp":8389,"To":8390,"Tosc":8391,"abili":8392,"amare":8393,"binario":8394,"cum":8395,"dentata":8396,"fro":8397,"fio":8398,"fero":8399,"feni":8400,"gela":8401,"hard":8402,"lino":8403,"lista":8404,"mig":8405,"morto":8406,"ova":8407,"pendenza":8408,"piovan":8409,"ros":8410,"sar":8411,"torta":8412,"torr":8413,"umore":8414,"vale":8415,"vittima":8416,"##nella":8417,"##molec":8418,"##cosa":8419,"##critto":8420,"##cini":8421,"##gui":8422,"##golari":8423,"##pri":8424,"##pato":8425,"##pian":8426,"##pendente":8427,"##dì":8428,"##usse":8429,"##erte":8430,"##erli":8431,"##enità":8432,"ditta":8433,"diletto":8434,"##tagon":8435,"inqui":8436,"##iona":8437,"##ionato":8438,"unic":8439,"##inte":8440,"delicato":8441,"##osco":8442,"contor":8443,"conversa":8444,"conformazione":8445,"##mentato":8446,"##lido":8447,"##limento":8448,"##strare":8449,"##ccarsi":8450,"lag":8451,"##ttolo":8452,"promin":8453,"##inate":8454,"andatura":8455,"##itro":8456,"cadenza":8457,"cattiv":8458,"masc":8459,"marito":8460,"spendere":8461,"##mpica":8462,"estro":8463,"morire":8464,"arr":8465,"arnese":8466,"ram":8467,"rass":8468,"razza":8469,"destro":8470,"devono":8471,"##tanidi":8472,"previsione":8473,"traietto":8474,"##riali":8475,"socio":8476,"pira":8477,"scolo":8478,"ridere":8479,"riuni":8480,"chiude":8481,"##icidio":8482,"lea":8483,"lemma":8484,"##entina":8485,"appr":8486,"paesa":8487,"##vocato":8488,"##pori":8489,"##tudini":8490,"##scio":8491,"vibra":8492,"grapp":8493,"gradito":8494,"cornice":8495,"colpe":8496,"##ttile":8497,"propugna":8498,"##ficante":8499,"##cotta":8500,"maniche":8501,"manosc":8502,"##zzano":8503,"polare":8504,"stagion":8505,"##gando":8506,"##ganda":8507,"##endogli":8508,"imparti":8509,"alluc":8510,"remo":8511,"realmente":8512,"reati":8513,"retina":8514,"##più":8515,"##pite":8516,"accogli":8517,"##mba":8518,"interloc":8519,"nazionale":8520,"liquo":8521,"zodia":8522,"vertice":8523,"coe":8524,"coppie":8525,"filologia":8526,"enfa":8527,"consoli":8528,"giura":8529,"giun":8530,"girare":8531,"milli":8532,"disgra":8533,"tumori":8534,"ricche":8535,"ricca":8536,"ricordo":8537,"regolazione":8538,"##minata":8539,"usura":8540,"sciogli":8541,"scienze":8542,"colorazione":8543,"dispensare":8544,"produttive":8545,"nodi":8546,"rossiccio":8547,"infra":8548,"infezioni":8549,"insic":8550,"manifa":8551,"marine":8552,"marcia":8553,"anatomica":8554,"restare":8555,"resistere":8556,"lavorato":8557,"lavoratori":8558,"confusa":8559,"segmenti":8560,"##urgo":8561,"trasvers":8562,"condimento":8563,"condivis":8564,"sinta":8565,"##ccata":8566,"applicata":8567,"straord":8568,"contenenti":8569,"buttare":8570,"riposo":8571,"discendente":8572,"malacologia":8573,"scoperto":8574,"uccisione":8575,"protettivo":8576,"caratterizzate":8577,"benefici":8578,"benevolenza":8579,"sani":8580,"descritto":8581,"salto":8582,"ammette":8583,"ammettere":8584,"bizz":8585,"biologici":8586,"sfron":8587,"obli":8588,"freccia":8589,"fresco":8590,"alifa":8591,"parlamento":8592,"intui":8593,"esasp":8594,"tenda":8595,"ruoli":8596,"portano":8597,"portatile":8598,"donare":8599,"risultante":8600,"fucile":8601,"variamente":8602,"malde":8603,"pallido":8604,"rimane":8605,"macchie":8606,"soggi":8607,"interessa":8608,"raccolti":8609,"formali":8610,"svolgono":8611,"immaginaria":8612,"appari":8613,"sudd":8614,"##fora":8615,"trasformazioni":8616,"terracotta":8617,"volontario":8618,"differisce":8619,"funzionario":8620,"equipa":8621,"umanità":8622,"contagi":8623,"soffia":8624,"soffice":8625,"parametri":8626,"dipl":8627,"dipendenza":8628,"scarpe":8629,"veridicità":8630,"acquista":8631,"alterare":8632,"avvenuta":8633,"positivamente":8634,"benigno":8635,"vicini":8636,"indice":8637,"intenzionalmente":8638,"sconvol":8639,"riproduce":8640,"amministrative":8641,"cupola":8642,"associata":8643,"annuncia":8644,"ricerche":8645,"substrato":8646,"conservato":8647,"##landia":8648,"sintetico":8649,"costituzione":8650,"improprio":8651,"impiegata":8652,"percen":8653,"sostentamento":8654,"urto":8655,"riflette":8656,"osservatore":8657,"respirare":8658,"iniziali":8659,"alcolica":8660,"disappro":8661,"difficili":8662,"zampa":8663,"bruta":8664,"lanciare":8665,"illuminazione":8666,"##tonia":8667,"collegate":8668,"epider":8669,"prevalenza":8670,"turba":8671,"cortesia":8672,"gallina":8673,"genitale":8674,"alternativo":8675,"innovazione":8676,"dicesi":8677,"premessa":8678,"saliva":8679,"coinvolto":8680,"perfettamente":8681,"eventuale":8682,"concreti":8683,"intimi":8684,"furto":8685,"abbandonare":8686,"contraddistinta":8687,"innal":8688,"predisposto":8689,"spiegare":8690,"facilita":8691,"congiunzione":8692,"mescolare":8693,"##nivori":8694,"originariamente":8695,"registrare":8696,"delimitato":8697,"prescri":8698,"gomme":8699,"contemporaneamente":8700,"cinematografico":8701,"##ttuali":8702,"vivacità":8703,"minaccia":8704,"prudenza":8705,"rifiuti":8706,"eucario":8707,"indefini":8708,"impugna":8709,"linfo":8710,"costume":8711,"basato":8712,"bronzo":8713,"ignorante":8714,"omogeneo":8715,"brillante":8716,"attaccamento":8717,"ospitare":8718,"proporzione":8719,"rinunciare":8720,"motivazione":8721,"finalizzato":8722,"insegnamenti":8723,"cerimonie":8724,"rivelare":8725,"insufficiente":8726,"mezzano":8727,"mezzogi":8728,"superamento":8729,"cessazione":8730,"vescovi":8731,"elettromagnetiche":8732,"benzenico":8733,"meraviglia":8734,"modulo":8735,"approfitta":8736,"catturare":8737,"prepotente":8738,"punizione":8739,"giudiziaria":8740,"mollusco":8741,"molluschi":8742,"garantire":8743,"canzone":8744,"universitario":8745,"##mittente":8746,"esemplare":8747,"ritornare":8748,"giardino":8749,"autonomo":8750,"entusiasmo":8751,"pascolo":8752,"australe":8753,"vocabolo":8754,"paragone":8755,"accoppiamento":8756,"debitore":8757,"teorici":8758,"conformità":8759,"consonante":8760,"profumo":8761,"rettilineo":8762,"Impero":8763,"cingh":8764,"distillazione":8765,"definisce":8766,"ostinazione":8767,"cavaliere":8768,"Muste":8769,"partner":8770,"affettuoso":8771,"arrotonda":8772,"ospedale":8773,"quiete":8774,"appetito":8775,"cioccolato":8776,"diciannov":8777,"bontà":8778,"piumaggio":8779,"pasticc":8780,"artigian":8781,"bersaglio":8782,"insedia":8783,"arteriosa":8784,"ascoltare":8785,"Toscana":8786,"cattiveria":8787,"traiettoria":8788,"straordinaria":8789,"mezzogiorno":8790,"000":8791,"14":8792,"Bar":8793,"Breta":8794,"Co":8795,"Cic":8796,"Gio":8797,"Lo":8798,"Ne":8799,"Otto":8800,"Oce":8801,"So":8802,"Suda":8803,"avi":8804,"ami":8805,"aree":8806,"blu":8807,"dono":8808,"dure":8809,"drog":8810,"freno":8811,"finge":8812,"gan":8813,"ges":8814,"isp":8815,"moni":8816,"ombre":8817,"pensione":8818,"pse":8819,"pne":8820,"phylum":8821,"sle":8822,"smo":8823,"solare":8824,"setta":8825,"sicilia":8826,"tes":8827,"tomba":8828,"ubria":8829,"uguaglianza":8830,"vini":8831,"wa":8832,"##nis":8833,"##sm":8834,"##saria":8835,"##stanti":8836,"##lione":8837,"##lusa":8838,"##itto":8839,"##tui":8840,"##ttando":8841,"##gendo":8842,"##garsi":8843,"##pes":8844,"##peri":8845,"##deno":8846,"##doni":8847,"##fano":8848,"##utive":8849,"##onendo":8850,"##onese":8851,"##oncino":8852,"##erolo":8853,"##ertezza":8854,"dida":8855,"##tabile":8856,"##ologo":8857,"insa":8858,"inutili":8859,"##inando":8860,"##rius":8861,"##rocco":8862,"##alista":8863,"##ssim":8864,"##ssette":8865,"perlo":8866,"percu":8867,"##omio":8868,"##osione":8869,"conch":8870,"##lativo":8871,"altamente":8872,"##tturi":8873,"##ensioni":8874,"##ensabile":8875,"##unni":8876,"anziano":8877,"susc":8878,"mass":8879,"spl":8880,"spic":8881,"speri":8882,"##terie":8883,"##mpimento":8884,"partenza":8885,"##loqu":8886,"arch":8887,"rara":8888,"rapace":8889,"fatte":8890,"##tani":8891,"compone":8892,"comporre":8893,"precip":8894,"##ffe":8895,"##vibile":8896,"##rucciola":8897,"socc":8898,"piume":8899,"scale":8900,"scene":8901,"scendere":8902,"mediche":8903,"rive":8904,"##duti":8905,"org":8906,"orta":8907,"pover":8908,"poiché":8909,"elemos":8910,"elevazione":8911,"elegante":8912,"eleganza":8913,"persua":8914,"persistente":8915,"##vocare":8916,"##onati":8917,"##tuber":8918,"vivi":8919,"vizio":8920,"##nati":8921,"propul":8922,"##ficanti":8923,"mancare":8924,"fisicamente":8925,"##zzanti":8926,"##endola":8927,"impenna":8928,"essic":8929,"coste":8930,"restr":8931,"##giano":8932,"docente":8933,"risie":8934,"riguardi":8935,"acceso":8936,"##cchetto":8937,"##cchetta":8938,"verdi":8939,"vernice":8940,"verdure":8941,"coerci":8942,"carriera":8943,"esistere":8944,"esistono":8945,"legare":8946,"tif":8947,"prestare":8948,"gastr":8949,"mill":8950,"indipendente":8951,"disusato":8952,"tasse":8953,"strumentali":8954,"ricorre":8955,"ricrea":8956,"regge":8957,"regime":8958,"assiste":8959,"assunto":8960,"incol":8961,"incor":8962,"incerto":8963,"incertezza":8964,"affian":8965,"afflu":8966,"usano":8967,"sciogliere":8968,"materno":8969,"dispia":8970,"crimin":8971,"crimine":8972,"produttivo":8973,"notare":8974,"notazione":8975,"altrove":8976,"rob":8977,"rozza":8978,"rossa":8979,"robus":8980,"diffuse":8981,"##pepti":8982,"marmo":8983,"solid":8984,"##bati":8985,"effim":8986,"temporaneo":8987,"soldi":8988,"psicologico":8989,"psicologica":8990,"compiendo":8991,"sega":8992,"sottoin":8993,"acquatici":8994,"serbato":8995,"rispar":8996,"vezz":8997,"troppa":8998,"##mani":8999,"##ondazione":9000,"atomica":9001,"circuiti":9002,"artigiano":9003,"riprendere":9004,"auten":9005,"discesa":9006,"scoppio":9007,"scoperta":9008,"cellulosa":9009,"##matori":9010,"tipici":9011,"foca":9012,"simul":9013,"caratterizza":9014,"geometrico":9015,"passando":9016,"saluto":9017,"sigare":9018,"voci":9019,"semplicità":9020,"collegare":9021,"stip":9022,"##andesti":9023,"##andese":9024,"rumorosa":9025,"gocce":9026,"sentimentale":9027,"ultra":9028,"fuga":9029,"futuri":9030,"abn":9031,"rimb":9032,"angoscia":9033,"apparati":9034,"avversaria":9035,"morb":9036,"valle":9037,"valvola":9038,"##mentazioni":9039,"collocata":9040,"collocazione":9041,"gregoria":9042,"definitiva":9043,"bianch":9044,"differenze":9045,"isla":9046,"conseguentemente":9047,"banale":9048,"quadran":9049,"successive":9050,"nuvola":9051,"##cratica":9052,"latina":9053,"cinese":9054,"obblighi":9055,"positive":9056,"precisi":9057,"compresi":9058,"imprevis":9059,"nervi":9060,"moltitudine":9061,"parecchi":9062,"parecchio":9063,"lavorativa":9064,"amministrativo":9065,"amministrativi":9066,"infiammazioni":9067,"fornita":9068,"cedere":9069,"paleozoica":9070,"ragioni":9071,"nascere":9072,"ruotare":9073,"leggenda":9074,"strette":9075,"dialetti":9076,"costituente":9077,"cilindri":9078,"secondari":9079,"consapevolmente":9080,"trascorrere":9081,"bloccare":9082,"ritenute":9083,"ascolta":9084,"conducibilità":9085,"alcolici":9086,"ossido":9087,"vincere":9088,"illeciti":9089,"manuten":9090,"attrezza":9091,"distribuire":9092,"equilibra":9093,"brucia":9094,"lantanidi":9095,"rivolte":9096,"assoluta":9097,"illuminato":9098,"reagire":9099,"estesa":9100,"sollevare":9101,"sollecita":9102,"irregolare":9103,"sottrazione":9104,"guidare":9105,"fiamme":9106,"##ombar":9107,"stimola":9108,"ciclismo":9109,"apprezzato":9110,"apprezzamento":9111,"elmo":9112,"immediata":9113,"convinzione":9114,"azzardo":9115,"pazienza":9116,"sembrare":9117,"griglia":9118,"considerate":9119,"adeguato":9120,"riservata":9121,"finanziari":9122,"moderno":9123,"allontanarsi":9124,"preposizione":9125,"assegnare":9126,"svaria":9127,"valido":9128,"utensili":9129,"congiun":9130,"mescol":9131,"inverno":9132,"luminosa":9133,"luminosità":9134,"integrità":9135,"oscuro":9136,"facciata":9137,"nutrirsi":9138,"tiroide":9139,"fastidi":9140,"chirurgico":9141,"ebraismo":9142,"televisiva":9143,"tribù":9144,"pietanze":9145,"pacifico":9146,"atmosferici":9147,"##tandosi":9148,"interagire":9149,"cognome":9150,"coniuge":9151,"riempi":9152,"autorizzazione":9153,"destinate":9154,"destinati":9155,"suddivisa":9156,"clandesti":9157,"ammasso":9158,"anticipa":9159,"contribuisce":9160,"pigmento":9161,"sentenza":9162,"esplicitamente":9163,"propagazione":9164,"assorbi":9165,"compraven":9166,"possedere":9167,"acquisito":9168,"infinito":9169,"settimana":9170,"idrocarburo":9171,"locomozione":9172,"lesioni":9173,"previsto":9174,"rotondo":9175,"conquista":9176,"magistrati":9177,"giornalistico":9178,"terapeutiche":9179,"fossili":9180,"veritiero":9181,"ingiusto":9182,"ingiusti":9183,"privilegi":9184,"argomentazione":9185,"assai":9186,"volatili":9187,"##fisica":9188,"##olubile":9189,"ridicolo":9190,"signore":9191,"innovazioni":9192,"inutilmente":9193,"cominciare":9194,"gameti":9195,"farmaceutica":9196,"##archico":9197,"alpinismo":9198,"##eguimento":9199,"spirituali":9200,"provenienti":9201,"momentanea":9202,"pessimo":9203,"##ellulare":9204,"chiodi":9205,"cosmetici":9206,"appassionato":9207,"sopravvi":9208,"Può":9209,"eterocic":9210,"incompr":9211,"ripartizione":9212,"amplifica":9213,"proiettili":9214,"elaboratore":9215,"semisoli":9216,"glicoproteina":9217,"priori":9218,"ingrandimento":9219,"ristorante":9220,"pilota":9221,"torace":9222,"ruminante":9223,"adesione":9224,"imbarazzo":9225,"cinquanta":9226,"fluoro":9227,"molteplici":9228,"ventesimo":9229,"indispensabile":9230,"##oglobina":9231,"spettatori":9232,"traffico":9233,"riforni":9234,"Giovanni":9235,"conversazione":9236,"manifatturi":9237,"diploma":9238,"percentuale":9239,"Bretagna":9240,"pneuma":9241,"perlopiù":9242,"gregoriano":9243,"90":9244,"Az":9245,"Che":9246,"Fa":9247,"Fili":9248,"Gra":9249,"No":9250,"Ori":9251,"Pale":9252,"Sud":9253,"Sicilia":9254,"Tr":9255,"Ucc":9256,"aeriforme":9257,"bim":9258,"cosi":9259,"cala":9260,"cede":9261,"denta":9262,"duo":9263,"egi":9264,"equa":9265,"fla":9266,"feno":9267,"ferite":9268,"gusti":9269,"gettare":9270,"mento":9271,"nomi":9272,"odio":9273,"ocu":9274,"odori":9275,"stili":9276,"svolta":9277,"sesto":9278,"sarca":9279,"tante":9280,"tondo":9281,"ub":9282,"udi":9283,"utero":9284,"vere":9285,"vendono":9286,"##sion":9287,"##sene":9288,"##schi":9289,"##meri":9290,"##mici":9291,"##mono":9292,"##cy":9293,"##cano":9294,"##gici":9295,"##gisce":9296,"##pr":9297,"##pole":9298,"##dismo":9299,"##denze":9300,"##brio":9301,"##ball":9302,"##uoso":9303,"##uco":9304,"##uendo":9305,"##uffo":9306,"##ya":9307,"##erina":9308,"##erici":9309,"##endi":9310,"##topo":9311,"##icus":9312,"##olino":9313,"##olana":9314,"##tis":9315,"##tine":9316,"inqu":9317,"##icar":9318,"##inus":9319,"##ribile":9320,"##ristico":9321,"##roga":9322,"##ssere":9323,"pericoli":9324,"##orsa":9325,"##omin":9326,"##ogn":9327,"conduzione":9328,"##armente":9329,"##ettività":9330,"##ettici":9331,"##ettando":9332,"##urazione":9333,"##docc":9334,"##stà":9335,"##strazione":9336,"lasso":9337,"lavare":9338,"lastre":9339,"##ensato":9340,"##imici":9341,"mestru":9342,"protuber":9343,"##dimens":9344,"anale":9345,"anzi":9346,"##esel":9347,"catal":9348,"cappo":9349,"spina":9350,"ardente":9351,"arric":9352,"rap":9353,"razze":9354,"dem":9355,"dedizione":9356,"medes":9357,"prele":9358,"prees":9359,"prede":9360,"pretende":9361,"traduzione":9362,"trarne":9363,"##eribile":9364,"##zzabile":9365,"sodio":9366,"##duci":9367,"ormoni":9368,"pota":9369,"elezione":9370,"addizione":9371,"leale":9372,"leop":9373,"levig":9374,"##sori":9375,"pasti":9376,"pagato":9377,"##pode":9378,"grassa":9379,"gradazione":9380,"ciuffo":9381,"propell":9382,"fiumi":9383,"pollice":9384,"state":9385,"statura":9386,"stagione":9387,"##ganti":9388,"##endio":9389,"impegni":9390,"sedicesimo":9391,"alline":9392,"##sezione":9393,"coscia":9394,"ref":9395,"reti":9396,"##olito":9397,"##pipe":9398,"rigore":9399,"lobi":9400,"locu":9401,"terro":9402,"##perti":9403,"avvis":9404,"accusa":9405,"basse":9406,"bagn":9407,"teologia":9408,"##cchino":9409,"stendere":9410,"interne":9411,"attento":9412,"neo":9413,"carre":9414,"carri":9415,"esistenti":9416,"end":9417,"##ticità":9418,"giunzione":9419,"voler":9420,"espellere":9421,"miele":9422,"agra":9423,"agosto":9424,"tassa":9425,"##minacee":9426,"assetto":9427,"assur":9428,"assunta":9429,"##diare":9430,"acqui":9431,"germ":9432,"affine":9433,"affezione":9434,"abbo":9435,"specchio":9436,"novanta":9437,"rozzo":9438,"roditori":9439,"infil":9440,"insor":9441,"insiste":9442,"insistere":9443,"inserito":9444,"manip":9445,"##tinismo":9446,"##essita":9447,"march":9448,"marzo":9449,"resina":9450,"corporea":9451,"effettivamente":9452,"sacco":9453,"confine":9454,"conclu":9455,"sollievo":9456,"similari":9457,"cervo":9458,"cerchi":9459,"##famiglia":9460,"servono":9461,"condivisione":9462,"complesse":9463,"automatica":9464,"generato":9465,"indicato":9466,"indicativo":9467,"candi":9468,"canali":9469,"contrarietà":9470,"pianura":9471,"creditore":9472,"##gevole":9473,"strate":9474,"stradale":9475,"contento":9476,"peccati":9477,"auda":9478,"intestin":9479,"spazz":9480,"ambientali":9481,"minuti":9482,"attitudini":9483,"##ensile":9484,"##ggiamento":9485,"pubblicità":9486,"errata":9487,"##derato":9488,"occul":9489,"decisi":9490,"femmine":9491,"venduto":9492,"quindici":9493,"bir":9494,"facenti":9495,"fretta":9496,"voti":9497,"sempli":9498,"##stralia":9499,"portico":9500,"parlamentare":9501,"unite":9502,"intenti":9503,"soma":9504,"nuocere":9505,"##andolo":9506,"rubare":9507,"espresse":9508,"immagazz":9509,"offende":9510,"esercitata":9511,"romanze":9512,"ulteriore":9513,"corrispettivo":9514,"agricolo":9515,"agricoli":9516,"difende":9517,"correlazione":9518,"angolare":9519,"formante":9520,"immaginazione":9521,"apparizione":9522,"evitando":9523,"##fite":9524,"greci":9525,"definite":9526,"praticare":9527,"bianche":9528,"modana":9529,"moderazione":9530,"giacca":9531,"contatti":9532,"limita":9533,"soffrire":9534,"##edono":9535,"negativamente":9536,"brama":9537,"nut":9538,"riveste":9539,"scarica":9540,"scarso":9541,"scarpa":9542,"esca":9543,"provocata":9544,"compagno":9545,"procedure":9546,"procedura":9547,"adattare":9548,"vicine":9549,"indigeno":9550,"cutanea":9551,"Camp":9552,"Casale":9553,"distintivo":9554,"nucleare":9555,"squame":9556,"ricoperta":9557,"emessa":9558,"##ografica":9559,"antibio":9560,"frontale":9561,"sostenitore":9562,"articolato":9563,"intellettive":9564,"riconosciuta":9565,"##viglie":9566,"respiro":9567,"##iandosi":9568,"vinci":9569,"manuali":9570,"retrib":9571,"difficilmente":9572,"brutto":9573,"rilevazione":9574,"rivolu":9575,"orari":9576,"vuol":9577,"scambia":9578,"irregola":9579,"##tonica":9580,"turb":9581,"rivestito":9582,"192":9583,"riparare":9584,"gallo":9585,"alternati":9586,"improvvisamente":9587,"arido":9588,"aristo":9589,"classico":9590,"opporsi":9591,"divieto":9592,"sopportazione":9593,"orizzontalmente":9594,"verificarsi":9595,"paralleli":9596,"schiera":9597,"schiena":9598,"##lievi":9599,"##bolli":9600,"potenzia":9601,"primitivo":9602,"globo":9603,"giornali":9604,"salire":9605,"salita":9606,"coordinare":9607,"coinvolgimento":9608,"pecora":9609,"probabilmente":9610,"sapendo":9611,"sembianze":9612,"richiesto":9613,"automobil":9614,"connessione":9615,"diversamente":9616,"burocratico":9617,"percepito":9618,"filamenti":9619,"impedendo":9620,"finanziario":9621,"ragiona":9622,"moderne":9623,"ricevuta":9624,"riass":9625,"combatt":9626,"combattere":9627,"riunire":9628,"provvi":9629,"predisporre":9630,"sicuro":9631,"dichiara":9632,"accompagnamento":9633,"fortificazione":9634,"geografico":9635,"Artio":9636,"luminoso":9637,"integrazione":9638,"redig":9639,"liscia":9640,"contemporanea":9641,"ipotetica":9642,"##ardegna":9643,"sciocco":9644,"eventualmente":9645,"immerso":9646,"muratura":9647,"indeboli":9648,"convul":9649,"solubile":9650,"oliva":9651,"accompagnare":9652,"##tandone":9653,"interazioni":9654,"coniugazione":9655,"suddivisioni":9656,"globale":9657,"disposizioni":9658,"peculiare":9659,"esofago":9660,"spargere":9661,"avanzare":9662,"capitolo":9663,"esplicito":9664,"fosfato":9665,"ribell":9666,"assorbire":9667,"richiama":9668,"##turba":9669,"infinite":9670,"aranc":9671,"toller":9672,"appuntito":9673,"settiman":9674,"disponibilità":9675,"identico":9676,"Congo":9677,"parassiti":9678,"lesione":9679,"prostituzione":9680,"acustica":9681,"circoscritto":9682,"peggiorativo":9683,"battesimo":9684,"giornalista":9685,"eterogene":9686,"nessuno":9687,"rampante":9688,"gioielli":9689,"liturgico":9690,"arrampica":9691,"scrupol":9692,"roccioso":9693,"circondato":9694,"argomentazioni":9695,"esemplari":9696,"narrativa":9697,"macromolec":9698,"copie":9699,"confermare":9700,"quantitativa":9701,"Romani":9702,"adempimento":9703,"inutile":9704,"parlando":9705,"primaria":9706,"noioso":9707,"fisiologica":9708,"recuperare":9709,"lusinghe":9710,"sconfitta":9711,"orologio":9712,"soprannatura":9713,"biasimo":9714,"fumetti":9715,"costellazione":9716,"bottega":9717,"tropicale":9718,"pertinente":9719,"lampada":9720,"appendice":9721,"vivande":9722,"involontariamente":9723,"astio":9724,"pungente":9725,"rinasci":9726,"diagonale":9727,"iodio":9728,"losan":9729,"##classe":9730,"accessibile":9731,"flessibile":9732,"Messico":9733,"biglietto":9734,"comandante":9735,"preistoria":9736,"ritardo":9737,"discontin":9738,"morbido":9739,"radioattivo":9740,"ottanta":9741,"vaccino":9742,"elettrodomestico":9743,"annullare":9744,"spiacevole":9745,"inchios":9746,"chiarezza":9747,"imbrogliare":9748,"sovranità":9749,"eufemismo":9750,"leader":9751,"interlocutore":9752,"ricchezze":9753,"diciannovesimo":9754,"Ottocento":9755,"Sudafrica":9756,"droghe":9757,"percussione":9758,"architra":9759,"elemosina":9760,"robusto":9761,"manutenzione":9762,"irregolarità":9763,"13":9764,"25":9765,"Ara":9766,"En":9767,"Emilia":9768,"Gran":9769,"Or":9770,"Sardegna":9771,"Testa":9772,"Val":9773,"avo":9774,"apre":9775,"astro":9776,"astri":9777,"busto":9778,"cena":9779,"desta":9780,"fone":9781,"frus":9782,"gl":9783,"gig":9784,"idi":9785,"ione":9786,"istru":9787,"mio":9788,"menta":9789,"nere":9790,"nich":9791,"ovo":9792,"pessi":9793,"pelli":9794,"pela":9795,"polari":9796,"rare":9797,"seri":9798,"smettere":9799,"steri":9800,"teste":9801,"vena":9802,"vorre":9803,"we":9804,"##nale":9805,"##son":9806,"##sica":9807,"##sig":9808,"##sec":9809,"##sante":9810,"##ling":9811,"##lini":9812,"##llare":9813,"##lterra":9814,"##tuno":9815,"##mona":9816,"##ea":9817,"##evole":9818,"##cuo":9819,"##ciando":9820,"##genze":9821,"##gallo":9822,"##vic":9823,"##vica":9824,"##vit":9825,"##dy":9826,"##dola":9827,"##dosi":9828,"##disce":9829,"##zarsi":9830,"##by":9831,"##bis":9832,"##fere":9833,"##feri":9834,"##feria":9835,"##foni":9836,"##uca":9837,"##utiva":9838,"##utivi":9839,"##ker":9840,"##onica":9841,"##erica":9842,"##erba":9843,"##enica":9844,"##tosa":9845,"##icole":9846,"dilatazione":9847,"##iassette":9848,"##olenza":9849,"##olarsi":9850,"inna":9851,"intol":9852,"inani":9853,"##icazione":9854,"##inico":9855,"##rid":9856,"##rima":9857,"##alare":9858,"##ssale":9859,"##ssarsi":9860,"perd":9861,"perco":9862,"permesso":9863,"##anime":9864,"##ogare":9865,"##ogliare":9866,"##ostamente":9867,"conica":9868,"##ardi":9869,"##lavo":9870,"alza":9871,"##igia":9872,"lamento":9873,"lamina":9874,"protra":9875,"prosa":9876,"prodig":9877,"ancia":9878,"##ppone":9879,"##escente":9880,"suole":9881,"##chino":9882,"caver":9883,"masse":9884,"spinale":9885,"##side":9886,"##biti":9887,"##atola":9888,"##terne":9889,"partendo":9890,"mosso":9891,"arbo":9892,"arterie":9893,"raggio":9894,"dea":9895,"deviazione":9896,"presie":9897,"preziosi":9898,"figlia":9899,"tram":9900,"tracciato":9901,"##eriti":9902,"forse":9903,"##zionismo":9904,"scol":9905,"scura":9906,"scende":9907,"riduce":9908,"orche":9909,"orrore":9910,"chiunque":9911,"lembo":9912,"##ianza":9913,"##meccan":9914,"tecnologie":9915,"pap":9916,"pagine":9917,"##verare":9918,"viti":9919,"grav":9920,"cornea":9921,"##volto":9922,"##volare":9923,"coltiv":9924,"##ssività":9925,"##bba":9926,"##pati":9927,"manda":9928,"mangan":9929,"pollo":9930,"polveri":9931,"stampo":9932,"stagno":9933,"sedia":9934,"seman":9935,"seque":9936,"esser":9937,"##giato":9938,"dodici":9939,"##entati":9940,"generata":9941,"avvi":9942,"avvocato":9943,"rista":9944,"accos":9945,"bara":9946,"intersezione":9947,"nastro":9948,"nasce":9949,"zocc":9950,"vermi":9951,"versare":9952,"vernici":9953,"altres":9954,"esta":9955,"matematici":9956,"legalmente":9957,"consec":9958,"consigli":9959,"presu":9960,"presen":9961,"volt":9962,"voluto":9963,"espedi":9964,"indizi":9965,"disono":9966,"dischi":9967,"disfa":9968,"profonde":9969,"stemmi":9970,"##ziosamente":9971,"regalo":9972,"##estie":9973,"incan":9974,"incess":9975,"include":9976,"rifu":9977,"sporge":9978,"sporgenza":9979,"oppre":9980,"superfl":9981,"##oniformi":9982,"abbra":9983,"spezie":9984,"crisi":9985,"produttività":9986,"##ggire":9987,"infantile":9988,"##ting":9989,"diffondersi":9990,"corpore":9991,"conferito":9992,"concludere":9993,"giov":9994,"celesti":9995,"calc":9996,"calcolare":9997,"certe":9998,"misure":9999,"miscu":10000,"feci":10001,"##stina":10002,"trasg":10003,"##enazione":10004,"##ondato":10005,"##essuale":10006,"completezza":10007,"mettendo":10008,"cana":10009,"canoni":10010,"rispondere":10011,"vestia":10012,"piazza":10013,"plan":10014,"pesanti":10015,"toro":10016,"peda":10017,"fragi":10018,"sistemazione":10019,"rappresentano":10020,"budd":10021,"##omodo":10022,"audio":10023,"procla":10024,"scout":10025,"classifica":10026,"misurata":10027,"ottenuti":10028,"deciso":10029,"fertili":10030,"fertile":10031,"##tropia":10032,"scagl":10033,"passioni":10034,"appartengono":10035,"venga":10036,"quinto":10037,"salato":10038,"salume":10039,"##zoico":10040,"biuni":10041,"biologiche":10042,"bizanti":10043,"sfondo":10044,"varianti":10045,"##utibile":10046,"sommer":10047,"esattamente":10048,"chiaramente":10049,"##gliata":10050,"culture":10051,"negazione":10052,"studiare":10053,"ideologia":10054,"offese":10055,"offerte":10056,"rombo":10057,"servire":10058,"forzata":10059,"consegue":10060,"scherma":10061,"economicamente":10062,"segnare":10063,"abra":10064,"imbe":10065,"imbro":10066,"maldic":10067,"ritra":10068,"correttamente":10069,"correlati":10070,"fuoriesce":10071,"sogni":10072,"raccol":10073,"ricavi":10074,"ricamb":10075,"evidenzia":10076,"oltra":10077,"plas":10078,"plac":10079,"definitivamente":10080,"praticato":10081,"controllata":10082,"funziona":10083,"isolante":10084,"violenti":10085,"giacimento":10086,"soffitto":10087,"aggiunto":10088,"grossi":10089,"##ulata":10090,"recin":10091,"recettori":10092,"costruisce":10093,"originarie":10094,"bancono":10095,"##elidi":10096,"progetti":10097,"progettato":10098,"bracci":10099,"quadrati":10100,"oltrepassare":10101,"agglom":10102,"incontri":10103,"scarto":10104,"escluso":10105,"territoriali":10106,"cinta":10107,"repulsione":10108,"Inghi":10109,"uffici":10110,"sovente":10111,"alternata":10112,"precur":10113,"compati":10114,"compatta":10115,"sorgere":10116,"cupo":10117,"dolori":10118,"dettaglio":10119,"coperchio":10120,"penna":10121,"messagg":10122,"distinzione":10123,"membra":10124,"##versibile":10125,"nasconde":10126,"nascostamente":10127,"patologie":10128,"dolcezza":10129,"sinteti":10130,"Para":10131,"ipofisi":10132,"costringere":10133,"emoglobina":10134,"govern":10135,"metamor":10136,"lasciar":10137,"indossato":10138,"accadimento":10139,"decoro":10140,"sostenuta":10141,"giudizi":10142,"articolazioni":10143,"domande":10144,"riflesso":10145,"riflettere":10146,"intellettiva":10147,"muco":10148,"mucchio":10149,"apposita":10150,"numerico":10151,"bordi":10152,"vigi":10153,"fonti":10154,"venivano":10155,"visiva":10156,"alcoliche":10157,"##cromatica":10158,"magne":10159,"descritta":10160,"ornamentali":10161,"estetico":10162,"cucinare":10163,"soddisfacente":10164,"utente":10165,"cicl":10166,"diciassette":10167,"arroto":10168,"arroganza":10169,"eretto":10170,"guard":10171,"schiuma":10172,"responsabili":10173,"elar":10174,"##colosi":10175,"trip":10176,"esclude":10177,"convinto":10178,"coinvolgere":10179,"contentezza":10180,"milza":10181,"educa":10182,"perfetto":10183,"perfezione":10184,"sospetto":10185,"fantastico":10186,"ripetuta":10187,"bisogni":10188,"opportuna":10189,"provvista":10190,"polipepti":10191,"gravidanza":10192,"bolle":10193,"degen":10194,"monocromatica":10195,"progressi":10196,"progressivo":10197,"transizione":10198,"transitoria":10199,"combatte":10200,"contraddistingue":10201,"##driformi":10202,"architettonici":10203,"digestione":10204,"lateralmente":10205,"accordi":10206,"spermato":10207,"fascio":10208,"fascismo":10209,"decorazioni":10210,"commestibili":10211,"ostin":10212,"raffigurazione":10213,"astronom":10214,"denuncia":10215,"decimale":10216,"professionali":10217,"eventualità":10218,"ebraico":10219,"somigliante":10220,"aeromobili":10221,"imitare":10222,"periferia":10223,"storici":10224,"omogenea":10225,"monaco":10226,"##tandolo":10227,"pastori":10228,"dorsale":10229,"erosione":10230,"dissol":10231,"avvicinare":10232,"settembre":10233,"inorganico":10234,"promuove":10235,"ceramica":10236,"rappresentante":10237,"rappresentanti":10238,"##dding":10239,"avanzata":10240,"prospettiva":10241,"tradizionale":10242,"filetto":10243,"adeguata":10244,"degrada":10245,"degradazione":10246,"melodia":10247,"ribos":10248,"propaganda":10249,"rigida":10250,"carnivori":10251,"psichica":10252,"psichici":10253,"aspirazione":10254,"schelet":10255,"moltiplicazione":10256,"parallelepipe":10257,"onorevole":10258,"radiazione":10259,"esplosivo":10260,"tollerare":10261,"conversione":10262,"collera":10263,"urban":10264,"dominante":10265,"epitelio":10266,"##rescere":10267,"rigoroso":10268,"benzene":10269,"storicamente":10270,"afferrare":10271,"affermare":10272,"straniera":10273,"ritrovare":10274,"istinto":10275,"golf":10276,"favorirne":10277,"quotidian":10278,"longitudinale":10279,"bellica":10280,"palazzo":10281,"sterno":10282,"arrabbia":10283,"padrone":10284,"affinché":10285,"cannone":10286,"organizzazioni":10287,"subordinata":10288,"iscritto":10289,"malizia":10290,"narrazione":10291,"Carnivori":10292,"convivenza":10293,"enunciato":10294,"adempi":10295,"motocicletta":10296,"celebrare":10297,"inviato":10298,"accelerazione":10299,"colloquiale":10300,"cognizione":10301,"oscillazione":10302,"selezione":10303,"erroneamente":10304,"aceto":10305,"strof":10306,"acconcia":10307,"conflitto":10308,"ripresa":10309,"escrementi":10310,"intransi":10311,"intransig":10312,"timidezza":10313,"bestiame":10314,"onorifico":10315,"invenzione":10316,"essenziali":10317,"bovini":10318,"miliardi":10319,"aspettative":10320,"guerre":10321,"ottava":10322,"rallenta":10323,"tegu":10324,"unghie":10325,"comandare":10326,"penetrare":10327,"sensoriali":10328,"anglosassone":10329,"algebrica":10330,"sessanta":10331,"vettoriale":10332,"risalente":10333,"cardiaco":10334,"legittimo":10335,"usufru":10336,"spettro":10337,"imperiale":10338,"farfalla":10339,"cartilagine":10340,"odier":10341,"telegra":10342,"minaccioso":10343,"diciottesimo":10344,"hardware":10345,"##tagonista":10346,"vibrazioni":10347,"zodiacale":10348,"maldestro":10349,"equipaggio":10350,"contagiosa":10351,"disapprovazione":10352,"epidermide":10353,"turbamento":10354,"Mustelidi":10355,"povertà":10356,"sottoinsie":10357,"serbatoio":10358,"compravendita":10359,"manifatturiera":10360,"Uccelli":10361,"##doccidentale":10362,"nutrire":10363,"Artiodattili":10364,"Testamento":10365,"gloria":10366,"istruzioni":10367,"nichel":10368,"pessima":10369,"##vitù":10370,"altresì":10371,"miscuglio":10372,"Inghilterra":10373,"45":10374,"At":10375,"Cala":10376,"For":10377,"Luna":10378,"Malta":10379,"Nel":10380,"Nor":10381,"Pie":10382,"Spar":10383,"XX":10384,"abile":10385,"api":10386,"bl":10387,"bla":10388,"bit":10389,"bell":10390,"cali":10391,"ceno":10392,"clin":10393,"cesp":10394,"dens":10395,"dritto":10396,"dentate":10397,"droga":10398,"egu":10399,"eloqu":10400,"fes":10401,"fess":10402,"fontan":10403,"hi":10404,"ist":10405,"ibri":10406,"logo":10407,"nullo":10408,"petti":10409,"pompa":10410,"ring":10411,"rette":10412,"sw":10413,"sma":10414,"slan":10415,"stero":10416,"teno":10417,"tendere":10418,"tanti":10419,"umo":10420,"##abili":10421,"##rvi":10422,"##rgli":10423,"##nio":10424,"##sen":10425,"##leria":10426,"##lante":10427,"##liono":10428,"##tona":10429,"##ttante":10430,"##mis":10431,"##mio":10432,"##mero":10433,"##ete":10434,"##cene":10435,"##cosc":10436,"##gel":10437,"##vve":10438,"##viste":10439,"##vetta":10440,"##prendere":10441,"##bit":10442,"##brato":10443,"##ug":10444,"##uff":10445,"##yle":10446,"##onto":10447,"##ondi":10448,"##erità":10449,"##ervare":10450,"##erfu":10451,"##enio":10452,"##enici":10453,"##torio":10454,"##icismo":10455,"disse":10456,"##iata":10457,"##olanti":10458,"##olitico":10459,"##tea":10460,"##teo":10461,"inol":10462,"inva":10463,"inspi":10464,"innata":10465,"##icante":10466,"##lette":10467,"chicchi":10468,"##inal":10469,"##riti":10470,"##riere":10471,"##rose":10472,"##ssante":10473,"perno":10474,"##ann":10475,"##ornare":10476,"##ometto":10477,"##ogen":10478,"##ogni":10479,"delinqu":10480,"##isola":10481,"##arte":10482,"##larità":10483,"alde":10484,"alco":10485,"##dotti":10486,"##igian":10487,"##eggiativo":10488,"lami":10489,"##ttor":10490,"messe":10491,"protone":10492,"prossim":10493,"ance":10494,"##esio":10495,"##esie":10496,"suon":10497,"suola":10498,"##ecani":10499,"camere":10500,"matu":10501,"maest":10502,"mattoni":10503,"sposo":10504,"##terale":10505,"estende":10506,"estensivo":10507,"##date":10508,"motto":10509,"ars":10510,"demonio":10511,"complicità":10512,"pressa":10513,"preziosa":10514,"trauma":10515,"tragitto":10516,"##dema":10517,"piene":10518,"rival":10519,"rilievi":10520,"poesie":10521,"ader":10522,"aderente":10523,"lembi":10524,"##entito":10525,"##entimento":10526,"appia":10527,"apporta":10528,"apporto":10529,"pat":10530,"perse":10531,"##onaco":10532,"##tuzione":10533,"##verente":10534,"ecli":10535,"villa":10536,"grana":10537,"gradini":10538,"gratuito":10539,"##uata":10540,"coltura":10541,"coltello":10542,"coleo":10543,"formazioni":10544,"mandato":10545,"##inga":10546,"##ingo":10547,"##zzetti":10548,"pole":10549,"polmon":10550,"stazione":10551,"statale":10552,"##endale":10553,"imprimere":10554,"impegnato":10555,"pugno":10556,"allu":10557,"retor":10558,"requisi":10559,"dotati":10560,"##entarsi":10561,"right":10562,"termin":10563,"genoma":10564,"##ziato":10565,"##ziare":10566,"accer":10567,"accidentale":10568,"nati":10569,"nativa":10570,"molla":10571,"coro":10572,"codi":10573,"coerente":10574,"carto":10575,"cardinale":10576,"esul":10577,"estate":10578,"privazione":10579,"consentire":10580,"consegnare":10581,"attivi":10582,"luss":10583,"lucido":10584,"lucro":10585,"presunta":10586,"presunzione":10587,"esponente":10588,"mito":10589,"miti":10590,"missi":10591,"disci":10592,"distor":10593,"agon":10594,"tuba":10595,"tuber":10596,"stecche":10597,"vacca":10598,"##gata":10599,"assec":10600,"incur":10601,"oppio":10602,"farmacia":10603,"affettivo":10604,"colorare":10605,"novità":10606,"prer":10607,"robo":10608,"insistente":10609,"finalità":10610,"funi":10611,"##essivo":10612,"margini":10613,"anatomico":10614,"##bate":10615,"sagge":10616,"amico":10617,"concettu":10618,"linguistici":10619,"solco":10620,"solventi":10621,"quattor":10622,"allesti":10623,"misto":10624,"compiuti":10625,"feudo":10626,"individuare":10627,"trasmesso":10628,"sottosu":10629,"sonore":10630,"autocon":10631,"canc":10632,"canta":10633,"operai":10634,"rispond":10635,"rispettare":10636,"pianeggiante":10637,"prodotte":10638,"piatti":10639,"trovato":10640,"origini":10641,"##ccaride":10642,"##ccaridi":10643,"talento":10644,"strano":10645,"peste":10646,"totalità":10647,"petali":10648,"frate":10649,"sistemare":10650,"artio":10651,"artisti":10652,"cristiani":10653,"idrol":10654,"attributi":10655,"attribuisce":10656,"liberi":10657,"malati":10658,"minor":10659,"minuto":10660,"fori":10661,"##ggiatura":10662,"ottenerne":10663,"protesta":10664,"decis":10665,"ferme":10666,"direttore":10667,"durare":10668,"scavo":10669,"salutare":10670,"situate":10671,"situati":10672,"ammonia":10673,"sfo":10674,"mammella":10675,"intonazione":10676,"esteriori":10677,"esaminare":10678,"stir":10679,"##elabo":10680,"ovviare":10681,"##guono":10682,"##andola":10683,"tentando":10684,"tennis":10685,"rub":10686,"rude":10687,"rumori":10688,"attestazione":10689,"offensiva":10690,"romanza":10691,"variare":10692,"continue":10693,"manifesto":10694,"scherno":10695,"scherzo":10696,"agricola":10697,"segna":10698,"difensiva":10699,"presentazione":10700,"presentarsi":10701,"merita":10702,"meritevole":10703,"palco":10704,"palcosc":10705,"rimor":10706,"correzione":10707,"formulare":10708,"##llidi":10709,"##trollo":10710,"alber":10711,"dovuti":10712,"passate":10713,"valor":10714,"##mentarsi":10715,"definiti":10716,"immig":10717,"praticata":10718,"oriente":10719,"energ":10720,"riconduci":10721,"equivale":10722,"esprimono":10723,"##ensore":10724,"giapp":10725,"contadino":10726,"testamento":10727,"parado":10728,"##ranee":10729,"aggiung":10730,"aggiunge":10731,"obbedi":10732,"nudo":10733,"nuvole":10734,"dipendono":10735,"singole":10736,"false":10737,"inconsa":10738,"cintura":10739,"odonto":10740,"attinenti":10741,"mercati":10742,"##ellino":10743,"acquistare":10744,"posizionato":10745,"compassione":10746,"compaiono":10747,"indole":10748,"macchinari":10749,"macchinario":10750,"sconsi":10751,"laringe":10752,"distinto":10753,"distinti":10754,"internazionali":10755,"infiammabile":10756,"infiammatoria":10757,"aziendale":10758,"tormento":10759,"piccolissime":10760,"semilavo":10761,"stress":10762,"dialettica":10763,"abbassamento":10764,"logicamente":10765,"barriera":10766,"ordinati":10767,"decorare":10768,"supporti":10769,"concepito":10770,"urine":10771,"risoluto":10772,"ritenuti":10773,"domanda":10774,"conduttori":10775,"coinvolta":10776,"analogo":10777,"analoga":10778,"numeroso":10779,"congru":10780,"riconosciuti":10781,"visita":10782,"##vigli":10783,"terremo":10784,"Maometto":10785,"assiduo":10786,"inacc":10787,"affitto":10788,"##eggiato":10789,"programmazione":10790,"scelto":10791,"ornamenti":10792,"reagisce":10793,"solleva":10794,"sotterfu":10795,"epide":10796,"prevalere":10797,"197":10798,"mangiato":10799,"ostacolare":10800,"alternative":10801,"utenti":10802,"operato":10803,"rapidamente":10804,"terminato":10805,"apprezzare":10806,"eretta":10807,"equilibrato":10808,"parallelo":10809,"parallela":10810,"munita":10811,"specialità":10812,"arretra":10813,"coinvolti":10814,"perfe":10815,"sospeso":10816,"trin":10817,"treni":10818,"ripetuto":10819,"opportuni":10820,"magnesio":10821,"irrita":10822,"irritazione":10823,"stanchezza":10824,"aromati":10825,"bolli":10826,"monovalente":10827,"rial":10828,"riunisce":10829,"topografia":10830,"pieghe":10831,"imperf":10832,"Franc":10833,"ragguar":10834,"scorrimento":10835,"vissuti":10836,"conosciuta":10837,"arbit":10838,"competente":10839,"filiforme":10840,"fedeltà":10841,"decorativa":10842,"amaro":10843,"invertebrati":10844,"spontanea":10845,"sviluppare":10846,"grido":10847,"apparecchiature":10848,"180":10849,"neutrali":10850,"manovrare":10851,"nutritive":10852,"litri":10853,"bastoncino":10854,"contemporaneo":10855,"cinematografiche":10856,"truffa":10857,"truppe":10858,"fastidioso":10859,"esaltare":10860,"infamia":10861,"ghiaccia":10862,"imputato":10863,"esplosione":10864,"abitazioni":10865,"prolungata":10866,"prolungamento":10867,"scorretto":10868,"tributi":10869,"scomporre":10870,"storiche":10871,"pedante":10872,"sostituito":10873,"tuttavia":10874,"respiratoria":10875,"respiratorie":10876,"Unito":10877,"veramente":10878,"gareggia":10879,"indirizzare":10880,"rovina":10881,"dinastia":10882,"pulsioni":10883,"carrozze":10884,"seguono":10885,"Napoli":10886,"partecipazione":10887,"ausilia":10888,"acquisizione":10889,"adulta":10890,"gonfia":10891,"richiamo":10892,"richiamare":10893,"compiacimento":10894,"ingenuo":10895,"Sant":10896,"XVI":10897,"XVII":10898,"appuntita":10899,"urbana":10900,"influenzare":10901,"spigoli":10902,"spighe":10903,"inaspetta":10904,"timbro":10905,"sviluppati":10906,"locomotore":10907,"parassita":10908,"bicchi":10909,"richie":10910,"prostituta":10911,"acustico":10912,"follic":10913,"terapeutico":10914,"ginnico":10915,"nessun":10916,"determinano":10917,"lavaggio":10918,"circondare":10919,"universitaria":10920,"obbligatorio":10921,"argill":10922,"indipendenti":10923,"superficialmente":10924,"fecondazione":10925,"vanamente":10926,"vanagl":10927,"sposata":10928,"ricostru":10929,"affasc":10930,"sacramento":10931,"quantitativo":10932,"intrins":10933,"perpet":10934,"prefissato":10935,"occupato":10936,"Unione":10937,"trattenere":10938,"provenienza":10939,"Vertebrati":10940,"##donna":10941,"cosmetico":10942,"eccellente":10943,"sagom":10944,"integrale":10945,"centimetri":10946,"tenacia":10947,"parentela":10948,"sollecitazione":10949,"minestra":10950,"##tilene":10951,"lacrime":10952,"propositi":10953,"proposizioni":10954,"minuscolo":10955,"indulgenza":10956,"masticare":10957,"adolescenza":10958,"##oncello":10959,"connotazione":10960,"comodità":10961,"poteva":10962,"salvaguardia":10963,"video":10964,"segnalazione":10965,"quadrupedi":10966,"ereditaria":10967,"vogliono":10968,"##ikipedia":10969,"distesa":10970,"notturno":10971,"palpebre":10972,"pacificamente":10973,"sarebbe":10974,"vendetta":10975,"scultura":10976,"rivendica":10977,"firma":10978,"battito":10979,"espansione":10980,"impropriamente":10981,"velenoso":10982,"trigonometrica":10983,"arresto":10984,"riscossione":10985,"vergogna":10986,"efficienza":10987,"Caradriformi":10988,"standard":10989,"episodi":10990,"mandorle":10991,"cumulo":10992,"feroce":10993,"piovana":10994,"giuramento":10995,"appariscente":10996,"impugnatura":10997,"mezzanotte":10998,"pseudo":10999,"conchiglia":11000,"soccorso":11001,"ortaggi":11002,"dispiacere":11003,"vezzeggiativo":11004,"biancheria":11005,"imprevisto":11006,"equilibrata":11007,"sollecitazioni":11008,"fastidiosa":11009,"assorbimento":11010,"eterociclico":11011,"Azerba":11012,"duodeno":11013,"fenotipo":11014,"##dimensionale":11015,"intestinale":11016,"arancione":11017,"architrave":11018,"serietà":11019,"vorrebbe":11020,"web":11021,"manganese":11022,"disonore":11023,"incessante":11024,"giovine":11025,"vestiario":11026,"messaggero":11027,"adempiere":11028,"Piemonte":11029,"cespu":11030,"densità":11031,"tenore":11032,"alcool":11033,"prossimità":11034,"maturità":11035,"polmonare":11036,"saggezza":11037,"sottosuolo":11038,"autocontrollo":11039,"palcoscenico":11040,"vanagloria":11041,"Azerbaigian":11042,"1p":11043,"31":11044,"36":11045,"50":11046,"Am":11047,"Acci":11048,"AAA":11049,"Cu":11050,"Cit":11051,"Comp":11052,"De":11053,"Er":11054,"Geno":11055,"Ka":11056,"Pan":11057,"Slo":11058,"Santo":11059,"buo":11060,"bestie":11061,"care":11062,"critto":11063,"cella":11064,"dona":11065,"dosi":11066,"evan":11067,"ell":11068,"emana":11069,"folto":11070,"get":11071,"it":11072,"ister":11073,"icosa":11074,"meg":11075,"mela":11076,"ole":11077,"opa":11078,"one":11079,"polo":11080,"pond":11081,"reni":11082,"sì":11083,"sno":11084,"sce":11085,"smin":11086,"talmente":11087,"tolto":11088,"ure":11089,"vani":11090,"##apito":11091,"##run":11092,"##rca":11093,"##sona":11094,"##sano":11095,"##simi":11096,"##lente":11097,"##lpa":11098,"##loni":11099,"##ttanti":11100,"##tendone":11101,"##troni":11102,"##ot":11103,"##melle":11104,"##evale":11105,"##ceri":11106,"##ciglia":11107,"##carsi":11108,"##gol":11109,"##goli":11110,"##vor":11111,"##vali":11112,"##petto":11113,"##pone":11114,"##pero":11115,"##prire":11116,"##dole":11117,"##zimi":11118,"##far":11119,"##fali":11120,"##fone":11121,"##fismo":11122,"##uss":11123,"##uerra":11124,"##quar":11125,"##erce":11126,"##todo":11127,"dile":11128,"digni":11129,"##retta":11130,"##rette":11131,"##telle":11132,"##tito":11133,"##elare":11134,"##eletro":11135,"inve":11136,"inversa":11137,"uniscono":11138,"##inano":11139,"##incon":11140,"##inanze":11141,"##rizia":11142,"##riformi":11143,"##alog":11144,"##altà":11145,"##ssico":11146,"##ssero":11147,"perver":11148,"##ant":11149,"##anina":11150,"##ombe":11151,"delica":11152,"delfini":11153,"##isc":11154,"##istero":11155,"##arvi":11156,"altare":11157,"##etera":11158,"##ettura":11159,"##lige":11160,"##mazia":11161,"##iora":11162,"##igoti":11163,"##strale":11164,"##sticità":11165,"##ttone":11166,"##ccano":11167,"laico":11168,"##imia":11169,"##imosa":11170,"##imini":11171,"##immet":11172,"commissione":11173,"##ttom":11174,"metile":11175,"prosciu":11176,"promozione":11177,"##diu":11178,"##citura":11179,"date":11180,"dapp":11181,"##icotile":11182,"anione":11183,"ansi":11184,"##ppato":11185,"##ppine":11186,"##ith":11187,"suffi":11188,"##chismo":11189,"capre":11190,"maritti":11191,"sparti":11192,"silica":11193,"mode":11194,"mossa":11195,"arci":11196,"rari":11197,"razz":11198,"ramm":11199,"##ced":11200,"dedito":11201,"fas":11202,"fame":11203,"fatic":11204,"##usca":11205,"prese":11206,"pregare":11207,"trae":11208,"trape":11209,"traccia":11210,"tracciare":11211,"##eridi":11212,"##dea":11213,"##vietica":11214,"##speci":11215,"scre":11216,"scro":11217,"scom":11218,"medici":11219,"riz":11220,"riva":11221,"rientra":11222,"rielabo":11223,"fiscale":11224,"##trasm":11225,"potenti":11226,"elevati":11227,"adun":11228,"##erativo":11229,"##erario":11230,"##erabile":11231,"##egnarsi":11232,"left":11233,"lealtà":11234,"appla":11235,"apposizione":11236,"appren":11237,"apprendere":11238,"pas":11239,"pappa":11240,"##sciare":11241,"vivendo":11242,"corn":11243,"cordo":11244,"cortile":11245,"corpus":11246,"colto":11247,"collina":11248,"colest":11249,"colomb":11250,"ciba":11251,"##ttino":11252,"##ficati":11253,"##ssore":11254,"filato":11255,"mansione":11256,"polin":11257,"polso":11258,"stalla":11259,"##eneva":11260,"##endole":11261,"imposto":11262,"imporre":11263,"imposte":11264,"sepp":11265,"sedere":11266,"allusione":11267,"costri":11268,"cospar":11269,"##tenibile":11270,"restri":11271,"##giare":11272,"##olire":11273,"##olizione":11274,"##forte":11275,"dotto":11276,"riga":11277,"rigon":11278,"##ciamento":11279,"genu":11280,"avval":11281,"farle":11282,"farne":11283,"risu":11284,"accani":11285,"bada":11286,"tema":11287,"style":11288,"interru":11289,"navata":11290,"verbi":11291,"atterra":11292,"coes":11293,"nemiche":11294,"carichi":11295,"filtrare":11296,"prive":11297,"prisma":11298,"tira":11299,"consen":11300,"consono":11301,"acuti":11302,"bottom":11303,"lupo":11304,"lusso":11305,"##ticismo":11306,"gabbia":11307,"volu":11308,"volante":11309,"esposto":11310,"espulsione":11311,"distanze":11312,"profeta":11313,"agru":11314,"tamb":11315,"tappe":11316,"vasc":11317,"vagina":11318,"ricorso":11319,"comunismo":11320,"reggere":11321,"##gativo":11322,"assistere":11323,"incu":11324,"incolla":11325,"incisioni":11326,"##tatorio":11327,"sporgente":11328,"opposte":11329,"superato":11330,"##ranto":11331,"farmac":11332,"utilizzate":11333,"##rigi":11334,"##riglia":11335,"particolarità":11336,"affetti":11337,"colorata":11338,"specchi":11339,"eccezione":11340,"eccetera":11341,"critico":11342,"criminale":11343,"socievole":11344,"roto":11345,"insig":11346,"inserita":11347,"inserzione":11348,"insettici":11349,"familiari":11350,"resp":11351,"resine":11352,"solitario":11353,"sassi":11354,"confa":11355,"concord":11356,"solf":11357,"aiu":11358,"giovamento":11359,"cellpa":11360,"miseria":11361,"segui":11362,"individuali":11363,"individuazione":11364,"##enamento":11365,"sottocu":11366,"sottomissione":11367,"sonoro":11368,"serv":11369,"autostra":11370,"generosità":11371,"canti":11372,"contrari":11373,"contratta":11374,"contrarre":11375,"operaio":11376,"operativo":11377,"pianto":11378,"vecchi":11379,"origin":11380,"scuole":11381,"creanza":11382,"famoso":11383,"##stata":11384,"topo":11385,"costiera":11386,"rappresentati":11387,"buco":11388,"circolato":11389,"nordorientale":11390,"artistici":11391,"riporre":11392,"procre":11393,"discendenza":11394,"discendenti":11395,"discapito":11396,"spaziali":11397,"elettrodo":11398,"elettromeccan":11399,"minimi":11400,"principe":11401,"ucciso":11402,"tipografico":11403,"protettiva":11404,"deca":11405,"declina":11406,"simpa":11407,"simpatia":11408,"primavera":11409,"##diso":11410,"permettendo":11411,"passante":11412,"designa":11413,"inibizione":11414,"salve":11415,"salumi":11416,"elettrol":11417,"elettrologia":11418,"sfogo":11419,"sigi":11420,"frecce":11421,"alimenta":11422,"derivanti":11423,"collegia":11424,"collettività":11425,"mammelle":11426,"giugno":11427,"intuito":11428,"esauri":11429,"realizzarsi":11430,"tenero":11431,"chiass":11432,"chiamare":11433,"rug":11434,"rules":11435,"culminante":11436,"pratico":11437,"##presa":11438,"viveri":11439,"goffo":11440,"necessita":11441,"eserciti":11442,"esercizi":11443,"risultare":11444,"servito":11445,"scritte":11446,"ulteriormente":11447,"furioso":11448,"etich":11449,"significare":11450,"tessere":11451,"tessitura":11452,"abuso":11453,"montato":11454,"argine":11455,"imballa":11456,"malle":11457,"pallina":11458,"rimuove":11459,"correlato":11460,"angelo":11461,"formalmente":11462,"formule":11463,"immaginare":11464,"ricavo":11465,"passati":11466,"evita":11467,"capitano":11468,"terrazzo":11469,"avverso":11470,"avvertire":11471,"aperte":11472,"##mentaria":11473,"placca":11474,"preparati":11475,"immunità":11476,"veloci":11477,"equitazione":11478,"equival":11479,"violente":11480,"convenzioni":11481,"convenzionali":11482,"muovono":11483,"##mmiferi":11484,"limitare":11485,"capar":11486,"contegno":11487,"soffer":11488,"destino":11489,"soggettiva":11490,"aggior":11491,"comunicazioni":11492,"reclu":11493,"banchetto":11494,"progetta":11495,"progettare":11496,"teatrali":11497,"nuca":11498,"aggan":11499,"##cciole":11500,"falan":11501,"falde":11502,"escla":11503,"reputazione":11504,"repentino":11505,"frequenze":11506,"##eratori":11507,"provocando":11508,"desiderare":11509,"elastica":11510,"inviare":11511,"avvenuto":11512,"causando":11513,"impressione":11514,"sormon":11515,"vicinanza":11516,"##anidi":11517,"elettricamente":11518,"ghio":11519,"indeterminato":11520,"lavorativo":11521,"amministrare":11522,"cucchia":11523,"doloroso":11524,"dettagli":11525,"penn":11526,"penisola":11527,"membrane":11528,"associate":11529,"annessa":11530,"carbonato":11531,"ceppo":11532,"cetologia":11533,"nucleico":11534,"leggeri":11535,"subato":11536,"Pakistan":11537,"ricovero":11538,"manifestarsi":11539,"##ografici":11540,"rafforza":11541,"cilindrata":11542,"abbattere":11543,"antigeni":11544,"difficoltoso":11545,"barra":11546,"percorsa":11547,"consac":11548,"mediter":11549,"ordinare":11550,"accaduto":11551,"sottoposti":11552,"mediocre":11553,"trascorso":11554,"trascrizione":11555,"concezioni":11556,"sovrani":11557,"riflessi":11558,"riflessivo":11559,"sostegni":11560,"intellettuali":11561,"imparare":11562,"congeni":11563,"erbacee":11564,"riconoscibile":11565,"nervosi":11566,"venir":11567,"terrestri":11568,"assidu":11569,"ossid":11570,"vincoli":11571,"introdu":11572,"affilata":11573,"bruciare":11574,"illuminare":11575,"gravemente":11576,"scambiare":11577,"irref":11578,"irrequi":11579,"##tonio":11580,"elimin":11581,"epile":11582,"rivestita":11583,"fabbricato":11584,"fabbricare":11585,"fabbricazione":11586,"194":11587,"##ordante":11588,"##tanei":11589,"##taneamente":11590,"cortese":11591,"attorciglia":11592,"innocenza":11593,"estrae":11594,"estratti":11595,"semici":11596,"consuetudine":11597,"orizzontali":11598,"guarda":11599,"guarni":11600,"esternamente":11601,"potenzialmente":11602,"dicembre":11603,"racchiusa":11604,"ossea":11605,"premesse":11606,"agile":11607,"agitato":11608,"contrappone":11609,"contrapposto":11610,"giornalismo":11611,"camion":11612,"coordinazione":11613,"castello":11614,"spettacoli":11615,"azzur":11616,"aerodinamica":11617,"riuscita":11618,"pazienti":11619,"domestica":11620,"richieste":11621,"guadagnare":11622,"ramificazioni":11623,"opportuno":11624,"ripete":11625,"concreta":11626,"ragionare":11627,"aroma":11628,"aromi":11629,"moderato":11630,"moderni":11631,"ricevente":11632,"esigere":11633,"abbandonato":11634,"possessore":11635,"sequenze":11636,"schiacciata":11637,"schiavitù":11638,"adattarsi":11639,"lievemente":11640,"dichiarare":11641,"validi":11642,"tagliato":11643,"conosciuti":11644,"cappella":11645,"fascino":11646,"fascista":11647,"sfortuna":11648,"canestro":11649,"raggiunge":11650,"dannoso":11651,"dannosi":11652,"ripetitivo":11653,"emble":11654,"ironia":11655,"testimone":11656,"approfondito":11657,"denominato":11658,"lisci":11659,"##colata":11660,"scalare":11661,"neutrale":11662,"autorevole":11663,"raffigurato":11664,"litro":11665,"ipotetico":11666,"##ttuoso":11667,"completamento":11668,"professionalmente":11669,"amba":11670,"sbagliare":11671,"sbagliato":11672,"intermedie":11673,"immergere":11674,"impurità":11675,"corazza":11676,"sacerdoti":11677,"sfruttando":11678,"somiglianze":11679,"immunitaria":11680,"televisivi":11681,"illegali":11682,"imita":11683,"tribun":11684,"scomposizione":11685,"lucida":11686,"lucidità":11687,"montagne":11688,"astu":11689,"cerebrale":11690,"veleno":11691,"Persia":11692,"pavimenti":11693,"tossico":11694,"avvicinarsi":11695,"raggruppa":11696,"somministrare":11697,"esoter":11698,"sprovve":11699,"confidare":11700,"contributo":11701,"indirizzo":11702,"punteggio":11703,"quotidiano":11704,"sanguigno":11705,"degradare":11706,"psichiche":11707,"vagab":11708,"romanzo":11709,"##AAA":11710,"aspirare":11711,"polimeri":11712,"tranquillo":11713,"lievito":11714,"arancio":11715,"pericolosa":11716,"identica":11717,"visceri":11718,"viscosa":11719,"viscoso":11720,"inerzia":11721,"andar":11722,"addomestica":11723,"omosessualità":11724,"schema":11725,"anomalia":11726,"prevista":11727,"disinf":11728,"nocivi":11729,"circoscritta":11730,"flora":11731,"float":11732,"meravigli":11733,"nominale":11734,"indisc":11735,"potrebbero":11736,"corrosione":11737,"straniero":11738,"rampicante":11739,"rilascia":11740,"ingiusta":11741,"determinante":11742,"semicer":11743,"sfruttamento":11744,"longitudine":11745,"palazzi":11746,"agevole":11747,"niti":11748,"rendita":11749,"rendimento":11750,"tangibile":11751,"democrazia":11752,"indipendenza":11753,"rimanere":11754,"indoeuropee":11755,"adottato":11756,"##fisico":11757,"instabile":11758,"calzature":11759,"sferica":11760,"perpless":11761,"farmaceutico":11762,"noiosa":11763,"peptidico":11764,"giardini":11765,"incontrare":11766,"antece":11767,"fibrina":11768,"colloquio":11769,"paragona":11770,"protozoi":11771,"eccellenza":11772,"simmetria":11773,"Turchia":11774,"vescica":11775,"antenna":11776,"pregiata":11777,"orologi":11778,"giocattolo":11779,"sottolinea":11780,"sottolineare":11781,"vecchiaia":11782,"spagnolo":11783,"spagnola":11784,"proiettile":11785,"ambiguo":11786,"sepoltura":11787,"tropicali":11788,"malvagio":11789,"addosso":11790,"renderla":11791,"Nuovo":11792,"glacia":11793,"pulito":11794,"affidare":11795,"contraddi":11796,"sfumatura":11797,"Casal":11798,"pentagramma":11799,"deformazioni":11800,"acquosa":11801,"periferico":11802,"diagnostico":11803,"Venezia":11804,"insopp":11805,"cadavere":11806,"catarrina":11807,"predilige":11808,"adiacenti":11809,"rotaie":11810,"ottenimento":11811,"carbonile":11812,"grossolana":11813,"gallegg":11814,"grigiastro":11815,"infiorescenza":11816,"isotopo":11817,"igiene":11818,"giusta":11819,"rimedio":11820,"approfittando":11821,"ginnastica":11822,"biomolecola":11823,"Platone":11824,"ombra":11825,"vittoria":11826,"testicoli":11827,"indirettamente":11828,"artificioso":11829,"controversia":11830,"cetaceo":11831,"torrente":11832,"mascella":11833,"piramide":11834,"grappolo":11835,"impartire":11836,"liquore":11837,"insicurezza":11838,"sanitario":11839,"alifatico":11840,"linfociti":11841,"arrotondata":11842,"durevole":11843,"sleale":11844,"suscettibile":11845,"impennaggio":11846,"robusta":11847,"Filippine":11848,"cosidd":11849,"protuberanza":11850,"leopardo":11851,"modanatura":11852,"antibiotico":11853,"redigere":11854,"ribellione":11855,"avorio":11856,"frusta":11857,"biunivoca":11858,"imbev":11859,"maldicenza":11860,"precursore":11861,"opportunamente":11862,"Calabria":11863,"Sparta":11864,"steroide":11865,"appiatti":11866,"idrolisi":11867,"fermezza":11868,"ammoniaca":11869,"ricostruzione":11870,"1px":11871,"Accipit":11872,"AAAAAA":11873,"buoi":11874,"##trasmetti":11875,"apprendimento":11876,"colesterolo":11877,"cellpadding":11878,"perplessità":11879,"100":11880,"26":11881,"40":11882,"Ad":11883,"Ast":11884,"App":11885,"Bra":11886,"Bol":11887,"Bel":11888,"Bor":11889,"Cre":11890,"Can":11891,"Clu":11892,"Cir":11893,"Do":11894,"Eti":11895,"Est":11896,"Fir":11897,"Gius":11898,"Iran":11899,"Leg":11900,"Mol":11901,"Man":11902,"Olanda":11903,"Set":11904,"Spi":11905,"Tor":11906,"Zel":11907,"ale":11908,"azion":11909,"amo":11910,"atro":11911,"aca":11912,"aure":11913,"amato":11914,"amata":11915,"asciutto":11916,"belli":11917,"cente":11918,"cian":11919,"dond":11920,"durezza":11921,"densa":11922,"donazione":11923,"eb":11924,"eri":11925,"egli":11926,"fritto":11927,"fres":11928,"fana":11929,"ferito":11930,"folla":11931,"gona":11932,"gesso":11933,"gesta":11934,"gomito":11935,"ip":11936,"ipp":11937,"liste":11938,"occh":11939,"ostia":11940,"pom":11941,"pio":11942,"pisto":11943,"pomodo":11944,"rene":11945,"sten":11946,"svanta":11947,"th":11948,"togli":11949,"tese":11950,"vina":11951,"vessi":11952,"voga":11953,"vomito":11954,"##ad":11955,"##rdo":11956,"##rente":11957,"##rona":11958,"##nità":11959,"##setti":11960,"##lon":11961,"##lung":11962,"##tendere":11963,"##tuire":11964,"##tuita":11965,"##ote":11966,"##mig":11967,"##mante":11968,"##epi":11969,"##eder":11970,"##eppe":11971,"##clo":11972,"##cole":11973,"##cersi":11974,"##cani":11975,"##gor":11976,"##gale":11977,"##gole":11978,"##gioni":11979,"##pla":11980,"##pico":11981,"##polo":11982,"##pendo":11983,"##deri":11984,"##delli":11985,"##zu":11986,"##bini":11987,"##betico":11988,"##buli":11989,"##fro":11990,"##fante":11991,"##falto":11992,"##utezza":11993,"##ke":11994,"##ket":11995,"##onico":11996,"##onimia":11997,"##ert":11998,"##eric":11999,"##erla":12000,"##erico":12001,"##eroso":12002,"##erone":12003,"##erella":12004,"##enzione":12005,"##enere":12006,"dime":12007,"dissocia":12008,"##iatura":12009,"##iatria":12010,"##rezza":12011,"##regazione":12012,"##tarismo":12013,"##olini":12014,"##tes":12015,"into":12016,"unanime":12017,"##ind":12018,"##inter":12019,"##inco":12020,"##rivo":12021,"##roba":12022,"##alga":12023,"##ssica":12024,"perva":12025,"perme":12026,"perento":12027,"perfo":12028,"##anne":12029,"delusione":12030,"##osia":12031,"##osper":12032,"##ostante":12033,"##osistema":12034,"coni":12035,"conform":12036,"##istor":12037,"##arico":12038,"##lamento":12039,"##latura":12040,"##latero":12041,"alchi":12042,"alba":12043,"alzare":12044,"##ettante":12045,"##zato":12046,"##iggere":12047,"##egue":12048,"##ttendo":12049,"latta":12050,"lamine":12051,"latinismo":12052,"qui":12053,"commozione":12054,"provato":12055,"prosciutto":12056,"##inatore":12057,"ancor":12058,"##escono":12059,"##tivismo":12060,"sufficienza":12061,"##chimica":12062,"cao":12063,"casc":12064,"casti":12065,"mati":12066,"mast":12067,"magni":12068,"maesto":12069,"maglia":12070,"maturo":12071,"maglie":12072,"magazz":12073,"magari":12074,"##uimento":12075,"spine":12076,"spegn":12077,"spie":12078,"spoglia":12079,"spinge":12080,"##bite":12081,"##bivo":12082,"siero":12083,"estero":12084,"estraneo":12085,"##loide":12086,"artro":12087,"razionalità":12088,"qualora":12089,"dedita":12090,"##ggina":12091,"preca":12092,"premin":12093,"preferenza":12094,"trage":12095,"tradimento":12096,"traverso":12097,"trapian":12098,"##devoli":12099,"##vie":12100,"##viera":12101,"##zionati":12102,"##zionalismo":12103,"##riata":12104,"##missioni":12105,"##ruzzo":12106,"sod":12107,"pittore":12108,"scorta":12109,"scure":12110,"scompa":12111,"scuotere":12112,"##due":12113,"orlo":12114,"##liazione":12115,"chiede":12116,"elementari":12117,"ads":12118,"adren":12119,"lecito":12120,"appres":12121,"appicc":12122,"paro":12123,"patti":12124,"papi":12125,"patate":12126,"patina":12127,"perseguire":12128,"##tuosa":12129,"##tuoso":12130,"##olate":12131,"##alire":12132,"##verde":12133,"virale":12134,"ville":12135,"graff":12136,"grani":12137,"grafici":12138,"grammi":12139,"graminacee":12140,"corno":12141,"cordiale":12142,"##nie":12143,"coloni":12144,"##bbond":12145,"formate":12146,"ingegnoso":12147,"fiere":12148,"fitto":12149,"fissi":12150,"##ingimento":12151,"##cao":12152,"##catura":12153,"star":12154,"##chima":12155,"##endenze":12156,"impo":12157,"impron":12158,"importa":12159,"imposizione":12160,"implici":12161,"impren":12162,"sezioni":12163,"secca":12164,"severo":12165,"sedurre":12166,"seduta":12167,"putre":12168,"allusi":12169,"##ronico":12170,"reit":12171,"reperti":12172,"reversibile":12173,"terminali":12174,"genio":12175,"genoti":12176,"avvento":12177,"faringe":12178,"baga":12179,"##ulante":12180,"stere":12181,"intersti":12182,"interviene":12183,"intercon":12184,"naz":12185,"nause":12186,"versato":12187,"attuare":12188,"altru":12189,"molli":12190,"##nevole":12191,"cori":12192,"coali":12193,"coerenza":12194,"nev":12195,"carena":12196,"esu":12197,"prigione":12198,"legumin":12199,"enzimi":12200,"consueto":12201,"acum":12202,"presto":12203,"giri":12204,"giung":12205,"giunto":12206,"esple":12207,"espul":12208,"missione":12209,"##imile":12210,"oggettiva":12211,"disuso":12212,"psiche":12213,"profuma":12214,"profumi":12215,"##igliatura":12216,"agiscono":12217,"tavol":12218,"##tallo":12219,"regina":12220,"regolano":12221,"##gate":12222,"##gati":12223,"assu":12224,"assue":12225,"assum":12226,"incante":12227,"incosci":12228,"incentra":12229,"incomb":12230,"incisa":12231,"incerta":12232,"includere":12233,"sportivi":12234,"##istri":12235,"germinali":12236,"oppri":12237,"superlativo":12238,"##iccato":12239,"affare":12240,"uscite":12241,"sciro":12242,"dispa":12243,"displa":12244,"disposta":12245,"crimini":12246,"noce":12247,"novi":12248,"nozze":12249,"prendono":12250,"infine":12251,"infran":12252,"insolubile":12253,"granul":12254,"stupore":12255,"##vista":12256,"##mmatico":12257,"finisce":12258,"##pevoli":12259,"corporatura":12260,"effettivo":12261,"sati":12262,"saper":12263,"sacca":12264,"aminoa":12265,"amalga":12266,"concesso":12267,"concessione":12268,"concordia":12269,"caldi":12270,"calcia":12271,"calice":12272,"sprem":12273,"spregevole":12274,"compilazione":12275,"seguita":12276,"feto":12277,"trasform":12278,"divertimento":12279,"sottofamiglia":12280,"sottoclasse":12281,"serenità":12282,"completare":12283,"autome":12284,"autobus":12285,"indicano":12286,"metter":12287,"metonimia":12288,"riferita":12289,"sintonia":12290,"canne":12291,"cantore":12292,"canditi":12293,"##cciate":12294,"contrastanti":12295,"circo":12296,"piane":12297,"vee":12298,"vedute":12299,"usate":12300,"piastra":12301,"tromba":12302,"credu":12303,"creata":12304,"plura":12305,"contengono":12306,"termico":12307,"rappresentativo":12308,"buio":12309,"buca":12310,"circolo":12311,"artificio":12312,"ripuli":12313,"processuale":12314,"intemp":12315,"libretto":12316,"spavento":12317,"elettrochim":12318,"scopa":12319,"liquide":12320,"attinidi":12321,"misurato":12322,"tipologia":12323,"tipologie":12324,"fod":12325,"##ometri":12326,"##ometro":12327,"##ggiato":12328,"##ggiata":12329,"proteica":12330,"protesi":12331,"errato":12332,"erbivo":12333,"decla":12334,"decusse":12335,"specula":12336,"primati":12337,"beneficia":12338,"scatto":12339,"salti":12340,"saldo":12341,"attrarre":12342,"sfoglia":12343,"vora":12344,"diminuita":12345,"##moniale":12346,"collegio":12347,"frumento":12348,"porn":12349,"porsi":12350,"portanza":12351,"portanti":12352,"unirsi":12353,"unificazione":12354,"somme":12355,"estreme":12356,"aeros":12357,"esau":12358,"stimato":12359,"stipend":12360,"tenera":12361,"tenendo":12362,"chiarire":12363,"chiamate":12364,"ruba":12365,"##trimoniale":12366,"defunto":12367,"goccia":12368,"immater":12369,"romane":12370,"sentiero":12371,"futura":12372,"continui":12373,"spira":12374,"conseguimento":12375,"etnie":12376,"raggirare":12377,"abbi":12378,"monarca":12379,"monarchia":12380,"malincon":12381,"rimettere":12382,"correlata":12383,"raccogli":12384,"##fore":12385,"capital":12386,"capitali":12387,"valenza":12388,"olfatto":12389,"##filia":12390,"plate":12391,"plastico":12392,"preparata":12393,"moderata":12394,"funzionante":12395,"equivoco":12396,"violino":12397,"legate":12398,"onomato":12399,"viaggiare":12400,"qualita":12401,"approvare":12402,"contabile":12403,"sopraele":12404,"sopraffare":12405,"limitate":12406,"informatico":12407,"capric":12408,"capigliatura":12409,"soffiare":12410,"smor":12411,"parapetto":12412,"visuali":12413,"##scienza":12414,"banch":12415,"diporto":12416,"immen":12417,"italiane":12418,"pannello":12419,"scarse":12420,"latini":12421,"reputa":12422,"pelleg":12423,"elasticità":12424,"posizionare":12425,"battuta":12426,"batterica":12427,"entrate":12428,"impreve":12429,"impression":12430,"adatte":12431,"vicinanze":12432,"malessere":12433,"ghisa":12434,"sconosci":12435,"riprove":12436,"cub":12437,"penit":12438,"messaggi":12439,"associare":12440,"associati":12441,"tortura":12442,"piccolissimo":12443,"grammaticali":12444,"nucleici":12445,"conservano":12446,"omini":12447,"omicidio":12448,"strettamente":12449,"##lantico":12450,"costituenti":12451,"sempreverde":12452,"costruiti":12453,"pubblicamente":12454,"secondario":12455,"migliori":12456,"incastra":12457,"probosci":12458,"antipa":12459,"antigene":12460,"impiegare":12461,"barda":12462,"barche":12463,"metafor":12464,"addor":12465,"addom":12466,"sostenuto":12467,"sostengono":12468,"liberarsi":12469,"liberalità":12470,"problematica":12471,"medioevale":12472,"articola":12473,"deputa":12474,"deputato":12475,"sovrabbond":12476,"##opia":12477,"blocchi":12478,"annotare":12479,"##atina":12480,"riflessioni":12481,"specificamente":12482,"divul":12483,"diventato":12484,"frantu":12485,"franco":12486,"mutu":12487,"##gheria":12488,"borghese":12489,"finire":12490,"evolvere":12491,"colonn":12492,"colonia":12493,"coscientemente":12494,"visivo":12495,"Maced":12496,"##iandone":12497,"introduce":12498,"stabilita":12499,"identificare":12500,"renderne":12501,"magro":12502,"mantenimento":12503,"collegamenti":12504,"avvel":12505,"turbina":12506,"193":12507,"alternate":12508,"And":12509,"stimolazione":12510,"operatori":12511,"vestire":12512,"arrosti":12513,"arrogante":12514,"consumi":12515,"soppressione":12516,"umile":12517,"umido":12518,"##carpo":12519,"##bolico":12520,"intraprendere":12521,"##ttongo":12522,"potenziali":12523,"onora":12524,"immorale":12525,"ispirato":12526,"mediano":12527,"circostanti":12528,"escludere":12529,"procurata":12530,"procurarsi":12531,"arredamento":12532,"asimmet":12533,"asfalto":12534,"educare":12535,"educato":12536,"perfetta":12537,"esecutivo":12538,"tenerezza":12539,"fantascienza":12540,"ripetere":12541,"piacevolezza":12542,"opportun":12543,"##lusioni":12544,"aggregato":12545,"aggressivo":12546,"aggressività":12547,"aromatiche":12548,"bollente":12549,"progressiva":12550,"astratta":12551,"riac":12552,"tonnella":12553,"102":12554,"innesta":12555,"schiaffo":12556,"armonica":12557,"deboli":12558,"epig":12559,"pubblicitario":12560,"congiungere":12561,"dedicata":12562,"dedicarsi":12563,"##cchezza":12564,"occhiello":12565,"sforzi":12566,"inverso":12567,"geografiche":12568,"idrossi":12569,"danneggiare":12570,"luminosi":12571,"seguaci":12572,"integro":12573,"integrare":12574,"approfondire":12575,"ostentata":12576,"sgor":12577,"raffigurante":12578,"Alb":12579,"denig":12580,"coadiu":12581,"utilizzabile":12582,"abbrevia":12583,"minacce":12584,"delitto":12585,"intermedi":12586,"infasti":12587,"convesso":12588,"aeroporto":12589,"arac":12590,"aratro":12591,"impossibili":12592,"secreto":12593,"eccitare":12594,"solidarietà":12595,"drappo":12596,"ignoranza":12597,"##teneva":12598,"scomparsa":12599,"ingannevole":12600,"atmosferico":12601,"adozione":12602,"monaci":12603,"monastero":12604,"sfacciato":12605,"dissim":12606,"destinazione":12607,"avvicina":12608,"inclinato":12609,"ecclesiastica":12610,"universale":12611,"sprovvis":12612,"cromosom":12613,"cromosoma":12614,"##uneo":12615,"segreta":12616,"anziana":12617,"tradizionali":12618,"fosfo":12619,"fosforico":12620,"dinamico":12621,"partecipanti":12622,"finalizzate":12623,"modificazioni":12624,"fotografico":12625,"aspira":12626,"moltiplicare":12627,"gonf":12628,"catastro":12629,"##turco":12630,"iperb":12631,"tollera":12632,"allegro":12633,"urbani":12634,"digiuno":12635,"interrompere":12636,"inerte":12637,"inerenti":12638,"elettromagnetica":12639,"Internet":12640,"epiteli":12641,"perpendicol":12642,"rigorosa":12643,"assicurare":12644,"nocivo":12645,"irradia":12646,"irragione":12647,"largamente":12648,"indistin":12649,"conquistare":12650,"centrifu":12651,"simbolico":12652,"ritrovarsi":12653,"suddivide":12654,"eterno":12655,"foglioline":12656,"nitro":12657,"prepotenza":12658,"poliedri":12659,"leggerezza":12660,"appropriato":12661,"crostacei":12662,"giudiziarie":12663,"prestabilita":12664,"quotidiana":12665,"quotidiani":12666,"lessico":12667,"laureato":12668,"privilegio":12669,"millesimo":12670,"incrementare":12671,"rocciosa":12672,"sorreggere":12673,"vanità":12674,"##sterone":12675,"laboratori":12676,"maiuscolo":12677,"indipendentemente":12678,"macroscop":12679,"prefig":12680,"scinde":12681,"Romano":12682,"asciuga":12683,"##renabile":12684,"gamete":12685,"autonomamente":12686,"celebrazione":12687,"Questo":12688,"Ungheria":12689,"europea":12690,"complicata":12691,"fibrosa":12692,"calcarea":12693,"recupero":12694,"microscopio":12695,"oscillazioni":12696,"invidia":12697,"analizzare":12698,"sagoma":12699,"smarrimento":12700,"Puglia":12701,"centimetro":12702,"tenace":12703,"litigio":12704,"vertebrato":12705,"replicazione":12706,"bulbo":12707,"costellazioni":12708,"attuata":12709,"esplodere":12710,"eccezionale":12711,"eccezionali":12712,"piattaforma":12713,"sottrarre":12714,"milionesimo":12715,"provvisoriamente":12716,"Galli":12717,"quark":12718,"quarta":12719,"armonioso":12720,"vivanda":12721,"cancellare":12722,"aggiunte":12723,"raffreddamento":12724,"spropor":12725,"sproposi":12726,"gentilezza":12727,"Giappone":12728,"pinna":12729,"tesoro":12730,"##lessand":12731,"unghia":12732,"comodo":12733,"anodo":12734,"anfibio":12735,"neurotrasmetti":12736,"alcalini":12737,"calcestru":12738,"sfumature":12739,"concepire":12740,"incrociate":12741,"endocrino":12742,"multiplo":12743,"slave":12744,"mesozoica":12745,"statua":12746,"riscontra":12747,"abbellire":12748,"quadrupede":12749,"sfavorevole":12750,"mortale":12751,"caritate":12752,"consultazione":12753,"ottenibile":12754,"ondeggiante":12755,"delibera":12756,"infiorescenze":12757,"legnoso":12758,"meschino":12759,"pittorica":12760,"impetuoso":12761,"tagliente":12762,"incisivi":12763,"condividere":12764,"candele":12765,"occidentali":12766,"sfuggire":12767,"invariabile":12768,"maleducata":12769,"impermeabili":12770,"ricostruire":12771,"cicatrice":12772,"ocean":12773,"ingranaggio":12774,"consumer":12775,"pronome":12776,"configurazione":12777,"sfregamento":12778,"vigorosa":12779,"abilitato":12780,"inquietudine":12781,"laguna":12782,"prominenza":12783,"ramosc":12784,"infrastru":12785,"innalza":12786,"pasticceria":12787,"insediamento":12788,"Sovietica":12789,"amido":12790,"fattezze":12791,"propulsore":12792,"tifoso":12793,"incorpo":12794,"stipula":12795,"abnorme":12796,"quadrangolare":12797,"svariati":12798,"incomprensibile":12799,"rifornimento":12800,"equazione":12801,"flag":12802,"mestruale":12803,"arricchi":12804,"medesime":12805,"prelevare":12806,"preesistente":12807,"refrig":12808,"agraria":12809,"birra":12810,"vincitore":12811,"ragionamenti":12812,"soprannaturale":12813,"losanga":12814,"gigante":12815,"idioma":12816,"ovoidale":12817,"pelame":12818,"innamo":12819,"perdonare":12820,"presiede":12821,"presupp":12822,"disfacimento":12823,"corporeo":12824,"canapa":12825,"pedag":12826,"scaglione":12827,"magneti":12828,"diciassettesimo":12829,"progressivamente":12830,"parallelepipedo":12831,"intransigente":12832,"odierna":12833,"sottoinsieme":12834,"cenozoica":12835,"festività":12836,"fontana":12837,"aldeide":12838,"pienezza":12839,"quattordici":12840,"stirpe":12841,"giapponese":12842,"inaccetta":12843,"bicchiere":12844,"Citrus":12845,"dapprima":12846,"##icotiledoni":12847,"rigonfia":12848,"sottocutaneo":12849,"originalità":12850,"salvezza":12851,"irrefrenabile":12852,"semicir":12853,"ambascia":12854,"astuzia":12855,"semicerchio":12856,"insopportabile":12857,"Etiopia":12858,"Firenze":12859,"Spirito":12860,"pomodoro":12861,"genotipo":12862,"interconn":12863,"stipendio":12864,"onomatope":12865,"Macedonia":12866,"29":12867,"27":12868,"32":12869,"35":12870,"54":12871,"63":12872,"Ag":12873,"Ab":12874,"Aqui":12875,"Aristo":12876,"Alessand":12877,"Bu":12878,"Bri":12879,"Bal":12880,"Cri":12881,"Cal":12882,"Com":12883,"Cos":12884,"Cuc":12885,"Cana":12886,"Cha":12887,"Eu":12888,"Fr":12889,"Gli":12890,"Giu":12891,"Ho":12892,"Ir":12893,"Imeno":12894,"Lan":12895,"Nig":12896,"Pol":12897,"Pter":12898,"Porto":12899,"Pop":12900,"Pisa":12901,"Prun":12902,"Reggio":12903,"Sve":12904,"Sono":12905,"Stru":12906,"Tre":12907,"ave":12908,"alato":12909,"apatia":12910,"amorosa":12911,"bale":12912,"bando":12913,"cra":12914,"cis":12915,"cit":12916,"cus":12917,"cula":12918,"cedro":12919,"crini":12920,"dose":12921,"duale":12922,"derma":12923,"etere":12924,"empa":12925,"eruzione":12926,"ematici":12927,"evoca":12928,"emittente":12929,"ebolli":12930,"fr":12931,"fing":12932,"fingere":12933,"gine":12934,"hy":12935,"istr":12936,"km":12937,"lì":12938,"lente":12939,"loggia":12940,"lentezza":12941,"moli":12942,"mole":12943,"malo":12944,"mentire":12945,"pist":12946,"pento":12947,"pende":12948,"pette":12949,"pomp":12950,"pendente":12951,"pogg":12952,"rurale":12953,"rose":12954,"sbi":12955,"sessi":12956,"sbo":12957,"tin":12958,"tene":12959,"torto":12960,"tingere":12961,"tunica":12962,"umori":12963,"vanto":12964,"vimini":12965,"with":12966,"zig":12967,"##ac":12968,"##rologia":12969,"##nali":12970,"##nosi":12971,"##sura":12972,"##sina":12973,"##sionale":12974,"##larsi":12975,"##my":12976,"##mel":12977,"##mmo":12978,"##mmeno":12979,"##mistico":12980,"##emia":12981,"##cis":12982,"##cante":12983,"##coni":12984,"##ciante":12985,"##cque":12986,"##gus":12987,"##gru":12988,"##vina":12989,"##vico":12990,"##vesco":12991,"##pog":12992,"##plo":12993,"##pul":12994,"##posto":12995,"##din":12996,"##dor":12997,"##deg":12998,"##des":12999,"##dali":13000,"##dano":13001,"##denziale":13002,"##zone":13003,"##hio":13004,"##burgo":13005,"##fice":13006,"##fede":13007,"##uono":13008,"##wa":13009,"##wn":13010,"##we":13011,"##O2":13012,"##ong":13013,"##onenti":13014,"##erle":13015,"##erino":13016,"##enale":13017,"##tomia":13018,"##icic":13019,"##icino":13020,"##iciale":13021,"##icchia":13022,"dil":13023,"distra":13024,"dirimere":13025,"disori":13026,"dittongo":13027,"##rac":13028,"##rarsi":13029,"##tamenti":13030,"##olente":13031,"##oling":13032,"##teca":13033,"##tese":13034,"##tetico":13035,"##tegno":13036,"##tione":13037,"##tibile":13038,"##tizzare":13039,"invano":13040,"inchio":13041,"inimici":13042,"##icali":13043,"##lei":13044,"##ionare":13045,"##inità":13046,"##riosa":13047,"##riero":13048,"##alato":13049,"##alus":13050,"##ssy":13051,"perim":13052,"persp":13053,"perfi":13054,"pertanto":13055,"perdendo":13056,"perdite":13057,"perturba":13058,"##anz":13059,"##andare":13060,"##omma":13061,"##ogio":13062,"##ogeni":13063,"##ogena":13064,"##ogge":13065,"deline":13066,"conico":13067,"concia":13068,"connatura":13069,"condotti":13070,"##arle":13071,"##arco":13072,"##archi":13073,"##arino":13074,"##labile":13075,"##mena":13076,"##mene":13077,"##menza":13078,"alghe":13079,"alchim":13080,"##ettico":13081,"##urabile":13082,"##eglia":13083,"##strie":13084,"##stuale":13085,"##ttua":13086,"##tteni":13087,"##ccesso":13088,"latt":13089,"lacci":13090,"##ensì":13091,"quei":13092,"comico":13093,"commenta":13094,"##ttoli":13095,"prover":13096,"proca":13097,"protagonista":13098,"##dibilità":13099,"##ciolo":13100,"##cizia":13101,"sudore":13102,"illog":13103,"cadu":13104,"cava":13105,"caute":13106,"cacao":13107,"mazzo":13108,"##bilia":13109,"##atorio":13110,"##terno":13111,"##mpia":13112,"sil":13113,"paren":13114,"parsim":13115,"##dario":13116,"moral":13117,"rachi":13118,"dedu":13119,"deva":13120,"defor":13121,"deduzione":13122,"fattura":13123,"##ggiando":13124,"preli":13125,"pressioni":13126,"trazione":13127,"trava":13128,"trave":13129,"tracce":13130,"tradire":13131,"##erirsi":13132,"##zzatore":13133,"##vida":13134,"##vipa":13135,"##zionaria":13136,"sof":13137,"pip":13138,"scand":13139,"scatola":13140,"##movibile":13141,"rita":13142,"ritegno":13143,"##liano":13144,"elezioni":13145,"adde":13146,"aderenza":13147,"##icilio":13148,"##eratezza":13149,"##egnata":13150,"##meo":13151,"apposta":13152,"appalto":13153,"appunta":13154,"apperce":13155,"patt":13156,"pagan":13157,"pazzo":13158,"pattu":13159,"ingegno":13160,"ingomb":13161,"##voia":13162,"##pora":13163,"##pota":13164,"##scar":13165,"vizi":13166,"gradino":13167,"corse":13168,"##nate":13169,"##naio":13170,"colmare":13171,"##ttili":13172,"proposte":13173,"propulsione":13174,"formati":13175,"fiero":13176,"fieno":13177,"fisse":13178,"##parato":13179,"##zzando":13180,"polmone":13181,"##chea":13182,"##oside":13183,"status":13184,"impone":13185,"imperativo":13186,"imperatori":13187,"sep":13188,"semina":13189,"essersi":13190,"esserne":13191,"stoppa":13192,"revis":13193,"dote":13194,"dopog":13195,"##uarsi":13196,"##ttaggio":13197,"lodare":13198,"terrore":13199,"gennaio":13200,"##perato":13201,"##ssate":13202,"farla":13203,"fargli":13204,"risa":13205,"risca":13206,"risata":13207,"risalto":13208,"accetto":13209,"accendere":13210,"accoglie":13211,"accrescere":13212,"##mbria":13213,"baro":13214,"badare":13215,"bagna":13216,"temi":13217,"##essore":13218,"##ulto":13219,"##ulti":13220,"##ulli":13221,"##mmina":13222,"intersec":13223,"natali":13224,"navale":13225,"napole":13226,"lirica":13227,"lirico":13228,"verme":13229,"verga":13230,"vergine":13231,"attendere":13232,"lett":13233,"coca":13234,"nebbia":13235,"neonato":13236,"neanche":13237,"nemmeno":13238,"cardi":13239,"filtro":13240,"legittima":13241,"encom":13242,"caratteria":13243,"consta":13244,"consentito":13245,"acri":13246,"acute":13247,"acetico":13248,"acroba":13249,"archivio":13250,"lutto":13251,"luglio":13252,"volti":13253,"volgari":13254,"filosofiche":13255,"esperti":13256,"mite":13257,"oggettivo":13258,"disar":13259,"disli":13260,"disce":13261,"disorgan":13262,"agendo":13263,"aghi":13264,"taro":13265,"tazza":13266,"tacca":13267,"strumentazioni":13268,"tutt":13269,"tumo":13270,"stesura":13271,"vag":13272,"vass":13273,"vapori":13274,"comunione":13275,"regolato":13276,"secern":13277,"##gamo":13278,"##garis":13279,"assogg":13280,"incal":13281,"inclu":13282,"incand":13283,"incogni":13284,"rifiu":13285,"##tatori":13286,"sporcizia":13287,"##mettersi":13288,"germi":13289,"gerarchia":13290,"gerarchico":13291,"supervisione":13292,"superbia":13293,"##rigione":13294,"##onibile":13295,"scissione":13296,"colorato":13297,"colorito":13298,"eccelle":13299,"opzione":13300,"critiche":13301,"criminali":13302,"produttivi":13303,"nozione":13304,"nocciolo":13305,"punk":13306,"prend":13307,"prendersi":13308,"prensile":13309,"##gibili":13310,"rotore":13311,"rock":13312,"infel":13313,"infes":13314,"infondere":13315,"insin":13316,"insulare":13317,"##tinosa":13318,"##trone":13319,"diffusi":13320,"##pedi":13321,"familiarità":13322,"marini":13323,"martello":13324,"marsu":13325,"resis":13326,"##battere":13327,"confessione":13328,"confezione":13329,"confinanti":13330,"confessioni":13331,"concen":13332,"solenn":13333,"solenni":13334,"solfato":13335,"calli":13336,"calca":13337,"##urus":13338,"trasferisce":13339,"trasmessi":13340,"diverti":13341,"sonora":13342,"serratura":13343,"##sticamente":13344,"complessiva":13345,"appartamento":13346,"generando":13347,"indicante":13348,"riferire":13349,"sincer":13350,"cantato":13351,"##cciarsi":13352,"contratti":13353,"operativi":13354,"risposte":13355,"piantato":13356,"lungimi":13357,"piastr":13358,"piazze":13359,"piaceri":13360,"##ieti":13361,"scudi":13362,"creme":13363,"credenze":13364,"##gezione":13365,"pesi":13366,"contenersi":13367,"pezzetti":13368,"dovevano":13369,"fratelli":13370,"scientifici":13371,"rappresentazioni":13372,"bugia":13373,"##gnolo":13374,"finezza":13375,"famigliari":13376,"##ficenza":13377,"ripugn":13378,"malafede":13379,"elettrodi":13380,"scoprire":13381,"ministero":13382,"naturalmente":13383,"##tecento":13384,"protetto":13385,"sessualmente":13386,"occorre":13387,"occorr":13388,"dece":13389,"decimo":13390,"##llato":13391,"fermenta":13392,"fermarsi":13393,"tassonom":13394,"##gori":13395,"scamp":13396,"scadenza":13397,"geometriche":13398,"sanzione":13399,"passeriformi":13400,"industrie":13401,"marinaio":13402,"destare":13403,"socialmente":13404,"socialista":13405,"salma":13406,"saltare":13407,"saldamente":13408,"ciamb":13409,"ammon":13410,"bifor":13411,"facolta":13412,"sfar":13413,"giuris":13414,"intensi":13415,"esatta":13416,"esamina":13417,"nuoto":13418,"ovale":13419,"tenute":13420,"obsoleta":13421,"occupare":13422,"considere":13423,"espressi":13424,"deflu":13425,"defunti":13426,"gocci":13427,"necro":13428,"portamento":13429,"offensi":13430,"offeso":13431,"offerto":13432,"rompe":13433,"ulteriori":13434,"fuor":13435,"preceduto":13436,"ossessione":13437,"contingente":13438,
[...]
