{"version":"1.0","truncation":null,"padding":null,"added_tokens":[{"id":0,"special":true,"content":"<pad/>","single_word":false,"lstrip":false,"rstrip":false,"normalized":false},{"id":1,"special":true,"content":"</seq>","single_word":false,"lstrip":false,"rstrip":false,"normalized":false},{"id":2,"special":true,"content":"<seq>","single_word":false,"lstrip":false,"rstrip":false,"normalized":false},{"id":3,"special":true,"content":"<unk/>","single_word":false,"lstrip":false,"rstrip":false,"normalized":false},{"id":4,"special":true,"content":"<en>","single_word":false,"lstrip":false,"rstrip":false,"normalized":false},{"id":5,"special":true,"content":"<es>","single_word":false,"lstrip":false,"rstrip":false,"normalized":false},{"id":6,"special":true,"content":"<fr>","single_word":false,"lstrip":false,"rstrip":false,"normalized":false},{"id":7,"special":true,"content":"<it>","single_word":false,"lstrip":false,"rstrip":false,"normalized":false},{"id":8,"special":true,"content":"<ru>","single_word":false,"lstrip":false,"rstrip":false,"normalized":false}],"normalizer":null,"pre_tokenizer":{"type":"Whitespace"},"post_processor":null,"decoder":null,"model":{"type":"Unigram","unk_id":3,"vocab":[["<pad/>",0.0],["</seq>",0.0],["<seq>",0.0],["<unk/>",0.0],["<en>",0.0],["<es>",0.0],["<fr>",0.0],["<it>",0.0],["<ru>",0.0],[",",-3.12870932144164],[".",-3.1410776105062936],["e",-3.375073826097962],["s",-3.454032227871018],["o",-3.5402417773602863],["a",-3.5636609636452796],[")",-3.801596855378394],["(",-3.8017534962159587],["de",-4.0657084982759635],["d",-4.314279588124453],["'",-4.5696207624151235],["i",-4.6119659053531645],["l",-4.7377864943553],["un",-4.802698982175151],["la",-4.919793348723045],[";",-4.943613334464089],["n",-4.963273495508748],["di",-5.018087739063198],["й",-5.064165043370165],["r",-5.076475116507648],["и",-5.0937202039074805],["y",-5.107879566746954],["or",-5.206270170039867],["que",-5.221877932096692],["t",-5.291656368500936],["е",-5.30029583539209],["u",-5.333729258106382],["in",-5.406627750659267],["-",-5.435862603951982],["en",-5.443104970062015],["of",-5.481604419764572],["à",-5.483200871606483],["в",-5.590952588523011],["A",-5.5979076617471435],["to",-5.647769580764518],["the",-5.73204438907514],["che",-5.733594807583765],["una",-5.764658954471523],["con",-5.8318035633767575],["ing",-5.86302565348036],["х",-5.9952572423012604],["qui",-6.007567772793502],["либо",-6.076777466461808],["per",-6.103762772572795],["del",-6.171537807513388],["ся",-6.172665661420316],["ly",-6.1887852905236045],["une",-6.1990713623221225],["а",-6.234704862775347],["To",-6.260931155855891],["с",-6.274534566505308],["des",-6.283912257330188],["se",-6.3342631390144994],["я",-6.338543100969218],["f",-6.357916916363443],["или",-6.375241520923474],["le",-6.414354539455298],["м",-6.418412783974672],["les",-6.433017423797768],["es",-6.444196325061139],["ou",-6.448021245675305],["c",-6.461085671948911],["у",-6.484274227722548],["ая",-6.488555495003359],["к",-6.4946071883433],["los",-6.495370158394085],["é",-6.517347300107259],["et",-6.525471775767226],["on",-6.534311818196981],["ción",-6.5536896238372595],[".|",-6.5546333144604265],["ю",-6.566567357899645],["el",-6.572538895180406],["por",-6.608800877126081],["re",-6.622047667695966],["|",-6.63490376845955],["est",-6.648915626820626],["mente",-6.66631213468429],["and",-6.667161493871687],["ы",-6.668767591222304],["para",-6.669176209922348],["на",-6.673463951860464],["par",-6.691817827258134],["al",-6.6935738878072435],["по",-6.701351253389097],["ment",-6.73008170336211],["Qui",-6.770315448944885],["las",-6.794467697760096],["ый",-6.823610102830182],["разг",-6.8298333132578986],["dans",-6.84421183101934],["The",-6.847052761175963],["with",-6.8547907748755055],["о",-6.8965845033933935],["er",-6.931340916332978],["p",-6.933985994892769],["`",-6.940906370305857],["il",-6.941606238495684],[":",-6.961688118348533],["Que",-6.964771907517473],["ого",-6.97405047443765],["C",-7.010193350199584],["перен",-7.015424970258474],["P",-7.022098231349638],["т",-7.024519137313158],["го",-7.042209360615184],["by",-7.05076215014687],["m",-7.057392129265001],["для",-7.100986440246185],["pour",-7.118930354926965],["è",-7.125119865249912],["that",-7.12761049137244],["Par",-7.186087106543761],["della",-7.194949441214019],["persona",-7.201610786368121],["si",-7.20553267739923],["etc",-7.231872196875649],["п",-7.232330732424053],["one",-7.239592815989708],["an",-7.243492215972417],["du",-7.272844667470125],["for",-7.273846010358344],["especial",-7.279215076405674],["some",-7.279423542621103],["из",-7.28095967716175],["ù",-7.282726817101986],["Figur",-7.301965616926191],["ой",-7.313408815224369],["da",-7.322017253553014],["значени",-7.327329256430684],["as",-7.329439473936599],["ía",-7.331323569833053],["En",-7.350543670285103],["estension",-7.356675354961935],["person",-7.3597257132348854],["dell",-7.377736310407469],["не",-7.385068263213352],["что",-7.38932803776331],["ть",-7.394699460205208],["thing",-7.3982003656085595],["parte",-7.40114239804287],["senso",-7.404951173641206],["forma",-7.408356131499341],["ь",-7.408697261510457],["modo",-7.409917276055915],["chose",-7.421820515932809],["устар",-7.427402626046738],["medicina",-7.4622044705131945],["sur",-7.47155817868176],["qu",-7.476138913808109],["D",-7.477203785651287],["aux",-7.488824593612585],["be",-7.490750864080933],["T",-7.497140690648635],["figurat",-7.497423785251495],["from",-7.523011045043153],["Se",-7.523404245175052],["algo",-7.528921692757076],["чего",-7.5309574912608985],["su",-7.5446216121999825],["como",-7.546630094172274],["non",-7.5576954153716205],["S",-7.56456342244817],["chimica",-7.565348844855731],["chi",-7.6058625835941065],["extension",-7.610152773925484],["от",-7.626016762082996],["zione",-7.636525817961875],["ом",-7.641885539998666],["plus",-7.666802905286256],["L",-7.678068645430694],["tiene",-7.6941940682931556],["cción",-7.698046150942231],["diritt",-7.699271817531124],["entre",-7.7159621576472865],["ón",-7.727832954520376],["who",-7.729696979559049],["biologi",-7.752305551856286],["tecnologi",-7.753798836798608],["—",-7.763573167818298],["pi",-7.7832471614598076],["B",-7.7866002903683285],["all",-7.791328678488757],["cosa",-7.795039350907976],["b",-7.79735637074266],["M",-7.808932778832552],["is",-7.815818143555438],["E",-7.816466615534397],["amente",-7.820414168582533],["avec",-7.824457102267225],["no",-7.831235852767478],["относящий",-7.831427701269488],["ce",-7.831736785918538],["Famili",-7.832515437003549],["w",-7.836646681288362],["x",-7.840495239079774],["An",-7.845388609016564],["ne",-7.84614908864815],["alla",-7.86325074578165],["1",-7.871305107955598],["g",-7.876132758172506],["ingegneri",-7.883207517093912],["quelque",-7.887732159144125],["tra",-7.89485505427612],["cui",-7.901076241445726],["fisica",-7.905761456168314],["economi",-7.90623130932116],["человек",-7.911969129545448],["ов",-7.918597261247968],["G",-7.9216137910184],["при",-7.925266899190751],["как",-7.928387208404856],["delle",-7.931382044820403],["Of",-7.940022580503485],["со",-7.94520523602183],["dont",-7.945260811301688],["In",-7.9457391031388935],["ha",-7.953295645222599],["out",-7.957086432306041],["efecto",-7.963188322172766],["not",-7.967790630272539],["так",-7.9711091931754865],["R",-7.972931362077046],["qualcos",-7.97645031423064],["other",-7.98129927026544],["связанны",-7.981800921907928],["son",-7.9838747868889985],["/",-7.984339812779921],["кого",-7.994486527680759],["h",-8.003059851590269],["обычно",-8.007068868564145],["Persona",-8.011645156153136],["Action",-8.014747986042394],["ch",-8.015267699794599],["personne",-8.021834527343639],["particular",-8.023641179443853],["act",-8.02692427298554],["más",-8.037379466612748],["being",-8.037959690149606],["autre",-8.042127155218626],["ых",-8.042981405584577],["ed",-8.043297532787292],["ми",-8.048926836572619],["relativo",-8.061587128740628],["lo",-8.062184514628582],["ión",-8.062462541786825],["it",-8.07887866892763],["за",-8.079439344741036],["pas",-8.082875414590296],["fait",-8.088970341704844],["действие",-8.095664472462778],["nel",-8.095814009116712],["чем",-8.104632321779812],["part",-8.147182994546414],["gli",-8.159389058492845],["hing",-8.163534339789631],["Relatif",-8.164923946117145],["us",-8.184387497883128],["F",-8.193513078464484],["истор",-8.194327158181341],["H",-8.19652566154468],["used",-8.197705929964979],["action",-8.197798309829963],["dos",-8.20024983106061],["Vieill",-8.208563692840317],["otro",-8.209966551990803],["ation",-8.210359470709143],["ación",-8.218020974392562],["are",-8.218387288859109],["storia",-8.226989215473267],["dice",-8.23631412439178],["hich",-8.239735992714445],["particulier",-8.250376958336162],["come",-8.250810572574432],["существительным",-8.256254406086924],["De",-8.261004225930133],["гл",-8.265509517809988],["ую",-8.270092731688337],["N",-8.270570828510717],["parlant",-8.285736594446702],["anche",-8.290743405567696],["же",-8.29484613480328],["forme",-8.29738074976953],["such",-8.30060582146669],["azione",-8.305801309192896],["manner",-8.305903860654901],["être",-8.310620337830297],["I",-8.316444614194795],["Personne",-8.316988052477303],["riguarda",-8.317622680856598],["ое",-8.323013364598477],["ant",-8.325033055058125],["ей",-8.332707420747784],["их",-8.334230360430023],["книжн",-8.341621112963924],["ement",-8.344095166270218],["au",-8.35163950200928],["esser",-8.353410716852562],["прост",-8.353467551361218],["sobre",-8.361259952227865],["place",-8.36786218311726],["Por",-8.369153048192958],["color",-8.369688266841518],["grande",-8.371528771539122],["zoologi",-8.375046696035245],["quelqu",-8.378354746266847],["ura",-8.378975007391563],["то",-8.388813456279316],["form",-8.391076402269896],["politica",-8.39141227465043],["state",-8.39484434601436],["ally",-8.39556149084989],["co",-8.401420420191027],["whi",-8.402138762510518],["faire",-8.403026991047891],["ser",-8.41673675904024],["certain",-8.41703396050531],["comme",-8.42201248516251],["eux",-8.422047513857922],["tion",-8.42717932404448],["base",-8.427924762204947],["qualcun",-8.4280362545341],["alguna",-8.438644940106661],["même",-8.440766629300565],["animal",-8.441529369194459],["somet",-8.442385660019795],["]",-8.446736872172995],["[",-8.44775624016484],["matematica",-8.466082788293466],["ciones",-8.46736569273094],["cause",-8.470046675712783],["enza",-8.473480897774847],["able",-8.475453385297577],["ами",-8.478769216525034],["ar",-8.480884117735812],["v",-8.481265927602337],["Not",-8.481747730469888],["he",-8.484666780633953],["muy",-8.487860709017188],["manière",-8.488453639967151],["make",-8.495189085171656],["V",-8.495699162873223],["nella",-8.497177938434138],["ка",-8.504205446068752],["nt",-8.520148024929734],["La",-8.525910224807372],["otánica",-8.526773239389321],["ología",-8.528610852424222],["до",-8.534781882625758],["sus",-8.544086256179968],["araldica",-8.55007044262084],["generalmente",-8.553664545786836],["eurs",-8.570925318491891],["ire",-8.571320103591553],["cuerpo",-8.587065314983748],["insiem",-8.591651110041706],["кто",-8.600496345122725],["deux",-8.600971386717486],["time",-8.603647751905052],["having",-8.608330800340962],["qualit",-8.611555345233402],["peut",-8.612777971216698],["mento",-8.614891839653623],["pertenece",-8.617415101626712],["puede",-8.619646311574797],["жарг",-8.620030310704365],["due",-8.622157042888123],["Any",-8.623455472658723],["имеющий",-8.623612924542742],["do",-8.62402649100898],["ить",-8.634655081972236],["его",-8.638461934046003],["filosofi",-8.641800817704928],["at",-8.648991835057423],["2",-8.653683338997286],["elemento",-8.66253893228808],["sans",-8.664886781827754],["ma",-8.665134357548805],["nell",-8.669018775176237],["usual",-8.671666264768923],["uso",-8.678537694504602],["ent",-8.682104100052168],["тот",-8.68372290345756],["meccanica",-8.683970738166504],["Médecin",-8.684893794356656],["often",-8.693347312802949],["ная",-8.702623032745816],["ий",-8.70423356256292],["into",-8.7044474889167],["donde",-8.705068547725034],["sens",-8.708827271028138],["ness",-8.70945887500739],["propio",-8.711072776508752],["ún",-8.712849369466134],["часть",-8.714985443795765],["rapport",-8.715279882613261],["está",-8.727437651928081],["partie",-8.728420475848981],["н",-8.733679565039317],["point",-8.734042503560044],["religione",-8.741017683830652],["age",-8.741714627354618],["?",-8.742089619869438],["Dicho",-8.742751636769059],["Medicina",-8.754564213377233],["produce",-8.765328337865082],["elle",-8.766169211159117],["sin",-8.768996851868794],["mo",-8.770381137355034],["geografi",-8.77393310812295],["concierne",-8.786948929209899],["без",-8.788392150709951],["lugar",-8.789612279601922],["O",-8.790433509924803],["rès",-8.792015885126972],["z",-8.79335043385996],["arte",-8.794593975328677],["familia",-8.795630554124344],["женск",-8.795779015514249],["large",-8.797963761201492],["corps",-8.798490830229333],["dal",-8.800714902749904],["ч",-8.80350717254496],["ного",-8.803825345263416],["material",-8.803831806885317],["tura",-8.805645018086297],["raro",-8.807190143462314],["One",-8.80792340065025],["similar",-8.810656181302612],["punto",-8.815545089767118],["tout",-8.81752463924127],["fin",-8.818781768740873],["Botani",-8.820565511668054],["ad",-8.822152383509227],["astronom",-8.823722471796678],["sport",-8.82541500160044],["dalla",-8.829622244218399],["botanica",-8.82975930179353],["another",-8.830715721983545],["ок",-8.832176358734085],["za",-8.836399864701836],["te",-8.837093301851285],["El",-8.8379404871221],["otra",-8.838768603099513],["dit",-8.839555555442299],["group",-8.840526162782481],["long",-8.845294095174815],["poco",-8.849068839512757],["tipo",-8.85092298875524],["voir",-8.851078601946579],["altri",-8.851938023634357],["but",-8.853545849883504],["way",-8.857597748329296],["architett",-8.86172328006833],["sistema",-8.863783902848269],["stato",-8.8688962946623],["more",-8.869617785211744],["uno",-8.876018807529665],["виде",-8.878980514624075],["свойство",-8.879316864433306],["stess",-8.879883237146343],["áutica",-8.880719051808988],["organic",-8.881525234474111],["gener",-8.88615555124392],["pertain",-8.890105462457335],["nombre",-8.890786130592812],["ux",-8.894447324581048],["Variante",-8.89567658532702],["под",-8.897824015613253],["ком",-8.901228709698099],["dall",-8.901579092581393],["farmacologi",-8.906102272838456],["bien",-8.906448758122423],["altro",-8.908036379165653],["Qualifie",-8.908510264882608],["hace",-8.913393510758745],["superficie",-8.914531147451177],["г",-8.91496576959424],["than",-8.916384753447815],["им",-8.917596131093887],["objet",-8.921277566416933],["idad",-8.922102486870813],["gran",-8.923769757909024],["profession",-8.932066868750153],["agua",-8.932163385291108],["Religion",-8.941347003673403],["ать",-8.94805189153682],["gergal",-8.951601834162025],["ому",-8.953212114422064],["general",-8.95439560635678],["figura",-8.956200166508346],["мед",-8.956531468379765],["elettronic",-8.95827766997742],["leur",-8.963537014820044],["va",-8.963622665418727],["like",-8.969882969460443],["mismo",-8.970482960436364],["Désu",-8.970938304039194],["Argot",-8.972452674504044],["me",-8.976241908744461],["anatomi",-8.976848422557211],["во",-8.979937156266166],["familiare",-8.980389080892536],["место",-8.982560036391213],["cette",-8.983862930907055],["grado",-8.9867032369685],["objeto",-8.986817506684279],["principal",-8.98718522452602],["hacer",-8.988818152371575],["os",-8.989806545706957],["small",-8.98982752446716],["alcun",-8.991739596717629],["uò",-8.996302635231899],["sostanz",-8.997780412700989],["уменьш",-8.998203734496279],["Hav",-8.998867041426466],["tre",-8.999759940389701],["col",-9.000197770947748],["over",-9.001928467511535],["molt",-9.002462335784392],["force",-9.003983560996154],["far",-9.004792604020455],["luog",-9.007275379877894],["tal",-9.008591887837564],["mal",-9.014013392860148],["atto",-9.01422898356191],["specific",-9.015867740390561],["oggett",-9.017609462930825],["number",-9.018350016436465],["кой",-9.018361064132261],["ò",-9.018440583730488],["volta",-9.02049348401069],["fisiologi",-9.021200869475564],["commerci",-9.022366256203156],["Droit",-9.025015764673732],["grupp",-9.02920539255038],["two",-9.03087523690737],["body",-9.03325101888613],["any",-9.035103457316286],["individuo",-9.036844433137556],["ем",-9.037654351882553],["object",-9.043067067374611],["которо",-9.044722660269425],["corpo",-9.044928761680138],["position",-9.047205252199788],["sert",-9.047634955050803],["ной",-9.049261006391188],["hast",-9.049885264388065],["letterari",-9.050465579506103],["can",-9.050836307246271],["ont",-9.051646865715604],["Some",-9.051884685863733],["onjunto",-9.05341103002748],["hoja",-9.053734785354926],["воен",-9.063438637210805],["people",-9.064000589474169],["cualquier",-9.065939034642849],["sociologi",-9.067832571371927],["чём",-9.070530240077893],["семейств",-9.071449323623156],["tiempo",-9.071555705901009],["algui",-9.07282724435709],["souvent",-9.073021006130373],["parti",-9.073113121089103],["alg",-9.073600592963523],["нареч",-9.075319163683314],["biochimic",-9.075568173695267],["Fair",-9.077603497610145],["lui",-9.078247895426774],["ndo",-9.082280625451062],["relación",-9.082720300667976],["colore",-9.085050758498891],["dei",-9.087129741686798],["linguistica",-9.088956570235508],["th",-9.090655357253608],["condition",-9.092484280222871],["како",-9.094356242115857],["its",-9.094664454265002],["certaine",-9.095587404971521],["ca",-9.100262410784143],["medio",-9.100744499803092],["ologie",-9.101035827255982],["surface",-9.102220359600835],["piccol",-9.103688127753788],["psicologi",-9.103878812932235],["process",-9.105260479425986],["originaria",-9.10598399839797],["État",-9.107534003728505],["состояние",-9.10855565408924],["Re",-9.111853450532267],["Un",-9.114609204843656],["ingüística",-9.116220434762058],["aving",-9.11793190162729],["spregiativ",-9.118881245509492],["aire",-9.122820300959646],["мужско",-9.123016536108487],["спец",-9.125260098473497],["usa",-9.125579929601539],["causa",-9.126216169821472],["Note",-9.127275292687713],["3",-9.129973553669526],["normal",-9.13275899798348],["pronominal",-9.134118603345662],["tempo",-9.136803698161085],["spesso",-9.140280273990907],["made",-9.140307799251211],["famille",-9.142081589227725],["д",-9.143966644708886],["сь",-9.145807642713365],["when",-9.147693624848301],["planta",-9.14834189818555],["guien",-9.151094436838779],["Hacer",-9.153048924092454],["has",-9.15402188896924],["use",-9.155122241059088],["social",-9.157142116264234],["gastronomi",-9.157690000265635],["celle",-9.158544040654068],["ion",-9.16101069836153],["liquid",-9.162182360938282],["type",-9.16484999915961],["air",-9.166359398042555],["quelle",-9.16813206106434],["ет",-9.16874008850184],["quale",-9.170599642333809],["caratteristic",-9.17444396776919],["acción",-9.175147001247488],["ir",-9.17537522595181],["natural",-9.17644260828365],["между",-9.1773545056796],["militare",-9.178864865932091],["ласк",-9.180275518464992],["sexual",-9.182547044474735],["grupo",-9.186030268607963],["quantit",-9.186422636450665],["ur",-9.187451481755897],["fare",-9.188988735389625],["Es",-9.189657272640549],["sous",-9.189865951924453],["Originari",-9.192927801335468],["attivit",-9.193443773286306],["France",-9.197980089685599],["twee",-9.204639725914811],["consiste",-9.205317252528257],["usage",-9.207369311127195],["Cel",-9.210636883485606],["bois",-9.213513537817903],["которы",-9.214293430521511],["self",-9.21666750095176],["alguno",-9.218407493557038],["город",-9.221997562176082],["sirve",-9.222932638777728],["com",-9.22457244438769],["рег",-9.225224608125767],["котор",-9.228316333668474],["acqua",-9.228681657570828],["unit",-9.23023808797701],["ity",-9.232304372658394],["время",-9.233486566180975],["genre",-9.236752046029444],["public",-9.237581672435624],["Ce",-9.240315626782683],["compost",-9.243507498952873],["verso",-9.245674534922587],["état",-9.24722808617275],["sont",-9.248860398266373],["mayor",-9.250551555870096],["numero",-9.251720705507275],["действия",-9.252358155379351],["informatic",-9.255806168711317],["fine",-9.259830627207648],["éjorati",-9.263428261454681],["свойственны",-9.263534778099244],["extens",-9.265552717191412],["му",-9.26574820169169],["specie",-9.267378836768227],["through",-9.268927532818488],["название",-9.269272358514158],["especie",-9.269331641790007],["кем",-9.26936997052324],["pluriel",-9.271250603376135],["analogi",-9.272534178446872],["musica",-9.272788422957275],["cual",-9.274654639441165],["религ",-9.275661030071438],["Con",-9.27905018320677],["prodott",-9.281007606464618],["work",-9.284227190624172],["dove",-9.287564744792014],["temps",-9.288261651410327],["ci",-9.28868322639563],["homme",-9.292640324020976],["usat",-9.294149152379024],["substance",-9.29999302837102],["lieu",-9.30336704033579],["man",-9.303777459123262],["Zoolog",-9.304164184558338],["все",-9.304541732255556],["finanza",-9.305283023551837],["utilisé",-9.307266235401539],["nelle",-9.311740242379058],["have",-9.31752988953967],["viene",-9.318651864813829],["high",-9.32175002864976],["na",-9.32209696992739],["sound",-9.323939456852276],["moral",-9.325225464524598],["результат",-9.326064973139088],["ismo",-9.326195783769567],["where",-9.328556978131234],["ia",-9.335656988764999],["nom",-9.336556736543947],["With",-9.336624494043352],["sua",-9.337878481091337],["respect",-9.338060398621323],["alle",-9.342807732366415],["great",-9.34386646930967],["vo",-9.345854091275765],["desde",-9.346358497684111],["сторон",-9.346377139502028],["secondo",-9.346410619497082],["antico",-9.346773596495279],["Propi",-9.347238337772461],["condizion",-9.347702892836475],["tecnica",-9.347906095246987],["работ",-9.34823705368333],["ость",-9.352709719827978],["superior",-9.352908296328959],["loro",-9.353181999853536],["прилагательн",-9.35564577825827],["sión",-9.35704387240986],["друг",-9.357455287103882],["ve",-9.359435371363706],["logía",-9.360536079160184],["otras",-9.360550328744615],["estado",-9.363523256087333],["funzion",-9.363709053128368],["vers",-9.364066918168895],["nte",-9.364636938192454],["proprio",-9.366567035407627],["часто",-9.369025681496048],["particolare",-9.369034952358664],["vive",-9.369180175892609],["order",-9.371585658600598],["lingua",-9.373981522435386],["produit",-9.374259518611666],["serie",-9.375747650311492],["famiglia",-9.376343124149532],["event",-9.377123296083099],["capacit",-9.378612902758377],["move",-9.37904291968361],["propre",-9.379059573717697],["цель",-9.380920682080173],["lating",-9.381394205461321],["light",-9.381455533738535],["manera",-9.381614338883992],["water",-9.384457043167458],["element",-9.387355590214801],["ting",-9.388743674249604],["Arqu",-9.390160040779211],["ses",-9.390769931032498],["fruto",-9.390778451238251],["characteristic",-9.39179091235787],["Nom",-9.391846860150256],["espèce",-9.392315172364121],["animales",-9.392531994887957],["plurale",-9.39266913277769],["idea",-9.393406410430199],["Marine",-9.393824942792111],["ella",-9.393887743363878],["largo",-9.394866398033098],["sono",-9.396237883527368],["using",-9.396734953215756],["metal",-9.398815473621386],["común",-9.400018516893299],["други",-9.401797074018983],["ble",-9.403692315609437],["ец",-9.405302376154978],["origine",-9.405739797257272],["número",-9.40721137253368],["musical",-9.407261422553333],["word",-9.408644202302147],["good",-9.408796395979614],["sentiment",-9.410166449975929],["so",-9.410305798133994],["характерны",-9.412956423060493],["terreno",-9.413936209310098],["котором",-9.41447408201119],["itectura",-9.415056196872097],["individu",-9.416108665875669],["especi",-9.417006101669479],["ensemble",-9.417122788607028],["ronominal",-9.420204596503474],["quand",-9.420266611615073],["change",-9.420640214134256],["5",-9.421774613446548],["couleur",-9.421961215843595],["техн",-9.422059071031514],["Músic",-9.423896138658108],["service",-9.426082055869593],["peu",-9.427509744016618],["todo",-9.428419712685708],["делать",-9.42869283287887],["dimension",-9.430012483285175],["culture",-9.430222263412114],["Parte",-9.430353836427358],["Sorte",-9.430784483304906],["durant",-9.43088933293687],["об",-9.431031499385675],["поэт",-9.43346453746194],["posición",-9.434081543296754],["Росси",-9.434504065145383],["materiale",-9.435953580205997],["style",-9.436031756311241],["terre",-9.436330282505718],["4",-9.437604396300486],["л",-9.438707643008764],["Anatom",-9.439660589211154],["Anglicism",-9.440056504650958],["tros",-9.440946582291634],["sol",-9.441530223754938],["solo",-9.442651838154173],["moin",-9.443671028424912],["собир",-9.445425795058998],["ta",-9.445634274184389],["oit",-9.445716928388812],["droit",-9.445754875085761],["contra",-9.445857638434097],["very",-9.446040514036909],["ботан",-9.44711759948241],["Chim",-9.448335908117073],["extensi",-9.450051139523413],["direction",-9.45060759797007],["structure",-9.451351542648041],["formato",-9.451988840470412],["altra",-9.45215562275798],["up",-9.452877789496576],["art",-9.45324515784952],["That",-9.454019729024811],["egli",-9.45431277065375],["Agricultur",-9.454410175852914],["esta",-9.45689548546109],["esprit",-9.457572010652278],["propria",-9.461720068583473],["вид",-9.462140723549556],["indica",-9.463091041404347],["langue",-9.464304696472677],["provien",-9.464848213132974],["haci",-9.465387457331527],["cada",-9.46561211693411],["про",-9.467286364270638],["termine",-9.469673839412046],["части",-9.471209058899586],["мя",-9.474551495547011],["varia",-9.475811267065893],["tener",-9.475901867683987],["вы",-9.476115590732146],["Il",-9.476450439525468],["ous",-9.476865814239677],["í",-9.47879393330421],["ante",-9.479115305557357],["zona",-9.482118432781125],["pequeño",-9.482495121952322],["give",-9.483301247749758],["opulaire",-9.48362288484445],["nature",-9.48369026898104],["ordre",-9.484304887173796],["мн",-9.484947142983494],["support",-9.485691003057346],["pequeña",-9.486159917255726],["одно",-9.489606472494163],["cantidad",-9.491007487930498],["diferente",-9.491449069302423],["hecho",-9.492319443464051],["petit",-9.493133561775327],["ure",-9.493938273666366],["mot",-9.49406667474792],["comune",-9.494068928980296],["coup",-9.494336169952906],["Zoologi",-9.495054338522024],["period",-9.49614843150141],["та",-9.50065892974387],["É",-9.501568309481847],["propriet",-9.50338116062948],["back",-9.509089168668087],["тако",-9.51023723251664],["take",-9.510329014379266],["ющий",-9.510911743041412],["situation",-9.513210274281938],["Anatomi",-9.513271139998883],["palabra",-9.514253108277916],["iò",-9.515271431957505],["flores",-9.515373612555853],["Petit",-9.515458272377854],["classifica",-9.515612506294012],["conjunto",-9.517316260584746],["ando",-9.517519887965006],["system",-9.517825155507477],["scientifica",-9.520413308113039],["materia",-9.520484281531273],["um",-9.52086553482448],["pièce",-9.523252258140616],["ogni",-9.525735505879005],["avant",-9.52664082562648],["себя",-9.532223759049675],["tamaño",-9.53261459614054],["ng",-9.533266797872663],["plante",-9.53339838883764],["bajo",-9.534524957082244],["Géographi",-9.535258282240957],["Cualquier",-9.535258814782065],["pposition",-9.535927481299545],["marina",-9.53641030180003],["valor",-9.540878684017915],["rendere",-9.540934551360689],["процесс",-9.541059142658852],["power",-9.5426018006318],["moviment",-9.543741654711457],["té",-9.544010891742888],["about",-9.544328765728501],["Españ",-9.54614428409437],["уда",-9.54706875678841],["fuerza",-9.547875809568275],["ах",-9.547887334464107],["vi",-9.550111125110963],["plant",-9.550413118504675],["media",-9.551354652927477],["Cuisin",-9.551625915032966],["porte",-9.551654414748615],["human",-9.552027059129305],["vita",-9.553941351337304],["cristianesi",-9.5549455565512],["ver",-9.55566476952399],["líquido",-9.55594279347542],["struttura",-9.556753162114514],["k",-9.556990300201651],["некоторы",-9.557665928529108],["ordin",-9.558923801328772],["animali",-9.561366431256761],["лингв",-9.56217602697283],["uando",-9.563605503599415],["ans",-9.56477608223726],["ra",-9.56717403735098],["organismo",-9.567355016077505],["удь",-9.56756202585299],["alto",-9.567785346347684],["parole",-9.568094866400005],["madera",-9.569776386117047],["manier",-9.571807116887975],["представитель",-9.573377840390886],["ниб",-9.573711705422856],["same",-9.574268340792514],["ente",-9.574303843298422],["humano",-9.57467867049766],["carácter",-9.575548871415274],["tassonomi",-9.577293561797564],["Partie",-9.578166767394624],["partir",-9.578295534265195],["форм",-9.579331384697394],["geologi",-9.579826606496557],["st",-9.580245200136016],["général",-9.581586345340106],["habitante",-9.582026444447173],["ité",-9.582080827945987],["да",-9.582738232041756],["contiene",-9.58290882542044],["prend",-9.583166682711703],["caractère",-9.586793733008623],["ono",-9.586854339361192],["ving",-9.587012509130531],["misma",-9.587740153399366],["malatti",-9.588101671166056],["become",-9.588993917516376],["grand",-9.589496294352056],["periodo",-9.590008485484457],["encuentra",-9.591586660391155],["cierto",-9.594223265067477],["предмет",-9.595031344023816],["men",-9.595348034023141],["donné",-9.59539769994514],["cabeza",-9.597063585616517],["actividad",-9.597185764666522],["...",-9.597650490527762],["miento",-9.599120636612625],["presente",-9.602181461817768],["femme",-9.604513680567777],["mucho",-9.605454045397078],["один",-9.606667987351294],["лицо",-9.606752083712681],["physical",-9.608601189056163],["special",-9.612539030278096],["opera",-9.613164416099632],["façon",-9.6138037572407],["given",-9.61382501616668],["одежд",-9.614572261742877],["fatto",-9.616358220732831],["under",-9.616737686659167],["состав",-9.61699259063515],["Química",-9.617147737722812],["movimiento",-9.617184805904706],["aussi",-9.617458069336216],["again",-9.61886180677011],["résultat",-9.619123007144264],["toute",-9.619887845194109],["res",-9.620352623950325],["presenta",-9.621160627913357],["Musi",-9.621453392438422],["де",-9.621675501960375],["каки",-9.621962423242543],["cas",-9.622615866073058],["comportament",-9.6245612193786],["donne",-9.625109373329163],["plan",-9.62536268460425],["variante",-9.62582891982026],["mano",-9.627223725517343],["iendo",-9.627594899852774],["play",-9.627744425187789],["cuyo",-9.628188388859304],["ó",-9.628871246999804],["cambio",-9.628910929850184],["amount",-9.630084428344922],["valore",-9.631695624536011],["сделать",-9.632904903214438],["attribut",-9.632982510886185],["систем",-9.637298128220735],["животны",-9.63747124520525],["concerne",-9.638575343904428],["po",-9.63944555272225],["instrument",-9.639955386680484],["mouvement",-9.640429292909392],["времен",-9.641706394710123],["result",-9.641772047826636],["altura",-9.643758187300914],["pa",-9.643932101532219],["été",-9.644359158154801],["prima",-9.645165820000656],["este",-9.645921383999532],["utilizzato",-9.64604612026379],["cierta",-9.646367200846624],["nome",-9.647140878246724],["tessut",-9.647597046865004],["alimento",-9.64831529134157],["edificio",-9.649629609874907],["Zo",-9.650302062198648],["ния",-9.650371234357058],["fruit",-9.650614038826589],["sotto",-9.650628116778535],["elui",-9.652367312483957],["information",-9.652999356339421],["appartien",-9.653256052238206],["боле",-9.654355861406483],["неодобр",-9.65513823526161],["générale",-9.65537889668593],["небольшо",-9.655887250272944],["ies",-9.657441775379082],["rispetto",-9.6589873152582],["vista",-9.659015982819337],["purpose",-9.660914836394939],["ones",-9.661165315409226],["пренебр",-9.664528187294705],["met",-9.665111312856142],["side",-9.665127074976203],["language",-9.668183024382056],["vari",-9.668438726102366],["inferior",-9.668668269564659],["eau",-9.66880642531888],["member",-9.670343171160388],["6",-9.67129531342076],["arma",-9.671405583036645],["tierra",-9.671737364066502],["ettre",-9.673169948846354],["Cada",-9.673971661859552],["групп",-9.674001158772814],["chimico",-9.674442693758778],["woman",-9.675246397898785],["quel",-9.675614777032017],["game",-9.677950779664455],["предназначенны",-9.678723385283416],["Rare",-9.68302364623581],["line",-9.68321669212872],["mettere",-9.684773525886946],["nsemble",-9.685703524608773],["main",-9.685791052251684],["большо",-9.686582987147025],["applica",-9.689298738914417],["ezza",-9.689442071291591],["divers",-9.690244542086187],["usado",-9.691899202820828],["control",-9.692072520683512],["right",-9.69345769723532],["dire",-9.693743141433146],["каком",-9.694376995502479],["utto",-9.696153598742274],["value",-9.696490878556695],["activit",-9.696668170974487],["geometri",-9.69669091048777],["almente",-9.697192846085766],["exten",-9.697756191605045],["oggetti",-9.699125528902115],["pianta",-9.70097633995454],["elettro",-9.70125085300615],["lavor",-9.701659514564238],["legal",-9.702337709796945],["sulla",-9.704305437847099],["araldic",-9.705937524521268],["вести",-9.70603919054923],["mais",-9.70622165352224],["ciascun",-9.7064512378534],["opinion",-9.706913422418069],["быть",-9.708742373200593],["mettr",-9.709798850226829],["put",-9.711290318538584],["campo",-9.711402280182227],["interno",-9.711711461484413],["sopratt",-9.712422489428636],["area",-9.7133056902294],["celu",-9.714135661690241],["област",-9.71422338953779],["одного",-9.714345301449216],["simile",-9.714908681204024],["less",-9.715569830786968],["most",-9.716129705057805],["жизн",-9.717035550861084],["servant",-9.717071078628907],["peso",-9.717635856999426],["étai",-9.717794607241139],["charge",-9.717811923373183],["vie",-9.718413782893162],["ordinaire",-9.718729998055046],["característica",-9.719612974461189],["ecc",-9.720014636975316],["Art",-9.720553851308884],["pays",-9.72079689640736],["poca",-9.723949055662317],["matière",-9.72457403097124],["antropologi",-9.725304886000583],["original",-9.725869194199504],["высок",-9.726769679361247],["ное",-9.728597816025804],["propert",-9.72872330108801],["determinat",-9.731151139621616],["this",-9.731585251768106],["device",-9.73480483470157],["shape",-9.734854930406158],["Su",-9.735932604429614],["сильно",-9.736134935257551],["ship",-9.738481366986033],["ri",-9.738656759151091],["diverse",-9.739602030697643],["fuerte",-9.73975248871255],["quindi",-9.739793671740163],["erecho",-9.740798696985996],["lengua",-9.741461955103176],["importanc",-9.743350717336552],["principale",-9.743423742826714],["different",-9.74433002323228],["statistica",-9.744635203001613],["individual",-9.745034976307426],["show",-9.745278139266752],["piece",-9.745393658298667],["него",-9.745839350799375],["состоящи",-9.7458870281773],["antica",-9.747041173325586],["uccell",-9.747554615328944],["degree",-9.748122985536234],["carne",-9.749457091008855],["bene",-9.750063934001066],["Nombre",-9.750557887413606],["computer",-9.751722185937908],["Deport",-9.75292439637491],["relacionado",-9.75375507045107],["prè",-9.754213285864207],["particulière",-9.754248893882913],["real",-9.756799065881586],["breve",-9.757151020329307],["gas",-9.758692313931066],["common",-9.758821891404448],["resultado",-9.759442583243409],["ísica",-9.761854488326856],["себе",-9.761904994143638],["car",-9.762720186199589],["appartenent",-9.763244113556745],["momento",-9.765259685943317],["hold",-9.765533971410244],["dad",-9.767840806532636],["valeur",-9.770447694214964],["proceso",-9.770603510928728],["morale",-9.770606992020479],["mean",-9.773313852228439],["но",-9.774162630403918],["male",-9.775918434146455],["esempi",-9.777307578112335],["produrr",-9.780479133845825],["bas",-9.780609964076486],["logie",-9.784394762991527],["Historia",-9.784403346872033],["centro",-9.785024719061028],["low",-9.786024831197395],["tres",-9.787738425392355],["pu",-9.789141944668053],["раз",-9.789577951445127],["ilitaire",-9.789663715130487],["tant",-9.790293421582433],["хим",-9.79031626857235],["misura",-9.791322853468966],["её",-9.792340525338867],["чень",-9.792828149315838],["sul",-9.793092347109496],["ti",-9.793787072406346],["comestible",-9.793911880885656],["ique",-9.794171354230674],["accord",-9.796768642033022],["lettera",-9.798683845881419],["поверхност",-9.798724410224409],["animale",-9.799519106112236],["Somet",-9.800312333138802],["avoir",-9.801087353271726],["Poner",-9.801187053943135],["ter",-9.802554265694162],["endre",-9.80301493374769],["physique",-9.803479385314624],["nza",-9.80383862784906],["what",-9.80554333073247],["important",-9.80634765743387],["food",-9.808057756858993],["зоол",-9.812360850400996],["contre",-9.812519660303415],["кулин",-9.816298066424087],["fonction",-9.81639848967328],["устройство",-9.817577045682082],["istoire",-9.818129468095275],["люде",-9.819073692059055],["женщина",-9.819574256545737],["Forma",-9.819607036608605],["semble",-9.819774704295034],["caso",-9.820705953510654],["Histo",-9.821508073140162],["median",-9.822293236577336],["Bi",-9.82283662196815],["sentido",-9.823511618850258],["meno",-9.825798198252635],["ко",-9.826256626839289],["Econom",-9.828556560050036],["Intransiti",-9.829155746674395],["mar",-9.829436327971418],["vida",-9.830187328733164],["juego",-9.831176158540956],["emploie",-9.831481773758002],["cu",-9.832120765801896],["inguistique",-9.832408824766851],["cia",-9.832545854330164],["ornitologi",-9.834931481050734],["ither",-9.835261644803165],["expression",-9.835661133893247],["femminil",-9.836597101711316],["compless",-9.836931613432593],["aria",-9.837153129434201],["close",-9.838427801249036],["caratterizzat",-9.838943879894275],["dispositivo",-9.83904791100801],["fer",-9.840584061196395],["obsoleto",-9.840589939137734],["Dans",-9.841251265429605],["ère",-9.841428149287562],["sujet",-9.841690524624124],["obra",-9.841977635933224],["sta",-9.842921842694281],["звук",-9.843007488183979],["short",-9.843430117533014],["etto",-9.843782803012257],["origen",-9.847121886958648],["sustancia",-9.84812750177661],["С",-9.848614698325047],["Dar",-9.848954686301658],["женско",-9.849166672999651],["astronomi",-9.849771186625162],["isme",-9.85020855868108],["dura",-9.850321911252678],["after",-9.850958855860585],["élément",-9.85298919328338],["aking",-9.85392991964196],["ellips",-9.854957123844455],["неол",-9.855688970655546],["Religi",-9.856307070304748],["árbol",-9.857333695466888],["punta",-9.85743192195578],["pied",-9.857533549730201],["Tipo",-9.858553257952561],["еся",-9.85856180667431],["U",-9.858590556059013],["venir",-9.859487444868844],["difficult",-9.859641927859219],["orden",-9.859696655449795],["scuol",-9.859779531291277],["posto",-9.859916858929575],["servicio",-9.860603448694626],["go",-9.861102847508697],["eligión",-9.861387514643788],["Mujer",-9.861456841605047],["ntiquité",-9.862754408421116],["figure",-9.863243439127137],["ями",-9.864182735090278],["piel",-9.86630316753288],["avere",-9.867052584275898],["ance",-9.868602424617144],["studia",-9.869057945413893],["strumento",-9.87033342415998],["forte",-9.870613476127545],["argent",-9.870674048439614],["pe",-9.87221257876923],["li",-9.872728515376341],["era",-9.873271754206872],["feuille",-9.873805008315035],["mezzo",-9.874225051722672],["правило",-9.874773989660397],["спорт",-9.875656766740898],["influence",-9.877596893204771],["друго",-9.878291079273673],["together",-9.878696010717054],["nouveau",-9.87911303130754],["Planta",-9.879148131378088],["8",-9.879510145406854],["humain",-9.879758447924967],["contro",-9.879858510257431],["sonido",-9.880181992590895],["ambiente",-9.880809352767628],["instrumento",-9.881153609998332],["off",-9.882810533962932],["volume",-9.883573720013537],["motion",-9.884257176826221],["capacidad",-9.885385217424535],["quanto",-9.88597521157812],["ны",-9.88610301108806],["mesure",-9.886995269233873],["term",-9.887022000191312],["emplea",-9.887855969240395],["antigua",-9.887951495124714],["verde",-9.888114320067425],["ssere",-9.88812504702426],["пере",-9.88952135228017],["fleur",-9.889595100434253],["also",-9.889632743953051],["riferit",-9.890107993935768],["kind",-9.89092700221439],["dinero",-9.891326449914263],["sa",-9.891411480219055],["ball",-9.892068507818014],["abilit",-9.89363775249377],["сти",-9.89464605221611],["10",-9.894776023869106],["estar",-9.894845846308971],["simili",-9.895459655870503],["=",-9.895567282471351],["совокупность",-9.89563876222578],["altre",-9.896222498114685],["travé",-9.897126052442157],["анат",-9.897273282474217],["moyen",-9.898163153337471],["Matemátic",-9.899983736020719],["cos",-9.900438161023516],["interest",-9.901028040599368],["качестве",-9.901147478252925],["casa",-9.902236986347816],["Díc",-9.904646891244187],["anim",-9.905398788856338],["cose",-9.905802489559681],["perteneciente",-9.906302864815741],["после",-9.906862712930167],["ки",-9.907515220663448],["data",-9.907893700655864],["name",-9.908454148360537],["Unidad",-9.909108403699772],["attention",-9.91032704816251],["effect",-9.912173376255556],["Ver",-9.913181634920672],["растение",-9.913748341405052],["orthographique",-9.913926713003388],["contain",-9.914100777770994],["vivent",-9.914904801570776],["és",-9.915524523313138],["Diminuti",-9.915584107510174],["soi",-9.917291592845947],["Au",-9.91736604756348],["sorte",-9.9180198779071],["quello",-9.91900217087737],["down",-9.92145573007513],["subject",-9.922408766258286],["pression",-9.922961259717795],["foi",-9.923046072510072],["vec",-9.92310108599052],["question",-9.924100061161102],["прилагательно",-9.924691605910926],["occupa",-9.92474851541125],["perform",-9.926183934487067],["idactique",-9.927018249579087],["род",-9.9271529403451],["atomic",-9.927373422295554],["solid",-9.92798269805834],["cuya",-9.929082765203894],["omo",-9.93052898881307],["legno",-9.931323145877002],["liquide",-9.931759339550826],["сть",-9.93301129802991],["posizion",-9.933743010400738],["lly",-9.933790004864587],["ayant",-9.93447682502042],["famil",-9.934592710197503],["sessuali",-9.934730155687765],["composé",-9.935234464248632],["mer",-9.936550270810224],["cellule",-9.937030559352154],["ouvrage",-9.93705088843316],["pueblo",-9.937284180933393],["serve",-9.937950457899145],["aliment",-9.938815968894247],["Ê",-9.939920377276136],["character",-9.940037330219273],["anni",-9.942201951079525],["7",-9.943080694785957],["другим",-9.943137487258621],["биол",-9.944470840739928],["face",-9.944606400470548],["commun",-9.945043268762369],["19",-9.946593085498998],["церк",-9.946703626603345],["género",-9.946705681503095],["inter",-9.947345635111187],["Gentil",-9.947591218992953],["Canad",-9.947923715456142],["course",-9.947939044140835],["ramo",-9.948428438326204],["tête",-9.948527766356445],["ge",-9.948645789822706],["растени",-9.94865357326907],["Le",-9.948862348492856],["instance",-9.94894175256081],["militar",-9.949308300389625],["icio",-9.951043628422404],["двух",-9.952459376196078],["j",-9.952551439835586],["typical",-9.954889382964705],["отсутствие",-9.95526008608596],["head",-9.956919810530978],["item",-9.957050490677528],["antes",-9.95783405327314],["utres",-9.95868023413766],["territorio",-9.958827893391692],["propia",-9.960230113155818],["religion",-9.960464270268215],["свое",-9.961656432082037],["larga",-9.961816491730367],["отношени",-9.962015428179425],["usada",-9.962507226773756],["écrit",-9.963401225304892],["compit",-9.963788677660471],["cuatro",-9.96421948729953],["полит",-9.964331938105339],["plural",-9.965052540898128],["ppur",-9.965190032792652],["politique",-9.96520940411216],["rappresenta",-9.96554840721867],["ammalogi",-9.966235399366536],["орган",-9.966397361018199],["…",-9.967508285181758],["lement",-9.968103141538656],["grow",-9.970373499472888],["donner",-9.970376750563341],["действи",-9.970512998750579],["direct",-9.97058818248295],["soft",-9.970657989173958],["produc",-9.97162120807841],["violent",-9.972098057778817],["interior",-9.972366336016023],["grave",-9.97256690889434],["production",-9.972995015750476],["toward",-9.973242338529488],["poter",-9.97412100248944],["architet",-9.974297463884877],["sense",-9.974651176150385],["libro",-9.975330872561372],["semi",-9.975493411873227],["diverso",-9.976581085343287],["ologia",-9.978078538525228],["sí",-9.979288047240779],["extremo",-9.979822557181802],["Estado",-9.98002707144432],["сил",-9.981054004346369],["provide",-9.981485675464402],["ro",-9.982338442496303],["cultura",-9.983038813504072],["каким",-9.98441190193526],["regular",-9.984907419645534],["Spécial",-9.984915961278027],["Québ",-9.98509395538698],["ciudad",-9.985147155693317],["caballo",-9.986039768172056],["vertical",-9.987265240494299],["forza",-9.989059841266117],["edilizi",-9.98949399835567],["appunt",-9.990085865406565],["organo",-9.990564512700226],["утём",-9.99085094653599],["быстро",-9.990878059997119],["complete",-9.991142832362089],["инструмент",-9.99361077986376],["qualité",-9.994229964577785],["vent",-9.994715967287997],["radio",-9.995326471769319],["enfermedad",-9.995453416132762],["formado",-9.997619903956156],["calci",-9.997658390823561],["Biologi",-9.998241831058571],["region",-10.000667428043975],["first",-10.000811700789342],["norma",-10.001390861036246],["extreme",-10.001512432949543],["strong",-10.001924251438503],["blanco",-10.002172269515999],["морск",-10.002768805449573],["над",-10.003431910009201],["class",-10.004164855057235],["phrase",-10.004691931481672],["Pieza",-10.005542217915629],["terra",-10.005890165648456],["pie",-10.006290471208654],["scopo",-10.008171293366058],["space",-10.00869256548594],["cita",-10.010133207788034],["transport",-10.010235196947175],["→",-10.010371908554983],["через",-10.011130796658852],["set",-10.011654633525367],["haut",-10.0117831194083],["document",-10.01226271871228],["many",-10.012425231962826],["musicale",-10.013776302226766],["fixe",-10.014402737519621],["Lieu",-10.014956254633287],["комп",-10.015089950481743],["aplica",-10.015518715814645],["riferiment",-10.016627426173239],["visible",-10.01676921157841],["excessive",-10.018340498628284],["lungo",-10.018542056622941],["различны",-10.022590426808396],["Petite",-10.023546276579015],["Sport",-10.024132552572606],["allo",-10.025495274526426],["ни",-10.025895408103338],["aeronautic",-10.02595124500563],["dato",-10.027799631856656],["abitante",-10.028050072354958],["ces",-10.028304886833954],["relazion",-10.028644550571789],["effet",-10.029157912382878],["uring",-10.029612926623225],["tejido",-10.030380562803838],["divide",-10.030634852813758],["falta",-10.030777050372844],["ie",-10.03080824788453],["anza",-10.031116678446203],["music",-10.03116722842012],["central",-10.032756473785732],["determinado",-10.03437861102067],["тела",-10.034571311178116],["film",-10.034603067019287],["well",-10.03673313799326],["público",-10.037012616008473],["язык",-10.037649954186708],["destiné",-10.037794131651403],["ful",-10.03845918295864],["effort",-10.038545961756224],["quien",-10.040487457541314],["Ave",-10.041735184675249],["menos",-10.042345878406515],["qualsi",-10.043056589711238],["cargo",-10.043210615489466],["remove",-10.044178589669446],["consist",-10.046120317693198],["Milici",-10.046538774088088],["sometime",-10.047261468444134],["sociale",-10.047675275206656],["trop",-10.048837412388247],["compuesto",-10.049166537873369],["%",-10.050079276600432],["ten",-10.05025433909914],["varios",-10.050891448966189],["practice",-10.051197223773826],["inerent",-10.052227013557115],["небольш",-10.054074862151731],["á",-10.054146047422206],["classe",-10.054964865976993],["ées",-10.055435297800603],["superiore",-10.055529473085612],["ave",-10.056066890334025],["vue",-10.056564011525179],["indicar",-10.05747698320161],["attravers",-10.057818887144709],["blanca",-10.058268429728875],["ему",-10.05907556665417],["each",-10.059663397653164],["habitual",-10.06147189159423],["siglo",-10.061772028068283],["regard",-10.061845194151852],["помощь",-10.062104847992256],["new",-10.062562069227788],["beau",-10.063363161664522],["движение",-10.06341619809551],["cualidad",-10.063416464754155],["элемент",-10.063695732380726],["ato",-10.064127099546297],["ui",-10.064688537137915],["building",-10.065366217100095],["dar",-10.065957365837267],["No",-10.066107501669759],["movement",-10.066903397390803],["ovvero",-10.068639658576771],["специалист",-10.0689827551778],["courant",-10.069227980467545],["azón",-10.069604728902],["ois",-10.07118017264568],["peuple",-10.071578838477476],["Europ",-10.071759089877826],["attache",-10.072180135261389],["alta",-10.072549731910911],["arbre",-10.073055404242194],["9",-10.073606123136805],["ым",-10.073643524322128],["telle",-10.075443907943356],["upon",-10.07617223914205],["player",-10.077788137763195],["societ",-10.078110987315721],["treat",-10.0790868747523],["ее",-10.079437442260922],["situa",-10.079815909517212],["permettan",-10.080114879880629],["gi",-10.080969555751395],["via",-10.081100503683832],["Habitant",-10.08235555677702],["форма",-10.08297382272762],["appearance",-10.083095726074465],["ografía",-10.084406224405445],["Instrumento",-10.084806313175633],["aspecto",-10.085166649122602],["actual",-10.085299426087564],["life",-10.086345907312108],["feeling",-10.086686249625565],["requerida",-10.088280491419287],["temperatura",-10.089256113460731],["J",-10.089769719254047],["стран",-10.089810598234173],["total",-10.090346023958414],["comun",-10.090438082511845],["quella",-10.090915803974942],["guerra",-10.091868496679446],["воздух",-10.092246337111245],["деятельност",-10.092402042661277],["Unit",-10.092541974591597],["вод",-10.092916111537656],["много",-10.093651670815808],["nformática",-10.094135085705144],["producto",-10.094264236408216],["pone",-10.094339373048676],["région",-10.094407912027922],["цвет",-10.094795418051486],["letter",-10.095766418184228],["image",-10.096270847550803],["règle",-10.096871186389315],["utiliza",-10.097005099565239],["siècle",-10.097110876690916],["know",-10.097146138835335],["puis",-10.098421120765956],["Lengua",-10.09863674040147],["Femme",-10.098998497281263],["pratique",-10.10073259309073],["растения",-10.101584826086897],["utilizzat",-10.102629697600623],["tale",-10.103117879265472],["vivant",-10.10368290929263],["количество",-10.103983881060781],["medi",-10.105329559680323],["present",-10.106018089393004],["fond",-10.106772142247433],["línea",-10.106911263050598],["chez",-10.10728240101528],["Mathématique",-10.107387895786843],["vehicle",-10.10740690096996],["servizi",-10.108211819112416],["estimenta",-10.108435208209734],["suon",-10.109043975389895],["rar",-10.109350370300639],["dopo",-10.110751802321749],["côté",-10.113320013732555],["espacio",-10.114421258690122],["муз",-10.115067570487298],["piante",-10.116188772368531],["tutti",-10.116783958291736],["0",-10.11740703761124],["содержащий",-10.118412327163288],["материал",-10.119329090119791],["own",-10.119737952261534],["лько",-10.119963529769024],["propri",-10.120034220530485],["mucha",-10.120482484022581],["субстан",-10.120675651424296],["ugar",-10.121624551040393],["simple",-10.122800840037996],["urante",-10.124726028320111],["poder",-10.126227427899758],["lado",-10.126372597266407],["rse",-10.12678641358919],["тивир",-10.12804365181389],["mancanz",-10.129622770842634],["luce",-10.130816040225541],["unidad",-10.131038905037727],["mé",-10.133206683410911],["vehículo",-10.134793317355282],["suelo",-10.134923253962342],["aractère",-10.13551914282726],["aciones",-10.135520667396115],["final",-10.136161665005393],["jeu",-10.137936825811465],["solit",-10.138027841561883],["view",-10.139285272336195],["free",-10.139302189726052],["Transiti",-10.139381628518024],["documento",-10.139485550961695],["entro",-10.13992422542221],["jour",-10.140049657267973],["ejemplo",-10.140777429295238],["terrestre",-10.14179666359079],["anima",-10.143012657580929],["donna",-10.143846020021797],["court",-10.145112950019364],["XIX",-10.145645914322767],["Grupo",-10.145659353638326],["business",-10.145716808977557],["lleva",-10.146133575186292],["female",-10.146205741228561],["ba",-10.146625667513769],["porta",-10.146793270804938],["provoca",-10.146954993806958],["tutto",-10.147198673458412],["end",-10.148566402773088],["zza",-10.148987985412479],["trabajo",-10.149140195721131],["quantité",-10.149432838828616],["belief",-10.150636839090236],["vivo",-10.1507172944753],["acido",-10.15080087180054],["distance",-10.150896663495534],["break",-10.151265087937844],["politic",-10.15131871308651],["движения",-10.15163173223823],["negli",-10.151725000211732],["table",-10.151882326262175],["evento",-10.151957524202508],["Chile",-10.152334255365686],["originario",-10.153060642253795],["component",-10.153107085411074],["América",-10.153753757602765],["much",-10.154662592832434],["métal",-10.155629566100467],["groupe",-10.156582140756033],["ости",-10.156730030535732],["страд",-10.157273066020437],["product",-10.158305089514645],["piano",-10.158472953056638],["hand",-10.159027724030171],["standard",-10.159323823110858],["ения",-10.159890837957821],["это",-10.160783895252369],["няя",-10.161366580654676],["pubblic",-10.162301836372928],["olitique",-10.16424840928817],["erie",-10.165860000862175],["level",-10.166034479864138],["source",-10.166931511036509],["second",-10.167017806687822],["служащи",-10.167124927648947],["scienz",-10.16736573019352],["carry",-10.168041669115478],["Physique",-10.168544326220266],["sia",-10.169161225649274],["jusqu",-10.16944818938544],["azioni",-10.171986815558734],["necessari",-10.172189881856408],["three",-10.172402592137866],["pierre",-10.172925018080726],["tient",-10.173069846625761],["años",-10.1734076985671],["вульг",-10.173827284085037],["bile",-10.174083447230355],["находящий",-10.174377557126519],["fuera",-10.174455835625647],["rapid",-10.174786655120908],["derecho",-10.174839947160464],["buon",-10.175097589584476],["alber",-10.175128221384277],["помещение",-10.175258888086946],["средство",-10.17656658340962],["office",-10.17672645045401],["erteneciente",-10.176940699257957],["цвета",-10.177475721907136],["piedra",-10.177640229834397],["бран",-10.17817788772252],["permette",-10.178425660808175],["tallo",-10.178757206049905],["cking",-10.178974899377188],["país",-10.179866233877625],["pouvoir",-10.18090341329684],["ground",-10.181946146728983],["Son",-10.182747541124725],["monetaria",-10.183350400825274],["имени",-10.183474198818505],["menor",-10.183832112964328],["ujour",-10.183842314502915],["ello",-10.18392352590729],["colu",-10.183925695027934],["quasi",-10.18403030411842],["situazione",-10.184319135643896],["gente",-10.184424062861892],["longue",-10.184678793034056],["simbolo",-10.184720080896746],["parlat",-10.185082403363921],["Pièce",-10.185450154807127],["importante",-10.185745812947168],["mujer",-10.1858921994679],["Tener",-10.186924498510887],["знак",-10.187543010668456],["Héra",-10.187701496866577],["cours",-10.187833783659139],["ткан",-10.187942296052682],["quick",-10.189188370869081],["atura",-10.18972258355414],["calor",-10.189795848493336],["ottenut",-10.192461050678538],["tanto",-10.192686350349936],["организма",-10.193313532535278],["способ",-10.193314399624146],["système",-10.193394838978683],["состояни",-10.19347784734801],["volgar",-10.193958329347053],["mental",-10.194297289932692],["nei",-10.196328925410873],["Qualité",-10.19715341182646],["dare",-10.198715156518864],["ville",-10.199116673629568],["издели",-10.201120700579207],["junto",-10.201589774271504],["blanc",-10.201590554901342],["asunto",-10.202887499610519],["joue",-10.204009941870098],["diminutiv",-10.204788726031845],["fuori",-10.204851812456278],["libre",-10.204973255685667],["pur",-10.206235627144903],["форме",-10.206255362298577],["metallo",-10.207257849326126],["utilisée",-10.208052297818108],["agir",-10.209140013740857],["quattro",-10.21027910684947],["fil",-10.211397425436935],["плохо",-10.2116216266568],["agli",-10.211640601018726],["relative",-10.215123573039373],["mobile",-10.217647464662157],["А",-10.218138258823334],["open",-10.218724533115427],["Fait",-10.2187902352364],["natura",-10.219059029983168],["положение",-10.2192743355486],["rouge",-10.2209095721213],["обладающи",-10.221444600846459],["fa",-10.22227775914995],["вещество",-10.222278129055674],["originaire",-10.222692497532577],["processo",-10.222871565467827],["peau",-10.223060631499983],["taille",-10.22369133901374],["bring",-10.22397188533704],["difficile",-10.224181472645288],["ligne",-10.224490321175937],["ирон",-10.225231027328878],["tela",-10.225314071004536],["race",-10.225688261464349],["hombre",-10.22616569650894],["studio",-10.226268812337022],["corta",-10.226797503735035],["trasport",-10.228006765923942],["ánimo",-10.229132143854482],["away",-10.22964652579373],["речи",-10.230339782091667],["отношение",-10.230630658935915],["ancienne",-10.230630733159355],["teatro",-10.231012158447607],["popular",-10.232260004418816],["Р",-10.232345010030642],["effett",-10.232855843274411],["места",-10.232969519965522],["around",-10.233272063407163],["associate",-10.233325322065092],["unción",-10.233391187805314],["front",-10.234600726316776],["pratica",-10.23640359037499],["свет",-10.236625510311086],["machine",-10.23697290348645],["horizontal",-10.237373487319667],["иног",-10.238088309030292],["intenso",-10.238336059742736],["объект",-10.239670847965295],["create",-10.23969549960114],["function",-10.239816609308207],["20",-10.239827981850329],["trova",-10.24030367698608],["информаци",-10.240590998195344],["говорить",-10.2407159298962],["manque",-10.241226853458228],["worth",-10.241892684625775],["период",-10.241959276563172],["papel",-10.24198341750623],["evitar",-10.242176379735074],["месте",-10.242636813581997],["знач",-10.243247756480724],["физ",-10.244170822343587],["conoscenz",-10.244419988967042],["vêtement",-10.244897929801795],["gioco",-10.246513207294123],["Plante",-10.246753722796992],["nto",-10.246809983908332],["voce",-10.247071168857357],["bad",-10.247982436150606],["represent",-10.24809090951383],["petite",-10.248536718342045],["boca",-10.250018355750274],["Astronom",-10.2503832717218],["ú",-10.250467130279517],["mammifer",-10.251394966693095],["aspect",-10.25186969308275],["energi",-10.251997334493492],["caratter",-10.25217137030566],["лат",-10.252316448106484],["ertain",-10.252376394784825],["variet",-10.252773553522012],["vegetal",-10.252961429113345],["Relat",-10.25332958430224],["drink",-10.254003715857465],["част",-10.254475350819163],["terme",-10.255320996302883],["ciencia",-10.255403897341832],["rchitectur",-10.256103241248294],["tallurgi",-10.256104935436],["слова",-10.256138800914739],["moment",-10.256651494674882],["sub",-10.25770131152361],["propiedad",-10.257751917828337],["wor",-10.258003251374046],["denar",-10.258848212088427],["eur",-10.259363768384294],["casi",-10.259873028165375],["privo",-10.260377342742448],["anti",-10.260407745637682],["principio",-10.26136745270616],["risultat",-10.261881304736448],["полн",-10.262464427337768],["utilizado",-10.263478517070185],["Technique",-10.263812827772643],["format",-10.264056883556076],["ient",-10.264912175710357],["ottener",-10.266556655430485],["capable",-10.266776784504799],["determinada",-10.267552607110009],["posee",-10.26875852532904],["child",-10.269155686149492],["may",-10.269919518821688],["disease",-10.270529265693295],["эт",-10.27066358738323],["ница",-10.270739239202118],["dalle",-10.272313511130603],["law",-10.272419354243613],["fra",-10.273643513182304],["clase",-10.274715503530828],["enfant",-10.274789370101402],["clear",-10.274881068159427],["женщин",-10.27507703104914],["estructura",-10.275193211832171],["Italia",-10.27519837102177],["luz",-10.275366369321137],["государства",-10.275386898059857],["ную",-10.275421736244336],["spazio",-10.275713366446931],["шутл",-10.275842236513581],["idée",-10.275897918446502],["полово",-10.278386139107422],["Instrument",-10.278565595424876],["obtener",-10.278581916271166],["dedica",-10.279884239754722],["física",-10.279986629813713],["affaire",-10.28037840189759],["pre",-10.280906131376558],["Numism",-10.28128961716775],["очен",-10.281384009902531],["Plus",-10.281393652259975],["relate",-10.282142043407331],["colour",-10.282404773978255],["atteggiament",-10.283729477888775],["unione",-10.284177300873855],["используемы",-10.284552441973712],["passage",-10.28485923813464],["activité",-10.286149522251309],["whole",-10.2864983536568],["trè",-10.287178126296363],["ед",-10.2880282271433],["consum",-10.288208564051585],["presión",-10.288664880894512],["text",-10.28887880276579],["negro",-10.289360785774576],["cut",-10.290011058083842],["приспособление",-10.290055984731335],["altrui",-10.290087263903146],["specifie",-10.290969087147127],["Asia",-10.291029893430121],["variable",-10.291123007910134],["centrale",-10.292075945660185],["dan",-10.292445562518658],["есть",-10.292449021674027],["disciplina",-10.293130926018582],["trait",-10.293286368554178],["impression",-10.293362540478245],["je",-10.293408658140992],["seg",-10.29360079591255],["travail",-10.294968934482885],["On",-10.295334552884288],["trois",-10.295362616708372],["country",-10.295905983087167],["sudden",-10.298062018456408],["example",-10.29834841909027],["empleado",-10.298682608310681],["Roma",-10.29871159559583],["gusto",-10.299013883910341],["interna",-10.299248909578655],["Be",-10.299446708702806],["ять",-10.299534189056716],["discours",-10.300575471672694],["tissu",-10.300923201493864],["habit",-10.30097972843322],["gen",-10.301180462054722],["milieu",-10.3020334323534],["занимающий",-10.30220667625177],["филос",-10.302221038130716],["свои",-10.302524624698997],["interess",-10.302538505248908],["igual",-10.302589368840342],["considera",-10.303606638326261],["tronco",-10.30389956048299],["autoridad",-10.303914368417537],["перед",-10.304695364772027],["provincia",-10.304967624192177],["mis",-10.306410879484012],["sé",-10.306769030107521],["bienes",-10.307093254444187],["authorit",-10.307568836328915],["cheval",-10.308086040310272],["pro",-10.308243383045609],["resembl",-10.308342923212788],["яя",-10.30841117294267],["field",-10.308536622932145],["мифол",-10.308659935496514],["escrito",-10.308725482307196],["fase",-10.309256879913724],["diversa",-10.30934326949011],["semejante",-10.309822954159923],["éologie",-10.310168127478839],["equivalente",-10.310648011840446],["follow",-10.311793568378555],["unos",-10.312804614189748],["soldat",-10.313482100105245],["tonymi",-10.31361728445899],["year",-10.313704023091962],["hablada",-10.314499939354299],["ait",-10.315060629927537],["sale",-10.315581741360536],["así",-10.315691547346052],["location",-10.315751358574298],["игра",-10.316074801454558],["mort",-10.317451860493627],["construction",-10.31745754917407],["exist",-10.318055557131123],["full",-10.318376783730988],["sex",-10.319080416248976],["oficio",-10.319364334002572],["hecha",-10.319653129909899],["животно",-10.319778166259606],["ского",-10.319863912130568],["tradicional",-10.320138963542163],["mét",-10.32014797093349],["chimique",-10.320401722415998],["рода",-10.321635460057497],["À",-10.321854005399352],["года",-10.321950953454039],["hi",-10.32203649784979],["contenut",-10.322523963420938],["tipic",-10.323356051840051],["том",-10.323492921074505],["autorité",-10.324921405885773],["ые",-10.325551496900221],["devant",-10.325664737174357],["produzion",-10.325689244505977],["maladie",-10.325837107480133],["ocupa",-10.325903784742916],["группа",-10.326324660583754],["ware",-10.32639631921426],["occasion",-10.326978061690411],["quali",-10.327011571659703],["oppu",-10.32853532202476],["mind",-10.328543704240747],["ish",-10.329044659179665],["consistente",-10.329189464238038],["habla",-10.329230001208526],["distanz",-10.329793872926645],["ty",-10.32986545047773],["separate",-10.330003092162666],["before",-10.330795464308741],["организаци",-10.331157656798919],["расположенны",-10.331493716748692],["являющий",-10.33164885754103],["version",-10.331789735159948],["lorsqu",-10.332585836362732],["Absolu",-10.333637132828006],["regionale",-10.334138562222432],["considere",-10.334168455497977],["plu",-10.334485606951073],["endroit",-10.335017472517213],["content",-10.335216038075801],["#",-10.335232081461992],["употребляет",-10.335284985053256],["possible",-10.33538139400934],["capo",-10.335880894567671],["turn",-10.336255195310041],["faite",-10.336757600715917],["dulce",-10.336773908880232],["él",-10.337074035603873],["arse",-10.337359839476264],["ях",-10.337694933645269],["civil",-10.33775450283029],["four",-10.337840383333678],["calidad",-10.33803159659692],["область",-10.338506655441753],["possibilit",-10.339925084850032],["nuov",-10.34096816473183],["обсц",-10.341004543613039],["экон",-10.341252667591293],["costituito",-10.341567199398545],["cura",-10.34285206113805],["diferencia",-10.343068267775],["organization",-10.343304725918106],["flow",-10.34332676895616],["Ocupa",-10.34417577486045],["pain",-10.344691208421256],["condición",-10.34627330930541],["ние",-10.346727390693825],["avente",-10.347102122608135],["habita",-10.348000849772355],["órgano",-10.348797542326066],["psichiatri",-10.34880871190746],["relationship",-10.348995630797583],["problem",-10.349204405730063],["science",-10.34960789169503],["ather",-10.35074160870917],["sequence",-10.350899022501672],["lack",-10.351018476291554],["vez",-10.351119554901505],["единица",-10.35131319997042],["legge",-10.351575848151324],["decir",-10.352163630040918],["Transporte",-10.353661013480888],["ью",-10.35378046369122],["svilupp",-10.35398339068104],["вых",-10.354044306076247],["ying",-10.354054165226584],["tro",-10.354247085621164],["permite",-10.354247453098317],["naturale",-10.354331954869643],["intende",-10.355098990549765],["wood",-10.355120567065722],["ropa",-10.355500074858096],["abbigliame",-10.355592773784123],["щий",-10.355635846923926],["livre",-10.356356070422539],["testa",-10.356466675462734],["weight",-10.356905321348393],["tire",-10.356991783425109],["обще",-10.357985166791323],["former",-10.358186441960834],["militaire",-10.358457002978113],["measure",-10.359884166074261],["vient",-10.359957707330068],["argument",-10.361098108757568],["образо",-10.361531174655283],["religiosa",-10.36191473657351],["land",-10.362061703396613],["река",-10.362079680026277],["fact",-10.362277013238996],["ли",-10.362310158057106],["Manière",-10.362655580730989],["varie",-10.363241086241649],["овать",-10.363666164310334],["cubre",-10.364353792336786],["convenzional",-10.364730724513464],["oltre",-10.36499501885666],["cellula",-10.365441896154742],["образ",-10.365526904766648],["corde",-10.365935547180026],["hay",-10.366896240091034],["œuvre",-10.367141641396842],["способность",-10.367141710192264],["químico",-10.367504087502954],["proprie",-10.36750821527647],["somme",-10.367938490663988],["жидкост",-10.368535387001824],["sitio",-10.368821137638761],["ngage",-10.36884245202613],["genu",-10.3689579367297],["différente",-10.369423600833327],["quelconque",-10.36953676260516],["embarca",-10.369617054147254],["пищ",-10.369662192356305],["skill",-10.37044180066564],["metalli",-10.370516506081785],["passion",-10.37062872232698],["Intern",-10.370956544376002],["fondo",-10.371401045823692],["дать",-10.371684204419577],["сокр",-10.371731228719565],["semilla",-10.371775569410506],["primo",-10.371929397671952],["текст",-10.372162458793074],["estern",-10.373696996812468],["cover",-10.3740823727385],["corso",-10.374143365915899],["fille",-10.374786370098946],["юр",-10.37496251914422],["anterior",-10.375468397362921],["conocimiento",-10.37609253378032],["book",-10.376768699895946],["flexible",-10.376979946960237],["légère",-10.377009911874119],["alrededor",-10.377263968900516],["tamment",-10.377267634567486],["aves",-10.37751471948772],["hierro",-10.37774550317804],["сам",-10.37785046197823],["vela",-10.379167025022696],["apparence",-10.379693143577871],["correct",-10.379918407866583],["recipiente",-10.380269137260218],["zone",-10.381007524094722],["contact",-10.381828149751154],["sido",-10.381881526720907],["publique",-10.382293066594059],["wide",-10.382606844044814],["technique",-10.382800824469859],["religioso",-10.383338560609388],["bâtiment",-10.383648603428574],["oficial",-10.383917175875446],["aspett",-10.384143724981914],["Homm",-10.384769840624632],["ide",-10.384827173933978],["птица",-10.385174902159529],["giorn",-10.38578917627599],["piezas",-10.3859839590788],["gono",-10.386104182948998],["encor",-10.386274700134829],["han",-10.386305864175576],["naturelle",-10.386365305390662],["différent",-10.38650474978855],["llevar",-10.387386834841585],["poner",-10.388220549848219],["ática",-10.388743722688616],["лиц",-10.389929409867985],["sign",-10.390435841277988],["преимущественно",-10.390737986069709],["carga",-10.390829622633731],["ками",-10.39107014693166],["постоянно",-10.391459990684666],["мелки",-10.391927512933764],["Sur",-10.392302684326186],["frase",-10.393215023774935],["dicho",-10.394320958973275],["fuego",-10.394410860886413],["tambi",-10.394545543436545],["scherzos",-10.395359223992404],["tel",-10.395735139129378],["слов",-10.395786295727513],["pieza",-10.39594778289128],["cloth",-10.39649166543877],["société",-10.396786203871123],["speak",-10.397044039674988],["ыми",-10.397061426691419],["relat",-10.397367883907489],["house",-10.397701086410246],["formal",-10.398006361252497],["texto",-10.398052982585462],["keep",-10.398190369723203],["ам",-10.39835990754728],["passaggi",-10.398378050770443],["Construc",-10.398438365033087],["mauvaise",-10.398739491689916],["né",-10.399451651134926],["materiali",-10.40114871841305],["poi",-10.401594265820322],["oscuro",-10.401730656199344],["pelle",-10.403448076791417],["longitud",-10.403663065203729],["desire",-10.404025390938036],["citt",-10.40444120805154],["sola",-10.405077978445139],["nord",-10.405843356003574],["day",-10.40586073135681],["sentimiento",-10.406549036940076],["Especie",-10.406637763453578],["народа",-10.407106842464142],["dé",-10.4071358874632],["motivo",-10.407967400604027],["popolar",-10.408159357224779],["одна",-10.408581061397346],["conforme",-10.408778586360327],["possibil",-10.409555914030062],["writing",-10.409662553137109],["contien",-10.409919515692678],["volte",-10.409999597582301],["языка",-10.41020029997803],["doctrine",-10.41042256918669],["определённо",-10.41053785507686],["informa",-10.410742183098396],["his",-10.410811182955278],["ating",-10.411099745506482],["endo",-10.41112196111072],["hard",-10.41124916924307],["Referi",-10.4114604110597],["engage",-10.411693695137615],["train",-10.411962598787454],["разновидность",-10.412269161741598],["cuenta",-10.412851044622737],["amento",-10.413051421564813],["economic",-10.413373805998258],["meaning",-10.413643018238318],["informazion",-10.413718776225089],["exprime",-10.415008530229242],["chargé",-10.4150483188963],["metallic",-10.415807593082993],["hair",-10.415909850003118],["viento",-10.416038906209716],["én",-10.416624475292856],["sabor",-10.416772916560909],["near",-10.417030009496354],["Langue",-10.417915665638771],["suele",-10.418652331778055],["развити",-10.418860857673282],["Árbol",-10.419513004218487],["idae",-10.42035536138017],["ico",-10.421067003624362],["compte",-10.42121893849988],["Los",-10.421258720259305],["fines",-10.421546127628098],["доп",-10.422118396328075],["angle",-10.42303900205923],["relativ",-10.423559651848509],["система",-10.423856402097545],["suite",-10.42405978526163],["ring",-10.424301045267363],["sangu",-10.424428733267003],["limit",-10.425722343470255],["oiseau",-10.427574165678694],["possession",-10.427659312644508],["quatr",-10.427967770906026],["existence",-10.42803155658643],["Chose",-10.428433069996348],["font",-10.42979644468981],["passer",-10.429842205733102],["nativo",-10.430661281610622],["composition",-10.43136107914712],["formando",-10.431459662144956],["local",-10.431486753933232],["bebida",-10.431711733529239],["corrente",-10.431883533227204],["крайне",-10.432468788849814],["America",-10.432692998540464],["геогр",-10.433096465879743],["Commerc",-10.433332295895287],["blood",-10.434158912981996],["мифологи",-10.434202467333504],["Espèce",-10.434355607764637],["Architect",-10.43505530539762],["speech",-10.43511877787719],["propriété",-10.435634164603947],["size",-10.43596759640301],["indre",-10.436534460097679],["tras",-10.436557503462247],["пример",-10.436871512128995],["Á",-10.437481331729657],["motore",-10.437774080723507],["scudo",-10.437792243879912],["mi",-10.43859192794212],["negative",-10.439761343139612],["trouve",-10.440075431033609],["transporte",-10.440341649901463],["pendant",-10.44102812066343],["palo",-10.441216304174745],["давать",-10.441408242456166],["tema",-10.441413440474241],["ell",-10.441855667894165],["désigne",-10.44195703584423],["Appareil",-10.442197792309518],["tous",-10.442582210486838],["obtain",-10.442641849995873],["bord",-10.442960913603237],["Rend",-10.444084746820426],["agricol",-10.445050611619916],["rojo",-10.445665233303577],["année",-10.446032418048045],["seguit",-10.44629638323821],["сооружени",-10.44709354529599],["Proceso",-10.447127429990827],["travel",-10.447178163725885],["energía",-10.447230850912844],["white",-10.447553223874628],["разны",-10.448461543328389],["чувство",-10.448660746802929],["arco",-10.448968267153665],["maison",-10.44917899547075],["rie",-10.449202044624652],["нескольк",-10.449249440974484],["día",-10.449399152562973],["ado",-10.449431389118857],["chos",-10.450139034660722],["olítica",-10.45137461172316],["принадлежащи",-10.451850197469051],["собо",-10.452290527107117],["goal",-10.453487778657214],["marque",-10.454155307430444],["pluma",-10.45505951457951],["17",-10.45523825529613],["thin",-10.455292650828593],["больш",-10.455455548689493],["realizar",-10.455554251408605],["30",-10.455697115598378],["cio",-10.456263888354073],["bar",-10.456318040978653],["motor",-10.45678484725775],["Arte",-10.456789358224082],["elettric",-10.45710312540771],["religious",-10.457254673983616],["agit",-10.457380152218278],["alcohol",-10.457825472254374],["Belgi",-10.458697430459466],["présente",-10.459206049372536],["them",-10.459294965135015],["frutto",-10.459573728529616],["disposition",-10.459624388170411],["formar",-10.460515599166783],["fino",-10.460771917038706],["espression",-10.461044216117815],["Argentin",-10.461187309169546],["alidad",-10.461545213667376],["fort",-10.462074171888272],["века",-10.462339059005473],["wh",-10.463923202525518],["pensier",-10.464116101425734],["if",-10.464329899644376],["dati",-10.46531840255982],["représentant",-10.465494010581732],["Habille",-10.4658037723738],["cuello",-10.467050914916676],["того",-10.467239952299293],["concett",-10.46787321877758],["прибор",-10.467931522494194],["chirurgi",-10.468070673897792],["специально",-10.46808396142276],["vece",-10.468104199774237],["destinado",-10.46876849225685],["cuerda",-10.46883310495241],["pensée",-10.469882212121089],["чувства",-10.470212125602714],["elettrica",-10.470726320895245],["collective",-10.471622683777191],["dett",-10.472195703849192],["virus",-10.472339902683483],["difícil",-10.472464819596155],["appear",-10.472683544868996],["behaviour",-10.47297649892446],["llamado",-10.474058979957968],["concern",-10.474138055632228],["ier",-10.474294715438361],["ставить",-10.47466462510123],["monde",-10.474893260295243],["parola",-10.47503959262206],["pública",-10.475415119104468],["hors",-10.47544606532309],["están",-10.476124972192935],["thought",-10.476212557481869],["rammaire",-10.477002627788469],["lors",-10.477824388328724],["vino",-10.478481473782896],["bi",-10.479159207838132],["receive",-10.47919144843002],["+",-10.479887501454057],["bonne",-10.480625495423688],["sinonim",-10.480851874756748],["fisico",-10.481464615177252],["look",-10.481509041312588],["rsi",-10.481574237813238],["will",-10.481736871132098],["bon",-10.482580721696255],["American",-10.483240765683439],["член",-10.483255103480127],["verbal",-10.483444161963384],["skin",-10.483549846843907],["increase",-10.48419673665573],["necesario",-10.484211835805628],["happen",-10.484410898910431],["exact",-10.484771414945273],["realiza",-10.484787205860805],["prepara",-10.485327102204344],["round",-10.485357102397874],["ducation",-10.48561643218368],["diversi",-10.485716198771284],["both",-10.485721439933837],["хранени",-10.486379330154794],["físico",-10.487144058856305],["étoffe",-10.487808779500686],["степен",-10.487908343691512],["люб",-10.487922594500926],["asi",-10.487928085661112],["solita",-10.48872929487841],["direzion",-10.488935583286764],["vegetale",-10.489001405789294],["féminin",-10.489007410002749],["mod",-10.489526763416361],["commerce",-10.490070899369602],["forman",-10.490191255709247],["favor",-10.490557041846131],["dado",-10.490606905680563],["нескольки",-10.49089419529351],["fall",-10.491027907512779],["вший",-10.491182552154712],["soluzion",-10.491350948080168],["singl",-10.492284464637134],["ittéraire",-10.493681868874207],["Cosa",-10.49427293702147],["bras",-10.495083722565179],["collection",-10.495578343717323],["genera",-10.496220810569827],["muestra",-10.496366026680633],["наук",-10.496367207620263],["sato",-10.498550169364364],["comida",-10.49863635679917],["traditional",-10.498674868834799],["chaque",-10.499320319593327],["diventar",-10.499542881534815],["raison",-10.499770810481792],["18",-10.500074610356268],["origin",-10.500861391014068],["tabla",-10.501088226062329],["several",-10.50109071436987],["linea",-10.501569154420064],["todos",-10.501980521792573],["bout",-10.502046174555243],["rank",-10.50208734285674],["sharp",-10.502605477409563],["wise",-10.503222132032693],["выражающий",-10.50369263731725],["Genre",-10.503904787322291],["case",-10.504278636459464],["elettrici",-10.504668757419887],["compier",-10.506022024134356],["ющее",-10.506662105117542],["length",-10.507819330116345],["fenomeno",-10.50842325827011],["calle",-10.509063600425275],["груб",-10.510059791230072],["связ",-10.510088242884184],["masculin",-10.510904375013862],["сильны",-10.511067936633001],["circular",-10.511108433708891],["сделанны",-10.511152116416362],["характер",-10.511555064068057],["portion",-10.511825986904384],["premier",-10.511848756822719],["regione",-10.511863231545629],["baja",-10.51219122773551],["poisson",-10.512250531883895],["matter",-10.513384458812547],["карт",-10.513480923170652],["draw",-10.514149211511352],["posterior",-10.51440351908812],["above",-10.51536311738473],["símbolo",-10.515614218456065],["facent",-10.515738613230226],["nello",-10.515873142804192],["presso",-10.516412561241893],["comunica",-10.517879097101929],["Bio",-10.518489847046386],["metros",-10.518921884065055],["любо",-10.519578465012826],["Superlati",-10.519686450997437],["ything",-10.520328129420179],["navire",-10.520336400474228],["past",-10.520483649966433],["exterior",-10.521672212962665],["деятельность",-10.521685788565545],["dai",-10.521702564188722],["super",-10.522580823768145],["wheel",-10.522920953266535],["relatif",-10.523380253055915],["ции",-10.523429239087994],["servir",-10.523527936147477],["mineralogi",-10.52431141090344],["atomi",-10.524339655492941],["antiguo",-10.524745364445447],["trouble",-10.524754418489206],["objetivo",-10.525083814668115],["official",-10.52571372412952],["popol",-10.526062753230601],["ним",-10.526321730076196],["buena",-10.526586867145458],["patas",-10.526695215999354],["haber",-10.526855251347758],["red",-10.527132915632594],["grain",-10.527174847735507],["15",-10.527918579773038],["avai",-10.528241468976937],["отдельны",-10.52846941915621],["поверхность",-10.528779116735311],["gris",-10.529014291282856],["ondición",-10.529134525892477],["начать",-10.529284743619938],["inferiore",-10.529828343087747],["dique",-10.529898256919086],["musi",-10.53030876145495],["king",-10.53057371578258],["secret",-10.53058140196202],["controll",-10.531530627954396],["livell",-10.532017134333643],["llama",-10.532141902981788],["ining",-10.532321274681838],["ganado",-10.532700646142803],["rapide",-10.533358264038252],["limite",-10.533492277736801],["pelo",-10.536001969056409],["feature",-10.536273532116134],["nécessaire",-10.53642725908831],["political",-10.537155214763088],["abbiglia",-10.53765745944407],["основанны",-10.538297312353546],["estudia",-10.538496206948206],["precedente",-10.538545003885819],["Synonyme",-10.53878026515919],["daño",-10.539273175011822],["personal",-10.539642495371858],["apply",-10.5407899067528],["veicol",-10.540989398422036],["producir",-10.541750749904676],["branche",-10.541763909823114],["terrain",-10.541832097824315],["found",-10.542338052837366],["knowledge",-10.542361777165981],["espace",-10.54257396015424],["imento",-10.54287866265264],["norte",-10.542891538655569],["отверстие",-10.542924704342944],["Métro",-10.543533170800089],["room",-10.54384051564048],["representa",-10.544136105640305],["Geometr",-10.544174421133281],["formada",-10.544386315392572],["ry",-10.544859384639057],["singulier",-10.545101117667073],["carta",-10.54548714611674],["corto",-10.545671876029985],["organi",-10.545697332554056],["Informati",-10.546026680916757],["autour",-10.546743220396548],["ев",-10.546796687708238],["basso",-10.547566298424899],["mite",-10.548008583383119],["направлени",-10.548605011025504],["justic",-10.548624710323981],["слово",-10.548631806118488],["обращение",-10.548768039302207],["masa",-10.548816996485268],["территори",-10.54922315120322],["ия",-10.550037851208668],["idioma",-10.55028191395628],["employé",-10.550349116820627],["borde",-10.550954638945688],["zia",-10.551076069848083],["extrême",-10.551510271230088],["previous",-10.55277025688557],["existe",-10.55285527163541],["ette",-10.55328343567372],["течение",-10.553290147955396],["ché",-10.553668484020868],["Membr",-10.554859366948294],["sort",-10.555219279067728],["año",-10.555439066260199],["них",-10.555560820013035],["medicinale",-10.55604299372498],["contenido",-10.55609575002319],["perenne",-10.55635887423542],["care",-10.556707629001261],["cal",-10.556880841586045],["writ",-10.55689011052107],["sull",-10.557363974668878],["12",-10.557959527265766],["Qu",-10.558364484433746],["estos",-10.558409386442303],["предмето",-10.55928968665113],["distinguish",-10.55951136439829],["leave",-10.55957573270939],["significat",-10.55987339856241],["nave",-10.559902755583733],["held",-10.560038485764036],["oppose",-10.560196861023085],["situ",-10.56038250049074],["performance",-10.561046203319089],["maschil",-10.561053451116727],["Toute",-10.561600661091983],["sociali",-10.561642521850494],["другом",-10.562445909139448],["продукт",-10.562521136827032],["crime",-10.562626756647369],["parlée",-10.562700972714033],["некоторо",-10.564621340776636],["post",-10.564643223742193],["sum",-10.564815383772494],["mundo",-10.565175686943974],["maggiore",-10.56526897401557],["культур",-10.565764990437817],["rend",-10.56580851938123],["beni",-10.565980288212678],["foot",-10.566006906833715],["sessual",-10.566040923917324],["fish",-10.566343154332841],["cerca",-10.566551228102224],["compuesta",-10.567506918731606],["volont",-10.567519222530215],["task",-10.567672768907073],["Cantidad",-10.569459416044907],["world",-10.570171082569054],["curva",-10.570446467557371],["égale",-10.570731275594841],["внутренне",-10.571084557480201],["bird",-10.572425353841668],["высше",-10.573231050391481],["rough",-10.573580722971162],["mamífero",-10.573738381131111],["left",-10.573831835126533],["naturel",-10.574617584460903],["своё",-10.574844506152877],["рыб",-10.575704732775005],["sole",-10.576003516442249],["голов",-10.5763231619336],["dés",-10.576949662599931],["lower",-10.577000070974623],["vigor",-10.577456550389652],["opposite",-10.578211007954621],["ni",-10.578462337809214],["apparat",-10.578492425650524],["craft",-10.578513676120917],["raise",-10.579055566279884],["frente",-10.579715205346071],["В",-10.580491058446535],["artificial",-10.580761196977745],["mass",-10.58135073182341],["Substance",-10.581357697875397],["mark",-10.582090837885968],["golpe",-10.582524673936405],["derivat",-10.58323616463004],["дерев",-10.58342998440213],["gain",-10.583590440945429],["определённы",-10.583739858677927],["strength",-10.583962191519062],["throw",-10.584021668462341],["entit",-10.584448648006662],["consume",-10.584454214215427],["ángulo",-10.58473158178079],["vende",-10.584792268328748],["behavior",-10.585749662712146],["conduct",-10.586345273861637],["Amérique",-10.586598171974497],["матем",-10.586601730163743],["intérêt",-10.586863417532367],["faisant",-10.58713927895805],["dolce",-10.587150093682009],["statement",-10.588031401915668],["blanche",-10.588203867445262],["leg",-10.588327686370167],["alcanza",-10.588580901925901],["cubierta",-10.588752948173607],["favorable",-10.589092551177355],["ainsi",-10.589155649801882],["dottrina",-10.589212209024428],["pass",-10.589372004228494],["experience",-10.589691744436749],["rule",-10.59019708731643],["ст",-10.590343993010347],["сред",-10.590998452321445],["umano",-10.591010029561328],["passat",-10.591071854584634],["dark",-10.591409804278623],["passe",-10.591613453250629],["направление",-10.591701667586678],["фин",-10.59256235944719],["caus",-10.593434155398535],["связанн",-10.594032943525935],["require",-10.594242886135497],["ingle",-10.594288531541597],["Tout",-10.59443807512451],["Ge",-10.594899713302846],["distancia",-10.595193111209193],["término",-10.595580190135038],["top",-10.595674106630796],["práctica",-10.595954806023368],["range",-10.596166887560434],["ácea",-10.59624918529854],["aumentar",-10.596661483267756],["Psico",-10.597153527488212],["mala",-10.597532209355737],["época",-10.59796441507012],["tomar",-10.597974329329807],["operazion",-10.598236979744375],["hábito",-10.5984149099612],["foglie",-10.59848800585155],["travers",-10.598508870697703],["supérieure",-10.598649481946548],["emploi",-10.598653033275959],["nation",-10.59969153625535],["habitant",-10.599794480285786],["true",-10.599896319186303],["donnée",-10.600723202332697],["Les",-10.6007285987546],["armi",-10.600956311990856],["capaz",-10.601272081941449],["profit",-10.601433555444245],["appartenan",-10.601944020553344],["вызывающи",-10.602023205505855],["округ",-10.602124185855006],["guerre",-10.602231952544066],["parent",-10.602522355727517],["ferro",-10.60306028444139],["Relativ",-10.603079688160847],["lever",-10.603618944093085],["Mouvement",-10.604025175416929],["corriente",-10.604111954279816],["Российско",-10.604199945785906],["вещества",-10.604409381354502],["ième",-10.60468271686242],["includ",-10.60486273407227],["Ha",-10.605011308635785],["desarroll",-10.605178812607184],["животн",-10.605482459827225],["срок",-10.60580096882854],["causar",-10.605873280811252],["spirit",-10.607127485843884],["Sens",-10.607477689466016],["mantener",-10.608607223052205],["сво",-10.609012329455803],["000",-10.609074536522735],["operation",-10.609171358932258],["artistic",-10.609396681135372],["cola",-10.609853958761171],["степень",-10.610080266363541],["organism",-10.610132505942335],["vario",-10.610632535672774],["Lack",-10.610747609274238],["птиц",-10.61078137287317],["issue",-10.611879009625257],["cabo",-10.612031217314733],["equal",-10.612283644020637],["arsi",-10.612568865475566],["mor",-10.612710876801604],["black",-10.612716467544328],["диал",-10.612870274410337],["première",-10.612900396614627],["formazion",-10.612979121560459],["agent",-10.613469844223776],["tes",-10.613728955500545],["linguaggi",-10.613745367182037],["сосуд",-10.613765473935494],["discors",-10.613814561423311],["informatique",-10.613829169329048],["житель",-10.614356283944968],["muover",-10.614442115202902],["ted",-10.614565002475164],["средств",-10.614679396849215],["пол",-10.614765336767697],["molecola",-10.61477611850453],["design",-10.615489537875984],["was",-10.616128968892951],["succession",-10.616420895753436],["amarillo",-10.61651826242465],["центр",-10.616740372905628],["stand",-10.617048740373804],["стать",-10.617169183563867],["formant",-10.617236834730214],["поведение",-10.617318122089525],["allow",-10.617983225357154],["бумаг",-10.618006175457682],["onner",-10.618295027513298],["young",-10.618489443839767],["alfabeto",-10.61861111548495],["испытыва",-10.618691329274617],["río",-10.618705541051938],["heat",-10.619324585872336],["false",-10.619981175113216],["posta",-10.620049618385377],["ualidad",-10.62006350132712],["attinente",-10.620262311520172],["sangr",-10.621448295458627],["rare",-10.621464394108147],["designe",-10.621757017010204],["wind",-10.621918526325812],["affect",-10.622264727154338],["pasar",-10.622383441374563],["constitué",-10.622434109325713],["точк",-10.622651411526512],["ven",-10.622693397255981],["despu",-10.622913446016618],["istema",-10.623031765318736],["connaissance",-10.62333843523999],["active",-10.623400635401643],["drug",-10.623401944224348],["Ази",-10.623681544355307],["attack",-10.623718461500907],["connaît",-10.623768453190614],["attempt",-10.623940852618555],["little",-10.62406329198594],["Objet",-10.624175589734929],["particolari",-10.624296079169431],["suivant",-10.624319656833716],["intense",-10.624723191011336],["especia",-10.625185856265757],["tono",-10.625216922248915],["э",-10.625784208366],["involv",-10.625860369654756],["дела",-10.626142652723246],["букв",-10.626159750663756],["Greci",-10.626606669549107],["costa",-10.626905802369748],["ferme",-10.626937228946034],["fabric",-10.627520961397963],["aver",-10.62752337450602],["verit",-10.627655751637032],["Co",-10.629148859353226],["organ",-10.629367660807645],["cor",-10.630191408861936],["fácil",-10.63083316253222],["Filos",-10.631395274333276],["находить",-10.6318216269215],["government",-10.6318513482137],["plat",-10.632338286477452],["program",-10.632790766137141],["Mus",-10.632836957262933],["goût",-10.63307720426209],["étude",-10.63448814114263],["cibo",-10.634887269832793],["sentir",-10.635013515001031],["plano",-10.63542994099078],["лица",-10.635617747305975],["tto",-10.635998951936958],["ancien",-10.63670160962998],["200",-10.637097304658248],["ведения",-10.637454870653038],["ение",-10.637941098180406],["rendr",-10.63840737343604],["вызыва",-10.638694370907249],["energ",-10.638944780399697],["cinematografi",-10.638985578702577],["Système",-10.639912685485932],["psicanalis",-10.639946696234105],["Hombre",-10.640046308304113],["Africa",-10.640307586201441],["100",-10.641283476204228],["vit",-10.642105527323729],["широко",-10.642127579988664],["Tiene",-10.642750457547987],["ц",-10.642770646894174],["ины",-10.643325899410911],["muscle",-10.643399378906466],["mission",-10.643499194435943],["Don",-10.64362941692053],["seul",-10.643716107857724],["entreprise",-10.644383344397426],["voie",-10.644414755199456],["onymi",-10.645254429211134],["componente",-10.646241302810289],["vin",-10.646624840333736],["fluido",-10.647144701868996],["mone",-10.647225735554521],["cavallo",-10.647434815365571],["cell",-10.647652094450509],["scritto",-10.648347981196471],["XVIII",-10.649358128197846],["symbol",-10.649369557191417],["avance",-10.649390959872472],["tubo",-10.64986937642719],["miembro",-10.651554013473026],["intérieur",-10.6518017874332],["toda",-10.652224762382394],["brazo",-10.652683019708576],["pero",-10.65321143758331],["происхождени",-10.654312661906832],["vedi",-10.654357814391966],["sempre",-10.654635513913732],["pena",-10.654679101283598],["distingue",-10.654940911397025],["azienda",-10.65558424484221],["ряда",-10.655904819501554],["cavit",-10.656104344002788],["предназначенно",-10.656361666495574],["strada",-10.656417352503816],["edge",-10.656719323975484],["circunstancia",-10.658395582461061],["propósito",-10.658397795764937],["уничиж",-10.65847890460439],["costruzion",-10.658540978272786],["autorit",-10.65903739860337],["distribu",-10.659415064467236],["mezz",-10.660357465821182],["crear",-10.660410219586215],["contest",-10.660801534921575],["área",-10.660941498854037],["материала",-10.66102895292908],["защит",-10.661246023957304],["parler",-10.661256826794943],["popolazion",-10.662693098781496],["травянисто",-10.66284581750654],["Lo",-10.663144770096448],["Acto",-10.663923873598339],["attitude",-10.66525917068094],["supérieur",-10.665355433075636],["sopra",-10.666254495400295],["б",-10.666407482941398],["recibe",-10.66744670147585],["unque",-10.667517881285889],["nding",-10.667807938352428],["Prend",-10.667979896818476],["должност",-10.668015306627105],["бы",-10.668142527027868],["pattern",-10.668444377377877],["nivel",-10.668881483469562],["пространство",-10.668973899594734],["lumière",-10.669065497191713],["lettre",-10.669924149693431],["formule",-10.670671471534856],["var",-10.670839717898376],["само",-10.671048911134012],["ног",-10.67113110441054],["предмета",-10.671254224014334],["anno",-10.671473492908916],["величин",-10.671653173009453],["нар",-10.671722163473254],["forz",-10.671729616133959],["edad",-10.672311029410967],["frequent",-10.67271532794148],["способны",-10.673189017051406],["expresa",-10.673280064530186],["describ",-10.673538370274649],["Nord",-10.673939135189858],["caracteriza",-10.674566829759673],["taken",-10.67502831505496],["резко",-10.675144943632944],["acto",-10.675420076048397],["emotion",-10.675435057955557],["contrario",-10.67634405338147],["verticale",-10.676616497400541],["реки",-10.676751904502787],["земли",-10.676776396280584],["lesquel",-10.676816194463647],["Juego",-10.67714123086867],["considéré",-10.677304739667605],["encia",-10.67811368749027],["pposed",-10.678581432278467],["spread",-10.678656612004453],["обработк",-10.679067379555027],["exempl",-10.679334820677251],["Elemento",-10.67938329903295],["maggior",-10.679853597210734],["carte",-10.680923640402856],["patologic",-10.681621933494348],["tendenz",-10.681728073462999],["W",-10.681991525090412],["home",-10.682215050520988],["danger",-10.683330469044607],["feu",-10.683659877129589],["ut",-10.683685689332563],["India",-10.683783416686254],["certo",-10.684018848349323],["организм",-10.684119075490582],["contenan",-10.68424895389821],["moto",-10.685262203734414],["intelligen",-10.685525201918306],["ther",-10.685796535398854],["comunicazion",-10.686187041966402],["propos",-10.686200074619826],["segn",-10.686454162547301],["можно",-10.686659740408576],["dis",-10.686742778504591],["момент",-10.686905192190382],["parf",-10.687203261157745],["ней",-10.687580837356307],["estudio",-10.688021006062897],["Chasse",-10.68810221679799],["mond",-10.688479805755271],["lementi",-10.688996184895494],["merito",-10.689581628912578],["costumbre",-10.6896037334607],["élevé",-10.68974386788583],["chief",-10.68977046499163],["sulle",-10.690597794107905],["costituit",-10.69060351299224],["pezzo",-10.690894899369697],["involve",-10.69178428930266],["chimic",-10.691845529065212],["отличающи",-10.691953777090845],["extrémité",-10.692051498237754],["fuoc",-10.69206884791632],["энерги",-10.692562322054656],["acte",-10.692564594487237],["française",-10.692703385961352],["ac",-10.693012194844945],["Ser",-10.69494731360954],["macchina",-10.69506255371811],["tessil",-10.695070264177783],["sme",-10.696113060130436],["Herramienta",-10.69624342712698],["Meuble",-10.696250464414991],["геол",-10.696257901583092],["grâce",-10.696268488319983],["live",-10.696473927404133],["multiple",-10.697560330446798],["удар",-10.697731897390208],["display",-10.697804902596506],["buque",-10.698276896451315],["pan",-10.69836517136983],["неё",-10.698467842791342],["herbácea",-10.698764741372095],["voi",-10.699123531282346],["principle",-10.699827307757246],["français",-10.699831206322376],["fortement",-10.700065044264345],["porter",-10.700086371600314],["производит",-10.700885907112518],["poil",-10.701154705224742],["grueso",-10.701197951028874],["somma",-10.701525580947528],["sistance",-10.703098913804475],["форму",-10.704267023272536],["política",-10.704460434269443],["autru",-10.704557588059053],["fire",-10.704724613784467],["X",-10.704809355668496],["uego",-10.70488027561348],["valori",-10.704919381802373],["50",-10.70512814614488],["facil",-10.705641699591],["italiano",-10.705850456416977],["precede",-10.706200854463994],["народов",-10.706290433749961],["school",-10.706353549921594],["organisme",-10.706508879262728],["organisation",-10.706511663258865],["ordinal",-10.706631610269133],["violence",-10.707078589765871],["utter",-10.707215269310733],["stone",-10.70749569059167],["permet",-10.707637791135319],["specifica",-10.70788902145254],["noir",-10.708138458107747],["punti",-10.708393799434628],["incluye",-10.708766040686964],["harm",-10.708969167946048],["voz",-10.709303579868465],["aumento",-10.709357181547793],["fiction",-10.709433489261073],["significa",-10.709463047800288],["aíz",-10.709735426932902],["current",-10.709983954492184],["femenino",-10.710192389898848],["з",-10.710909545389407],["whil",-10.711643126057915],["чаще",-10.712125283379741],["древнегреческо",-10.712581367691893],["culto",-10.712854664100625],["appelé",-10.713978331943364],["против",-10.714162424850056],["функци",-10.714993304832978],["curve",-10.715583029951555],["company",-10.715634769834695],["Élément",-10.715788819545534],["papier",-10.716049126754784],["полность",-10.716331898400654],["Méxic",-10.716341629648245],["Sud",-10.71640335024454],["contener",-10.716540907720088],["española",-10.71669480093518],["образование",-10.716870265779757],["bey",-10.717360481659378],["цели",-10.717573085832143],["discussion",-10.718450061974579],["characterize",-10.718829096127656],["frica",-10.719095021175466],["matrimonio",-10.719176040847525],["Una",-10.72015409560671],["armoir",-10.720553791023741],["плод",-10.721253451289936],["XX",-10.721578598026445],["suo",-10.721777573670488],["elon",-10.722134685865905],["brun",-10.722227949507513],["signe",-10.722676478557146],["presenz",-10.722978039180113],["qualche",-10.722998309411441],["macho",-10.723099447160735],["acuerdo",-10.723375383068312],["dur",-10.723397993057166],["once",-10.723465982783205],["viande",-10.723992753574572],["условия",-10.724182648984616],["article",-10.724928259571072],["estremi",-10.72535350429181],["pure",-10.725356875820562],["conseguenz",-10.726035076160706],["reduce",-10.726397201790302],["irregular",-10.72660664105681],["asta",-10.72661198064953],["excite",-10.72704309033642],["pareja",-10.727112348732371],["cara",-10.72716786413753],["Sustancia",-10.72722113135736],["plate",-10.727295768014434],["esperienz",-10.727326547187506],["consistant",-10.727487526527845],["velocit",-10.727817999572247],["située",-10.727888848732922],["количестве",-10.728078166916582],["архит",-10.728564663911918],["meuble",-10.728597561680733],["return",-10.728767820147954],["intens",-10.728965323197666],["reason",-10.728972007010498],["condicion",-10.729186920529468],["distinct",-10.729595643774553],["vano",-10.730834624396905],["tr",-10.731001437381629],["высоко",-10.731139385741574],["cattolic",-10.731674979048694],["mari",-10.731726364457428],["двум",-10.731794695057602],["negativa",-10.732116336058747],["eje",-10.732116893523264],["destinée",-10.732149496943586],["мало",-10.73290428664263],["manifesta",-10.73298144749161],["advance",-10.733353042761347],["intention",-10.733369366547729],["хорош",-10.7339691097047],["сниж",-10.734089555370954],["fiori",-10.734349315852269],["ность",-10.73437603593811],["ling",-10.734527460442283],["pietr",-10.73530065690264],["Moyen",-10.735732978465848],["произведения",-10.735987843130975],["comportamiento",-10.736015682181662],["questo",-10.736246352390985],["caractéristique",-10.736271738577594],["pien",-10.736444514113964],["debe",-10.736625138436127],["pari",-10.738059071121123],["ich",-10.738161390284608],["beneficio",-10.738621609590275],["actúa",-10.738624864348356],["domaine",-10.73871897301499],["использовани",-10.739090885688041],["ic",-10.739104859927794],["fatti",-10.739482316162343],["expresión",-10.739822723711484],["walk",-10.740168297405491],["continu",-10.74054043774215],["mare",-10.740699597238507],["bouche",-10.741095084801835],["жидкость",-10.741473533528508],["машин",-10.74181882208195],["rappresentazion",-10.742124125790397],["impedir",-10.74296671806496],["division",-10.743177149915036],["douce",-10.743384820109885],["affett",-10.74369296350739],["hueso",-10.744114725630975],["pesc",-10.7441981816382],["utilizada",-10.74428510494151],["Politi",-10.744485591575467],["jaune",-10.74458166855408],["context",-10.744727963371822],["следствие",-10.745162846569766],["scientific",-10.745301587897302],["peine",-10.745837408619863],["métier",-10.745985740190484],["empêche",-10.746080122068445],["máquina",-10.746791756634742],["Justic",-10.746879439978851],["иметь",-10.74696416883077],["her",-10.747103049837897],["puesto",-10.747104077405698],["obligation",-10.747347519230363],["completament",-10.747572420727511],["Per",-10.747731126536763],["verbo",-10.748060438071704],["study",-10.7481649458703],["урожен",-10.748239010261244],["usu",-10.74855192175097],["возможность",-10.748743048898207],["menudo",-10.749034022866809],["suit",-10.749400133038952],["dolore",-10.749524607694678],["tipica",-10.74952766496591],["olo",-10.750145132900403],["Philosoph",-10.750255438797733],["Grande",-10.750444149420476],["religieuse",-10.750489040873447],["horse",-10.750725445113165],["Animal",-10.750801082717427],["grandezz",-10.750910738120318],["reg",-10.751172038484738],["помощ",-10.751635867674013],["marca",-10.752327247962338],["situat",-10.752440480180619],["futuro",-10.75252659044008],["arrière",-10.753934423700475],["every",-10.754684629199613],["llegar",-10.754976477931706],["fruta",-10.755028503402674],["section",-10.755073582018845],["ообще",-10.75512554062264],["сочетани",-10.755552148575358],["вать",-10.755720423409404],["hat",-10.755949689139818],["занимает",-10.75598292766197],["marchandise",-10.7560659282371],["Chacun",-10.756330002246374],["крим",-10.756349790031749],["vento",-10.756903726726385],["guardar",-10.757649967728547],["dignité",-10.758663641997117],["Individu",-10.758739132299027],["quell",-10.758752361894768],["express",-10.758773364016292],["alimenta",-10.758978565974232],["единиц",-10.75912693634853],["argoment",-10.759712253506512],["произведение",-10.759886136096824],["circuito",-10.760273049006734],["vestir",-10.760593004099574],["ritmo",-10.761316897455353],["jugador",-10.761487068817118],["av",-10.761544955956015],["port",-10.761952455488576],["naturalez",-10.762025841956639],["документ",-10.762186848424513],["detail",-10.76258028108591],["apparecchi",-10.763031622023233],["arm",-10.763230452471822],["ntomologi",-10.763511678001517],["formation",-10.763538754721626],["metro",-10.764197109054182],["Caus",-10.764202085536262],["aceite",-10.764859442876467],["corrispondent",-10.765089001936083],["danza",-10.765218803524128],["atómico",-10.765249989480145],["aller",-10.765282953191694],["formé",-10.765910673827076],["believe",-10.766103191960257],["Utensilio",-10.766271862734863],["филол",-10.766280726066569],["Science",-10.766300788322315],["являет",-10.766395069647128],["Dejar",-10.766446744866672],["ramas",-10.76646116447224],["dirige",-10.766680560229021],["Ornith",-10.766908203597616],["bién",-10.76706001705562],["periódica",-10.767081537091514],["восток",-10.767121660888364],["potenz",-10.767359150422598],["voice",-10.767507603315607],["longueur",-10.767556729954432],["disposizion",-10.767800923863188],["ткань",-10.76820268359409],["compose",-10.768761397165406],["города",-10.768960657835855],["Ancien",-10.769009089985069],["жизнь",-10.769070326430331],["armée",-10.77022267654798],["auto",-10.770539416733182],["letra",-10.770584862812374],["interne",-10.771348819721702],["method",-10.771512537338683],["веществ",-10.772261870286627],["смерт",-10.773176702134451],["Extreme",-10.773299886436217],["ive",-10.773464489273824],["sang",-10.773619951626596],["posible",-10.773845153583917],["intestino",-10.774125594740436],["dagli",-10.774501521611608],["stage",-10.774651617886324],["etnia",-10.774673330305324],["card",-10.77478407969719],["средства",-10.775866628365318],["sensation",-10.776265670311039],["testo",-10.77645791182221],["mu",-10.776604113063545],["normale",-10.776914238913921],["comp",-10.777037938035408],["sostegn",-10.77706201021035],["рук",-10.777294480177938],["фамилия",-10.777318192090611],["Gran",-10.777380102833874],["Biolog",-10.777402218241225],["professional",-10.777740456757414],["understand",-10.777997991298669],["teori",-10.778014775505447],["ancora",-10.77873640379223],["música",-10.778791223994942],["Z",-10.779591063747006],["profond",-10.779773822750725],["grandi",-10.779839819405474],["презр",-10.779878575775339],["Christian",-10.780375271051112],["automobile",-10.780379354267055],["español",-10.780586852111577],["grammatica",-10.78131295888305],["пород",-10.781605668172018],["16",-10.78209036274255],["siente",-10.782611255246225],["particolar",-10.782882813014774],["insecto",-10.782937202367453],["pasta",-10.783428419705277],["degré",-10.783448554175331],["своим",-10.783546853266737],["error",-10.783624604497682],["lmente",-10.784355013809133],["свобод",-10.784797388309313],["ex",-10.785017133655007],["reale",-10.785239572243459],["labor",-10.785431375660927],["death",-10.785860285274314],["смысл",-10.786060857992531],["право",-10.786307798743328],["­",-10.78721442894393],["Relacionado",-10.787253570213842],["toscan",-10.787804880453137],["colori",-10.788108672581174],["жив",-10.788156517450055],["regole",-10.78863566298551],["honneur",-10.788899570571129],["структур",-10.789191555199134],["соединение",-10.789329358902087],["liquidi",-10.789422158468977],["now",-10.789471312551091],["fail",-10.789571560655075],["semplice",-10.790584883171078],["прил",-10.79088704605494],["Chine",-10.790973084711492],["prender",-10.79102571809754],["tarea",-10.791102087237224],["heav",-10.791342991179523],["bianc",-10.792597063554666],["bocca",-10.79265354770946],["wall",-10.79342742188144],["véhicule",-10.793819424019738],["cuero",-10.793929523287062],["двигать",-10.79438217783718],["fi",-10.794518821139015],["parlar",-10.794604403417528],["difficolt",-10.795263779159583],["rock",-10.795529456597308],["dejar",-10.795981171533523],["bol",-10.796868475475105],["corteza",-10.796976268041881],["construc",-10.797126123018824],["render",-10.797212201391508],["symbole",-10.797807595047711],["·",-10.79785272681627],["ata",-10.798082544945537],["крови",-10.798150941969345],["brief",-10.798164303155081],["atomo",-10.798283287827697],["siempre",-10.79832730061565],["fluid",-10.798353678734951],["susceptible",-10.798568784367408],["esso",-10.799169916848372],["toma",-10.799838492241177],["titol",-10.799886933993426],["ornamental",-10.800600225769632],["parle",-10.800815632110597],["древни",-10.801091641498717],["marino",-10.801338777094013],["Islam",-10.801757257576043],["organizzazion",-10.801761383743699],["поведени",-10.801767317373976],["formula",-10.80206689626182],["ale",-10.802379269155853],["seule",-10.802392530288902],["message",-10.802537218183751],["ающий",-10.802931714273265],["equipo",-10.803082663548047],["morte",-10.803154261514589],["lla",-10.803560748001605],["concept",-10.804095536708212],["основно",-10.805585184329853],["eces",-10.806219180967524],["massa",-10.807069014568285],["aparato",-10.80713436331134],["rapproche",-10.807135029759355],["confronti",-10.807236265061858],["kill",-10.807687114383901],["conserva",-10.808252726687801],["офиц",-10.808263347823992],["значения",-10.808630338287417],["Golpe",-10.809020604627943],["отряда",-10.80924601745689],["célula",-10.809565044684621],["agradable",-10.810324457050866],["âme",-10.810801407093408],["affection",-10.812007078484434],["servent",-10.812151566899427],["delante",-10.812468137499632],["modern",-10.81274834781033],["выражение",-10.812862517218399],["detta",-10.813496084985779],["continua",-10.813507796414566],["grec",-10.81375436269768],["Europe",-10.813841091301292],["vice",-10.814277605425655],["solide",-10.814357584517026],["глаза",-10.814359975109799],["ным",-10.814455545597934],["moneda",-10.81451669423835],["presenti",-10.814654705408639],["власти",-10.814721898490458],["proper",-10.81481036195118],["half",-10.815549899433472],["record",-10.81591900639566],["маленьки",-10.816226567593645],["esfuerzo",-10.816254052142465],["utilise",-10.81629831134801],["лишённы",-10.816831529081004],["ecipiente",-10.816851972936579],["romano",-10.816937255085096],["оружи",-10.817163313870225],["illegal",-10.81725496221124],["ходить",-10.817410219616868],["industria",-10.817727060723318],["Jeu",-10.818578824234603],["признак",-10.818602750943622],["предназначенн",-10.81872044145211],["carece",-10.818789750224564],["café",-10.819120821301471],["événement",-10.819475148058334],["possède",-10.81949546796594],["gracia",-10.81974702226466],["chemical",-10.819993065599183],["infiammazion",-10.820077501251074],["antonomas",-10.820347855138177],["organe",-10.820348447234174],["vessel",-10.820364222721166],["road",-10.82063087990866],["unning",-10.82177535429803],["domestic",-10.821904529589524],["attenzion",-10.82216176426406],["influencia",-10.82252093187951],["tour",-10.822635807368346],["pubblica",-10.823106426125527],["ciel",-10.823483022874997],["estilo",-10.823494913579658],["buen",-10.823547727569164],["éclat",-10.82386981319462],["eléctrica",-10.82436615295032],["ку",-10.824446361792157],["mode",-10.825101613141028],["cuir",-10.82585143935999],["serv",-10.825998738874077],["période",-10.826026087899066],["gaz",-10.826078895408884],["Uni",-10.826245159915409],["Une",-10.826668211059275],["Milita",-10.826899974970972],["comprend",-10.826974927549397],["chien",-10.827214466901442],["afin",-10.827326216348169],["members",-10.827331524927612],["mur",-10.827413635882245],["астрон",-10.827518754111445],["отношения",-10.828401387195035],["comportement",-10.82848257937744],["зад",-10.828524114309491],["состояния",-10.829033285509482],["avantage",-10.829183985404214],["occur",-10.829470939982592],["лиш",-10.829645222292198],["hui",-10.829683267206102],["talk",-10.82980592241313],["mani",-10.83053760776339],["video",-10.830629764086424],["rueda",-10.830637062365192],["claro",-10.830773872533726],["population",-10.830879256345135],["époque",-10.831032855301775],["mes",-10.83119613916991],["ándose",-10.831364688537263],["Économi",-10.83179256009237],["interés",-10.831973085798996],["Po",-10.831994233157506],["половин",-10.832055802251372],["происходящи",-10.832214893751367],["Producir",-10.832366808677724],["gobierno",-10.832412969794452],["acide",-10.832513501653853],["television",-10.832546520694136],["tación",-10.832816877303584],["successiv",-10.832902801222714],["vérité",-10.833028206238131],["química",-10.833347037996313],["Falta",-10.833787133911589],["ющая",-10.83414436906682],["ction",-10.834196581084372],["Littéra",-10.83421548155352],["war",-10.834249097315084],["ojos",-10.83425139957109],["tales",-10.834305189696785],["словам",-10.834902408701511],["religieu",-10.8351163676561],["taste",-10.835665886735619],["sottil",-10.83615182182967],["fill",-10.836614345518933],["intensit",-10.836676723533387],["application",-10.837176792233432],["antichi",-10.837277664122462],["porre",-10.837981808627273],["salut",-10.838059353876064],["Condi",-10.838799510153642],["animo",-10.839204123984606],["note",-10.8393047539363],["изображение",-10.839335885645749],["llamada",-10.839482496449312],["relation",-10.839818849615543],["intensa",-10.840537208966733],["Dé",-10.840734814620514],["pensar",-10.841089633424932],["Financ",-10.84110147494497],["assume",-10.841198192456151],["entidad",-10.841400138302387],["ellos",-10.84141383600613],["petites",-10.841480004882406],["Ш",-10.841728466504783],["share",-10.842299115709993],["protein",-10.842410673623158],["Injuri",-10.842915886935923],["combustion",-10.843552780139],["read",-10.84399057871039],["Espaci",-10.84509024839867],["Objeto",-10.845241570053403],["cuales",-10.845301618892027],["canto",-10.845452494222442],["sociedad",-10.845480707915772],["composizion",-10.845610176819232],["воде",-10.845737754144615],["Prenda",-10.845756172158337],["esimo",-10.845803465588778],["madre",-10.846364671924334],["just",-10.846400427937553],["выполнени",-10.847235872950236],["Indica",-10.847271838153818],["protection",-10.84744020735042],["político",-10.847463218356767],["agréable",-10.847967492960448],["gión",-10.848620387815565],["slow",-10.848922475764457],["tôt",-10.849057330701662],["électrique",-10.849126728291676],["nervos",-10.849131127615824],["водить",-10.849504703055295],["inten",-10.849784406192063],["внимание",-10.850255644871513],["tam",-10.85027567389159],["visage",-10.851022609366703],["equilibrio",-10.85107039382687],["cittadin",-10.852132133328777],["tutt",-10.852338600952365],["primera",-10.852647799814054],["perceive",-10.852789329285978],["XVII",-10.852806605888125],["физиол",-10.852820333174023],["Characteristic",-10.852885580761441],["неисч",-10.852928409019347],["cœur",-10.853618481575669],["soggett",-10.853791347995877],["Q",-10.854414519408806],["pagament",-10.85444021729745],["identit",-10.85454585221959],["толь",-10.854847473014733],["матери",-10.854854023313749],["движени",-10.854925726730997],["visual",-10.855010827333302],["temporal",-10.855461955738114],["ulgaire",-10.855469887220554],["передач",-10.855545522226155],["covering",-10.855580410606198],["electronic",-10.855769263897248],["adorno",-10.855990115034952],["sexo",-10.8561089021869],["capace",-10.856224113856676],["institu",-10.856529547646653],["напоминающи",-10.856690056515914],["combat",-10.85676110769894],["communication",-10.856927222275992],["mus",-10.85738175205503],["delgado",-10.85773537994556],["resulta",-10.857866556366275],["неперех",-10.857881924097597],["rosso",-10.85793047528078],["molti",-10.858256625019193],["senz",-10.858360991064128],["strumenti",-10.858464215700184],["obteni",-10.858616432680236],["suma",-10.858906466502996],["subit",-10.858995429382576],["team",-10.859154871101595],["таким",-10.859269915357046],["oppost",-10.859367108391847],["contenent",-10.859725452876924],["ен",-10.859824118977063],["From",-10.860162932771708],["dovut",-10.860298105944949],["войск",-10.860638852813711],["rix",-10.860732338105187],["психол",-10.860793968937397],["filo",-10.860804029043141],["reference",-10.860979475652027],["flat",-10.86116822427045],["металл",-10.86134178828501],["trata",-10.861430142909171],["ate",-10.861808004028365],["banda",-10.861841353575983],["предик",-10.86184700171505],["comprender",-10.86185316746576],["rien",-10.861863921450347],["соответствующи",-10.862360465119295],["mauvais",-10.86268690273653],["habitude",-10.862746327813316],["separa",-10.863509724075389],["señal",-10.86402242601697],["applique",-10.864756417706712],["mineral",-10.864822352333393],["Grand",-10.86573019569001],["destroy",-10.866294697982857],["tabac",-10.866320047801102],["police",-10.866452606169897],["metodi",-10.866497726054],["ossigen",-10.866563932155028],["pousse",-10.866736400034782],["Jeune",-10.86696960332846],["мужчин",-10.867061182536048],["producido",-10.867267747785192],["emotional",-10.868499561039158],["exerce",-10.868811425978766],["hoy",-10.86945487640115],["voluntad",-10.869715726714787],["accept",-10.870031887189926],["dolor",-10.87016127418961],["р",-10.870476836897229],["mas",-10.870505428919195],["passar",-10.870742905358679],["portar",-10.871139213606504],["гд",-10.871435047390605],["arme",-10.87179064891246],["humana",-10.871835290034852],["оружие",-10.872468524923914],["board",-10.872503149196797],["salud",-10.872873820978793],["double",-10.872914198386695],["native",-10.873165493522361],["определённом",-10.873390605144873],["puerta",-10.873723553438474],["provoque",-10.87374542049613],["Éc",-10.873805072168047],["mitologi",-10.874207206683511],["моря",-10.874649799527795],["extend",-10.874875139399654],["grano",-10.875232277723155],["}",-10.875668946599205],["Órgano",-10.875669473140526],["имеющее",-10.876059696785806],["pierna",-10.876246891870313],["lunghezz",-10.876270464128321],["student",-10.8763072726919],["iglesia",-10.876325035989302],["abundante",-10.87633911496177],["реже",-10.876353469941318],["развитие",-10.876882429630452],["garde",-10.877120198547196],["precio",-10.87723692731998],["umana",-10.877585611954588],["placé",-10.878279213279942],["judicial",-10.878436661369538],["église",-10.87903585467285],["graine",-10.879037088489614],["Las",-10.87923421334721],["расстояние",-10.879417153568422],["Dispositi",-10.879453481925637],["uniforme",-10.879801855717517],["humaine",-10.87992045574822],["morceau",-10.880396966958964],["outside",-10.880426684121922],["delgada",-10.880959017506843],["Typ",-10.880974295320183],["частиц",-10.881071981922645],["верх",-10.881132983026447],["laisse",-10.881255078230552],["completo",-10.882372845390721],["ecologi",-10.882382930565814],["fundamental",-10.882406859705188],["include",-10.882444014202061],["ник",-10.88305970977812],["aten",-10.883076296875544],["fo",-10.883259800201298],["carbonio",-10.884118411673827],["hence",-10.884136068660567],["cuidado",-10.884497594462491],["lunga",-10.884627924591673],["narrow",-10.884692518292644],["empresa",-10.88491432259606],["merci",-10.885619192777362],["piccoli",-10.885626047194535],["природ",-10.885716659184265],["firme",-10.88628711712757],["utile",-10.886536512603698],["claim",-10.88680978217227],["°",-10.887296853575949],["vaso",-10.887298802521627],["Minéral",-10.887301505073573],["Morceau",-10.887313216832155],["éologisme",-10.8873294790335],["Dio",-10.88769129629039],["attach",-10.888100289696986],["poli",-10.888296182339289],["inizio",-10.888495607767268],["essus",-10.888726124470827],["cre",-10.8888584944585],["наибол",-10.888990677990304],["azúcar",-10.889175326965868],["положени",-10.889746705560212],["музыкальны",-10.890103686605517],["fit",-10.890524097443917],["fondé",-10.890587790270638],["пола",-10.890622058728997],["totale",-10.890705403938325],["ultimo",-10.891043039723904],["tropp",-10.891087081452968],["route",-10.89116157870226],["discurso",-10.891481499017289],["Ac",-10.891511505038748],["usan",-10.892095621026495],["ывать",-10.892510476514648],["предел",-10.892746343590296],["signo",-10.892759750581163],["ие",-10.892856423072821],["lit",-10.89332925327979],["ben",-10.893457880687468],["realt",-10.893492692629186],["apariencia",-10.893794928458382],["дающий",-10.894325352705161],["lavorazion",-10.894382072377507],["sólido",-10.89533894460154],["фам",-10.895467766077415],["prenda",-10.895485735769235],["fear",-10.895795683134939],["dotat",-10.89659818166367],["sì",-10.896637769708006],["крупны",-10.896752668282238],["Made",-10.896948915836589],["commercial",-10.897451152550193],["io",-10.897693786970228],["preuve",-10.897841361210395],["chair",-10.897919138983308],["aide",-10.89804709953113],["mon",-10.898552623491005],["XVI",-10.898957558131256],["!",-10.899061559458302],["extra",-10.899072514032314],["явления",-10.899460626359488],["общества",-10.899601314578028],["collectif",-10.899698761137383],["unir",-10.899997098655914],["nativa",-10.900060333354888],["riferisc",-10.900099678336954],["debido",-10.90020575873593],["spéciale",-10.900258537890224],["there",-10.900298921224383],["empleada",-10.900339409144884],["visión",-10.900564408115331],["Industrie",-10.900574639432495],["período",-10.900611289480342],["client",-10.900614531717434],["ding",-10.901192943293298],["analogía",-10.901277680579199],["hacen",-10.901488851028803],["uisse",-10.901806782889691],["State",-10.902001761417557],["пути",-10.902555914709417],["appropriate",-10.902950609918427],["Antigua",-10.902956867039547],["Sociolog",-10.903009446572515],["dignidad",-10.903113595991208],["ning",-10.903148004816448],["государстве",-10.903244871280325],["25",-10.903259170427807],["мест",-10.903476777702778],["содержания",-10.904123556054017],["ряд",-10.90422290398514],["aje",-10.904242980662307],["обращени",-10.904257467107271],["государство",-10.904395977913492],["ligera",-10.904669909484834],["equip",-10.904800353483822],["honor",-10.905149514348633],["agricolt",-10.905176948512565],["memoria",-10.905402626720148],["тело",-10.90623999081984],["continue",-10.906830841680895],["regarde",-10.906917219331369],["culturale",-10.907171073289067],["tenía",-10.907297482812941],["литератур",-10.90753784854462],["administration",-10.907839397105434],["психиатр",-10.907963030657328],["tensione",-10.908014341582955],["medida",-10.908843108962639],["covere",-10.909064181112551],["carica",-10.909146551312801],["изготовлени",-10.909286287903786],["particell",-10.90964815968987],["проявление",-10.909997801025526],["frecuencia",-10.911006955239678],["toglier",-10.911755419994002],["destinat",-10.912171910609011],["semblable",-10.912190234331323],["sostiene",-10.912486435650717],["mantiene",-10.91308891673745],["manos",-10.913314528640644],["raccolt",-10.913641496075108],["Ocupaci",-10.91399676079086],["produir",-10.914530866348557],["texte",-10.915024788566694],["кий",-10.915511117501538],["obtiene",-10.915520208084668],["direc",-10.915761632174547],["champ",-10.916271082389288],["Groupe",-10.916498444920965],["tige",-10.917017193481527],["curso",-10.91767774917858],["struttur",-10.91820224366461],["pressure",-10.918694995647636],["composée",-10.918752950131505],["exceso",-10.919733947412862],["fibra",-10.91981405585722],["ierra",-10.919897625856791],["negocio",-10.92015769363405],["deriva",-10.921174874042777],["enzima",-10.92152123159908],["expected",-10.921618917472859],["loud",-10.921868991868262],["proteger",-10.921927949661779],["jouter",-10.922040005883062],["внутри",-10.922115616684097],["pago",-10.922229253112908],["nota",-10.922264329705584],["programma",-10.922619195938196],["considerat",-10.922639374221376],["seconda",-10.92268933016896],["consider",-10.922769003396388],["pagar",-10.923237604708934],["brillante",-10.923262756781398],["главны",-10.923370895044147],["imbarcazion",-10.923499164764902],["van",-10.923516755381726],["atti",-10.923599847082475],["dificultad",-10.923686128368908],["account",-10.923918989819391],["nouvelle",-10.923968208239678],["чь",-10.924069489359407],["habilidad",-10.924463440908532],["messa",-10.924536706932166],["clima",-10.925172697868812],["Com",-10.925203576838964],["тж",-10.925246125848576],["string",-10.925349011915952],["comunidad",-10.925638302982087],["obstacle",-10.925750573696805],["Causar",-10.925858522314202],["ré",-10.926163871801393],["masse",-10.926229520996438],["scientifique",-10.92646698953206],["lati",-10.926479194318302],["pueda",-10.926483427954796],["lenguaje",-10.926607674781167],["листья",-10.926634380332302],["esercizi",-10.927816845480436],["приём",-10.928714806433957],["future",-10.929120850357293],["основе",-10.92915634850446],["ée",-10.92931938264773],["desideri",-10.929541320578391],["segnal",-10.929976870845389],["деталь",-10.930041747587673],["criminal",-10.93023222879861],["cer",-10.93054241091427],["Union",-10.931031403912701],["poesi",-10.93164816647634],["resistente",-10.931787465017425],["нести",-10.93196900272339],["pared",-10.932116325486195],["center",-10.932299755392656],["всё",-10.932575595188936],["niño",-10.932800679438143],["hit",-10.933022781678233],["opération",-10.93310625718646],["prova",-10.933228098317745],["tradition",-10.933371814115263],["danno",-10.934041110110924],["Th",-10.93410250062748],["vis",-10.934154784542223],["lingue",-10.934369726107711],["verb",-10.93439758717078],["vuol",-10.934446117379666],["actitud",-10.934576802322875],["colonne",-10.934853371470494],["которым",-10.934898335244856],["религиозно",-10.934913900966393],["án",-10.934982966849939],["pen",-10.935204398096474],["fibre",-10.935211202312576],["taking",-10.935384317372506],["cherche",-10.93584713810391],["middle",-10.935924007367],["impiant",-10.93602903409334],["idrogen",-10.936034915827555],["alternativa",-10.936146260522408],["становить",-10.936153776199397],["church",-10.936451137863486],["attractive",-10.936709242220896],["типа",-10.936717373968122],["defini",-10.93679320086615],["страна",-10.937027734570577],["район",-10.937316219608379],["trami",-10.937874175671217],["conseguir",-10.937991882192474],["negativo",-10.938070076519395],["pair",-10.938323494630943],["couvert",-10.938338831865916],["Mu",-10.938551747694884],["mment",-10.93920323820059],["verre",-10.939569086063685],["pri",-10.939579817784407],["niveau",-10.940892728559625],["variedad",-10.94121627484946],["ería",-10.942402985831626],["excesiva",-10.942542979445381],["disegn",-10.9427572935576],["difes",-10.943631071645493],["funcione",-10.944213356321256],["estrecha",-10.944249016000075],["comporta",-10.944604259483484],["fashion",-10.944709174697124],["imagen",-10.944918439136273],["commune",-10.945460180892084],["derive",-10.945517898128504],["русск",-10.94569023090645],["верхне",-10.946402997747324],["statu",-10.946489282960394],["hose",-10.947172788116266],["данны",-10.94737740847939],["Украин",-10.947562169077687],["ш",-10.947578016071535],["имеет",-10.947660925632317],["repos",-10.94785957689723],["parato",-10.948223700543043],["andare",-10.948402339762279],["proposition",-10.948469373425079],["ии",-10.948546149613833],["измерения",-10.948596002755274],["Franci",-10.948667167179195],["meccanic",-10.948815949897652],["consecuencia",-10.948893375270671],["относительно",-10.949187447289844],["letterat",-10.9492027331749],["manual",-10.949245812093364],["maíz",-10.94944048670871],["característico",-10.949482733558867],["joint",-10.949495761546789],["juicio",-10.949536137713629],["impegn",-10.949802278514744],["appareil",-10.949975691039494],["quest",-10.950404216897407],["coda",-10.950460186119496],["decision",-10.950733183940017],["times",-10.95101470860746],["indicate",-10.951233864984367],["внешне",-10.95159650899167],["mixture",-10.951780307072381],["плотно",-10.951905787127117],["vicin",-10.952160807282382],["parecido",-10.952304128494283],["cubierto",-10.95231365518853],["huevo",-10.952601894625907],["класса",-10.952960393977378],["speed",-10.953032265516217],["stati",-10.953230973990149],["later",-10.954494933993143],["cocina",-10.954822982763003],["noise",-10.954847072109155],["positive",-10.954880069068086],["обой",-10.955263963624004],["upper",-10.955350644867423],["remain",-10.95602865727312],["конца",-10.956353291151292],["solution",-10.956777252263036],["strato",-10.956846388206294],["bo",-10.956915769641665],["ё",-10.957321012702081],["San",-10.957564446003763],["contraire",-10.957933549388528],["signal",-10.957952588204286],["medic",-10.957965510084708],["sociales",-10.958244456214977],["determina",-10.958505682569317],["occupe",-10.958880420040124],["прямо",-10.958907270963117],["proche",-10.959073321149663],["denti",-10.959254389426269],["frecuente",-10.959353970446067],["fabrica",-10.959804945284224],["оды",-10.959920310251245],["совершать",-10.960242218335644],["paper",-10.960283530282604],["chemin",-10.960344580780582],["использующий",-10.9605994071015],["ste",-10.961175473949734],["coloca",-10.96121167374647],["practica",-10.961311543385175],["ría",-10.961640266188212],["болезн",-10.961741718590744],["personnage",-10.961826874078529],["существо",-10.96196314108332],["apertura",-10.962063794373943],["contatt",-10.962318135657842],["unpleasant",-10.962540957333658],["archeologi",-10.962556072191042],["deve",-10.963165073495434],["determinar",-10.963302870324625],["длин",-10.963309665022393],["segundo",-10.963697417312588],["troupe",-10.963838171948032],["fenomeni",-10.963996427149745],["deep",-10.964206738099417],["используем",-10.964299546900609],["técnica",-10.96470616117352],["изменение",-10.964719451923376],["nuevo",-10.965248302378917],["deja",-10.96562714678354],["буд",-10.966129776868282],["gradual",-10.966222978853033],["corrisponde",-10.966370694832452],["stream",-10.966418265431926],["angol",-10.966419685246311],["connecte",-10.966723605995313],["onde",-10.966785248076462],["night",-10.96857295363181],["Ca",-10.968636189842751],["phone",-10.968891080238905],["intura",-10.96893173222609],["отдельно",-10.96900991589075],["Dieu",-10.969900302027128],["игры",-10.970255088679046],["ntorno",-10.97027443700386],["prevent",-10.970314227272862],["ácido",-10.970766507020073],["progress",-10.971015992739261],["raggiunger",-10.971135836364141],["institution",-10.971319511644282],["mujere",-10.971845701005957],["organique",-10.971856670220394],["plaisir",-10.972241565508085],["легко",-10.97229907490747],["achieve",-10.972688824567008],["gender",-10.972778748131068],["circumstance",-10.972938240543993],["др",-10.973333995888876],["мера",-10.97354383584446],["minor",-10.973587175298015],["число",-10.974013050323006],["resto",-10.974399259157622],["membrana",-10.974453662797867],["получени",-10.97494434446906],["заболевание",-10.975207558422788],["редк",-10.975220380910459],["examen",-10.97580143128815],["Ancienne",-10.976025418683854],["запад",-10.976264577730866],["get",-10.976427502052179],["block",-10.976689010284826],["informal",-10.976805620726026],["call",-10.977249664979208],["instruction",-10.977697122849143],["определённ",-10.977990772570056],["participa",-10.978034722804326],["iochimi",-10.978856020406665],["ярко",-10.97903903708346],["operazioni",-10.979244522970081],["ricerca",-10.979381858869791],["северо",-10.979484860881577],["page",-10.980170612863068],["Fruto",-10.980481438496637],["mentale",-10.980513984434047],["estrema",-10.980619505658847],["employe",-10.980663212406562],["insetti",-10.98115655573762],["dance",-10.981420226120171],["ome",-10.98197551633265],["protége",-10.982206738172193],["Â",-10.98234574036336],["nfermedad",-10.982409001249769],["общественно",-10.982455440661916],["aime",-10.982501667491054],["искусств",-10.982673139557846],["трёх",-10.983465124306283],["lus",-10.983544592834471],["supporter",-10.983748625089703],["arrange",-10.984292708972152],["list",-10.984296085378467],["faible",-10.984384962260993],["химически",-10.984454504430712],["ж",-10.984651235024778],["ём",-10.984893132759261],["tropical",-10.985195663623342],["Église",-10.98553808617309],["beginning",-10.985576441724529],["Ciencia",-10.985736795618587],["indique",-10.986344064461628],["jo",-10.98653310771905],["comprende",-10.986728829894364],["club",-10.986744353134158],["generic",-10.98676113370858],["supply",-10.986788726590241],["seguir",-10.986790736256896],["touch",-10.986879356038646],["объём",-10.98696482815992],["Psychologi",-10.987366887913108],["chance",-10.987478950212797],["extérieur",-10.987547864084826],["cabello",-10.988505966843121],["участник",-10.988836294102738],["unique",-10.98905274950724],["Estar",-10.989081359144116],["marin",-10.98930975050284],["60",-10.989662090386576],["зло",-10.989838085075828],["cross",-10.990616991611272],["primer",-10.990732321865588],["одном",-10.990896236819825],["paes",-10.99128608102584],["destinada",-10.991324841169202],["ancient",-10.991493353870997],["thos",-10.991731078517297],["slight",-10.992005480521561],["gruesa",-10.99202340390935],["columna",-10.99231581948513],["courage",-10.992360379254361],["camino",-10.992521717246394],["объекто",-10.99317690904262],["das",-10.993320758566423],["talent",-10.99336293382463],["органа",-10.993425268872643],["essential",-10.993759409669853],["ство",-10.993830312577412],["abundanc",-10.993875204521444],["applicazion",-10.993951660653753],["habituelle",-10.994016638850125],["vertu",-10.994671638578826],["san",-10.995181504418278],["facile",-10.995473361602777],["овой",-10.995666231510521],["partícula",-10.995785465091547],["Man",-10.995934466773567],["branch",-10.995955491928243],["manifestazion",-10.996498076233918],["mezcla",-10.996629201421293],["denomina",-10.99743122599195],["Ne",-10.998199602937866],["américa",-10.99832000957459],["{",-10.998521068753341],["Venezuela",-10.998522806658698],["Género",-10.998535805660092],["métallique",-10.998546646691647],["escribir",-10.999266269537],["fenómeno",-10.999419526841457],["scale",-10.999947335799671],["makes",-11.000152286583202],["latte",-11.000541186530556],["avversari",-11.000633897957472],["тел",-11.001082450448646],["comercial",-11.00110292932727],["éométri",-11.001173651208628],["contrast",-11.001471199975398],["release",-11.00202054249906],["ра",-11.002044473626757],["ière",-11.002046999746598],["ag",-11.00213568287261],["круг",-11.002161329924146],["права",-11.002206779880447],["meat",-11.002603860144003],["formée",-11.002657088952557],["объекта",-11.0026727571053],["istencia",-11.002931835756245],["Medio",-11.003146583556962],["perder",-11.003975326103411],["pardo",-11.00448387134374],["religión",-11.004580437749127],["ировать",-11.004748429071197],["eliminar",-11.00491377846751],["principi",-11.00519726711449],["membres",-11.005317095445406],["regolar",-11.00563031585251],["romana",-11.005697494422092],["diente",-11.00580843212446],["celeste",-11.006194343293856],["permanent",-11.006206498622966],["ф",-11.006649097491263],["население",-11.00691149608884],["ely",-11.007141726553193],["relacione",-11.007329800879466],["непосредственно",-11.00769310340839],["frío",-11.008248446995708],["facolt",-11.008418131376946],["pp",-11.008462365663767],["сознани",-11.008757949962584],["leggi",-11.008829833873168],["денежн",-11.008928142426825],["job",-11.00969633836293],["ogie",-11.009755163624032],["acid",-11.009779852142866],["said",-11.01005088282143],["droga",-11.010189450138329],["théâtre",-11.010238032364622],["особенно",-11.010461721921981],["вмест",-11.010465660391807],["неприятны",-11.010549810401077],["poste",-11.010706908297063],["corte",-11.010739540571972],["suceso",-11.011283886389855],["moteur",-11.011608529191326],["procediment",-11.01180253972636],["contenitor",-11.01192181696192],["Litera",-11.011940042639186],["hablar",-11.011954923313288],["орнитол",-11.011995651869084],["bruit",-11.012376756255163],["conducta",-11.012490483877393],["кусо",-11.012696038795935],["modifie",-11.012722253330754],["wear",-11.012767496046752],["continuo",-11.012837980060244],["disorder",-11.012866039674876],["большим",-11.013424911990018],["smalt",-11.013596747948638],["Réuni",-11.01395869445004],["considerar",-11.014697821512925],["физически",-11.015608260424024],["mueve",-11.015618633701834],["environment",-11.01586381708632],["tivo",-11.01594559113699],["чрезмерно",-11.016368146957667],["stile",-11.016395030117003],["tri",-11.016437233874793],["amour",-11.017221788270767],["trasformazion",-11.017710392778456],["géographi",-11.018053897794683],["aquello",-11.018096479883868],["hyperbo",-11.018119336431768],["отличи",-11.018160056341664],["gastronom",-11.018166166406925],["friend",-11.01925579045826],["dispost",-11.019850919780431],["deporte",-11.019886063262451],["йти",-11.020531422127533],["corresponde",-11.020842645306335],["Pa",-11.021076502279962],["realizzar",-11.021345672500523],["figuré",-11.022088349137125],["effetti",-11.022184160996115],["compris",-11.022214431175023],["ras",-11.022232502830597],["collo",-11.022767222583935],["manche",-11.022886698369302],["обязанност",-11.023497079579927],["pitch",-11.023874972032987],["personaggi",-11.023978122105383],["И",-11.024013634287186],["поступ",-11.02402185183041],["marquer",-11.02427136451485],["ros",-11.02429887053274],["univers",-11.024960414798365],["Movimiento",-11.025039829032364],["médecin",-11.025043024137151],["proportion",-11.025137614311598],["pecho",-11.025434814140572],["manquant",-11.025749044849851],["rafía",-11.025848576178877],["Ict",-11.025852628625202],["perception",-11.02586723861401],["piedi",-11.025915618477875],["funciona",-11.026217877314963],["belonging",-11.026251110974815],["ofrece",-11.026373890805186],["полу",-11.026566426361542],["studios",-11.027133331665691],["unión",-11.027323949976616],["rang",-11.027740503404976],["negra",-11.02792860915594],["hembra",-11.028187200703696],["identifica",-11.028211567802522],["electric",-11.028896441933439],["transfer",-11.028908536865279],["eráldica",-11.028963545090063],["соверши",-11.028999012692942],["Parti",-11.02925911719626],["bright",-11.02970125817246],["Transport",-11.030337905284338],["Doctrine",-11.030413872028323],["âge",-11.030536080692361],["Pour",-11.031055157501065],["preparar",-11.031197978415284],["внутр",-11.031352586445536],["inférieure",-11.03163350641697],["alterazion",-11.032464972433072],["plein",-11.032618560068567],["key",-11.032896509394757],["situado",-11.032953722699109],["лини",-11.033068339825808],["cultural",-11.033495353916962],["finale",-11.033757331589745],["ì",-11.034047975837076],["pobla",-11.034094766005289],["ecolo",-11.034251622417145],["noble",-11.034389747660885],["bambin",-11.034461175837698],["avoid",-11.034586885120683],["liber",-11.034661160118763],["убор",-11.034734707386137],["sexe",-11.035636402976053],["busca",-11.03622849869306],["mérite",-11.036234809134449],["мяс",-11.036340385836713],["часток",-11.036416377767047],["pleasure",-11.03682440141248],["Terra",-11.036841111152357],["цел",-11.037041566427295],["конце",-11.03711685353826],["sleep",-11.038063391459012],["состоящ",-11.038206754853636],["производства",-11.038362345972285],["powerful",-11.03875427751116],["película",-11.038795185533829],["careful",-11.038936446062936],["necesidad",-11.03919215279083],["límite",-11.039478159627937],["centre",-11.039513399621189],["yield",-11.03995046346548],["tratta",-11.039974848824762],["Sexual",-11.039982053934377],["alter",-11.040131741975241],["pointe",-11.04049494187031],["love",-11.040678895017734],["прав",-11.040964534739224],["respet",-11.041044702638981],["touche",-11.041045258795972],["40",-11.041073405038333],["рас",-11.041475169225194],["искусства",-11.041874724916351],["salir",-11.041882460755605],["чувств",-11.042071176933273],["sucre",-11.042396067017673],["Contain",-11.042604145651548],["resource",-11.04302129498189],["элементо",-11.043087695189538],["Désigne",-11.043276476593402],["причин",-11.043514774280922],["hueco",-11.0436976416674],["ine",-11.04383323375102],["esprimere",-11.043967920122753],["был",-11.044070370467594],["arti",-11.044260113503602],["бить",-11.04439299215053],["asse",-11.04472714054341],["gouverne",-11.044849391808999],["disco",-11.044976608329696],["церкв",-11.045219284711173],["временно",-11.045220556117915],["служб",-11.045351073420951],["безл",-11.045575908198256],["длинным",-11.045599857363838],["aggiunt",-11.045679425069583],["basi",-11.04573889980617],["bacteria",-11.045936835811503],["working",-11.046053360748148],["want",-11.046427967628066],["don",-11.046658100394614],["stick",-11.046900500294711],["chius",-11.046936261741312],["выход",-11.046944720241369],["vocal",-11.047094407421806],["familiar",-11.048333148545202],["convey",-11.048479443331704],["lana",-11.048509230726413],["trovar",-11.048663886874504],["canon",-11.048727942614462],["tend",-11.048820571085376],["parzial",-11.049051097801442],["confus",-11.049193766060935],["recherche",-11.04940888034241],["anteriore",-11.049408985013345],["положения",-11.049553898724252],["trans",-11.050235807721737],["транспортно",-11.050657979987982],["positivo",-11.050695787800016],["русско",-11.050775855574821],["Arma",-11.051899703084167],["differenti",-11.052032428598249],["divisione",-11.052123783295526],["проявлять",-11.052251932711666],["procedimiento",-11.052256546477118],["abdom",-11.052440592001702],["использует",-11.052524330634855],["программ",-11.052532851932288],["oix",-11.052931501183561],["apparente",-11.053092342553423],["vendit",-11.053094791431999],["obras",-11.053234483200088],["gros",-11.053464613311888],["пр",-11.053831829595119],["behave",-11.053873715259353],["местност",-11.054130509535948],["лошади",-11.054158828774518],["lame",-11.054217580712745],["scriver",-11.054550549769004],["processi",-11.054748470152965],["полно",-11.054771947831144],["start",-11.05480194792429],["completa",-11.05481083294619],["явление",-11.054894820153553],["catch",-11.055091767320093],["qualifie",-11.055223204687444],["disturb",-11.055380793372368],["ccesso",-11.055708164528433],["carrie",-11.055837169591447],["unité",-11.05594408977999],["einture",-11.056782980550668],["consequence",-11.05700135198785],["segue",-11.057119670811826],["rápida",-11.057161223324348],["перевозк",-11.0573731146949],["border",-11.057458723386677],["assure",-11.057489093867053],["école",-11.057505098392458],["recto",-11.057851075346267],["ecclésiastique",-11.058180402812678],["necessar",-11.058260113428831],["flor",-11.0583497118906],["comunit",-11.058443194143821],["doing",-11.058753924187393],["грузов",-11.059123415952211],["cartas",-11.059799801465013],["може",-11.060300575124993],["trefoi",-11.060529431822346],["числа",-11.060542740862948],["большом",-11.061071690410973],["Si",-11.061296065113652],["suave",-11.061395216506535],["extile",-11.06168867304745],["sexuelle",-11.061898862102202],["nato",-11.062097082849714],["ица",-11.0627579297253],["источник",-11.062890555511858],["causat",-11.0629292787746],["im",-11.062993576546404],["poor",-11.063059473589277],["estaba",-11.06367911503111],["ocurre",-11.063799081557121],["Obra",-11.064886792998916],["distinto",-11.06505056457203],["Кавказ",-11.06578990868093],["proteina",-11.065895415736538],["ément",-11.065901409241846],["arrive",-11.065904312551677],["занимать",-11.066210535724467],["velocidad",-11.066230955137222],["facilidad",-11.066293822467145],["behind",-11.066306755320923],["universit",-11.066330468469648],["sportiv",-11.066487771874417],["pay",-11.066771011179387],["perdit",-11.06678399615365],["Forme",-11.066966550619277],["prueba",-11.067234787502985],["medium",-11.067314219496044],["видов",-11.067370702558438],["ejerce",-11.06803582514745],["море",-11.068037318275838],["arbusto",-11.06823796270342],["comunicar",-11.068489937236984],["veloce",-11.068672778523057],["desagradable",-11.069239480328612],["ejercicio",-11.06927856010141],["European",-11.069486836517772],["qualunqu",-11.069551957083018],["ties",-11.069699164797974],["cho",-11.069801624383503],["Quitar",-11.069900858514616],["zucchero",-11.069979845561534],["crea",-11.070197184920513],["garni",-11.070388284881679],["ufficial",-11.070877440136442],["sustantivo",-11.070932528339702],["ssement",-11.071201681821675],["genetic",-11.071262820460205],["друга",-11.071490626653432],["moneta",-11.071653410197353],["path",-11.071681051135592],["нарушение",-11.07196492112461],["market",-11.072005348837543],["fonética",-11.07243218154422],["Д",-11.072530916749258],["classica",-11.07324031311785],["meccanism",-11.073259659873962],["effettuat",-11.073271595881641],["Acte",-11.073282961006285],["Élev",-11.074226084053965],["особо",-11.074377891518015],["zero",-11.075494299657997],["retire",-11.076060419680196],["множество",-11.076110014231682],["fronte",-11.076166383798158],["ков",-11.076193533172333],["соответстви",-11.076716001407302],["forth",-11.076928682402723],["iones",-11.077910728522717],["rest",-11.07844726482742],["Y",-11.078454728076665],["tender",-11.078543165163843],["success",-11.078952863774411],["chiamat",-11.078965773073712],["grade",-11.079079011127618],["conducto",-11.07929184661633],["evidente",-11.079584346876459],["juge",-11.079772564456745],["отчеств",-11.07986481292787],["amiento",-11.079967251333048],["свойствам",-11.08009701010698],["кушань",-11.08024637066337],["compound",-11.080463228319994],["значение",-11.080526533379757],["ски",-11.080569789995764],["écriture",-11.080658376603232],["три",-11.080734271570904],["presencia",-11.080738173743502],["termina",-11.081208171307017],["стремление",-11.081502677981899],["арми",-11.08156238143323],["ciclo",-11.081672627549377],["Entomologi",-11.081947886847438],["permett",-11.082192901613379],["think",-11.082414723261131],["Бог",-11.082466253391814],["altezz",-11.082720552097657],["corre",-11.082750713779568],["celebra",-11.082947453964666],["describe",-11.083099594863041],["serious",-11.08340198174568],["titre",-11.083486928870421],["способност",-11.083873136609393],["mancha",-11.083954500891307],["действительност",-11.083998785832422],["бел",-11.084343089933839],["voiture",-11.084590332759214],["alcohólica",-11.084634954889667],["femenina",-11.08493321850191],["meteorologi",-11.084938376407191],["colo",-11.085185549986559],["opin",-11.085209223621163],["circolar",-11.085623550300523],["privat",-11.08574868432753],["help",-11.085910835745324],["opposé",-11.086101500005554],["esse",-11.086435617734631],["azul",-11.08672939201658],["Mécani",-11.087176418276938],["деньг",-11.087301135995485],["usar",-11.087362105632558],["planet",-11.088016424858985],["separar",-11.088038348844478],["travaille",-11.08857367812152],["barco",-11.088600310415352],["voile",-11.08884085671062],["социально",-11.088881763764684],["title",-11.089503275087985],["suffer",-11.090046831235632],["evil",-11.090086427693649],["muro",-11.090945309712673],["guarda",-11.090971258446793],["feel",-11.09107257848544],["Mot",-11.091139890136454],["длинн",-11.091170220934389],["акт",-11.091598065653368],["заключени",-11.091756225662847],["expresar",-11.09265462312344],["трудно",-11.092709541037442],["placer",-11.09300593488099],["alimentar",-11.093246461112809],["cinque",-11.093865609100575],["favore",-11.093973032783728],["страдани",-11.094015507746551],["preparazion",-11.09431099027979],["phénomène",-11.094509938281188],["характеризующий",-11.094677665384749],["hierba",-11.094721482171543],["Boisson",-11.09472797891629],["project",-11.095122574449048],["communauté",-11.095148758602438],["кино",-11.095268240242367],["Puede",-11.095487522988817],["пространстве",-11.09553233671447],["ноги",-11.095700567789985],["длинны",-11.095910865867078],["mouth",-11.095979564392604],["лес",-11.096207806012202],["adjectif",-11.096581446838897],["ali",-11.09661598106708],["complet",-11.0966339756876],["ля",-11.096809664717263],["score",-11.096978019803263],["generale",-11.097411282292502],["thus",-11.09741135185082],["énergie",-11.097823361360156],["lluvia",-11.0979073465404],["orientale",-11.098016167548366],["похожи",-11.098193701014575],["бес",-11.098391674084068],["svolge",-11.098814097955763],["issu",-11.098990973299536],["vert",-11.099189903131876],["ящий",-11.099219889913265],["Tomar",-11.09948523992336],["pico",-11.099640954194642],["чьи",-11.099876775111653],["Pequeña",-11.100122176522703],["tería",-11.100538197792169],["certa",-11.100681093333646],["ue",-11.100948626096738],["ране",-11.10123675203685],["дело",-11.101392776079177],["locale",-11.101747516958302],["gravit",-11.102099371838436],["dress",-11.10252242347418],["органо",-11.102550555375213],["потом",-11.102669139791956],["мысли",-11.10304059792489],["followe",-11.10371327717276],["одновременно",-11.103863201434553],["Involv",-11.104043136931928],["latino",-11.104190915549026],["военны",-11.104270833493379],["scelt",-11.104477043446472],["anual",-11.104755155816694],["chaîne",-11.104873697312026],["haute",-11.105055300853504],["born",-11.105178459063781],["song",-11.105444797213242],["кожи",-11.105547562985102],["montagne",-11.105560681893337],["elettroni",-11.105584491025791],["offer",-11.105805783368915],["механизма",-11.106031062652319],["attend",-11.10628513392771],["drive",-11.106441368887564],["Tambi",-11.10647767921887],["lines",-11.106709120770496],["itti",-11.106716818661571],["посредство",-11.106869115968081],["порядк",-11.106945572688321],["correspond",-11.106975657997221],["major",-11.106977034428429],["нос",-11.10728266511849],["coming",-11.107468161974847],["внимани",-11.10793127376861],["tube",-11.108167586973465],["cultiva",-11.108479251587173],["figurative",-11.108959554154623],["напит",-11.10910738106353],["ritenut",-11.109337072793423],["margin",-11.109650155306982],["presta",-11.110090794675543],["физическо",-11.110588053941841],["convert",-11.11061737494832],["estrem",-11.11085101450497],["звуков",-11.111208914861127],["pittura",-11.111478047891087],["Imprimer",-11.11179671542924],["boisson",-11.112151002510519],["excè",-11.112178019594712],["works",-11.112572927792542],["rojizo",-11.112674473504839],["русски",-11.112700339679046],["profes",-11.11276179517122],["всем",-11.112776114708222],["nata",-11.112872942705824],["metálica",-11.113349771951047],["край",-11.113496061251656],["особ",-11.113772970498527],["immagine",-11.114079434515789],["cría",-11.114417492743812],["лёгки",-11.115251793899693],["flower",-11.115272707679102],["specifici",-11.115284663169216],["Pequeño",-11.115332127019936],["esistenz",-11.115337988381318],["eología",-11.115698737795721],["dessin",-11.116134102318092],["ehículo",-11.116232402745986],["Souten",-11.116249803516418],["Pert",-11.116421328172923],["газ",-11.116487502704132],["descent",-11.116510416232808],["evidenc",-11.11664246346516],["relativa",-11.11670034720975],["fotografia",-11.116925666164143],["recta",-11.116937150650797],["code",-11.117795703874643],["hilosophie",-11.117813505121696],["inspir",-11.11793075314549],["Entre",-11.118217824376293],["producen",-11.11829736939548],["отк",-11.118547790365367],["armes",-11.11871567982907],["doctrina",-11.118818391383162],["doubt",-11.119048310867013],["cartes",-11.119556895421233],["счёт",-11.120082330837489],["eventi",-11.12050205156908],["intes",-11.120697771784108],["tende",-11.12100596950587],["administra",-11.121255132674],["highe",-11.121336858166636],["tight",-11.121507880282174],["provocar",-11.122358166827686],["glace",-11.122441499999152],["considérée",-11.122744810464983],["guida",-11.122906362860515],["день",-11.122971933275753],["degl",-11.12302971336733],["ostacol",-11.123128080265527],["vía",-11.123211507006651],["пять",-11.123395159974743],["manage",-11.123549385689747],["zamp",-11.123602261560622],["перемещать",-11.12370503230056],["bevand",-11.123894504282518],["incline",-11.124137375849088],["tribunal",-11.12414687949808],["vulgar",-11.124271321019712],["possied",-11.124338770963858],["forward",-11.124365962127026],["Германи",-11.124399392828803],["lusi",-11.124524273175794],["choice",-11.124678228858839],["territoire",-11.125657978795637],["rempli",-11.12567838233577],["induce",-11.12573702056418],["inicial",-11.125760179267118],["morales",-11.125956985761954],["deliberate",-11.125986436296163],["broad",-11.126192023918108],["лет",-11.126218151360565],["íces",-11.126593960144978],["mètre",-11.127521221191301],["24",-11.127550039511455],["ture",-11.12758748220735],["cambiament",-11.127743819824806],["six",-11.127809913822826],["firm",-11.128305343279077],["cucina",-11.128306423977985],["vend",-11.128445489745646],["vol",-11.128489055261543],["узко",-11.128657776344976],["apacidad",-11.128679796181785],["compare",-11.128821419978461],["осуществлени",-11.129219998837417],["penis",-11.129248987114408],["minerale",-11.129380289427997],["agreement",-11.129571073874079],["языков",-11.129599371256763],["coton",-11.129821251464254],["harin",-11.129910423832222],["nd",-11.130142962162514],["cuisine",-11.130181960357362],["costruit",-11.130209791067873],["monte",-11.13045679719836],["pos",-11.130682751735234],["singular",-11.130698259787076],["obblig",-11.130769754254331],["saint",-11.131120839707654],["baya",-11.131251428856796],["insecte",-11.131645411794954],["тонки",-11.131686041604489],["sing",-11.131816274997583],["ouverture",-11.131834959037963],["qual",-11.132481818607754],["potential",-11.132585087086166],["along",-11.133012292576604],["plana",-11.133540348809879],["droite",-11.13361391772822],["establish",-11.134103393351797],["utilizz",-11.13411069417166],["situazion",-11.134151600058358],["om",-11.134153806192842],["earth",-11.134247737011904],["существовани",-11.134560972080088],["nuit",-11.135046357818153],["mise",-11.135274854347887],["ayuda",-11.135343439480618],["титул",-11.135756564690872],["sensible",-11.136055741857746],["wine",-11.136369826829354],["résulte",-11.136492594667772],["ingredient",-11.13659265917691],["hands",-11.136593510330592],["pasado",-11.136658349339005],["собственно",-11.13673630839429],["facilitar",-11.13687960732497],["eseguir",-11.13697978343786],["sostener",-11.137230381287768],["aucun",-11.137238927487676],["pouvant",-11.137252298621659],["legger",-11.137339664226761],["viver",-11.138124905643377],["удовольствие",-11.138705963702304],["Франци",-11.138759351026025],["esterna",-11.138771433724822],["металлически",-11.139015974556191],["diámetro",-11.139144010657153],["раздел",-11.139212458434535],["rivière",-11.139364415679006],["машина",-11.139366548755113],["tropicale",-11.139578078086364],["frame",-11.139586098193767],["print",-11.139708455072814],["mince",-11.139763030820262],["М",-11.139944773095607],["programa",-11.140426446978005],["юго",-11.140724489461968],["ornement",-11.14092605931127],["температур",-11.140984712169894],["peinture",-11.141431985552746],["Situa",-11.141508388400764],["entier",-11.141520725048085],["exercice",-11.141743056162383],["cristiana",-11.142100547902253],["speci",-11.143331033443827],["metálico",-11.143461189434456],["dormir",-11.14350330348252],["título",-11.143696880171056],["damage",-11.14414774663968],["chasse",-11.14428447234855],["assemblée",-11.144350838855665],["ек",-11.14475615122173],["giallo",-11.144962652223207],["резки",-11.146015453568996],["ai",-11.146187245842857],["trato",-11.146205846088751],["клето",-11.146280605515713],["residente",-11.146510980240496],["книг",-11.146682053942497],["inside",-11.146908412420876],["demeure",-11.146919532629575],["trasformar",-11.147071402630775],["Tend",-11.147640101199974],["ellas",-11.148125138529497],["neck",-11.148527937796967],["muerte",-11.148892867468547],["squadra",-11.149297746064985],["historia",-11.149948336508324],["representar",-11.150071412233704],["hood",-11.150098771991745],["caracterizado",-11.150220860972198],["ria",-11.150507221910484],["indument",-11.150603361442176],["noche",-11.150753766809249],["corona",-11.150963830064061],["obliga",-11.151002944116424],["molte",-11.151014129614849],["автомобиль",-11.151223051703104],["zed",-11.151400125867333],["variazion",-11.151421514077136],["adresse",-11.151716675438536],["égard",-11.151781977177745],["even",-11.15192717258978],["сахар",-11.15275521182969],["ncia",-11.152805102366134],["proveniente",-11.153023403107458],["biens",-11.153184755358602],["военнослужащи",-11.15344569815781],["Color",-11.153582001570982],["заведени",-11.154359761453897],["22",-11.154500290232978],["monnaie",-11.154509949097061],["Occurr",-11.154562791396277],["fight",-11.154864798478613],["cruel",-11.155145282256964],["масс",-11.155338233938334],["queda",-11.155478585185843],["muscular",-11.156021236244019],["entrée",-11.156094951637122],["descend",-11.156206483622137],["how",-11.156545352978096],["здавать",-11.1565992403806],["matériel",-11.1566155094272],["conceal",-11.156694307842677],["conduce",-11.157218325155561],["déj",-11.157487649106184],["жидко",-11.157527606981311],["persin",-11.157606787293865],["join",-11.157891321700573],["верхн",-11.157914232676902],["II",-11.157927257761528],["fabrique",-11.158216750954342],["recho",-11.158364317034668],["significado",-11.15880538078277],["détermine",-11.159007612241595],["portent",-11.159040790259583],["soie",-11.159054078458151],["orizzontal",-11.159226925395012],["medioev",-11.159304741676547],["comfort",-11.15940254053406],["automóvil",-11.159511640034022],["изделия",-11.15955382284428],["couche",-11.160031694850733],["introduce",-11.160046984365259],["contacto",-11.16011848132004],["reglas",-11.160236236666432],["recurso",-11.16055809758939],["partner",-11.160706185480812],["ти",-11.160725402175682],["ambit",-11.160949819922296],["affected",-11.161025892070143],["ill",-11.161155779431654],["sílaba",-11.161202333718869],["слой",-11.161653134950843],["smo",-11.161702068093053],["здание",-11.162087551485737],["owner",-11.16215564612684],["enter",-11.162474827795316],["зрения",-11.162480576043919],["superficial",-11.162666715160984],["ap",-11.162682345665493],["permanente",-11.162869802923893],["Des",-11.162984709370509],["unida",-11.163040473987675],["столиц",-11.16374478966312],["injur",-11.163747433147627],["pesca",-11.163892352004744],["comuni",-11.163940543313398],["sail",-11.16472801109406],["frique",-11.164906676958138],["adas",-11.165052841177758],["определённым",-11.165094194894898],["вида",-11.165543117737279],["attrezz",-11.16558439026414],["greco",-11.165671258360963],["logica",-11.165681369547112],["contenu",-11.165895970487593],["almen",-11.166021471010303],["store",-11.166180762058007],["vague",-11.166391508469642],["свойств",-11.166514459430593],["техник",-11.167143116501972],["principe",-11.168460280423837],["layer",-11.168603043819399],["cha",-11.168776963864069],["ho",-11.168842581317254],["amarilla",-11.168918657743234],["этногр",-11.1691444292718],["maintain",-11.169216364408618],["forêt",-11.16929600694085],["élève",-11.169392345924349],["борьб",-11.16941327445947],["abitudin",-11.169514000278662],["spetto",-11.169519527896863],["haciend",-11.169776827578357],["apparent",-11.169777949647592],["capital",-11.169784168927556],["esprime",-11.169829684737238],["singolar",-11.169939780547566],["pr",-11.169959388617606],["resistenz",-11.170050890055098],["femelle",-11.170086046565498],["rude",-11.17023765438255],["externo",-11.170247814561453],["tecnic",-11.170278122188659],["frequenz",-11.170389003938768],["дорог",-11.17049344760124],["muni",-11.170835039273609],["observation",-11.170841724865173],["trick",-11.171202061631664],["нуть",-11.171684386393334],["portant",-11.172591276493785],["bête",-11.17268761175772],["isión",-11.172742683917551],["présent",-11.172751739144378],["соверш",-11.172996781873612],["vivienda",-11.173227578717414],["abilidad",-11.173428943038676],["anello",-11.173512713833388],["аппарат",-11.173794303746977],["violenz",-11.173819871837612],["90",-11.173860133758318],["ridur",-11.173874511304009],["nucleo",-11.173876576695605],["spring",-11.173939666946344],["souten",-11.174081769380122],["propone",-11.174280022129135],["role",-11.174539105997994],["basse",-11.174664968165764],["Elle",-11.174701837106825],["chargée",-11.174777963341016],["complé",-11.174943434903685],["write",-11.174995008019042],["cord",-11.175173399320698],["aucune",-11.175281253131113],["joueur",-11.175318892373841],["dovuta",-11.175402087545608],["procedure",-11.175482471018515],["regola",-11.175651916065316],["твёрдо",-11.175711504672028],["Zoo",-11.175894350304745],["высказывани",-11.175902016488774],["interval",-11.176035800594018],["falsa",-11.176154766765013],["balance",-11.17631633237174],["uncertain",-11.176416944764515],["strict",-11.176664907570503],["relations",-11.176862511395058],["gar",-11.176923589732532],["típico",-11.176923871205702],["hirurgie",-11.17717716685168],["arious",-11.177357774691291],["abile",-11.177393941686546],["че",-11.177537372504684],["conserve",-11.178765273949523],["ткане",-11.178885963413926],["uovo",-11.178926289929763],["nero",-11.179155862451491],["действующи",-11.179158887661305],["permettere",-11.179860626400338],["книга",-11.179918275372968],["successiva",-11.179977560364184],["montre",-11.18031270271236],["широки",-11.180911560348779],["marked",-11.181053923619274],["металла",-11.181331156824408],["canal",-11.181552741454155],["padre",-11.1822718596327],["ond",-11.182636839688882],["кругл",-11.1826411905734],["accetta",-11.182721838072236],["lance",-11.18324806873252],["reproduc",-11.183406814066995],["ec",-11.183678938752344],["bande",-11.184227699541719],["camp",-11.184664368866617],["интернет",-11.1847980385227],["bottom",-11.18488872353812],["pensamiento",-11.184895852734822],["получить",-11.184962985408655],["использование",-11.185028525958082],["green",-11.185472312310843],["chacun",-11.185486153803192],["riliev",-11.185528821152204],["звание",-11.185568437605514],["блюдо",-11.185662415746986],["development",-11.185691029291952],["opponent",-11.185938992641276],["faculté",-11.18603023727161],["Marque",-11.186172897729612],["repeated",-11.186216736307665],["adibit",-11.186387718876889],["plástico",-11.186688594032164],["herida",-11.186935886808033],["pose",-11.187065289791306],["rápido",-11.187139344371971],["дом",-11.187546332164564],["pronuncia",-11.187604779952714],["accent",-11.187790265198238],["elabora",-11.187842427620994],["civile",-11.187979943786733],["ingrediente",-11.188055907042362],["достижени",-11.188096373715885],["clair",-11.188121815144918],["entire",-11.188140536491883],["confidence",-11.188781363918975],["сила",-11.188863614672567],["hablado",-11.188936464335802],["combine",-11.189105477867543],["sembl",-11.18926240351789],["dépense",-11.18927003302884],["twist",-11.18933906592968],["wing",-11.189374077044853],["centur",-11.189485972109807],["network",-11.1895920953335],["trouver",-11.189818642919281],["exchange",-11.189919191390267],["trasmission",-11.189974311959507],["laine",-11.190586948262524],["patte",-11.191098961188517],["experiencia",-11.191148005103951],["lasciar",-11.191187749284158],["diretta",-11.191198456460466],["concepto",-11.191282032889088],["enclose",-11.191366163075964],["violento",-11.191410336603166],["herbe",-11.191447371514524],["собак",-11.191503479420419],["inform",-11.19165854857259],["web",-11.191730102889208],["последователь",-11.191807584880792],["presa",-11.19181423063262],["done",-11.192294340611843],["station",-11.192881367018408],["rostro",-11.192967414235614],["nce",-11.193026562438806],["payment",-11.193060939359693],["capacité",-11.193497157702712],["мужчина",-11.193722743638968],["биохим",-11.193812633570733],["людя",-11.193961801790307],["distinta",-11.193986047258878],["froid",-11.194254912442876],["conscience",-11.194529184563098],["размер",-11.19467896268997],["существующи",-11.194775137618247],["huile",-11.194968123763553],["Suite",-11.195017900344716],["границ",-11.195057835037852],["colpo",-11.195638048247943],["cilindro",-11.195719374506147],["dignit",-11.196132733235931],["représenté",-11.19651327671189],["Ch",-11.196734275942198],["accident",-11.196880873148757],["anger",-11.197434584534381],["orthographe",-11.197520463683183],["facilit",-11.198403610220598],["necessit",-11.198505052671845],["inte",-11.198655807268526],["aître",-11.198662799356818],["casual",-11.19873153200066],["обмен",-11.198734422413645],["offre",-11.198777556921033],["обществе",-11.19883572429662],["italiana",-11.198938740625504],["atte",-11.19928616575308],["ценност",-11.19958738779442],["Terme",-11.199653412034419],["band",-11.20005302941358],["digne",-11.200119430527108],["entrar",-11.2001673872667],["piatt",-11.2002247669895],["ntended",-11.200379410635934],["кислоты",-11.200618876869413],["\\",-11.200641706210476],["Ф",-11.200658233331424],["Ouvrage",-11.200704215561109],["marriage",-11.200838950192578],["образования",-11.201025902378024],["idraulic",-11.201050429871493],["ressemble",-11.201103289818764],["faut",-11.201124109159824],["воротник",-11.201155794138895],["tratto",-11.201481871325644],["Pro",-11.201515296156767],["Sol",-11.201519710763034],["jugement",-11.20155969867265],["высот",-11.20202038053905],["œur",-11.202023387829081],["demand",-11.202046259801655],["désagréable",-11.202137595597234],["tar",-11.202500822915205],["монета",-11.202911948067776],["Terre",-11.203611717706497],["jeune",-11.2037407026714],["чин",-11.2037743056608],["conoce",-11.203812946339475],["cambiare",-11.20382381667537],["espectáculo",-11.203832554961988],["coscienz",-11.20401139452878],["americano",-11.204191973754906],["pezz",-11.204407479651703],["cronic",-11.20448933711645],["storic",-11.204510954785926],["contraste",-11.204560272463567],["jeunes",-11.20468595580422],["definit",-11.204771456493482],["roca",-11.2054045126091],["basic",-11.205754789312913],["situé",-11.206601170257699],["Sus",-11.206960403024482],["season",-11.206975822467928],["ricever",-11.207300573902092],["entertain",-11.207449688123559],["venta",-11.207594577847772],["Bibl",-11.208250353971476],["omonim",-11.208359386552008],["entr",-11.208554466387298],["addition",-11.208649894870952],["étendue",-11.20868394768624],["elaje",-11.208906631717173],["piacevole",-11.209539890780132],["outer",-11.209815130620935],["torique",-11.210564694700324],["Cine",-11.21064353706732],["calm",-11.210848052816234],["Pez",-11.211720974393288],["económica",-11.211818485129173],["Pharmac",-11.211841261193843],["commence",-11.21210778484797],["eccessiv",-11.212116077360289],["spirituale",-11.212325940045602],["factor",-11.212679621070407],["grass",-11.212765707981394],["sujeto",-11.213172381960112],["rumore",-11.213680136893188],["caja",-11.213947420496353],["verbe",-11.214818999685129],["meta",-11.214861339623535],["truth",-11.21529403987785],["afecto",-11.21561557498643],["бога",-11.215704780585295],["redonda",-11.216147669396037],["occupation",-11.216829261271995],["прийти",-11.21696319036639],["представляющий",-11.217174834148675],["Ma",-11.217212535363988],["mejor",-11.217407671780784],["foolish",-11.21743546546897],["lujo",-11.2175903693473],["humeur",-11.217634123826446],["percezion",-11.217716589130633],["pris",-11.217755924259347],["mâle",-11.217800185301316],["возможност",-11.218050942502305],["крупн",-11.218175105342757],["virtud",-11.219121785914162],["ica",-11.219276737632416],["método",-11.219383048152324],["ejecu",-11.219390132384321],["genes",-11.21965036940694],["ruido",-11.220110091895705],["sesso",-11.220585660404595],["lascia",-11.22061359753705],["impresa",-11.220632484666428],["приготовлени",-11.220718452529358],["associazion",-11.220811657198382],["assenz",-11.220914133301473],["hora",-11.221445211277842],["sottopost",-11.221607333657811],["fier",-11.222026939673206],["работник",-11.222159395880889],["mélange",-11.222182393244172],["arrête",-11.222194453559034],["горн",-11.222654666481212],["bateau",-11.222744249714466],["opuesta",-11.22279327064804],["многи",-11.222867794846564],["queue",-11.22288222794753],["товар",-11.223002722266997],["step",-11.22349747893323],["define",-11.223503992097475],["eléctrico",-11.223844813029821],["Arbusto",-11.224667769674603],["stop",-11.224864401766144],["глаз",-11.225105105947415],["caña",-11.225144305590359],["предприяти",-11.225271566236417],["mango",-11.225295641076425],["люди",-11.225429110161325],["Signo",-11.225509835142596],["vestido",-11.22556595302813],["rapporte",-11.225900112275102],["procure",-11.226482219131096],["differenz",-11.226726837787947],["parcial",-11.22690783035268],["научн",-11.22732871489296],["variabil",-11.227384187297979],["response",-11.227867812488547],["trarre",-11.228368269382951],["giudizio",-11.228589991132012],["solvent",-11.228761700391665],["effettuar",-11.228878033891853],["cast",-11.229025275991058],["compiut",-11.229157158215997],["blow",-11.229246405494308],["принимать",-11.229390876992174],["pull",-11.229487112669478],["succè",-11.229488607349806],["verifica",-11.229693912657687],["pezza",-11.229793662015982],["chant",-11.229821880997005],["diminu",-11.230222205970309],["atteint",-11.230294220519053],["ancho",-11.230516264779997],["piacer",-11.230689350941505],["expose",-11.230739049472664],["partido",-11.230881362719025],["membrane",-11.231072741321874],["deliver",-11.231491510354116],["miel",-11.23153017710889],["focus",-11.231742885470121],["ает",-11.232467440261548],["теле",-11.232955651734581],["XV",-11.233204585250672],["подвергать",-11.233210139409026],["Meteoro",-11.233550409626133],["medicinali",-11.233577129064873],["судно",-11.233593755655903],["тёмно",-11.233680450515438],["Volver",-11.233695029698534],["sable",-11.23390975235879],["fabrication",-11.233995500494535],["Perder",-11.234048469110371],["sauvage",-11.234054507696916],["problema",-11.234191174283474],["círculo",-11.234221840902324],["auteur",-11.234336424063386],["circa",-11.234492089448974],["grosse",-11.234499930697412],["modi",-11.234510763084703],["eight",-11.23457756798351],["avveniment",-11.23492082179165],["medicine",-11.234932581475293],["cet",-11.235210751283255],["dish",-11.235237669664329],["состояще",-11.235298894538502],["impres",-11.235318978837327],["vetro",-11.235396136567843],["mère",-11.235426343804372],["norme",-11.235438418435386],["violenta",-11.235997468437146],["десят",-11.236300153692504],["river",-11.236338323158787],["attorn",-11.236372799158426],["твёрд",-11.23650365657987],["volonté",-11.23659808898333],["condott",-11.236824899312186],["reçu",-11.237004732754851],["handle",-11.237150220227182],["cadena",-11.237895040965743],["trade",-11.238166437923017],["costante",-11.238219631541488],["dent",-11.238406016467312],["suivi",-11.238460932664655],["conform",-11.238465850018917],["заставля",-11.238739965188],["jardin",-11.239088638975883],["propose",-11.239315137711124],["связь",-11.239786741030876],["prestazion",-11.23985632954799],["toile",-11.23985717818476],["шум",-11.240014883023031],["domestique",-11.240191546062029],["длинно",-11.24029229379391],["perdere",-11.240439861512975],["recibir",-11.240682569319166],["giro",-11.240985011071137],["ответ",-11.241045553557612],["convention",-11.241386492651433],["pelota",-11.241754967692845],["minim",-11.24175739288863],["stress",-11.242009216036273],["peligro",-11.242016523890648],["sujeta",-11.242063045128482],["commit",-11.242255800536483],["difficulté",-11.242296590814114],["priva",-11.242434870132698],["hear",-11.242536923723835],["angue",-11.242873567078409],["letras",-11.242889139964678],["modificar",-11.24333626093474],["берег",-11.243503309981502],["topic",-11.243503570952814],["пред",-11.24397857129322],["environ",-11.244328045413305],["mandar",-11.24435006653393],["cérémonie",-11.24487520743001],["inclus",-11.244980152657241],["For",-11.24509824256289],["услуг",-11.245105808837469],["cour",-11.245137498460942],["fortun",-11.245177283951943],["alterna",-11.24527793334468],["расположение",-11.245294674021938],["sigue",-11.245369650587364],["adulto",-11.245405690467408],["chev",-11.24548106090991],["miscela",-11.245530721751646],["исполнени",-11.245718920866429],["волосы",-11.246001198423592],["impiegat",-11.246445168213747],["edifici",-11.246744836579323],["croi",-11.246904675072756],["conduite",-11.24697867751981],["ographie",-11.247139630312951],["contratt",-11.247327438141756],["музык",-11.247693789821621],["ga",-11.247711623843017],["bueno",-11.248018999701832],["vente",-11.248072129911002],["espina",-11.24834656829998],["spiritual",-11.248397808043505],["naissance",-11.249217690688113],["звука",-11.249468025234574],["giovane",-11.249501750606315],["elevat",-11.249569015338789],["цен",-11.24961828059856],["referencia",-11.249684752652607],["ese",-11.24998818964019],["середин",-11.250077249480356],["Sentiment",-11.250082527228358],["vitesse",-11.250120977748242],["successful",-11.250288456821375],["dentr",-11.250411614076565],["Lug",-11.250558334134666],["motori",-11.250665800552742],["brusque",-11.250798363468451],["our",-11.250827961343386],["ido",-11.250968935115464],["Programm",-11.25105459865719],["usaba",-11.251130213885538],["Titre",-11.251150015909754],["scala",-11.251162265603945],["ouvoir",-11.2511737813969],["советск",-11.251324634985403],["специальн",-11.251539277368579],["independiente",-11.251593322838938],["fast",-11.251937065675081],["esía",-11.252123073739995],["date",-11.25213169938718],["метод",-11.252150247954667],["polic",-11.252165027838561],["blando",-11.252173391827853],["ez",-11.252410920191796],["acuta",-11.252427079547713],["empleo",-11.252444697461447],["girl",-11.252606159020264],["Colombia",-11.252920212009595],["семь",-11.252983769696105],["pintura",-11.253118022072915],["president",-11.253159381079964],["ín",-11.25342375908296],["составляющи",-11.253461628223068],["trasforma",-11.253491822951245],["DN",-11.253693720421019],["cilindric",-11.253808415474765],["représentation",-11.253866214121224],["СС",-11.253892578355405],["governo",-11.254095157380792],["try",-11.25474214262842],["власть",-11.255060321173623],["publication",-11.255286349345143],["conservar",-11.255347418205488],["romaine",-11.25558446282389],["beat",-11.25559539547297],["dure",-11.255756244036146],["hot",-11.255870550443415],["ated",-11.255903619460087],["противника",-11.25607926673398],["vaisseau",-11.256118192405642],["ice",-11.257091005095695],["linguistic",-11.257122602210469],["obsolet",-11.257230186155436],["старин",-11.257379636710219],["stupid",-11.257563078737881],["покрыты",-11.257581377713231],["sky",-11.257733071019778],["ённы",-11.257733495462094],["cinq",-11.257801733636665],["employ",-11.257984915272221],["press",-11.258263062215086],["éprouve",-11.25829289962659],["Quantit",-11.258319368722034],["exploit",-11.258403929601005],["легка",-11.258588656750977],["précis",-11.25906637653859],["obiettiv",-11.259430591046996],["чик",-11.259805157227376],["onstruction",-11.260132466348578],["порядо",-11.260338968503309],["conclusion",-11.261121250670287],["assemble",-11.26153033147377],["nombreuse",-11.261769285501249],["употреблени",-11.261882781027554],["agisc",-11.261932726376925],["prove",-11.262222784821393],["sortir",-11.262383799337465],["egno",-11.262489127397028],["ispositivo",-11.262682796362014],["рыба",-11.26268306897958],["pace",-11.262754321626078],["transportar",-11.262899391573093],["учреждение",-11.262920846899902],["Tauromaqu",-11.263007230516125],["playe",-11.263108556204557],["consta",-11.263110168306715],["audio",-11.263164528196802],["urtou",-11.263375348624812],["espíritu",-11.263406331923571],["tromper",-11.263420456296455],["брать",-11.263455547826672],["producida",-11.264240185729138],["else",-11.264308926558133],["rama",-11.264706709433977],["Земл",-11.264784444127283],["aproximada",-11.265145998274441],["acompaña",-11.265191974074952],["качества",-11.265254247602059],["considerado",-11.265375042592073],["191",-11.265880250904928],["atom",-11.265895929905795],["cable",-11.26592178276029],["дерево",-11.265951832035327],["escala",-11.265998723049607],["fatta",-11.266008240203197],["vertebrado",-11.266275062284421],["commerciale",-11.26632527452647],["uitable",-11.266531209658744],["weapon",-11.266787584717015],["considérable",-11.266889732830085],["légume",-11.266909956021241],["combustible",-11.267074497913285],["prépare",-11.267089883341498],["creencia",-11.26723373708358],["fía",-11.267287896848718],["bitter",-11.26732718457928],["cubrir",-11.267428781331716],["price",-11.267509384112373],["Sin",-11.267631816596843],["caractérisée",-11.267658822852503],["procédé",-11.267730650003926],["douleur",-11.268086122329755],["склонность",-11.268224795538014],["traditionnelle",-11.268411087026607],["Central",-11.268494445403302],["совершая",-11.268587622295955],["better",-11.268722713865774],["analisi",-11.268791582192268],["molle",-11.26879887386336],["Maçonn",-11.268852897629213],["fiducia",-11.26895624022325],["Chemin",-11.269287231010066],["relief",-11.269308591876474],["stablecimiento",-11.269494347230129],["cry",-11.26956998116924],["interiore",-11.269657381435843],["судна",-11.269922179235909],["arriver",-11.270013990303203],["capell",-11.270020245855445],["defeat",-11.270116036564588],["réaction",-11.2701198081503],["severe",-11.270279614469034],["fornito",-11.270412148189955],["ould",-11.270421357083917],["enseignement",-11.270433387699907],["ejército",-11.270438074241506],["след",-11.270486586785815],["écrir",-11.270536711193271],["Produit",-11.270807465539349],["sofferenz",-11.270842986810091],["ideal",-11.271044804901162],["низу",-11.271075984440554],["chies",-11.271240867695255],["verdad",-11.271290828905858],["характеристика",-11.271413329256326],["Asie",-11.271445822361459],["incorrect",-11.271478184991253],["млекопитающе",-11.27152380357155],["compone",-11.271592424106696],["imprecisa",-11.271764510976219],["reptile",-11.271845729205184],["Di",-11.271972941152665],["protect",-11.272050526254867],["ago",-11.272272347847549],["magnetic",-11.272551580326537],["mover",-11.272684377948714],["эвф",-11.27269325646483],["клетк",-11.272768767908111],["ène",-11.27279187323045],["realidad",-11.272848399670231],["sensibilit",-11.273113559936345],["больши",-11.273324488701984],["Material",-11.273328375167129],["recent",-11.273360223731324],["ряде",-11.273416464587012],["свойства",-11.273496612807552],["политически",-11.27363708335156],["fiesta",-11.273787484206395],["nascost",-11.273997894199113],["inhabitant",-11.27401793995283],["явлени",-11.27401970185403],["nes",-11.274120045494682],["зависимост",-11.2741376920384],["heir",-11.27414677865378],["German",-11.274302587234379],["soddisfa",-11.27482531061839],["rispost",-11.275029851851292],["sal",-11.275190706907814],["dicha",-11.275204053484929],["enjoy",-11.275669355453008],["Full",-11.276313252958342],["parla",-11.276362291924753],["entrada",-11.276655142748158],["prepare",-11.276817752757726],["afecta",-11.276818767732294],["carbon",-11.276826505814958],["Medi",-11.27683974179538],["radical",-11.277143876598718],["верху",-11.277145324923543],["frutti",-11.277297843513495],["immagini",-11.27740679491405],["команд",-11.277449933539627],["confine",-11.277746321350154],["медленно",-11.277867825502547],["salsa",-11.278098537773705],["памят",-11.278140715831675],["bassa",-11.278778852677851],["последовательно",-11.27888287244048],["символ",-11.278939300487218],["legame",-11.279067287330744],["gú",-11.27907396973566],["capi",-11.279117330984707],["Европ",-11.279212331403226],["weak",-11.27946341265387],["olio",-11.2795746562861],["específico",-11.279781700694144],["dic",-11.279864664522236],["выражения",-11.279868528376852],["sexuales",-11.279957842971346],["micro",-11.28033342813957],["province",-11.280405665763482],["agente",-11.280444837202538],["estas",-11.280674033390909],["estima",-11.281019404310664],["essa",-11.281215215226332],["pres",-11.281587267164651],["duro",-11.281631761942318],["refiere",-11.281666859949869],["étend",-11.282249363933936],["lle",-11.282405939168914],["тем",-11.282407176073878],["ligero",-11.282577576681028],["ruota",-11.283173565150138],["voyage",-11.283174650591592],["вещи",-11.283293553246306],["tendre",-11.283451887943931],["учи",-11.283615144161626],["Vulga",-11.283698035026841],["herramienta",-11.28402138400515],["вой",-11.284121572973522],["Like",-11.28420010019454],["box",-11.28422980310802],["polvo",-11.28430727284492],["réalité",-11.284311784647025],["направления",-11.28444516649477],["broke",-11.284581088480081],["département",-11.284661308438345],["Partisan",-11.284695142453588],["établissement",-11.284717834204038],["amministrativ",-11.284762439233845],["bestia",-11.284803045400995],["meeting",-11.285101622157693],["respuesta",-11.285267731120456],["occurrence",-11.285556848120901],["architettonic",-11.285651757262634],["ège",-11.285725064154839],["papa",-11.286069026498083],["числе",-11.286593863853271],["К",-11.286668422121902],["literar",-11.286898383682349],["стар",-11.286996973878926],["авиац",-11.287026269214985],["stare",-11.287420093373422],["star",-11.287519091983695],["profesional",-11.287832555285952],["violente",-11.288286716200005],["versa",-11.288456849019965],["porté",-11.28864226121096],["fuente",-11.288643997434871],["depression",-11.28890498893623],["North",-11.2891940295611],["applie",-11.289307305973086],["Espac",-11.28950649252496],["учение",-11.289802568069522],["vif",-11.289924669836203],["stat",-11.290195758876852],["poudre",-11.290237609680343],["poche",-11.29031777618366],["plata",-11.290339705535942],["breath",-11.290346019131762],["conocido",-11.29048919991082],["matériau",-11.290534913970195],["ove",-11.290547944283439],["couple",-11.290639953758017],["collegat",-11.290974636487011],["laisser",-11.291024081470754],["nuova",-11.291207572818957],["prezzo",-11.29126423164707],["costituisc",-11.291984717787832],["cap",-11.292021167531118],["gather",-11.292442306173314],["positiva",-11.292664747380357],["Malad",-11.292792673899733],["Popula",-11.292917998385033],["rodea",-11.292964731125611],["tare",-11.293486344951734],["actuar",-11.29349677262414],["continente",-11.293894503720383],["batter",-11.29424228183986],["Latin",-11.294598701407152],["aggio",-11.294664852884155],["populaire",-11.294685979583415],["clara",-11.295365250947302],["mensaje",-11.295585764313005],["marche",-11.295644180380213],["vivre",-11.29575877205966],["Roman",-11.295844824659463],["mostra",-11.296177019230335],["мясо",-11.296489993072264],["possess",-11.296506897551312],["confront",-11.29681640185132],["коренно",-11.297027775291816],["occhi",-11.297043341509],["путе",-11.297081688642585],["union",-11.29712309327578],["cambia",-11.297591642543786],["stabilit",-11.297872177595043],["мира",-11.29815767929135],["conscious",-11.298162079497857],["boat",-11.298182663890707],["cardinal",-11.298232056335443],["health",-11.298277243303973],["игр",-11.298331863192026],["constante",-11.298994183483105],["ecimiento",-11.299077554849344],["lieve",-11.299181591929974],["мир",-11.299183391973372],["five",-11.299273944045604],["направленны",-11.29976756566984],["uébec",-11.299869615773423],["plastic",-11.299894392318944],["notable",-11.300024159088437],["connect",-11.300102778754255],["stock",-11.300310561924302],["rural",-11.300781827372498],["полов",-11.30111533104155],["ognun",-11.301165930974264],["Archaï",-11.301573963974981],["sufficient",-11.301603094546795],["mémoire",-11.301682184038665],["siège",-11.301684201342685],["effective",-11.301700790690509],["лишить",-11.30191191309929],["joven",-11.301963384520928],["neologism",-11.301985422312995],["Jardin",-11.302078845169685],["patient",-11.30218796117629],["высоки",-11.302204623753141],["немного",-11.30230002319265],["burn",-11.302325227419749],["Japan",-11.302387811907114],["milk",-11.30249482864682],["marché",-11.302498179926584],["dispose",-11.302506813720843],["smooth",-11.302767143265697],["endimiento",-11.303034410829301],["economica",-11.303532839003239],["consideration",-11.303807740043982],["rasgo",-11.303811063135663],["однородны",-11.30384378008511],["svolger",-11.303924405278767],["intenzion",-11.304025478512052],["reach",-11.3040743027859],["corne",-11.30428054514278],["mechanical",-11.304362544312209],["dimensione",-11.304494027279521],["benefit",-11.304503449544718],["другу",-11.304504777150548],["attaque",-11.304542359241573],["servi",-11.304821174170115],["Habla",-11.305091276539772],["dialett",-11.305328015135641],["lateral",-11.305438956092893],["meal",-11.30549361440259],["историческ",-11.305531933787238],["spectacle",-11.305712068920343],["hann",-11.305718980285405],["Afri",-11.305798480585704],["scrittura",-11.306195819065614],["arriba",-11.306319557718806],["праздник",-11.306321351298784],["émotion",-11.306627039464566],["sugar",-11.30695673994251],["unexpected",-11.307019173708703],["allungat",-11.307020915474979],["mécanique",-11.307164285625532],["international",-11.307311898788097],["Var",-11.307432750438283],["тип",-11.307477688683822],["K",-11.307591722270363],["establishe",-11.307741601625208],["вкус",-11.307775419122269],["ridott",-11.307825089521895],["recuerda",-11.30794787581178],["cercar",-11.307980519831306],["éfinition",-11.308390961113968],["intern",-11.30901794819562],["равн",-11.309020393260848],["Adorn",-11.309119561296578],["Place",-11.309149932089271],["consapevole",-11.309271272310362],["importan",-11.309315441510153],["fusion",-11.309621347537249],["употребляемы",-11.309659136491563],["твёрды",-11.309670532814305],["мужск",-11.309689524050674],["Rama",-11.309812158518397],["leader",-11.31036968903664],["sensazione",-11.310778250233405],["неприятно",-11.310977838129357],["cruz",-11.31137644522248],["minore",-11.311808097640093],["alor",-11.312077615164036],["entender",-11.312401570443033],["фигур",-11.312719254801465],["listen",-11.312898234418896],["Passer",-11.31339366027132],["жена",-11.31358609573995],["imiento",-11.313607348809672],["произведени",-11.313856175597333],["aparece",-11.313878180367311],["tation",-11.313890164565104],["diez",-11.314264189058374],["ricavat",-11.314332642677702],["facultad",-11.31446719480655],["вый",-11.314593517541685],["composta",-11.31461221238236],["batteri",-11.31475632189926],["immediate",-11.314833536137867],["cerdo",-11.31505631982543],["eccessiva",-11.315249049418242],["parecer",-11.31529325747415],["lógica",-11.31532875895195],["projet",-11.315491198348555],["45",-11.316329111942743],["Рус",-11.316352251037493],["esercit",-11.31641196386495],["spécial",-11.316755365061956],["rechaz",-11.316835638500432],["tiro",-11.31720136502242],["must",-11.317226186680355],["existencia",-11.317240677435054],["emozion",-11.317623194509842],["основны",-11.317940556983462],["dorso",-11.317974325525377],["Dios",-11.318347043285954],["cloud",-11.318671896206705],["Está",-11.318697359182012],["homosexual",-11.318988797691263],["cri",-11.319354250244473],["seguridad",-11.319388996681539],["précède",-11.319425440675818],["гипокор",-11.319449729138958],["Fruit",-11.319491398603878],["tha",-11.319569807379091],["Excessive",-11.319570386207214],["сложны",-11.319929648970163],["imagination",-11.32010222274116],["private",-11.3206915378051],["tting",-11.320747318359265],["полуостров",-11.320832927494031],["trabaja",-11.320988997280594],["взгляд",-11.32104715643425],["roll",-11.32105718766779],["correspondant",-11.321063710761525],["street",-11.321154461725675],["событий",-11.321175098084751],["plastica",-11.321257652222982],["manufacture",-11.321281447589907],["украшение",-11.321526771569172],["vissut",-11.321544835026295],["ьев",-11.321824278923408],["distinguer",-11.322070431642924],["hauteur",-11.322198325515613],["sinistra",-11.322309004052567],["perdu",-11.322928018612782],["responsable",-11.322937175154578],["lavora",-11.322980100140438],["naipe",-11.323009475328952],["sequenz",-11.323037622273073],["mixe",-11.32330313239984],["административны",-11.323332848572452],["emplean",-11.323592275047874],["sistemi",-11.323897145215593],["tipi",-11.324011791437034],["impose",-11.324155366953946],["medesim",-11.324623207420313],["14",-11.324698328016908],["ставлять",-11.325144172559192],["preced",-11.325519352333458],["ere",-11.325583628127294],["автор",-11.32570772534176],["errore",-11.325749476300047],["concentrazion",-11.325749541893796],["imita",-11.325778348772324],["necesaria",-11.325813758568085],["tempi",-11.326041121025401],["металлическ",-11.326172997582145],["leche",-11.326312051171175],["phase",-11.32656104460052],["ano",-11.326628272929554],["primero",-11.326663039412871],["Arme",-11.32674999173482],["medicamento",-11.32704195784193],["tratar",-11.327116646270007],["сорт",-11.327195411976017],["prepar",-11.327300669740527],["дома",-11.328372069806555],["appelée",-11.328502613364078],["текста",-11.328528393409966],["sexuel",-11.328549177112276],["provar",-11.32877166728079],["ja",-11.329112364731738],["exhibit",-11.32912657993781],["escrita",-11.32916144220521],["значительно",-11.329606726020504],["mitad",-11.329608106926626],["plaza",-11.329650882648581],["unusual",-11.329658255975666],["sant",-11.329764644909956],["Punt",-11.329936378330402],["П",-11.330070838567398],["min",-11.330321623537522],["tipografi",-11.330354532203952],["littéraire",-11.330880632944801],["bell",-11.330977476669556],["opening",-11.331095876133766],["corpi",-11.331187807860978],["ario",-11.331345497377196],["Documento",-11.331373010985654],["lavorator",-11.331436353497919],["plomb",-11.331653119832286],["reste",-11.331822599639045],["fascia",-11.331986834980437],["capa",-11.33218783498761],["ins",-11.332287414091825],["paga",-11.33237275058838],["fium",-11.33261248703947],["iguré",-11.332722397972546],["baile",-11.333443422296662],["defensa",-11.33351362046516],["гор",-11.333903228037386],["digital",-11.33419295729935],["vite",-11.33421688723251],["command",-11.334700275945998],["север",-11.335198326409953],["ultima",-11.335261567976625],["посуд",-11.335342399035559],["vocale",-11.33537309599762],["Sans",-11.335459699263808],["tica",-11.3358286753827],["facendo",-11.336009376554916],["faute",-11.336090587009503],["enti",-11.33613408788419],["lait",-11.336412808253005],["grazi",-11.33695717183333],["ambo",-11.336996799359925],["cinc",-11.337048069319458],["caza",-11.337190273047476],["Dis",-11.33747155279327],["–",-11.33760420029896],["È",-11.33760420029896],["LGBT",-11.337604242391548],["mercancía",-11.337656560209354],["édifice",-11.337658691424426],["correspondiente",-11.33766041688731],["falegnameri",-11.337682973425345],["músculo",-11.337710771838186],["Insect",-11.337817465437649],["conversation",-11.337862986340827],["rectangular",-11.338329479257203],["Mover",-11.338853909881047],["singol",-11.338956395037327],["земле",-11.339612470543114],["televisiv",-11.339661997555528],["рабочи",-11.339820415438243],["suficiente",-11.340006641101695],["он",-11.340030073626252],["exécute",-11.340077867030292],["детск",-11.340267256341868],["ordinar",-11.34035327626258],["œil",-11.340482430933255],["giocator",-11.340501871847138],["dessein",-11.340777640138125],["основ",-11.34078948497949],["suscita",-11.34140342718155],["demande",-11.341428070130723],["stable",-11.341571681374136],["fini",-11.342063495618191],["correr",-11.342197871251766],["iness",-11.342467071554317],["repas",-11.342512838273272],["chat",-11.342538289160707],["Европе",-11.342603749771456],["trozo",-11.342618141300864],["variation",-11.342660491597133],["принцип",-11.34272063565837],["representation",-11.342987362389183],["termini",-11.343157945406759],["possa",-11.343556159325756],["правления",-11.343707440873771],["llevan",-11.343868516167804],["государств",-11.3439213599894],["внезапно",-11.343926634890085],["espalda",-11.34444344730148],["file",-11.34459884320034],["emocional",-11.344729197243185],["experimenta",-11.34480569455446],["ados",-11.344842258903235],["profil",-11.345514756624386],["пить",-11.345665781803962],["omini",-11.345952322969755],["countri",-11.346630613777274],["cycle",-11.346997195967148],["театр",-11.347152965071519],["ién",-11.347276020003346],["container",-11.347579939521335],["inizial",-11.347598355672933],["thick",-11.348429066693068],["clean",-11.349514872275492],["головно",-11.350084609531258],["écoule",-11.350302950513182],["manifeste",-11.350523443288875],["тяжёло",-11.35082014507694],["долго",-11.351510701157332],["frappe",-11.352217746186692],["straight",-11.352218037798819],["ebida",-11.352374586649416],["temperature",-11.352530962852581],["Menu",-11.352536768124288],["плоски",-11.353578099210626],["cheveu",-11.353627369252099],["manifestar",-11.35401410242972],["vegeta",-11.354173447080553],["passant",-11.354239591056734],["нижне",-11.354264461690368],["romantic",-11.354786803682078],["navi",-11.355020824735174],["bit",-11.355218593839586],["Cristo",-11.35535030295171],["uch",-11.355944316398169],["gramatical",-11.35612422142174],["vernaculaire",-11.35612527516172],["жанр",-11.356255136473724],["harsh",-11.356321479587923],["polver",-11.35644593667105],["порода",-11.356492446648303],["древесин",-11.3564967680643],["manufatt",-11.356626062741892],["таком",-11.35665893784082],["onda",-11.356674748132745],["chaleur",-11.356717525133096],["settentrional",-11.356736625594154],["tissue",-11.356836681139875],["bound",-11.356869597234986],["Siti",-11.35692697439786],["минерал",-11.356975386585017],["препарат",-11.357032756829492],["mammifère",-11.357276080499911],["categoría",-11.357418015478014],["автомобиля",-11.357574887275117],["ancha",-11.357669891303617],["cinta",-11.357898719610848],["numerosa",-11.357958861184262],["industrial",-11.358016729514327],["surrounding",-11.358267781922475],["Hoja",-11.358509186412421],["ridicule",-11.35862796468199],["richiest",-11.358782018314706],["metri",-11.358860828357297],["détail",-11.35894515163842],["garment",-11.359297090967747],["cerve",-11.359359510520418],["cute",-11.359382404336722],["missione",-11.35941058834731],["Machine",-11.359698879850269],["considerada",-11.359705452897563],["difference",-11.35986707645891],["racimo",-11.360293765046954],["bu",-11.36031381466197],["modalit",-11.360447561759422],["constant",-11.360591603780973],["realizzazion",-11.360780869356343],["empty",-11.360807210130355],["parece",-11.361069256687408],["réuni",-11.361076376190141],["Америк",-11.36110440139091],["цы",-11.361153594333082],["свободно",-11.361746884078924],["работа",-11.361787474633566],["aquella",-11.362210431737138],["accomplish",-11.362251329357616],["fête",-11.362299905467145],["emo",-11.362314000089015],["характерно",-11.362503994651906],["sea",-11.36275258545218],["libertad",-11.363337148226746],["fija",-11.363359667833096],["superar",-11.363504537567817],["gravi",-11.363507687225365],["lograr",-11.363908801109961],["envers",-11.36416348031363],["солом",-11.36421706163751],["quant",-11.364285222715669],["ventana",-11.364301547723189],["художественно",-11.364807723932163],["discipline",-11.36485324564954],["numeri",-11.364899295192407],["bec",-11.365038619265983],["programme",-11.365128663347981],["comportars",-11.365611117600729],["poetic",-11.365655980273177],["caracterizada",-11.365699661241173],["conduit",-11.365932476061815],["rmement",-11.366320559804663],["diffusion",-11.366504337395998],["наличие",-11.366577148267234],["выгод",-11.366953514896654],["uguali",-11.367050046231732],["истори",-11.367288460759461],["сило",-11.367434860424453],["vapor",-11.36773069256057],["политическо",-11.367892750658175],["improve",-11.36794388807506],["risk",-11.367960674947481],["разу",-11.368258804246366],["ин",-11.368278149517746],["profundo",-11.368354968637345],["llega",-11.368920573111065],["ils",-11.369192760976361],["ingenio",-11.36932410583057],["segment",-11.369329298239617],["corrett",-11.369852710286562],["negozi",-11.370570216502275],["vision",-11.370593832941374],["superiorit",-11.370627555968124],["operate",-11.370703263966735],["руки",-11.370938668144552],["bal",-11.371012249253685],["precise",-11.371344446473024],["tension",-11.371349251844979],["noun",-11.371546852155127],["ситуаци",-11.371659130766623],["disposé",-11.371912225989375],["коротки",-11.371926136621992],["grosso",-11.37195311025387],["présentant",-11.372172453558901],["particle",-11.37236805112193],["volontaire",-11.3728681203904],["entend",-11.372966636528304],["nueva",-11.373138063863077],["toca",-11.373547985759888],["pop",-11.373554357117765],["coordina",-11.373859908624777],["inteligen",-11.37392449589844],["availab",-11.37393202162448],["Christ",-11.374117520047665],["determined",-11.374146020627332],["opinione",-11.374196832353014],["pal",-11.374602249817173],["latin",-11.374714549762167],["Греци",-11.374991119167934],["Établissement",-11.37499557849642],["centímetro",-11.375018913049951],["régulière",-11.375052052597962],["caballería",-11.375055727934],["fleuve",-11.375066244226499],["inmediata",-11.375213658224062],["thorough",-11.375235893198303],["catholique",-11.375236009149786],["économique",-11.375273274910391],["mostrar",-11.375281762085717],["responsabilidad",-11.375729193463334],["cámara",-11.375845830192725],["francese",-11.375868107073675],["attract",-11.375893674257963],["début",-11.376018545859118],["température",-11.376178535162467],["medical",-11.376192318200392],["reacción",-11.37620905109636],["многолетне",-11.37637735019268],["participant",-11.376521296577856],["organiza",-11.376570460003109],["Pasar",-11.376571014777753],["développement",-11.376669418679],["fitting",-11.376714576142621],["meridional",-11.37678924551972],["dominio",-11.376878161590918],["joy",-11.376959325907125],["sacerdote",-11.377228636356708],["Sentir",-11.377276015723442],["igueur",-11.377348948319245],["literatur",-11.377352448027171],["compra",-11.377707476805522],["model",-11.377927997382631],["компани",-11.378183355201347],["mercat",-11.378223808892209],["tien",-11.378259654457258],["need",-11.378406885221523],["lead",-11.378501452981544],["ourant",-11.378707492083606],["отдельн",-11.378717724657502],["ojo",-11.378855779644478],["assumer",-11.37904538844209],["нец",-11.379649371580893],["dénombr",-11.379920205561483],["вопрос",-11.380078589431264],["arth",-11.380234312331885],["Bande",-11.380547029552694],["torno",-11.380687469575612],["специальны",-11.380768659787734],["Bien",-11.380853203768876],["tte",-11.38087478936315],["considerable",-11.381103634071989],["девушка",-11.381207994292831],["miedo",-11.381233184335748],["fijo",-11.38154103443844],["волос",-11.381595646701367],["sentence",-11.38170776429373],["bovin",-11.38173303942813],["механизм",-11.382010819112473],["начал",-11.382031915458201],["rece",-11.382106923094913],["divine",-11.382219175404105],["égionalisme",-11.382228178066892],["culte",-11.38233712583478],["among",-11.382447477540614],["два",-11.382615134386969],["cellular",-11.382896833355932],["atteinte",-11.382922681399641],["внутренни",-11.383113277685947],["gradi",-11.383158153872747],["evenir",-11.383218884483462],["medir",-11.38323156208428],["scritta",-11.383251019434464],["grammatical",-11.383317252377786],["ощущение",-11.38344652546871],["успех",-11.383488983052782],["membre",-11.38398246697621],["Tire",-11.384210309273724],["recoger",-11.384269727925721],["переход",-11.384304275084542],["caric",-11.384325695305176],["mono",-11.384336868172802],["tranchant",-11.384354922773122],["abbia",-11.384548689468106],["stomac",-11.385100333245816],["Mal",-11.385425327108068],["bordo",-11.385462154101717],["restrain",-11.385562815461018],["Casa",-11.385803560114883],["représente",-11.386088009591553],["externa",-11.386211419698023],["tendencia",-11.386410453262268],["intervall",-11.386500078644229],["millon",-11.386570771147854],["ssez",-11.386634386986602],["réseau",-11.38666265141634],["wrong",-11.38670024675093],["femmin",-11.387177136828925],["Gree",-11.387194266299915],["filosofica",-11.387286793795816],["artista",-11.387480688243489],["glass",-11.387626554461082],["disputa",-11.387847042346385],["examine",-11.388201526291375],["спин",-11.388698198716162],["norm",-11.388841353400608],["cr",-11.389071726881465],["lento",-11.389281339737542],["воздействие",-11.389303173793103],["circonstance",-11.38954646060497],["cavo",-11.389632315547452],["комплекс",-11.390015572691672],["copert",-11.390065123581717],["получаемы",-11.390406969414219],["lier",-11.390537699161897],["durée",-11.390539202858324],["ajeno",-11.390710687805598],["passé",-11.390932264187446],["semplici",-11.391910676877547],["boule",-11.391932754412636],["musulman",-11.392204557948556],["fisi",-11.392291498603585],["adecuado",-11.39233924112436],["oir",-11.392522498182908],["подразделени",-11.392595345533291],["heart",-11.392633241760059],["access",-11.392648668457628],["обстоятельств",-11.392703028675307],["relieve",-11.39283361002656],["national",-11.393231205768114],["Est",-11.393431605998625],["электро",-11.393569142310286],["occhio",-11.39367950716802],["почти",-11.394207283662698],["affair",-11.394363525718457],["покрывать",-11.394367053133191],["mette",-11.394460980216135],["había",-11.394493203731871],["поле",-11.394563082954605],["responsibilit",-11.394586936323396],["riconosciut",-11.39463288455946],["ejecuta",-11.394638701637932],["impossib",-11.394688719386593],["поступк",-11.394895123693729],["doigt",-11.39502950926526],["служащ",-11.395135353778368],["initial",-11.39540165116945],["riproduzion",-11.395650471832177],["cuivre",-11.395857453249253],["couvri",-11.396038745248411],["terie",-11.396133549775008],["excesivo",-11.39644207770475],["alcoholic",-11.396565941243333],["rotation",-11.396573488488235],["spoke",-11.396761182050616],["восточно",-11.396777236007612],["inspire",-11.39697057744559],["acque",-11.397057047531153],["industriale",-11.397425812346327],["Sole",-11.397529572187576],["ocho",-11.397586303775702],["ary",-11.397600931990262],["doméstico",-11.39761814157285],["taglio",-11.397643831601664],["attitudin",-11.397773019854302],["criterio",-11.397790200660996],["bearing",-11.397805225829515],["убить",-11.397893440140653],["nourriture",-11.398067211891611],["âtre",-11.398348234989488],["ию",-11.39849082594701],["tanza",-11.39878983963833],["acquire",-11.399051267026671],["saber",-11.399348364270498],["dirigir",-11.399631381086484],["народ",-11.399716039647858],["slender",-11.399767113237143],["plane",-11.399831049908299],["mid",-11.399868854007853],["literaria",-11.400037112307373],["officielle",-11.40018355354967],["cereal",-11.40020464716024],["цев",-11.400237568273802],["mucosa",-11.40024295677533],["unknow",-11.400343762647392],["wish",-11.40050177361314],["tira",-11.400622400294804],["essence",-11.400639393592407],["устройства",-11.400824108142217],["arrangement",-11.401083764327996],["obtenido",-11.401184819840253],["ess",-11.4013992942701],["numéro",-11.401661438539739],["push",-11.401695800315977],["protezion",-11.401907607305912],["mistake",-11.401950454672935],["трад",-11.402179582388637],["artificiale",-11.402317631194402],["чье",-11.402410029718403],["colorant",-11.402639176247432],["conosciut",-11.402691622680518],["passa",-11.40277524172758],["electrical",-11.4027852720948],["ava",-11.402985980018215],["judge",-11.403031809556834],["Mobili",-11.403217201039334],["autor",-11.40323325737505],["внешни",-11.403850793986974],["across",-11.40388973507157],["caratteri",-11.404088656465417],
[...]
