{"version":"1.0","truncation":null,"padding":null,"added_tokens":[{"id":0,"special":true,"content":"<pad/>","single_word":false,"lstrip":false,"rstrip":false,"normalized":false},{"id":1,"special":true,"content":"</seq>","single_word":false,"lstrip":false,"rstrip":false,"normalized":false},{"id":2,"special":true,"content":"<seq>","single_word":false,"lstrip":false,"rstrip":false,"normalized":false},{"id":3,"special":true,"content":"<unk/>","single_word":false,"lstrip":false,"rstrip":false,"normalized":false},{"id":4,"special":true,"content":"<en>","single_word":false,"lstrip":false,"rstrip":false,"normalized":false},{"id":5,"special":true,"content":"<es>","single_word":false,"lstrip":false,"rstrip":false,"normalized":false},{"id":6,"special":true,"content":"<fr>","single_word":false,"lstrip":false,"rstrip":false,"normalized":false},{"id":7,"special":true,"content":"<it>","single_word":false,"lstrip":false,"rstrip":false,"normalized":false},{"id":8,"special":true,"content":"<ru>","single_word":false,"lstrip":false,"rstrip":false,"normalized":false}],"normalizer":null,"pre_tokenizer":{"type":"Whitespace"},"post_processor":null,"decoder":null,"model":{"type":"WordPiece","unk_token":"<unk/>","continuing_subword_prefix":"##","max_input_chars_per_word":100,"vocab":{"<pad/>":0,"</seq>":1,"<seq>":2,"<unk/>":3,"<en>":4,"<es>":5,"<fr>":6,"<it>":7,"<ru>":8,"!":9,"#":10,"%":11,"&":12,"'":13,"(":14,")":15,"*":16,"+":17,",":18,"-":19,".":20,"/":21,"0":22,"1":23,"2":24,"3":25,"4":26,"5":27,"6":28,"7":29,"8":30,"9":31,":":32,";":33,"<":34,"=":35,">":36,"?":37,"A":38,"B":39,"C":40,"D":41,"E":42,"F":43,"G":44,"H":45,"I":46,"J":47,"K":48,"L":49,"M":50,"N":51,"O":52,"P":53,"Q":54,"R":55,"S":56,"T":57,"U":58,"V":59,"W":60,"X":61,"Y":62,"Z":63,"[":64,"\\":65,"]":66,"^":67,"_":68,"`":69,"a":70,"b":71,"c":72,"d":73,"e":74,"f":75,"g":76,"h":77,"i":78,"j":79,"k":80,"l":81,"m":82,"n":83,"o":84,"p":85,"q":86,"r":87,"s":88,"t":89,"u":90,"v":91,"w":92,"x":93,"y":94,"z":95,"{":96,"|":97,"}":98,"~":99,"¡":100,"¨":101,"ª":102,"­":103,"®":104,"°":105,"±":106,"²":107,"³":108,"µ":109,"¶":110,"º":111,"½":112,"¿":113,"Á":114,"Å":115,"É":116,"Í":117,"Ó":118,"×":119,"Ú":120,"ß":121,"à":122,"á":123,"ã":124,"å":125,"ç":126,"è":127,"é":128,"ê":129,"ë":130,"ì":131,"í":132,"î":133,"ï":134,"ð":135,"ñ":136,"ò":137,"ó":138,"ö":139,"ø":140,"ù":141,"ú":142,"ü":143,"ā":144,"ą":145,"ē":146,"ī":147,"ł":148,"ř":149,"ś":150,"ů":151,"ʃ":152,"ʎ":153,"ʔ":154,"ʝ":155,"ʼ":156,"ˈ":157,"ː":158,"̣":159,"Ξ":160,"Π":161,"Ρ":162,"Χ":163,"ή":164,"α":165,"β":166,"γ":167,"δ":168,"η":169,"θ":170,"ι":171,"κ":172,"λ":173,"μ":174,"ν":175,"ξ":176,"π":177,"ρ":178,"ς":179,"σ":180,"τ":181,"υ":182,"ό":183,"ύ":184,"ϐ":185,"א":186,"ד":187,"י":188,"ب":189,"ة":190,"ح":191,"ص":192,"ط":193,"م":194,"ن":195,"ي":196,"ُ":197,"ّ":198,"ḥ":199,"ṣ":200,"ṭ":201,"ἑ":202,"​":203,"—":204,"‘":205,"…":206,"‰":207,"″":208,"⁰":209,"⁷":210,"⁺":211,"⁻":212,"₀":213,"₁":214,"₅":215,"→":216,"−":217,"≈":218,"≠":219,"≤":220,"≥":221,"♕":222,"♖":223,"♘":224,"♛":225,"♜":226,"♞":227,"♡":228,"♢":229,"♥":230,"♦":231,"♭":232,"✓":233,"⟨":234,"⟩":235,"蕎":236,"麦":237,"Ꞌ":238,"ꞌ":239,"##s":240,"##t":241,"##r":242,"##u":243,"##c":244,"##a":245,"##l":246,"##m":247,"##o":248,"##i":249,"##e":250,"##n":251,"##é":252,"##d":253,"##B":254,"##E":255,"##9":256,"##D":257,"##h":258,"##q":259,"##A":260,"##C":261,"##ó":262,"##ñ":263,"##z":264,"##v":265,"##g":266,"##p":267,"##f":268,"##j":269,"##á":270,"##b":271,"##1":272,"##2":273,"##x":274,"##í":275,"##ú":276,"##8":277,"##7":278,"##y":279,"##I":280,"##6":281,"##0":282,"##4":283,"##k":284,"##κ":285,"##α":286,"##τ":287,"##ό":288,"##μ":289,"##ϐ":290,"##η":291,"##3":292,"##O":293,"##G":294,"##L":295,"##5":296,"##à":297,"##ü":298,"##ḥ":299,"##ī":300,"##V":301,"##H":302,"##M":303,"##R":304,"##N":305,"##P":306,"##X":307,"##w":308,"##F":309,"##T":310,"##ª":311,"##S":312,"##ø":313,"##å":314,"##_":315,"##ā":316,"##ç":317,"##º":318,"##U":319,"##'":320,"##ṣ":321,"##​":322,"##ã":323,"##\\":324,"##.":325,"##-":326,"##/":327,"##₀":328,"##ط":329,"##ح":330,"##ي":331,"##ن":332,"##ة":333,"##ï":334,"##ʼ":335,"##—":336,"##ê":337,"##ł":338,"##ą":339,"##ś":340,"##ř":341,"##ů":342,"##ò":343,"##π":344,"##J":345,"##Z":346,"##Y":347,"##¨":348,"##ë":349,"##è":350,"##î":351,"##ʃ":352,"##ì":353,"##ν":354,"##δ":355,"##ρ":356,"##ς":357,"##ö":358,"##ː":359,"##ד":360,"##`":361,"##ē":362,"##Ó":363,"##ُ":364,"##م":365,"##ّ":366,"##ص":367,"##→":368,"##θ":369,"##ύ":370,"##麦":371,"##ù":372,"##|":373,"##⁷":374,"##Q":375,"##K":376,"##υ":377,"##ή":378,"##ι":379,"##σ":380,"de":381,"##er":382,"##en":383,"##ar":384,"##os":385,"##ci":386,"##on":387,"##as":388,"##ue":389,"##or":390,"##es":391,"##ad":392,"##al":393,"##an":394,"##ic":395,"un":396,"##ent":397,"en":398,"que":399,"##ón":400,"la":401,"##st":402,"##in":403,"con":404,"##id":405,"##om":406,"##ción":407,"##ec":408,"##ro":409,"##ra":410,"el":411,"al":412,".|":413,"se":414,"##ti":415,"##ol":416,"##to":417,"##re":418,"par":419,"##ica":420,"una":421,"##te":422,"##ment":423,"##ado":424,"##ta":425,"##la":426,"##ri":427,"re":428,"es":429,"##un":430,"in":431,"##ía":432,"su":433,"del":434,"los":435,"##ul":436,"##il":437,"##ab":438,"com":439,"por":440,"##di":441,"##ma":442,"##do":443,"para":444,"##tu":445,"##le":446,"##ter":447,"las":448,"alg":449,"##is":450,"per":451,"##ien":452,"##ada":453,"##mente":454,"cu":455,"pro":456,"##ia":457,"##mp":458,"##de":459,"##ac":460,"##cia":461,"est":462,"##ten":463,"##io":464,"##idad":465,"Que":466,"##ir":467,"##tr":468,"##tiv":469,"##ig":470,"ex":471,"##son":472,"##se":473,"##lo":474,"##ión":475,"##pe":476,"##ient":477,"##ist":478,"##im":479,"##qu":480,"##am":481,"##ie":482,"##cion":483,"##ier":484,"##za":485,"##ru":486,"##oc":487,"##res":488,"##gu":489,"ac":490,"##ico":491,"##og":492,"##pa":493,"##ido":494,"##tar":495,"##sona":496,"an":497,"##ran":498,"des":499,"##iv":500,"##ente":501,"##ales":502,"##da":503,"me":504,"car":505,"##us":506,"##ici":507,"for":508,"##bre":509,"##uc":510,"##ación":511,"no":512,"##ho":513,"como":514,"algo":515,"##almente":516,"##tos":517,"##án":518,"##po":519,"##tivo":520,"##mo":521,"##je":522,"##lan":523,"ca":524,"##tro":525,"##ogía":526,"##go":527,"##era":528,"##dad":529,"##ecto":530,"##iene":531,"##cu":532,"##el":533,"##na":534,"##que":535,"##tra":536,"##ología":537,"##osa":538,"##peci":539,"ar":540,"##iento":541,"##ida":542,"##um":543,"##cción":544,"us":545,"##tica":546,"Per":547,"##ero":548,"##encia":549,"ob":550,"##par":551,"##it":552,"##ás":553,"##iz":554,"##if":555,"Se":556,"##ante":557,"##tura":558,"especi":559,"so":560,"rela":561,"##tre":562,"En":563,"##ce":564,"##ciones":565,"mo":566,"Con":567,"##per":568,"ma":569,"##gar":570,"pr":571,"##tic":572,"tiene":573,"##tes":574,"##ados":575,"ef":576,"col":577,"##inar":578,"res":579,"##onom":580,"##ur":581,"ser":582,"##ener":583,"##ina":584,"cor":585,"Acción":586,"man":587,"##rig":588,"lo":589,"##ular":590,"##tas":591,"##uer":592,"hab":593,"##ve":594,"forma":595,"##ece":596,"##ne":597,"comp":598,"prop":599,"Persona":600,"te":601,"##unto":602,"##aj":603,"efecto":604,"De":605,"persona":606,"##ib":607,"##co":608,"##tor":609,"algun":610,"##arse":611,"##mb":612,"dic":613,"##ga":614,"##ces":615,"##ras":616,"##gua":617,"##ando":618,"##me":619,"Re":620,"##fici":621,"Es":622,"##tens":623,"hac":624,"##mento":625,"más":626,"##adas":627,"mu":628,"##ot":629,"##ño":630,"##itu":631,"pe":632,"In":633,"##ios":634,"##fer":635,"##teri":636,"##duc":637,"##uien":638,"cons":639,"ha":640,"##ores":641,"sin":642,"tra":643,"##ún":644,"##til":645,"pue":646,"entre":647,"le":648,"as":649,"##der":650,"medi":651,"##las":652,"##cul":653,"##ca":654,"##por":655,"pa":656,"otr":657,"##min":658,"cual":659,"Me":660,"cosa":661,"dice":662,"ap":663,"sus":664,"dos":665,"sobre":666,"##íst":667,"dis":668,"##ha":669,"imp":670,"##ust":671,"##ismo":672,"or":673,"perten":674,"##onomía":675,"##ones":676,"##én":677,"ver":678,"Por":679,"gener":680,"##ánica":681,"##ano":682,"ab":683,"##ens":684,"ad":685,"##uest":686,"rec":687,"##oj":688,"##stru":689,"Ar":690,"##ver":691,"gran":692,"Pro":693,"cuer":694,"cab":695,"parte":696,"emp":697,"##orm":698,"##riginar":699,"alguien":700,"##ña":701,"pre":702,"et":703,"##quier":704,"##echo":705,"##oso":706,"##den":707,"##ura":708,"##ugar":709,"##miento":710,"##los":711,"##ual":712,"##ita":713,"muy":714,"##pres":715,"esc":716,"##onde":717,"na":718,"##junto":719,"Bot":720,"##ren":721,"##no":722,"Botánica":723,"##dos":724,"otro":725,"##mentos":726,"extens":727,"##lar":728,"##cina":729,"etc":730,"##idos":731,"##cip":732,"cos":733,"##ancia":734,"plan":735,"##les":736,"var":737,"##pos":738,"##entes":739,"##amb":740,"##lu":741,"##able":742,"##ís":743,"super":744,"relativo":745,"##ér":746,"ve":747,"##tal":748,"pie":749,"##ición":750,"##ing":751,"pos":752,"esp":753,"##ino":754,"extensión":755,"otra":756,"##so":757,"form":758,"modo":759,"dif":760,"Medi":761,"person":762,"##jer":763,"##és":764,"##esti":765,"##du":766,"##cio":767,"pres":768,"El":769,"Est":770,"##ob":771,"son":772,"##oca":773,"inf":774,"pertenece":775,"conci":776,"color":777,"Zo":778,"can":779,"##inal":780,"##astr":781,"pas":782,"cuerpo":783,"mar":784,"prov":785,"##ias":786,"##amil":787,"donde":788,"to":789,"##tiva":790,"inter":791,"Dic":792,"##gr":793,"##ana":794,"ter":795,"##va":796,"##enta":797,"##icas":798,"##iste":799,"obje":800,"otros":801,"uso":802,"am":803,"##rans":804,"##ecu":805,"pal":806,"##ene":807,"##iza":808,"está":809,"##tur":810,"Zoología":811,"##astronomía":812,"Dicho":813,"cal":814,"especialmente":815,"##itar":816,"##ombre":817,"alguna":818,"Medicina":819,"anim":820,"##ím":821,"##car":822,"sol":823,"famil":824,"##ba":825,"cas":826,"personas":827,"concier":828,"ra":829,"peque":830,"##eces":831,"##ística":832,"div":833,"lugar":834,"concierne":835,"##zo":836,"ele":837,"puede":838,"##lica":839,"##icos":840,"au":841,"propio":842,"sal":843,"##one":844,"##ja":845,"##duci":846,"##mpo":847,"##áu":848,"emple":849,"##das":850,"##dica":851,"##tado":852,"##ipo":853,"familia":854,"Gastronomía":855,"fun":856,"cier":857,"lle":858,"##ario":859,"##áutica":860,"uno":861,"##gan":862,"##asta":863,"generalmente":864,"da":865,"##eci":866,"La":867,"reg":868,"carac":869,"hacer":870,"##rar":871,"##ticular":872,"##gen":873,"##rib":874,"Par":875,"af":876,"##ác":877,"##tom":878,"##acer":879,"fuer":880,"produc":881,"##ador":882,"##ub":883,"dist":884,"##em":885,"ne":886,"##oner":887,"##ch":888,"##ús":889,"men":890,"##ito":891,"lar":892,"##oci":893,"##áce":894,"##iente":895,"particular":896,"po":897,"Conjunto":898,"hace":899,"cer":900,"##icar":901,"##des":902,"Náutica":903,"lí":904,"especial":905,"sig":906,"##tir":907,"##ajo":908,"##udi":909,"##ble":910,"##icio":911,"##elig":912,"muc":913,"##lig":914,"si":915,"##cias":916,"##porte":917,"##terior":918,"##orma":919,"hasta":920,"inc":921,"##rupo":922,"##mi":923,"real":924,"##má":925,"##ingü":926,"hum":927,"##ena":928,"val":929,"hoj":930,"util":931,"##jo":932,"##bol":933,"##eza":934,"##tidad":935,"trans":936,"..":937,"mal":938,"blan":939,"originar":940,"##dar":941,"caracter":942,"##ín":943,"##ceso":944,"cul":945,"fru":946,"##oma":947,"tr":948,"Su":949,"qu":950,"##fía":951,"##tico":952,"##cil":953,"mismo":954,"##ech":955,"##uel":956,"cuy":957,"##ior":958,"##imiento":959,"cualquier":960,"##ven":961,"##rim":962,"##ilar":963,"##ingüística":964,"tie":965,"den":966,"esta":967,"##jar":968,"viv":969,"##ección":970,"sim":971,"agua":972,"mad":973,"##iones":974,"##cial":975,"ali":976,"##uego":977,"relación":978,"may":979,"difer":980,"co":981,"desde":982,"sent":983,"algún":984,"Lingüística":985,"ta":986,"##ide":987,"##sa":988,"##ento":989,"...":990,"##tener":991,"pol":992,"pronom":993,"fin":994,"##zar":995,"bas":996,"cosas":997,"caus":998,"Hacer":999,"##ecer":1000,"fr":1001,"her":1002,"Relig":1003,"sir":1004,"tiempo":1005,"fl":1006,"##culo":1007,"pronominal":1008,"Religión":1009,"##incip":1010,"##ños":1011,"anti":1012,"Prop":1013,"bien":1014,"##mas":1015,"Des":1016,"gra":1017,"Originar":1018,"gr":1019,"##mos":1020,"##var":1021,"##can":1022,"desp":1023,"##ambi":1024,"Un":1025,"apar":1026,"##idades":1027,"materi":1028,"sí":1029,"##cidad":1030,"Originario":1031,"acción":1032,"du":1033,"ju":1034,"##úsica":1035,"##eb":1036,"sust":1037,"##omb":1038,"lla":1039,"resp":1040,"originaria":1041,"princip":1042,"##engua":1043,"Ca":1044,"deter":1045,"espa":1046,"hojas":1047,"An":1048,"##ío":1049,"tal":1050,"##idas":1051,"##izar":1052,"##óm":1053,"##dición":1054,"##quit":1055,"##ficio":1056,"di":1057,"##iología":1058,"##gos":1059,"##quitec":1060,"deb":1061,"##ticas":1062,"##lación":1063,"otras":1064,"ro":1065,"rep":1066,"##cional":1067,"##úb":1068,"conf":1069,"Espa":1070,"Com":1071,"##óg":1072,"##antes":1073,"este":1074,"mayor":1075,"nú":1076,"##uar":1077,"##cur":1078,"##eros":1079,"fa":1080,"##illa":1081,"op":1082,"##tural":1083,"Cual":1084,"Ex":1085,"##cas":1086,"bu":1087,"mis":1088,"##rica":1089,"##ea":1090,"contra":1091,"Ma":1092,"##zas":1093,"##oria":1094,"fal":1095,"resul":1096,"superfici":1097,"##cionado":1098,"def":1099,"##ientos":1100,"cre":1101,"situ":1102,"##gre":1103,"dest":1104,"##quitectura":1105,"##oco":1106,"Qu":1107,"ch":1108,"pla":1109,"sex":1110,"##ímica":1111,"##ducir":1112,"sirve":1113,"##tad":1114,"##dor":1115,"Propio":1116,"##ros":1117,"habit":1118,"##ible":1119,"pl":1120,"hacia":1121,"grupo":1122,"##ísica":1123,"medio":1124,"##gra":1125,"##eno":1126,"determin":1127,"pes":1128,"##vo":1129,"li":1130,"equ":1131,"##ías":1132,"##ers":1133,"##amiento":1134,"Ac":1135,"##mero":1136,"##ies":1137,"vol":1138,"común":1139,"bar":1140,"##ál":1141,"ba":1142,"mus":1143,"##rbol":1144,"##menta":1145,"animales":1146,"##ion":1147,"##ip":1148,"cuando":1149,"##éc":1150,"estado":1151,"Arquitectura":1152,"Al":1153,"##end":1154,"##endo":1155,"orden":1156,"Biología":1157,"mon":1158,"##cib":1159,"##cupa":1160,"manera":1161,"##eciente":1162,"orig":1163,"encu":1164,"##icación":1165,"todo":1166,"pun":1167,"mor":1168,"##inu":1169,"capa":1170,"Parte":1171,"##tomía":1172,"##áceas":1173,"sue":1174,"##iedad":1175,"serv":1176,"##rist":1177,"sub":1178,"##aba":1179,"objeto":1180,"líqu":1181,"similar":1182,"Ana":1183,"cir":1184,"ni":1185,"seg":1186,"trab":1187,"Ge":1188,"Música":1189,"ev":1190,"expres":1191,"##ves":1192,"##tación":1193,"mov":1194,"Anatomía":1195,"##tiene":1196,"##ambién":1197,"ins":1198,"consid":1199,"Der":1200,"##echa":1201,"ref":1202,"##izado":1203,"Pe":1204,"va":1205,"##anza":1206,"##rante":1207,"##ería":1208,"##ista":1209,"cr":1210,"##ilidad":1211,"##ierra":1212,"##iar":1213,"mas":1214,"##icado":1215,"cada":1216,"tor":1217,"##icia":1218,"exp":1219,"cantidad":1220,"##ola":1221,"prof":1222,"##nos":1223,"cabal":1224,"tipo":1225,"encuent":1226,"Mu":1227,"palab":1228,"##ona":1229,"##rir":1230,"usa":1231,"número":1232,"poco":1233,"##íf":1234,"cent":1235,"##ilo":1236,"flores":1237,"##adamente":1238,"comun":1239,"Ch":1240,"tama":1241,"##con":1242,"dese":1243,"partes":1244,"Cualquier":1245,"algunos":1246,"##ácter":1247,"Derecho":1248,"indi":1249,"cub":1250,"especies":1251,"##ora":1252,"##érica":1253,"##istema":1254,"superficie":1255,"##tan":1256,"##iol":1257,"##uesto":1258,"sec":1259,"España":1260,"largo":1261,"##gado":1262,"##ile":1263,"##tividad":1264,"conjunto":1265,"##aja":1266,"emb":1267,"##ril":1268,"extre":1269,"general":1270,"##istoria":1271,"mediante":1272,"##tud":1273,"material":1274,"tamaño":1275,"##gas":1276,"##ulo":1277,"##posición":1278,"ide":1279,"púb":1280,"carácter":1281,"##zón":1282,"amar":1283,"animal":1284,"eje":1285,"##inas":1286,"pero":1287,"##mpl":1288,"estudi":1289,"repres":1290,"proviene":1291,"##iva":1292,"Inf":1293,"agu":1294,"fu":1295,"instru":1296,"##imo":1297,"madera":1298,"Car":1299,"mol":1300,"tener":1301,"##cos":1302,"##ome":1303,"natural":1304,"neces":1305,"elementos":1306,"ir":1307,"##olo":1308,"superior":1309,"Química":1310,"der":1311,"##ración":1312,"intens":1313,"##abor":1314,"##iencia":1315,"durante":1316,"##rol":1317,"organ":1318,"norm":1319,"##ge":1320,"##íces":1321,"##ris":1322,"enfer":1323,"cabeza":1324,"divers":1325,"##cha":1326,"##erv":1327,"altura":1328,"san":1329,"##dida":1330,"##ática":1331,"##mar":1332,"##ire":1333,"valor":1334,"##undo":1335,"##medad":1336,"##ribu":1337,"##tó":1338,"ag":1339,"mil":1340,"##uro":1341,"##entar":1342,"Cada":1343,"Dis":1344,"tien":1345,"ej":1346,"##ula":1347,"##und":1348,"##tros":1349,"at":1350,"ci":1351,"deci":1352,"##anos":1353,"Ob":1354,"##stitu":1355,"##rafía":1356,"##tera":1357,"##isión":1358,"Ec":1359,"##cer":1360,"##ñas":1361,"##tención":1362,"ace":1363,"ven":1364,"##ud":1365,"##jos":1366,"habitante":1367,"##icul":1368,"##usto":1369,"también":1370,"##atro":1371,"##alidad":1372,"##ectos":1373,"##illo":1374,"hue":1375,"hecho":1376,"misma":1377,"án":1378,"##cimiento":1379,"relig":1380,"infer":1381,"algunas":1382,"sem":1383,"característ":1384,"dar":1385,"roj":1386,"##hí":1387,"##ical":1388,"distin":1389,"Pie":1390,"##ima":1391,"##ye":1392,"##iendo":1393,"lib":1394,"##vid":1395,"##ort":1396,"##culos":1397,"guar":1398,"##tivos":1399,"##áb":1400,"varias":1401,"Var":1402,"##ást":1403,"##endi":1404,"##ine":1405,"##temá":1406,"##udad":1407,"##ato":1408,"fuerza":1409,"consider":1410,"aire":1411,"doc":1412,"prim":1413,"Plan":1414,"##vés":1415,"##trar":1416,"Deporte":1417,"gas":1418,"veces":1419,"##man":1420,"cap":1421,"escri":1422,"Física":1423,"mone":1424,"tres":1425,"##inero":1426,"sa":1427,"##dic":1428,"##énero":1429,"autor":1430,"grande":1431,"dir":1432,"##rg":1433,"ella":1434,"piel":1435,"Col":1436,"quien":1437,"tierra":1438,"##van":1439,"planta":1440,"humano":1441,"hor":1442,"##ética":1443,"Historia":1444,"lengua":1445,"##itud":1446,"cuyo":1447,"gan":1448,"tej":1449,"ciudad":1450,"Poner":1451,"##inos":1452,"pequeño":1453,"pare":1454,"##tamente":1455,"dom":1456,"##pon":1457,"##orte":1458,"mujer":1459,"##ización":1460,"##edad":1461,"##ól":1462,"##igura":1463,"temp":1464,"produce":1465,"##ormación":1466,"##reci":1467,"inv":1468,"prepar":1469,"dig":1470,"él":1471,"##ítica":1472,"comple":1473,"diferentes":1474,"##teg":1475,"##lativo":1476,"nombre":1477,"##áf":1478,"##arrol":1479,"Mo":1480,"ce":1481,"##dia":1482,"relacionado":1483,"Economía":1484,"##gada":1485,"az":1486,"##rac":1487,"##illas":1488,"##taria":1489,"##strucción":1490,"causa":1491,"##tido":1492,"##uesta":1493,"##ícese":1494,"''":1495,"##ira":1496,"cont":1497,"recib":1498,"##quel":1499,"usado":1500,"Condición":1501,"##fr":1502,"##ala":1503,"llam":1504,"origen":1505,"##temáticas":1506,"tab":1507,"##sión":1508,"dec":1509,"actividad":1510,"Can":1511,"``":1512,"árbol":1513,"conduc":1514,"cur":1515,"apro":1516,"objetos":1517,"Mujer":1518,"##eta":1519,"pose":1520,"Dícese":1521,"##lor":1522,"##vor":1523,"##entil":1524,"##mej":1525,"plantas":1526,"resultado":1527,"vida":1528,"##tí":1529,"##pel":1530,"fruto":1531,"trad":1532,"base":1533,"líquido":1534,"encuentra":1535,"ru":1536,"##olpe":1537,"requ":1538,"obra":1539,"##ocar":1540,"##estimenta":1541,"Lugar":1542,"punto":1543,"##rado":1544,"##izada":1545,"asp":1546,"circ":1547,"hier":1548,"tras":1549,"conoci":1550,"##ánd":1551,"través":1552,"mucho":1553,"Nombre":1554,"atra":1555,"dinero":1556,"##lada":1557,"##tio":1558,"menos":1559,"movimiento":1560,"mer":1561,"lab":1562,"Matemáticas":1563,"situación":1564,"##gular":1565,"##00":1566,"desarrol":1567,"metal":1568,"##ormática":1569,"neg":1570,"Dar":1571,"Her":1572,"Ocupa":1573,"fi":1574,"sistema":1575,"##inado":1576,"separ":1577,"inte":1578,"estar":1579,"##reno":1580,"##ria":1581,"##cep":1582,"dentro":1583,"tar":1584,"##lado":1585,"##nas":1586,"##aria":1587,"##iminu":1588,"emplea":1589,"##bo":1590,"pueb":1591,"import":1592,"bajo":1593,"Planta":1594,"##cido":1595,"públ":1596,"##entilicio":1597,"lig":1598,"##anto":1599,"unos":1600,"proceso":1601,"clas":1602,"##lic":1603,"##ós":1604,"##dir":1605,"desc":1606,"antigua":1607,"Gentilicio":1608,"##ite":1609,"##via":1610,"sea":1611,"much":1612,"Ocupaciones":1613,"As":1614,"##inación":1615,"##ológ":1616,"suje":1617,"##torio":1618,"##grad":1619,"Diminu":1620,"beb":1621,"rom":1622,"##eo":1623,"cuatro":1624,"extra":1625,"desa":1626,"##ivo":1627,"Unidad":1628,"ejemp":1629,"requer":1630,"Diminutivo":1631,"red":1632,"comer":1633,"##ival":1634,"Informática":1635,"Tipo":1636,"lu":1637,"alter":1638,"##titud":1639,"##usión":1640,"pequeña":1641,"fuerte":1642,"Mil":1643,"##íp":1644,"señ":1645,"especie":1646,"##uras":1647,"bor":1648,"ya":1649,"##gn":1650,"##gía":1651,"##omo":1652,"sexual":1653,"enfermedad":1654,"ejecu":1655,"cin":1656,"ind":1657,"antes":1658,"met":1659,"##cula":1660,"tienen":1661,"##tada":1662,"##jas":1663,"##esión":1664,"##tamiento":1665,"sob":1666,"tex":1667,"aplica":1668,"Am":1669,"cm":1670,"er":1671,"mie":1672,"semej":1673,"##irse":1674,"##mite":1675,"camb":1676,"##ya":1677,"##rea":1678,"consiste":1679,"poder":1680,"inferior":1681,"amb":1682,"##he":1683,"##tis":1684,"capacidad":1685,"clar":1686,"gen":1687,"os":1688,"##ferido":1689,"##dose":1690,"Man":1691,"Pol":1692,"##itos":1693,"##dent":1694,"##encias":1695,"##ografía":1696,"Pieza":1697,"Vestimenta":1698,"cru":1699,"tro":1700,"##zos":1701,"##eras":1702,"Instru":1703,"tom":1704,"dem":1705,"Forma":1706,"emo":1707,"ten":1708,"tri":1709,"viol":1710,"##ancias":1711,"usada":1712,"##ensa":1713,"Pa":1714,"##ral":1715,"##ong":1716,"musical":1717,"aquel":1718,"##sta":1719,"##mática":1720,"Cualquiera":1721,"fon":1722,"pan":1723,"pul":1724,"habita":1725,"varios":1726,"españ":1727,"##vidu":1728,"cam":1729,"ejer":1730,"##emen":1731,"ofici":1732,"ram":1733,"##ierto":1734,"Perten":1735,"corres":1736,"espec":1737,"Milicia":1738,"oc":1739,"##ende":1740,"##ono":1741,"aj":1742,"##cin":1743,"proce":1744,"formado":1745,"según":1746,"características":1747,"Te":1748,"cita":1749,"##ución":1750,"compar":1751,"##sos":1752,"##áp":1753,"comesti":1754,"##istencia":1755,"##ural":1756,"##nea":1757,"perteneciente":1758,"blanco":1759,"pri":1760,"##zc":1761,"##adores":1762,"##teria":1763,"##segu":1764,"actu":1765,"función":1766,"región":1767,"Tra":1768,"##tarse":1769,"Lengua":1770,"Trans":1771,"cl":1772,"##ió":1773,"##dra":1774,"contiene":1775,"##echos":1776,"falta":1777,"igu":1778,"##íz":1779,"estr":1780,"cuya":1781,"embar":1782,"requerida":1783,"sentido":1784,"##ram":1785,"##ruc":1786,"ban":1787,"produci":1788,"palabras":1789,"má":1790,"##minist":1791,"grandes":1792,"mano":1793,"Instrumento":1794,"fab":1795,"vis":1796,"exc":1797,"##istente":1798,"##pañ":1799,"vehí":1800,"grue":1801,"Ap":1802,"esf":1803,"##tenido":1804,"##tivas":1805,"dura":1806,"género":1807,"sac":1808,"##iner":1809,"información":1810,"espacio":1811,"Grupo":1812,"##ués":1813,"##orme":1814,"##ecuencia":1815,"Imp":1816,"edi":1817,"mé":1818,"##ial":1819,"segu":1820,"Especi":1821,"Chile":1822,"América":1823,"Hab":1824,"he":1825,"pin":1826,"##pas":1827,"elec":1828,"soci":1829,"ejemplo":1830,"##tón":1831,"##izo":1832,"No":1833,"##itivo":1834,"cargo":1835,"Perteneciente":1836,"crist":1837,"femen":1838,"nue":1839,"sie":1840,"##anas":1841,"##ierta":1842,"Referido":1843,"país":1844,"##sic":1845,"##udo":1846,"Cor":1847,"Tener":1848,"vir":1849,"##rio":1850,"##lex":1851,"carne":1852,"Estado":1853,"inclu":1854,"principal":1855,"trabajo":1856,"tradi":1857,"Na":1858,"##nif":1859,"##ientes":1860,"##mentar":1861,"estruc":1862,"##cipiente":1863,"##rgano":1864,"público":1865,"poner":1866,"##ór":1867,"##úa":1868,"##cios":1869,"vege":1870,"terreno":1871,"fís":1872,"##tel":1873,"cuad":1874,"##tría":1875,"social":1876,"##ticos":1877,"compuesto":1878,"equival":1879,"háb":1880,"interior":1881,"lleva":1882,"quím":1883,"bienes":1884,"fuera":1885,"cuel":1886,"long":1887,"##gue":1888,"##ender":1889,"conc":1890,"elemento":1891,"ciertos":1892,"determinado":1893,"aspecto":1894,"Ser":1895,"años":1896,"juego":1897,"sido":1898,"##vil":1899,"##ían":1900,"alcan":1901,"partir":1902,"##dimiento":1903,"propia":1904,"solo":1905,"utiliza":1906,"Super":1907,"Fal":1908,"exper":1909,"##cionar":1910,"verde":1911,"Ab":1912,"Pr":1913,"loc":1914,"ros":1915,"##tán":1916,"##tivamente":1917,"##gradable":1918,"##ramient":1919,"aun":1920,"poca":1921,"##tid":1922,"enc":1923,"##turas":1924,"##mple":1925,"propiedad":1926,"pelo":1927,"##ñar":1928,"suma":1929,"están":1930,"obs":1931,"sonido":1932,"Anti":1933,"##ómico":1934,"oscu":1935,"arte":1936,"obtener":1937,"habitu":1938,"##coh":1939,"consum":1940,"antigu":1941,"suelo":1942,"longitud":1943,"ast":1944,"mes":1945,"##oy":1946,"##zado":1947,"hay":1948,"alimento":1949,"##éctr":1950,"instrumentos":1951,"fil":1952,"##nica":1953,"##fa":1954,"dep":1955,"##olor":1956,"##aban":1957,"##imientos":1958,"así":1959,"posición":1960,"monetaria":1961,"jue":1962,"vig":1963,"##dido":1964,"comb":1965,"##uestra":1966,"luz":1967,"dul":1968,"ge":1969,"pel":1970,"##gü":1971,"##alo":1972,"##riente":1973,"tela":1974,"leg":1975,"siglo":1976,"incl":1977,"##mitir":1978,"gob":1979,"##bar":1980,"ciertas":1981,"menor":1982,"frutos":1983,"sustancia":1984,"palabra":1985,"lado":1986,"##entina":1987,"eléctr":1988,"alcoh":1989,"##una":1990,"##mac":1991,"Res":1992,"ima":1993,"##iante":1994,"##entación":1995,"estable":1996,"##iere":1997,"Arte":1998,"llevar":1999,"respecto":2000,"pueblo":2001,"bal":2002,"gu":2003,"##ila":2004,"##eric":2005,"##ord":2006,"alto":2007,"##dedor":2008,"después":2009,"defin":2010,"##endencia":2011,"Fil":2012,"boca":2013,"mam":2014,"oficio":2015,"##tri":2016,"##umento":2017,"##cación":2018,"encar":2019,"##tero":2020,"papel":2021,"voc":2022,"##cado":2023,"##itación":2024,"individu":2025,"ánimo":2026,"cad":2027,"nar":2028,"##uda":2029,"##uela":2030,"##alogía":2031,"condición":2032,"ale":2033,"corte":2034,"administ":2035,"##osofía":2036,"repro":2037,"normalmente":2038,"acep":2039,"av":2040,"final":2041,"ráp":2042,"##dr":2043,"##asa":2044,"##adura":2045,"##ecta":2046,"refer":2047,"calidad":2048,"Mé":2049,"aves":2050,"sab":2051,"##tá":2052,"##tida":2053,"##tados":2054,"condi":2055,"##dif":2056,"materia":2057,"serie":2058,"abund":2059,"piezas":2060,"cualquiera":2061,"ropa":2062,"atención":2063,"mom":2064,"mac":2065,"sos":2066,"##op":2067,"##nar":2068,"##enos":2069,"##ale":2070,"##olver":2071,"##ierno":2072,"##ioso":2073,"disp":2074,"utilizado":2075,"autoridad":2076,"pob":2077,"##vas":2078,"enten":2079,"alre":2080,"##tif":2081,"##unda":2082,"sur":2083,"exces":2084,"ante":2085,"Ele":2086,"Los":2087,"Ve":2088,"mue":2089,"##mientos":2090,"##ít":2091,"depor":2092,"##ulos":2093,"##acción":2094,"##érmin":2095,"favor":2096,"caballo":2097,"dirección":2098,"Mar":2099,"dado":2100,"ocupa":2101,"pone":2102,"rad":2103,"##ergía":2104,"##tería":2105,"habla":2106,"facil":2107,"Peque":2108,"sangre":2109,"##sar":2110,"hierro":2111,"señal":2112,"ampl":2113,"vo":2114,"##igur":2115,"##icios":2116,"cierto":2117,"cierta":2118,"servicio":2119,"##icultura":2120,"posee":2121,"Cu":2122,"Or":2123,"Son":2124,"apo":2125,"mec":2126,"puer":2127,"##ualmente":2128,"##umo":2129,"##inada":2130,"dicho":2131,"sola":2132,"militar":2133,"Especie":2134,"fac":2135,"sp":2136,"##cri":2137,"##br":2138,"##bles":2139,"##ecen":2140,"##ill":2141,"manif":2142,"##tensil":2143,"pueden":2144,"todos":2145,"pequeñas":2146,"alimentos":2147,"fuego":2148,"figura":2149,"gal":2150,"gri":2151,"ocur":2152,"Árbol":2153,"##gles":2154,"##aso":2155,"##and":2156,"##positivo":2157,"Transporte":2158,"alrededor":2159,"sabor":2160,"dedica":2161,"unidad":2162,"parti":2163,"inde":2164,"##iso":2165,"acto":2166,"impres":2167,"ador":2168,"##char":2169,"diversos":2170,"clase":2171,"hecha":2172,"##lti":2173,"##onas":2174,"##ulas":2175,"perf":2176,"mezc":2177,"ley":2178,"##uestas":2179,"herb":2180,"extremo":2181,"decir":2182,"Apar":2183,"##xico":2184,"entr":2185,"contro":2186,"constru":2187,"##mación":2188,"compor":2189,"##culas":2190,"vez":2191,"circun":2192,"importancia":2193,"Política":2194,"norte":2195,"tub":2196,"##ám":2197,"##tores":2198,"recon":2199,"Proceso":2200,"pieza":2201,"##áctica":2202,"##ácea":2203,"signif":2204,"tejido":2205,"negro":2206,"Li":2207,"Num":2208,"bra":2209,"bus":2210,"lim":2211,"ocas":2212,"##él":2213,"##dente":2214,"energía":2215,"elabor":2216,"haber":2217,"hablada":2218,"alguno":2219,"##ensión":2220,"terri":2221,"plural":2222,"moral":2223,"Ast":2224,"arm":2225,"empleado":2226,"volun":2227,"demás":2228,"comestible":2229,"bo":2230,"muer":2231,"num":2232,"##ónica":2233,"conven":2234,"institu":2235,"##dio":2236,"acom":2237,"oblig":2238,"##izon":2239,"compren":2240,"##ajar":2241,"difí":2242,"##gricultura":2243,"cultiv":2244,"horizon":2245,"cuello":2246,"tanto":2247,"zona":2248,"##enda":2249,"##ismática":2250,"##ometría":2251,"aunque":2252,"gar":2253,"jun":2254,"sól":2255,"##ric":2256,"##isa":2257,"##peti":2258,"anterior":2259,"##mbolo":2260,"larga":2261,"realizar":2262,"principalmente":2263,"dirig":2264,"sumamente":2265,"San":2266,"cri":2267,"lan":2268,"noc":2269,"vent":2270,"##pre":2271,"##ático":2272,"enci":2273,"metros":2274,"árboles":2275,"##sicología":2276,"Filosofía":2277,"Numismática":2278,"Ter":2279,"pier":2280,"ép":2281,"##iosa":2282,"constitu":2283,"alar":2284,"##ienda":2285,"##aca":2286,"##ital":2287,"ideas":2288,"Cosa":2289,"ay":2290,"bol":2291,"hombre":2292,"##ase":2293,"##anismo":2294,"enga":2295,"come":2296,"proteg":2297,"cola":2298,"escrib":2299,"influ":2300,"Geología":2301,"Variante":2302,"cambio":2303,"estructura":2304,"Gran":2305,"ata":2306,"bene":2307,"idi":2308,"prac":2309,"sil":2310,"ub":2311,"viento":2312,"##nidad":2313,"##gentina":2314,"##ár":2315,"##mental":2316,"permite":2317,"cubre":2318,"carn":2319,"asunto":2320,"patas":2321,"forman":2322,"presenta":2323,"polí":2324,"##íodo":2325,"##ósito":2326,"flu":2327,"golpe":2328,"ór":2329,"##nia":2330,"##bas":2331,"##osas":2332,"inm":2333,"##quina":2334,"mej":2335,"suele":2336,"centro":2337,"estudia":2338,"igual":2339,"Ra":2340,"gente":2341,"ment":2342,"##tin":2343,"##tante":2344,"##vos":2345,"##ífer":2346,"##enas":2347,"exter":2348,"línea":2349,"escrito":2350,"Sal":2351,"of":2352,"pu":2353,"##ácil":2354,"##ír":2355,"##sto":2356,"ing":2357,"##tus":2358,"perió":2359,"producir":2360,"##ivel":2361,"##ello":2362,"diversas":2363,"dulce":2364,"momento":2365,"bre":2366,"física":2367,"pens":2368,"##licar":2369,"##xim":2370,"##onar":2371,"##onia":2372,"peren":2373,"campo":2374,"arma":2375,"##ducción":2376,"piedra":2377,"materiales":2378,"rojo":2379,"oscuro":2380,"cel":2381,"edad":2382,"##dan":2383,"conta":2384,"vertic":2385,"mala":2386,"aliment":2387,"opin":2388,"correspon":2389,"equivalente":2390,"químico":2391,"Po":2392,"ident":2393,"##yo":2394,"cuid":2395,"daño":2396,"masa":2397,"Cantidad":2398,"Superlativo":2399,"difícil":2400,"mundo":2401,"##lí":2402,"##oral":2403,"arro":2404,"cualidad":2405,"Geometría":2406,"texto":2407,"electr":2408,"##ard":2409,"estos":2410,"funcion":2411,"tron":2412,"llama":2413,"punta":2414,"spp":2415,"Lo":2416,"términ":2417,"##iado":2418,"##ex":2419,"##vado":2420,"##oría":2421,"pareci":2422,"##icamente":2423,"rev":2424,"carga":2425,"arb":2426,"arti":2427,"Argentina":2428,"frente":2429,"jug":2430,"derecho":2431,"ganado":2432,"típ":2433,"##ag":2434,"##oto":2435,"##dico":2436,"##erar":2437,"Inter":2438,"adver":2439,"destinado":2440,"##tórica":2441,"##teratura":2442,"##endiente":2443,"semejante":2444,"Psicología":2445,"Sust":2446,"día":2447,"econ":2448,"junto":2449,"##ron":2450,"##cto":2451,"##orden":2452,"contr":2453,"conoc":2454,"##ector":2455,"ellos":2456,"seres":2457,"corr":2458,"haci":2459,"sitio":2460,"Capa":2461,"##curso":2462,"Au":2463,"Golpe":2464,"is":2465,"##túa":2466,"##ético":2467,"##ólo":2468,"##icales":2469,"##rag":2470,"##ables":2471,"##irar":2472,"##rup":2473,"##uso":2474,"##ques":2475,"##uerzo":2476,"##renda":2477,"formada":2478,"pasar":2479,"divid":2480,"determinada":2481,"##iesta":2482,"estudio":2483,"##uropa":2484,"Ave":2485,"Pas":2486,"fir":2487,"gris":2488,"hoy":2489,"toma":2490,"##cular":2491,"##gulo":2492,"unas":2493,"suf":2494,"##cionalmente":2495,"##usar":2496,"pron":2497,"provin":2498,"organismo":2499,"##ástico":2500,"intelig":2501,"Hombre":2502,"ori":2503,"vista":2504,"##tales":2505,"##lina":2506,"##óvil":2507,"##table":2508,"Construcción":2509,"corre":2510,"corta":2511,"verdad":2512,"objetivo":2513,"casi":2514,"funda":2515,"distribu":2516,"vive":2517,"intenso":2518,"vehículo":2519,"Sol":2520,"cil":2521,"hon":2522,"len":2523,"pic":2524,"rob":2525,"##rada":2526,"alta":2527,"##ole":2528,"rel":2529,"##acto":2530,"##ensación":2531,"cabo":2532,"vari":2533,"termin":2534,"miemb":2535,"Gu":2536,"Le":2537,"nivel":2538,"pad":2539,"##cti":2540,"##val":2541,"##oles":2542,"esper":2543,"##ificación":2544,"org":2545,"nave":2546,"costu":2547,"dificul":2548,"razón":2549,"producto":2550,"##idez":2551,"libre":2552,"puntos":2553,"azul":2554,"desarrollo":2555,"circunst":2556,"Cal":2557,"Las":2558,"Ta":2559,"muestra":2560,"on":2561,"pub":2562,"##ju":2563,"##abl":2564,"##oger":2565,"##uerdo":2566,"tele":2567,"##portar":2568,"apreci":2569,"posterior":2570,"formando":2571,"símbolo":2572,"buena":2573,"Acto":2574,"Europa":2575,"año":2576,"fácil":2577,"ras":2578,"##iana":2579,"##ést":2580,"##íos":2581,"cara":2582,"tema":2583,"Rela":2584,"##estir":2585,"debe":2586,"idea":2587,"Una":2588,"log":2589,"pon":2590,"ton":2591,"##jado":2592,"##II":2593,"##osición":2594,"##ines":2595,"construcción":2596,"ellas":2597,"intro":2598,"cuenta":2599,"exterior":2600,"##lante":2601,"##elas":2602,"regular":2603,"blancas":2604,"diferencia":2605,"peso":2606,"##ífico":2607,"irre":2608,"edificio":2609,"baja":2610,"dolor":2611,"ti":2612,"##ído":2613,"contenido":2614,"ingen":2615,"##abilidad":2616,"comida":2617,"pers":2618,"proces":2619,"##qui":2620,"##inaria":2621,"##mbra":2622,"apre":2623,"##geno":2624,"Herramient":2625,"muchas":2626,"Elemento":2627,"Agricultura":2628,"Juego":2629,"Lle":2630,"guer":2631,"##cho":2632,"##ez":2633,"proy":2634,"##mpre":2635,"Relativo":2636,"##usta":2637,"recor":2638,"plano":2639,"raz":2640,"blanca":2641,"respon":2642,"amarillo":2643,"tomar":2644,"oficial":2645,"siempre":2646,"físico":2647,"voz":2648,"dob":2649,"##ónico":2650,"camp":2651,"propor":2652,"##metro":2653,"##metros":2654,"letra":2655,"casa":2656,"nego":2657,"tallo":2658,"rode":2659,"representa":2660,"intensidad":2661,"época":2662,"10":2663,"Pre":2664,"Pla":2665,"Sus":2666,"han":2667,"ofr":2668,"##ulación":2669,"##ber":2670,"inici":2671,"indica":2672,"##guas":2673,"##ándose":2674,"orna":2675,"provoca":2676,"cultura":2677,"fines":2678,"liter":2679,"expresión":2680,"México":2681,"Figura":2682,"mul":2683,"dejar":2684,"##ant":2685,"cuar":2686,"##resa":2687,"##idae":2688,"Recipiente":2689,"todas":2690,"flor":2691,"profes":2692,"represent":2693,"tabla":2694,"grie":2695,"##íferos":2696,"Sustancia":2697,"go":2698,"lados":2699,"lech":2700,"nerv":2701,"rue":2702,"siente":2703,"zonas":2704,"##minar":2705,"##óp":2706,"##ciar":2707,"##esta":2708,"env":2709,"sel":2710,"##laz":2711,"##ritu":2712,"carb":2713,"usan":2714,"##ibu":2715,"caso":2716,"pequeños":2717,"distancia":2718,"Comp":2719,"servicios":2720,"expresa":2721,"tempera":2722,"gru":2723,"gusto":2724,"##aciones":2725,"##enar":2726,"##olos":2727,"##iforme":2728,"compon":2729,"realiza":2730,"frecu":2731,"Geografía":2732,"Obje":2733,"Fru":2734,"Si":2735,"Utensil":2736,"ade":2737,"era":2738,"mos":2739,"vul":2740,"##ed":2741,"deri":2742,"##eca":2743,"##trás":2744,"exist":2745,"##ificar":2746,"Rep":2747,"presión":2748,"llegar":2749,"capaz":2750,"naturaleza":2751,"embarcación":2752,"condiciones":2753,"periódica":2754,"flex":2755,"música":2756,"téc":2757,"ves":2758,"##uales":2759,"##ban":2760,"alf":2761,"##leb":2762,"##entemente":2763,"##izan":2764,"palo":2765,"mujeres":2766,"ramas":2767,"femenino":2768,"mamíferos":2769,"##ítulo":2770,"Tiene":2771,"tales":2772,"tot":2773,"##rán":2774,"##men":2775,"##vada":2776,"##este":2777,"conv":2778,"ello":2779,"##titu":2780,"##laje":2781,"reun":2782,"actúa":2783,"moder":2784,"abs":2785,"autom":2786,"afec":2787,"aparato":2788,"aproxim":2789,"cinco":2790,"pelig":2791,"##tando":2792,"##orar":2793,"##omin":2794,"ese":2795,"acciones":2796,"acuerdo":2797,"##umen":2798,"mantener":2799,"pat":2800,"Expres":2801,"comunicación":2802,"secre":2803,"instrumento":2804,"atómico":2805,"recibe":2806,"redon":2807,"Literatura":2808,"territorio":2809,"inteligencia":2810,"Sent":2811,"hal":2812,"##pes":2813,"##lando":2814,"coloc":2815,"respe":2816,"hacen":2817,"##duce":2818,"medios":2819,"##énd":2820,"##uestos":2821,"velo":2822,"menudo":2823,"##ipes":2824,"evitar":2825,"pública":2826,"semillas":2827,"continu":2828,"incluye":2829,"proteger":2830,"tronco":2831,"Relacionado":2832,"Doc":2833,"Is":2834,"Sistema":2835,"fer":2836,"mit":2837,"plu":2838,"##enóm":2839,"conver":2840,"cumpl":2841,"##ific":2842,"vivo":2843,"debajo":2844,"resulta":2845,"##grafía":2846,"limp":2847,"cubierta":2848,"español":2849,"ejerci":2850,"breve":2851,"opinión":2852,"Prenda":2853,"Rec":2854,"die":2855,"im":2856,"##arios":2857,"almac":2858,"cuales":2859,"cuero":2860,"##istas":2861,"corriente":2862,"##ibles":2863,"##tiles":2864,"medicina":2865,"Producir":2866,"calor":2867,"##ivamente":2868,"aceite":2869,"corteza":2870,"Objeto":2871,"bril":2872,"coci":2873,"ning":2874,"##mbre":2875,"##iores":2876,"##ícula":2877,"##úcar":2878,"ense":2879,"prote":2880,"##mpe":2881,"##quia":2882,"##inario":2883,"manos":2884,"##neas":2885,"impul":2886,"adecu":2887,"##verse":2888,"formas":2889,"##adora":2890,"mucha":2891,"Espacio":2892,"antiguamente":2893,"claro":2894,"española":2895,"sociedad":2896,"19":2897,"dim":2898,"##ton":2899,"##dado":2900,"##visión":2901,"##gación":2902,"artic":2903,"trata":2904,"dise":2905,"##enez":2906,"productos":2907,"utilizada":2908,"diá":2909,"líquidos":2910,"caball":2911,"##iológ":2912,"ambos":2913,"grueso":2914,"propiedades":2915,"institución":2916,"Calidad":2917,"Pal":2918,"Pres":2919,"ado":2920,"har":2921,"##fe":2922,"alas":2923,"##igno":2924,"desig":2925,"##ánico":2926,"obras":2927,"efectos":2928,"colum":2929,"colores":2930,"Dejar":2931,"recur":2932,"hoja":2933,"##áldica":2934,"considera":2935,"liber":2936,"ligera":2937,"muchos":2938,"Antigua":2939,"gobierno":2940,"voluntad":2941,"acompañ":2942,"ave":2943,"ec":2944,"educ":2945,"fib":2946,"hom":2947,"igles":2948,"ll":2949,"pen":2950,"vas":2951,"##up":2952,"##uta":2953,"##mor":2954,"##zada":2955,"const":2956,"inme":2957,"sua":2958,"##tario":2959,"##cub":2960,"compuesta":2961,"salud":2962,"transporte":2963,"tallos":2964,"Cualidad":2965,"##ional":2966,"conocimiento":2967,"Falta":2968,"encima":2969,"dificultad":2970,"Ad":2971,"agradable":2972,"miner":2973,"##uir":2974,"##diente":2975,"percib":2976,"##isto":2977,"##usa":2978,"corto":2979,"paso":2980,"amor":2981,"raíz":2982,"diferente":2983,"grado":2984,"sustancias":2985,"sexo":2986,"trabaj":2987,"insectos":2988,"##áfico":2989,"azúcar":2990,"población":2991,"Aparato":2992,"comportamiento":2993,"provincia":2994,"guerra":2995,"Miner":2996,"adi":2997,"fe":2998,"fran":2999,"hist":3000,"il":3001,"ur":3002,"Órgano":3003,"##día":3004,"##óf":3005,"##gun":3006,"##gio":3007,"##olución":3008,"inst":3009,"prot":3010,"estilo":3011,"##tras":3012,"propósito":3013,"toda":3014,"interpre":3015,"##grado":3016,"apariencia":3017,"sustan":3018,"##ómica":3019,"##ífero":3020,"central":3021,"extremos":3022,"Dispositivo":3023,"grupos":3024,"fol":3025,"luego":3026,"últi":3027,"##dencia":3028,"##erías":3029,"perman":3030,"analogía":3031,"Enfer":3032,"interés":3033,"buen":3034,"similares":3035,"necesario":3036,"indust":3037,"esfuerzo":3038,"tradicional":3039,"imagen":3040,"lenguas":3041,"pluma":3042,"Icti":3043,"Sin":3044,"fras":3045,"órgano":3046,"##ap":3047,"##dón":3048,"##frica":3049,"##uelo":3050,"univ":3051,"##lamación":3052,"intención":3053,"sup":3054,"suce":3055,"suces":3056,"##iga":3057,"##teriza":3058,"##render":3059,"##ciplina":3060,"formar":3061,"presente":3062,"datos":3063,"##chas":3064,"característica":3065,"normal":3066,"tarea":3067,"##ológica":3068,"trop":3069,"juegos":3070,"idioma":3071,"firme":3072,"leche":3073,"Ictiología":3074,"Pue":3075,"Pin":3076,"gl":3077,"África":3078,"##tbol":3079,"##ronomía":3080,"##ervar":3081,"pardo":3082,"##rif":3083,"##tencia":3084,"exceso":3085,"práctica":3086,"##mbres":3087,"consumo":3088,"variedad":3089,"interna":3090,"nega":3091,"Causar":3092,"dignidad":3093,"comercial":3094,"alterna":3095,"influencia":3096,"vertical":3097,"cuidado":3098,"Ju":3099,"dot":3100,"hi":3101,"sólo":3102,"vid":3103,"vestir":3104,"##óx":3105,"concep":3106,"delgado":3107,"##trina":3108,"##igo":3109,"exten":3110,"##guar":3111,"acer":3112,"carece":3113,"maíz":3114,"##toria":3115,"##ficios":3116,"##turales":3117,"##licación":3118,"regist":3119,"humana":3120,"política":3121,"debido":3122,"monta":3123,"primera":3124,"pared":3125,"contin":3126,"producido":3127,"macho":3128,"herbácea":3129,"Situ":3130,"ase":3131,"bac":3132,"luc":3133,"##tina":3134,"##tadas":3135,"##lon":3136,"##ém":3137,"##dam":3138,"##hib":3139,"##xto":3140,"##ectu":3141,"progra":3142,"medida":3143,"art":3144,"##itado":3145,"##ifica":3146,"relaciones":3147,"modif":3148,"Reg":3149,"discurso":3150,"##ormes":3151,"pasa":3152,"##ombres":3153,"plata":3154,"pareja":3155,"circular":3156,"experi":3157,"abundante":3158,"Enfermedad":3159,"gol":3160,"ojos":3161,"peces":3162,"##hos":3163,"##ara":3164,"##tia":3165,"##rito":3166,"##uno":3167,"##aco":3168,"acu":3169,"acon":3170,"magn":3171,"hablar":3172,"##torno":3173,"cualidades":3174,"verd":3175,"cuerpos":3176,"Estar":3177,"caracteriza":3178,"denom":3179,"frecuencia":3180,"##ambiar":3181,"juicio":3182,"conform":3183,"niños":3184,"extrem":3185,"religión":3186,"enfermedades":3187,"##tismo":3188,"emoción":3189,"numeros":3190,"Cine":3191,"XV":3192,"asegu":3193,"cá":3194,"via":3195,"##vimiento":3196,"##pular":3197,"##ponde":3198,"##alizar":3199,"##icción":3200,"partí":3201,"delante":3202,"##illos":3203,"##terrán":3204,"estas":3205,"##dap":3206,"usualmente":3207,"Cons":3208,"divide":3209,"producen":3210,"encuentran":3211,"##seguir":3212,"habitualmente":3213,"noche":3214,"respons":3215,"Fruto":3216,"Grafía":3217,"Género":3218,"Mie":3219,"También":3220,"fenóm":3221,"oro":3222,"suel":3223,"tre":3224,"vac":3225,"ést":3226,"##iano":3227,"##eas":3228,"##vi":3229,"##fo":3230,"queda":3231,"##teor":3232,"##teros":3233,"##ismos":3234,"armas":3235,"##tilla":3236,"imper":3237,"posible":3238,"terres":3239,"americ":3240,"funciones":3241,"buque":3242,"##áfica":3243,"celeb":3244,"metál":3245,"países":3246,"perenne":3247,"Bar":3248,"Emb":3249,"Tom":3250,"just":3251,"##smo":3252,"##tidos":3253,"##lores":3254,"##ñad":3255,"##vis":3256,"##jes":3257,"##yen":3258,"##cito":3259,"##todo":3260,"##untos":3261,"##ilos":3262,"compe":3263,"perder":3264,"período":3265,"activ":3266,"cartas":3267,"##parar":3268,"relacion":3269,"dismin":3270,"preci":3271,"sonidos":3272,"inform":3273,"grave":3274,"Muy":3275,"libro":3276,"##ológico":3277,"corresponde":3278,"duración":3279,"individuo":3280,"rápida":3281,"aproximadamente":3282,"Af":3283,"Ciencia":3284,"Val":3285,"cla":3286,"em":3287,"judi":3288,"siste":3289,"##vidad":3290,"##pi":3291,"##íg":3292,"##ern":3293,"##cir":3294,"##ind":3295,"##reg":3296,"##abe":3297,"actitud":3298,"##peración":3299,"cuerda":3300,"empleada":3301,"volumen":3302,"movimientos":3303,"organización":3304,"guardar":3305,"aprov":3306,"Heráldica":3307,"fondo":3308,"alcohol":3309,"Astronomía":3310,"Ir":3311,"Venez":3312,"coc":3313,"lím":3314,"mús":3315,"vuel":3316,"##rón":3317,"##oven":3318,"##útbol":3319,"comba":3320,"##rus":3321,"desorden":3322,"medica":3323,"compr":3324,"##ajes":3325,"##ferencia":3326,"consistente":3327,"asoci":3328,"verte":3329,"adul":3330,"vela":3331,"popular":3332,"humanos":3333,"profesión":3334,"lenguaje":3335,"curso":3336,"estrecha":3337,"eléctrica":3338,"##brados":3339,"practica":3340,"temperatura":3341,"Venezuela":3342,"Fran":3343,"Sur":3344,"có":3345,"cob":3346,"gastronomía":3347,"lana":3348,"ocul":3349,"rum":3350,"ácido":3351,"##tología":3352,"##tino":3353,"##nico":3354,"##ág":3355,"##be":3356,"##bación":3357,"##cident":3358,"##eso":3359,"ens":3360,"##omas":3361,"##iles":3362,"##leg":3363,"##mpa":3364,"obtiene":3365,"##itales":3366,"mane":3367,"Indi":3368,"pago":3369,"disposición":3370,"##éndose":3371,"empresa":3372,"originario":3373,"domést":3374,"llamado":3375,"bebidas":3376,"##güedad":3377,"escribir":3378,"Bol":3379,"Cas":3380,"Tro":3381,"br":3382,"cál":3383,"dan":3384,"dibu":3385,"fie":3386,"ocu":3387,"tos":3388,"##ique":3389,"##pul":3390,"##onio":3391,"##oro":3392,"entidad":3393,"##ides":3394,"seis":3395,"##dientes":3396,"##pación":3397,"meta":3398,"propios":3399,"##terial":3400,"destinada":3401,"Quitar":3402,"segundo":3403,"Movimiento":3404,"conducta":3405,"cruz":3406,"fonética":3407,"vehículos":3408,"vegetal":3409,"ocurre":3410,"horizontal":3411,"sólido":3412,"pronun":3413,"velocidad":3414,"Cuer":3415,"Cub":3416,"Danza":3417,"hos":3418,"hechos":3419,"ps":3420,"vino":3421,"##uf":3422,"##amente":3423,"##arlo":3424,"##arias":3425,"##ciales":3426,"int":3427,"inver":3428,"##ciación":3429,"##ocas":3430,"levan":3431,"impe":3432,"Porción":3433,"cabello":3434,"##genes":3435,"largas":3436,"##áceo":3437,"causar":3438,"equipo":3439,"evento":3440,"aguas":3441,"llamada":3442,"camino":3443,"local":3444,"facilidad":3445,"partici":3446,"indep":3447,"beneficio":3448,"político":3449,"harina":3450,"Situación":3451,"Crist":3452,"Equ":3453,"Tierra":3454,"adap":3455,"dientes":3456,"glo":3457,"pecho":3458,"pies":3459,"##uto":3460,"##cle":3461,"##pin":3462,"##erva":3463,"##esa":3464,"##rez":3465,"rey":3466,"reci":3467,"##ultad":3468,"compañ":3469,"acum":3470,"ant":3471,"prenda":3472,"composición":3473,"verb":3474,"recha":3475,"etnia":3476,"valores":3477,"mascul":3478,"caballos":3479,"deseo":3480,"tejidos":3481,"pueblos":3482,"antiguo":3483,"definición":3484,"##írculo":3485,"contacto":3486,"parecido":3487,"inmedia":3488,"Pintura":3489,"Tomar":3490,"biológ":3491,"dro":3492,"dia":3493,"días":3494,"llu":3495,"min":3496,"ol":3497,"sor":3498,"tin":3499,"van":3500,"##lones":3501,"##iciones":3502,"##esía":3503,"##ice":3504,"recipiente":3505,"arri":3506,"prue":3507,"##urar":3508,"espon":3509,"##ganos":3510,"vivos":3511,"##urope":3512,"atribu":3513,"##hículo":3514,"mercan":3515,"fabrica":3516,"entendimiento":3517,"Vehículo":3518,"artifici":3519,"Capacidad":3520,"bur":3521,"hid":3522,"tir":3523,"##ridad":3524,"##rido":3525,"##licado":3526,"##dal":3527,"##vación":3528,"##pción":3529,"deja":3530,"##eron":3531,"enem":3532,"enfr":3533,"conten":3534,"##tien":3535,"##tiende":3536,"repe":3537,"remo":3538,"escu":3539,"establ":3540,"##iodo":3541,"colec":3542,"Ins":3543,"presencia":3544,"lugares":3545,"gracia":3546,"documento":3547,"atracción":3548,"borde":3549,"sobres":3550,"tenía":3551,"hábitos":3552,"Pequeña":3553,"mezcla":3554,"irregular":3555,"plumaje":3556,"Cab":3557,"Pos":3558,"Soci":3559,"dor":3560,"fas":3561,"lóg":3562,"siendo":3563,"##sas":3564,"##étr":3565,"##gres":3566,"une":3567,"##lam":3568,"##ogr":3569,"##trop":3570,"##garse":3571,"puesto":3572,"auto":3573,"reglas":3574,"transf":3575,"situado":3576,"derechos":3577,"moneda":3578,"combust":3579,"Pequeño":3580,"amplia":3581,"manifes":3582,"término":3583,"foto":3584,"les":3585,"olor":3586,"pec":3587,"área":3588,"##cre":3589,"##gia":3590,"##jarse":3591,"dedos":3592,"##cida":3593,"##entos":3594,"##entas":3595,"ingre":3596,"coloca":3597,"Indica":3598,"trato":3599,"susp":3600,"##érdida":3601,"present":3602,"casos":3603,"líneas":3604,"simple":3605,"química":3606,"síla":3607,"Comer":3608,"decisión":3609,"docu":3610,"Ponerse":3611,"ajust":3612,"alcanza":3613,"vigor":3614,"miembros":3615,"automóvil":3616,"respeto":3617,"15":3618,"bro":3619,"lic":3620,"ox":3621,"pico":3622,"pena":3623,"##lus":3624,"##ímetros":3625,"enf":3626,"alm":3627,"cató":3628,"pelaje":3629,"conserv":3630,"personal":3631,"sentimiento":3632,"frío":3633,"opera":3634,"desagradable":3635,"##tisf":3636,"ejerce":3637,"##iguradamente":3638,"cilín":3639,"diámetro":3640,"suave":3641,"Ba":3642,"Mad":3643,"Mal":3644,"Ne":3645,"pene":3646,"ín":3647,"##iáceas":3648,"##hes":3649,"demas":3650,"##encial":3651,"comien":3652,"##teras":3653,"estim":3654,"exam":3655,"resistencia":3656,"##uros":3657,"##uroma":3658,"cora":3659,"habilidad":3660,"##guay":3661,"Repres":3662,"medir":3663,"Arb":3664,"plana":3665,"causada":3666,"comúnmente":3667,"vende":3668,"ángulo":3669,"sujeto":3670,"habitual":3671,"imag":3672,"control":3673,"muerte":3674,"órganos":3675,"vulgar":3676,"diez":3677,"protección":3678,"terrestre":3679,"Ador":3680,"Cer":3681,"Lí":3682,"Pan":3683,"Ver":3684,"Viv":3685,"cón":3686,"civ":3687,"ep":3688,"rit":3689,"##renta":3690,"##lón":3691,"##mina":3692,"##dom":3693,"##álica":3694,"##ertura":3695,"encon":3696,"descon":3697,"mat":3698,"prece":3699,"colon":3700,"##iber":3701,"##ibilidad":3702,"letras":3703,"Elec":3704,"Estudi":3705,"utiliz":3706,"comunidad":3707,"invol":3708,"##ándolo":3709,"bebida":3710,"indicar":3711,"espectá":3712,"ocho":3713,"gruesa":3714,"siete":3715,"vegetales":3716,"mueve":3717,"busca":3718,"haciendo":3719,"Puede":3720,"actividades":3721,"##uromaquia":3722,"ran":3723,"venta":3724,"##ívor":3725,"##ares":3726,"##cidente":3727,"unión":3728,"conseguir":3729,"elim":3730,"##tigo":3731,"proble":3732,"descub":3733,"##ivos":3734,"argu":3735,"##parta":3736,"impreci":3737,"##ensiones":3738,"producción":3739,"quin":3740,"sentimientos":3741,"representar":3742,"característico":3743,"rojizo":3744,"distingu":3745,"direc":3746,"domin":3747,"recibir":3748,"máquina":3749,"rostro":3750,"reconoc":3751,"ofrece":3752,"univers":3753,"Signo":3754,"Volver":3755,"bot":3756,"cient":3757,"mic":3758,"##cel":3759,"##her":3760,"##yendo":3761,"##osos":3762,"##anzas":3763,"later":3764,"##rimiento":3765,"##ientras":3766,"cañ":3767,"Perder":3768,"##ites":3769,"Esp":3770,"Meteor":3771,"##enso":3772,"espí":3773,"eleg":3774,"##venir":3775,"amarill":3776,"primer":3777,"ruido":3778,"ejecución":3779,"comestibles":3780,"visible":3781,"excre":3782,"legal":3783,"administra":3784,"ayuda":3785,"contrario":3786,"rell":3787,"circunstancias":3788,"adop":3789,"Arbusto":3790,"Ale":3791,"Mol":3792,"ah":3793,"fue":3794,"gras":3795,"nu":3796,"pú":3797,"río":3798,"##ñado":3799,"##inería":3800,"partido":3801,"delan":3802,"##ieve":3803,"resid":3804,"mango":3805,"Inc":3806,"Ind":3807,"pueda":3808,"##ístico":3809,"recuer":3810,"prev":3811,"conciencia":3812,"pasado":3813,"marca":3814,"interes":3815,"signos":3816,"mayoría":3817,"Pez":3818,"Asia":3819,"específ":3820,"femenina":3821,"radio":3822,"##élulas":3823,"mejor":3824,"costumbres":3825,"Tauromaquia":3826,"partículas":3827,"##tienen":3828,"Meteorología":3829,"At":3830,"añad":3831,"ciencia":3832,"historia":3833,"mientras":3834,"recto":3835,"sín":3836,"some":3837,"##sp":3838,"##zan":3839,"##ciente":3840,"estaba":3841,"##tran":3842,"metro":3843,"##neo":3844,"##mbran":3845,"media":3846,"Arma":3847,"provoc":3848,"emplean":3849,"cocina":3850,"sentidos":3851,"sustitu":3852,"##ombr":3853,"cubierto":3854,"ejér":3855,"temporal":3856,"##ándola":3857,"sociales":3858,"pelota":3859,"Herramientas":3860,"peligro":3861,"dimensiones":3862,"lluvia":3863,"20":3864,"Beb":3865,"Cent":3866,"Dios":3867,"avan":3868,"bul":3869,"jard":3870,"##cal":3871,"##cencia":3872,"##iro":3873,"##ianismo":3874,"##bil":3875,"##yas":3876,"conte":3877,"##ectar":3878,"esa":3879,"delgada":3880,"proa":3881,"##istad":3882,"##ciona":3883,"descan":3884,"##uca":3885,"caf":3886,"Entre":3887,"resto":3888,"##net":3889,"propias":3890,"consecuencia":3891,"disciplina":3892,"recu":3893,"raci":3894,"afecto":3895,"sigue":3896,"transportar":3897,"##rimonio":3898,"herramient":3899,"sexuales":3900,"original":3901,"Obra":3902,"hueco":3903,"##dice":3904,"paredes":3905,"curva":3906,"metálica":3907,"nuevo":3908,"adorno":3909,"sustantivo":3910,"documentos":3911,"imprecisa":3912,"Cre":3913,"Mec":3914,"So":3915,"cha":3916,"células":3917,"joven":3918,"oposición":3919,"título":3920,"##larse":3921,"##dras":3922,"##poner":3923,"##jero":3924,"##ance":3925,"##rel":3926,"##lab":3927,"repar":3928,"##lea":3929,"##isis":3930,"##ach":3931,"##acho":3932,"##igar":3933,"##amas":3934,"anual":3935,"descar":3936,"categ":3937,"##ceder":3938,"##perar":3939,"corpor":3940,"Relación":3941,"##ojo":3942,"nativo":3943,"##ablecimiento":3944,"Establecimiento":3945,"llevan":3946,"afir":3947,"sigu":3948,"plástico":3949,"##ionar":3950,"circu":3951,"religiosa":3952,"##endientes":3953,"completo":3954,"llamados":3955,"cristal":3956,"tradicionalmente":3957,"cuadr":3958,"consume":3959,"antiguos":3960,"facultad":3961,"obligación":3962,"típico":3963,"fácilmente":3964,"mitad":3965,"Mineralogía":3966,"aprovech":3967,"vertebrados":3968,"Cr":3969,"Co":3970,"Cos":3971,"Dist":3972,"Fis":3973,"hel":3974,"##siones":3975,"##sula":3976,"##ída":3977,"##erse":3978,"##tip":3979,"##tab":3980,"reduci":3981,"##ulado":3982,"##istir":3983,"##ielo":3984,"motor":3985,"asc":3986,"cuerdas":3987,"vein":3988,"empleo":3989,"llev":3990,"realidad":3991,"sirven":3992,"##ombia":3993,"Anim":3994,"repu":3995,"expresar":3996,"##rilla":3997,"hueso":3998,"religios":3999,"libros":4000,"Color":4001,"Colombia":4002,"importante":4003,"ligero":4004,"actuar":4005,"clás":4006,"individuos":4007,"rápido":4008,"entender":4009,"Sitio":4010,"columna":4011,"mercanc":4012,"30":4013,"Ag":4014,"Cam":4015,"Hoj":4016,"bás":4017,"fig":4018,"flo":4019,"ga":4020,"iz":4021,"rece":4022,"sens":4023,"tim":4024,"toca":4025,"tono":4026,"ví":4027,"ye":4028,"za":4029,"##ut":4030,"##lio":4031,"##iñ":4032,"##gadas":4033,"##fas":4034,"dedic":4035,"##eres":4036,"##cidos":4037,"##onía":4038,"##anía":4039,"##inoso":4040,"##ecn":4041,"##iación":4042,"##acar":4043,"exag":4044,"ancho":4045,"arco":4046,"Perú":4047,"Retórica":4048,"##ducto":4049,"sino":4050,"legu":4051,"abst":4052,"nativa":4053,"costa":4054,"##lula":4055,"espal":4056,"Está":4057,"pasaj":4058,"raíces":4059,"##echas":4060,"principio":4061,"crear":4062,"##rillo":4063,"##mara":4064,"millones":4065,"religioso":4066,"gases":4067,"violencia":4068,"actual":4069,"voces":4070,"administración":4071,"puerta":4072,"tubo":4073,"Rama":4074,"televisión":4075,"ruedas":4076,"Expresión":4077,"Documento":4078,"frase":4079,"arriba":4080,"izquier":4081,"Figuradamente":4082,"ais":4083,"bel":4084,"baj":4085,"tur":4086,"vist":4087,"única":4088,"##ianza":4089,"##élula":4090,"##icular":4091,"unidades":4092,"##reas":4093,"reacción":4094,"sufici":4095,"##matic":4096,"caja":4097,"usar":4098,"##capa":4099,"recta":4100,"precio":4101,"naipes":4102,"##ambio":4103,"piedras":4104,"##jeros":4105,"casas":4106,"salir":4107,"Para":4108,"fuerzas":4109,"gramatic":4110,"grad":4111,"refiere":4112,"cubrir":4113,"##ástica":4114,"ambiente":4115,"seguridad":4116,"hembra":4117,"experiencia":4118,"##tánea":4119,"mesa":4120,"##güen":4121,"referencia":4122,"conoce":4123,"honor":4124,"negocio":4125,"Utensilio":4126,"total":4127,"libertad":4128,"judicial":4129,"civil":4130,"Bebida":4131,"12":4132,"Del":4133,"Mam":4134,"Punto":4135,"bos":4136,"imá":4137,"ov":4138,"tan":4139,"ámb":4140,"##lados":4141,"##ear":4142,"##óma":4143,"##gel":4144,"dej":4145,"##erte":4146,"##esto":4147,"##mentación":4148,"suceso":4149,"##mpos":4150,"estan":4151,"desh":4152,"obten":4153,"cord":4154,"verbo":4155,"recog":4156,"recoger":4157,"previa":4158,"fuertes":4159,"simp":4160,"fruta":4161,"desplaz":4162,"reflex":4163,"toro":4164,"domes":4165,"prepara":4166,"iguales":4167,"Orden":4168,"particip":4169,"significado":4170,"Pasar":4171,"##quirir":4172,"Sociología":4173,"ritmo":4174,"café":4175,"imágenes":4176,"Mon":4177,"Nue":4178,"XI":4179,"aún":4180,"atrás":4181,"ries":4182,"##udar":4183,"##az":4184,"##misión":4185,"##fecto":4186,"##enci":4187,"##reza":4188,"##tró":4189,"existencia":4190,"##quía":4191,"##cionario":4192,"noti":4193,"usos":4194,"Seg":4195,"moverse":4196,"tratar":4197,"##port":4198,"Mezc":4199,"##struc":4200,"##estión":4201,"##gría":4202,"rama":4203,"diver":4204,"regiones":4205,"cerca":4206,"Desp":4207,"plum":4208,"necesidad":4209,"intensa":4210,"miedo":4211,"pintura":4212,"película":4213,"vocab":4214,"reconoci":4215,"mental":4216,"razones":4217,"ejercicio":4218,"rechazo":4219,"ingredientes":4220,"##partamento":4221,"Ce":4222,"Ll":4223,"Más":4224,"agr":4225,"círculo":4226,"ileg":4227,"ple":4228,"tran":4229,"tel":4230,"##ror":4231,"##cusión":4232,"##mis":4233,"##ps":4234,"##ph":4235,"##íc":4236,"##cif":4237,"##adería":4238,"consta":4239,"##idente":4240,"##racción":4241,"parece":4242,"##lano":4243,"##dados":4244,"obst":4245,"hablado":4246,"dispositivo":4247,"escal":4248,"terc":4249,"palos":4250,"##miten":4251,"vivienda":4252,"principios":4253,"barro":4254,"muscular":4255,"trabaja":4256,"normas":4257,"semilla":4258,"##ensaje":4259,"acepciones":4260,"apoy":4261,"##petición":4262,"funcionamiento":4263,"jugador":4264,"##titudes":4265,"éste":4266,"metálico":4267,"##eronáutica":4268,"ejército":4269,"Fisiología":4270,"Mamífero":4271,"Má":4272,"agre":4273,"far":4274,"fis":4275,"fina":4276,"gén":4277,"gira":4278,"lá":4279,"tier":4280,"tocar":4281,"##tía":4282,"##tantes":4283,"##iño":4284,"##hu":4285,"##ólica":4286,"##áticos":4287,"end":4288,"alum":4289,"##tag":4290,"##ace":4291,"estóma":4292,"##logía":4293,"##amo":4294,"mode":4295,"Conf":4296,"prom":4297,"teatro":4298,"ord":4299,"##denes":4300,"escala":4301,"##rimir":4302,"alimenta":4303,"fron":4304,"defensa":4305,"placer":4306,"baile":4307,"cría":4308,"centímetros":4309,"Varón":4310,"satisf":4311,"conocimientos":4312,"sujeta":4313,"ejecutar":4314,"##cinto":4315,"Poesía":4316,"rodea":4317,"ornamental":4318,"flexible":4319,"independiente":4320,"recuerda":4321,"Div":4322,"Emple":4323,"cen":4324,"dé":4325,"fino":4326,"sensación":4327,"tu":4328,"tum":4329,"##tín":4330,"##ladas":4331,"##ian":4332,"##ium":4333,"##efe":4334,"##bra":4335,"##ich":4336,"seda":4337,"reb":4338,"rema":4339,"esto":4340,"despe":4341,"carr":4342,"##itas":4343,"Señ":4344,"pros":4345,"##torios":4346,"##teriores":4347,"consecu":4348,"##quiere":4349,"##ingue":4350,"##estia":4351,"popa":4352,"polvo":4353,"defender":4354,"baya":4355,"declar":4356,"sober":4357,"genera":4358,"emocional":4359,"aquello":4360,"##viduo":4361,"incluso":4362,"nariz":4363,"reproducción":4364,"saber":4365,"ocasion":4366,"practic":4367,"lograr":4368,"inicial":4369,"absor":4370,"redonda":4371,"industri":4372,"bacteri":4373,"golpes":4374,"Individuo":4375,"##güenza":4376,"Aeronáutica":4377,"Dec":4378,"Gan":4379,"Norte":4380,"Tras":4381,"Tea":4382,"Téc":4383,"frag":4384,"sen":4385,"##ija":4386,"##nes":4387,"##ép":4388,"##vent":4389,"##pia":4390,"##jada":4391,"##asia":4392,"##adar":4393,"##racional":4394,"##olas":4395,"extiende":4396,"membran":4397,"##usencia":4398,"artes":4399,"Período":4400,"obtenido":4401,"prác":4402,"cole":4403,"mantiene":4404,"singular":4405,"medicin":4406,"calle":4407,"llega":4408,"##acerdo":4409,"frutas":4410,"##vención":4411,"fati":4412,"doctrina":4413,"investi":4414,"trigo":4415,"virtud":4416,"excesivo":4417,"impresión":4418,"brazos":4419,"Terreno":4420,"términos":4421,"costumbre":4422,"procesos":4423,"educación":4424,"iglesia":4425,"##cidental":4426,"corazón":4427,"Representación":4428,"Teatro":4429,"abre":4430,"aver":4431,"cic":4432,"ger":4433,"nación":4434,"ríos":4435,"velas":4436,"##san":4437,"##más":4438,"##éf":4439,"##darse":4440,"##ájar":4441,"##áculo":4442,"##xil":4443,"##úst":4444,"deterior":4445,"##aduras":4446,"##tear":4447,"##unta":4448,"delito":4449,"##iería":4450,"caza":4451,"##itan":4452,"##itología":4453,"##iformes":4454,"relativamente":4455,"dicha":4456,"Reun":4457,"tratamiento":4458,"asuntos":4459,"escaso":4460,"##érico":4461,"sale":4462,"cerc":4463,"cereb":4464,"siglos":4465,"cultiva":4466,"cuyos":4467,"respuesta":4468,"refle":4469,"crece":4470,"cantidades":4471,"desempe":4472,"derecha":4473,"guarda":4474,"preparación":4475,"intel":4476,"sujetar":4477,"ejecuta":4478,"prima":4479,"producida":4480,"hábito":4481,"alcanzar":4482,"abundancia":4483,"leyes":4484,"engaño":4485,"órdenes":4486,"arbust":4487,"económica":4488,"ingenio":4489,"técnica":4490,"alfabe":4491,"enseñ":4492,"alternativa":4493,"Miemb":4494,"medicamento":4495,"artificial":4496,"Animal":4497,"espalda":4498,"plumas":4499,"Bu":4500,"Gener":4501,"Ro":4502,"Tal":4503,"fútbol":4504,"mm":4505,"ojo":4506,"toc":4507,"trib":4508,"##sidad":4509,"##crib":4510,"##didas":4511,"##íb":4512,"##eración":4513,"##ciencia":4514,"##ueble":4515,"##esper":4516,"unidas":4517,"##inidad":4518,"conce":4519,"reac":4520,"inci":4521,"indic":4522,"suerte":4523,"##isiones":4524,"exac":4525,"##cionales":4526,"ancha":4527,"##dazo":4528,"caña":4529,"##osamente":4530,"##izados":4531,"resistente":4532,"Medida":4533,"vergüenza":4534,"recub":4535,"grano":4536,"nacional":4537,"##lesi":4538,"espi":4539,"marino":4540,"cere":4541,"cerdo":4542,"duro":4543,"núcle":4544,"bueno":4545,"superficies":4546,"chil":4547,"barco":4548,"servir":4549,"inferiores":4550,"conductos":4551,"labor":4552,"redonde":4553,"emociones":4554,"violenta":4555,"aquella":4556,"pantal":4557,"pulm":4558,"procedimiento":4559,"concre":4560,"excesiva":4561,"entrada":4562,"silves":4563,"ubic":4564,"isla":4565,"circunstancia":4566,"numerosas":4567,"sistemas":4568,"inmediatamente":4569,"Adorno":4570,"matrimonio":4571,"Estudio":4572,"involun":4573,"espíritu":4574,"Máquina":4575,"Miembro":4576,"Gal":4577,"Lib":4578,"Prim":4579,"Sensación":4580,"Tor":4581,"ape":4582,"cine":4583,"hú":4584,"hem":4585,"lin":4586,"oración":4587,"pérdida":4588,"##rarse":4589,"##uo":4590,"##édi":4591,"##yos":4592,"detrás":4593,"departamento":4594,"##erio":4595,"unidos":4596,"conj":4597,"aloj":4598,"##reo":4599,"intes":4600,"perp":4601,"##mpar":4602,"##igna":4603,"##amientos":4604,"acab":4605,"ano":4606,"##ivas":4607,"##uch":4608,"cortes":4609,"tray":4610,"abajo":4611,"espinas":4612,"formal":4613,"caracterizado":4614,"quitar":4615,"##ública":4616,"crecimiento":4617,"musicales":4618,"profundo":4619,"necesarios":4620,"irracional":4621,"tiende":4622,"huevo":4623,"recibido":4624,"negras":4625,"##cepción":4626,"específico":4627,"Imprenta":4628,"##tidario":4629,"apoyo":4630,"manifiesta":4631,"brazo":4632,"piernas":4633,"externa":4634,"jugadores":4635,"Herramienta":4636,"Llevar":4637,"doble":4638,"limpiar":4639,"brillante":4640,"protege":4641,"vidrio":4642,"concepto":4643,"programa":4644,"##terráneo":4645,"impedir":4646,"categoría":4647,"figuras":4648,"Técnica":4649,"LG":4650,"Mos":4651,"apa":4652,"cien":4653,"lad":4654,"vel":4655,"##th":4656,"##etas":4657,"##BT":4658,"##ína":4659,"depos":4660,"##cioso":4661,"##entado":4662,"contener":4663,"contrar":4664,"##ilib":4665,"porque":4666,"periodo":4667,"estra":4668,"existe":4669,"##ieza":4670,"acos":4671,"##ánicos":4672,"sof":4673,"sint":4674,"##porta":4675,"##entesco":4676,"superiores":4677,"presta":4678,"Esta":4679,"inflores":4680,"afecta":4681,"cerem":4682,"cerrado":4683,"madre":4684,"segunda":4685,"representación":4686,"escrita":4687,"atrac":4688,"merc":4689,"separar":4690,"descom":4691,"describ":4692,"Trab":4693,"máx":4694,"Falto":4695,"eléctrico":4696,"alcohólica":4697,"mecánica":4698,"significa":4699,"padece":4700,"tipos":4701,"Sentir":4702,"recursos":4703,"dotado":4704,"responsabilidad":4705,"Francia":4706,"escudo":4707,"Comercio":4708,"XIX":4709,"estómago":4710,"alfabeto":4711,"húme":4712,"LGBT":4713,"Ide":4714,"Sa":4715,"Sue":4716,"Sub":4717,"azar":4718,"dil":4719,"fla":4720,"fri":4721,"gusta":4722,"ost":4723,"ore":4724,"único":4725,"##sado":4726,"##uri":4727,"##itiva":4728,"##fera":4729,"##ígen":4730,"##endas":4731,"##cidas":4732,"escul":4733,"##undir":4734,"perju":4735,"progres":4736,"##iertas":4737,"##ruguay":4738,"acero":4739,"##ogar":4740,"nota":4741,"##podos":4742,"artil":4743,"##para":4744,"##onomasia":4745,"compone":4746,"adje":4747,"granos":4748,"naturales":4749,"##dula":4750,"Estilo":4751,"##turar":4752,"rap":4753,"distingue":4754,"realización":4755,"##ínsula":4756,"culto":4757,"aparece":4758,"situada":4759,"habitan":4760,"trabajar":4761,"amarillas":4762,"irri":4763,"venden":4764,"huesos":4765,"escritura":4766,"##dicción":4767,"decor":4768,"##tículos":4769,"tradición":4770,"fija":4771,"tareas":4772,"miel":4773,"priv":4774,"nueva":4775,"ponerse":4776,"concent":4777,"##tricidad":4778,"encargada":4779,"cadena":4780,"facilitar":4781,"sufre":4782,"miembro":4783,"apreciado":4784,"rasgos":4785,"Llegar":4786,"Utensilios":4787,"cumplir":4788,"adecuado":4789,"eclesi":4790,"minerales":4791,"XVII":4792,"fenómenos":4793,"Equitación":4794,"antonomasia":4795,"lógica":4796,"ámbito":4797,"200":4798,"Casa":4799,"Far":4800,"Fin":4801,"Uno":4802,"Uruguay":4803,"cuest":4804,"dios":4805,"europe":4806,"hol":4807,"mun":4808,"tren":4809,"vient":4810,"vie":4811,"átom":4812,"##lería":4813,"##lusión":4814,"##mer":4815,"##moria":4816,"##ígeno":4817,"##orra":4818,"##inados":4819,"##omía":4820,"##rigo":4821,"rem":4822,"porción":4823,"##termin":4824,"estrel":4825,"##imas":4826,"##quinas":4827,"##iertos":4828,"carre":4829,"##izadas":4830,"cortar":4831,"formación":4832,"disco":4833,"abdom":4834,"admi":4835,"rectan":4836,"empe":4837,"##rena":4838,"##lub":4839,"Medio":4840,"Estados":4841,"Zoot":4842,"pasión":4843,"##amilia":4844,"##che":4845,"incon":4846,"realizada":4847,"blanque":4848,"determinar":4849,"rod":4850,"Extre":4851,"choc":4852,"plaza":4853,"determinadas":4854,"##álisis":4855,"Alcan":4856,"vapor":4857,"comunes":4858,"desea":4859,"Piedra":4860,"considerado":4861,"gase":4862,"capital":4863,"comercio":4864,"bordes":4865,"Tela":4866,"embarca":4867,"Antigüedad":4868,"ocupación":4869,"elaboración":4870,"comprender":4871,"pierna":4872,"engañar":4873,"pensamiento":4874,"variable":4875,"literaria":4876,"griego":4877,"ligeramente":4878,"mineral":4879,"aconte":4880,"justicia":4881,"Trozo":4882,"exager":4883,"vientre":4884,"25":4885,"Estruc":4886,"Gen":4887,"Suc":4888,"Vas":4889,"agar":4890,"cambiar":4891,"dra":4892,"fra":4893,"hombres":4894,"hilos":4895,"ren":4896,"tendencia":4897,"utensil":4898,"áreas":4899,"##rer":4900,"##cor":4901,"##lá":4902,"##nado":4903,"##didos":4904,"##gulos":4905,"detal":4906,"unir":4907,"##timo":4908,"##tible":4909,"##olu":4910,"parcial":4911,"##tapa":4912,"##aces":4913,"##tral":4914,"##iempo":4915,"##ruz":4916,"##paña":4917,"##jed":4918,"caer":4919,"##izarse":4920,"manchas":4921,"muro":4922,"Ingen":4923,"##tillas":4924,"pagar":4925,"verano":4926,"##ualidad":4927,"interc":4928,"terren":4929,"amistad":4930,"pala":4931,"##itario":4932,"familiar":4933,"regla":4934,"conflic":4935,"plie":4936,"pesca":4937,"##álido":4938,"desemb":4939,"distintos":4940,"decora":4941,"poseer":4942,"fila":4943,"metales":4944,"habitación":4945,"banda":4946,"Hablando":4947,"sabe":4948,"sostener":4949,"elaborado":4950,"lance":4951,"alargado":4952,"##rupción":4953,"técn":4954,"Palab":4955,"histór":4956,"acerca":4957,"Embar":4958,"límites":4959,"combate":4960,"ocup":4961,"Cuerpo":4962,"compañía":4963,"verbal":4964,"fabricación":4965,"oxígeno":4966,"demasiado":4967,"nutri":4968,"síntom":4969,"racimos":4970,"Mecánica":4971,"zapa":4972,"rectangular":4973,"Zootomía":4974,"000":4975,"Dif":4976,"fan":4977,"ja":4978,"jur":4979,"roca":4980,"ásp":4981,"##meros":4982,"##ipos":4983,"##dera":4984,"##ób":4985,"##gal":4986,"##pio":4987,"##jido":4988,"##áticas":4989,"##ciado":4990,"##ontología":4991,"##estivo":4992,"enter":4993,"##stancia":4994,"##inosa":4995,"##ométr":4996,"##rocar":4997,"##tox":4998,"##lazar":4999,"reducir":5000,"##uladas":5001,"##turo":5002,"##américa":5003,"actos":5004,"arom":5005,"usados":5006,"##ificado":5007,"Contra":5008,"efica":5009,"había":5010,"tea":5011,"##tillo":5012,"disf":5013,"##ustria":5014,"perteneci":5015,"infan":5016,"infec":5017,"pasta":5018,"##udir":5019,"incor":5020,"utilidad":5021,"caracterizada":5022,"##cillo":5023,"copa":5024,"causas":5025,"Unidos":5026,"principales":5027,"Composición":5028,"Material":5029,"situaciones":5030,"habitantes":5031,"comunica":5032,"individ":5033,"Inflamación":5034,"agudo":5035,"distintas":5036,"conocido":5037,"fijo":5038,"extraer":5039,"pulpa":5040,"fabr":5041,"inclinación":5042,"deportes":5043,"mecanismo":5044,"solamente":5045,"ocasiones":5046,"acompaña":5047,"comprende":5048,"alargada":5049,"pensar":5050,"correspondiente":5051,"frecuentemente":5052,"República":5053,"vestido":5054,"secreto":5055,"halla":5056,"almacen":5057,"ningún":5058,"ninguna":5059,"constante":5060,"disminuir":5061,"##ecnología":5062,"intelectu":5063,"núcleo":5064,"embarcaciones":5065,"Estructura":5066,"18":5067,"100":5068,"Flor":5069,"Hier":5070,"Ital":5071,"Mone":5072,"Mitología":5073,"Ph":5074,"Pri":5075,"To":5076,"Tiempo":5077,"Zona":5078,"brus":5079,"dorm":5080,"fus":5081,"hu":5082,"hilo":5083,"óp":5084,"##uma":5085,"##lico":5086,"##ég":5087,"##órica":5088,"##viv":5089,"##gir":5090,"deporte":5091,"##erin":5092,"##arca":5093,"##cialmente":5094,"##alar":5095,"##ental":5096,"##idor":5097,"##raciones":5098,"ala":5099,"##oleta":5100,"esencial":5101,"comen":5102,"##tuoso":5103,"extin":5104,"activo":5105,"actitudes":5106,"##oga":5107,"anal":5108,"##ivia":5109,"memoria":5110,"comput":5111,"Realizar":5112,"apren":5113,"aplic":5114,"disim":5115,"##ormar":5116,"canto":5117,"##gros":5118,"salida":5119,"hacerlo":5120,"largos":5121,"sentir":5122,"Hacerse":5123,"Propiedad":5124,"gros":5125,"opuestas":5126,"Actu":5127,"Actitud":5128,"##endicular":5129,"organismos":5130,"Variedad":5131,"primero":5132,"preparada":5133,"completamente":5134,"cambios":5135,"aquellos":5136,"sacar":5137,"seguir":5138,"Naipes":5139,"físicas":5140,"observ":5141,"cultivada":5142,"externos":5143,"##tusias":5144,"electrónico":5145,"distribución":5146,"componentes":5147,"además":5148,"iglesias":5149,"última":5150,"##indro":5151,"biológico":5152,"fastid":5153,"cilíndr":5154,"dedicada":5155,"simples":5156,"Mezcla":5157,"espiritu":5158,"perpendicular":5159,"admiración":5160,"Embarcación":5161,"50":5162,"60":5163,"Oriente":5164,"fel":5165,"figur":5166,"hí":5167,"mide":5168,"norma":5169,"nombres":5170,"oport":5171,"psic":5172,"sacerdo":5173,"tóx":5174,"##lia":5175,"##lici":5176,"##ejo":5177,"##éu":5178,"##gados":5179,"##últi":5180,"##uelas":5181,"enojo":5182,"cono":5183,"##tim":5184,"##mentales":5185,"perj":5186,"cumple":5187,"##acea":5188,"##igos":5189,"##quilla":5190,"##gust":5191,"acad":5192,"desen":5193,"compás":5194,"templ":5195,"temor":5196,"Ref":5197,"dispon":5198,"aband":5199,"Proce":5200,"empu":5201,"##inge":5202,"internet":5203,"calles":5204,"división":5205,"signo":5206,"cultural":5207,"cuyas":5208,"juris":5209,"confianza":5210,"números":5211,"mismas":5212,"##ipografía":5213,"inser":5214,"profund":5215,"fuente":5216,"agres":5217,"preparado":5218,"##ándole":5219,"semejantes":5220,"clara":5221,"violento":5222,"procede":5223,"médico":5224,"Serie":5225,"filos":5226,"geogr":5227,"gobern":5228,"encargado":5229,"alegría":5230,"excesivamente":5231,"militares":5232,"constituye":5233,"ubicado":5234,"alimentación":5235,"conocer":5236,"sucede":5237,"negativa":5238,"asegurar":5239,"trep":5240,"doméstico":5241,"prueba":5242,"enemigo":5243,"científ":5244,"amarillento":5245,"suficiente":5246,"riesgo":5247,"##jedrez":5248,"Palabra":5249,"Italia":5250,"Efecto":5251,"Fun":5252,"Fiesta":5253,"Igles":5254,"Minería":5255,"Roma":5256,"aten":5257,"fec":5258,"hip":5259,"jefe":5260,"nada":5261,"otor":5262,"operación":5263,"tera":5264,"vib":5265,"##sación":5266,"##rico":5267,"##cente":5268,"##lero":5269,"##mes":5270,"##mula":5271,"##emp":5272,"##vol":5273,"##yac":5274,"detener":5275,"##orro":5276,"queso":5277,"##idal":5278,"##tilo":5279,"##oladas":5280,"pares":5281,"reino":5282,"esca":5283,"##leza":5284,"propa":5285,"protes":5286,"estima":5287,"##trarse":5288,"##quie":5289,"##ame":5290,"acceso":5291,"algodón":5292,"arreg":5293,"##ticar":5294,"##ulares":5295,"consistencia":5296,"impide":5297,"##lares":5298,"Este":5299,"amena":5300,"solución":5301,"casta":5302,"funcionar":5303,"hacerse":5304,"particularmente":5305,"##cilla":5306,"simul":5307,"cobre":5308,"despre":5309,"determinados":5310,"torno":5311,"explos":5312,"seca":5313,"molé":5314,"agente":5315,"Obtener":5316,"considerada":5317,"quienes":5318,"Mover":5319,"ajeno":5320,"clima":5321,"máquinas":5322,"edificios":5323,"##macología":5324,"referente":5325,"deportivo":5326,"noctur":5327,"económico":5328,"ponen":5329,"proyec":5330,"griega":5331,"tropical":5332,"tropicales":5333,"cámara":5334,"rápidamente":5335,"dibujo":5336,"##pintería":5337,"repetida":5338,"operaciones":5339,"Línea":5340,"rango":5341,"grasa":5342,"izquierda":5343,"fatiga":5344,"jurí":5345,"pertenecientes":5346,"individual":5347,"Edad":5348,"Hecho":5349,"dando":5350,"lum":5351,"lingü":5352,"line":5353,"mensaje":5354,"pur":5355,"paja":5356,"pág":5357,"quer":5358,"rúst":5359,"trist":5360,"##lom":5361,"##jón":5362,"##álo":5363,"##SO":5364,"destru":5365,"##erir":5366,"##ense":5367,"##anja":5368,"##icía":5369,"entusias":5370,"##olio":5371,"esco":5372,"##unidad":5373,"##igu":5374,"##ienta":5375,"anorm":5376,"carente":5377,"arch":5378,"aroma":5379,"usaba":5380,"soporte":5381,"##ajas":5382,"aso":5383,"abrir":5384,"Prov":5385,"##presión":5386,"##luir":5387,"##itaria":5388,"solem":5389,"##ganta":5390,"afric":5391,"negra":5392,"poten":5393,"siti":5394,"coord":5395,"herm":5396,"herida":5397,"Cap":5398,"destino":5399,"equilib":5400,"volver":5401,"origin":5402,"sangu":5403,"huevos":5404,"ángulos":5405,"preparar":5406,"merece":5407,"romper":5408,"indígen":5409,"aplicación":5410,"semejanza":5411,"Tejido":5412,"excel":5413,"Natural":5414,"obsoleta":5415,"establecimiento":5416,"referirse":5417,"Organ":5418,"##cripción":5419,"comporta":5420,"##ámica":5421,"garganta":5422,"dirigir":5423,"introducir":5424,"razon":5425,"rueda":5426,"componen":5427,"americano":5428,"informal":5429,"Bolivia":5430,"establecer":5431,"eliminar":5432,"intereses":5433,"##ombrero":5434,"gramatical":5435,"modelo":5436,"silvestre":5437,"involuntaria":5438,"Farmacología":5439,"terrenos":5440,"jurisdicción":5441,"Iglesia":5442,"Cin":5443,"Jun":5444,"Tr":5445,"cigar":5446,"célula":5447,"echar":5448,"lomo":5449,"mens":5450,"mín":5451,"pis":5452,"pru":5453,"rab":5454,"súb":5455,"techo":5456,"##rados":5457,"##itr":5458,"##ilación":5459,"##edor":5460,"##didad":5461,"##dicado":5462,"##óst":5463,"##fal":5464,"##úrg":5465,"conqu":5466,"##idar":5467,"##omp":5468,"semi":5469,"##tizar":5470,"parecer":5471,"##laza":5472,"##riendo":5473,"indo":5474,"##illar":5475,"##digo":5476,"##diendo":5477,"##terio":5478,"cuanto":5479,"prolon":5480,"exhib":5481,"##imen":5482,"##ocu":5483,"ana":5484,"and":5485,"##ántico":5486,"##cuador":5487,"mover":5488,"##tesis":5489,"##ibe":5490,"mutu":5491,"abe":5492,"escasa":5493,"nav":5494,"planeta":5495,"##ésimo":5496,"marc":5497,"proven":5498,"amerin":5499,"solici":5500,"casco":5501,"elevada":5502,"##áctil":5503,"##adoras":5504,"culpa":5505,"denso":5506,"viven":5507,"jugo":5508,"##ebra":5509,"##grama":5510,"vag":5511,"profunda":5512,"futuro":5513,"Ecología":5514,"guarn":5515,"considerar":5516,"tablas":5517,"hierba":5518,"textura":5519,"oficiales":5520,"produciendo":5521,"fabric":5522,"##órmula":5523,"geométr":5524,"amplio":5525,"sólida":5526,"carnívor":5527,"flujo":5528,"mentales":5529,"tiro":5530,"aprecio":5531,"Sentimiento":5532,"##éndolo":5533,"diseñado":5534,"industria":5535,"variedades":5536,"continente":5537,"glob":5538,"drogas":5539,"sobresale":5540,"micro":5541,"corporal":5542,"clásica":5543,"pasajeros":5544,"bosques":5545,"géneros":5546,"abdomen":5547,"Acu":5548,"Ha":5549,"Jes":5550,"aqu":5551,"apeti":5552,"filo":5553,"ht":5554,"homb":5555,"minu":5556,"múlti":5557,"oval":5558,"rig":5559,"rique":5560,"vide":5561,"útil":5562,"##sal":5563,"##tones":5564,"##ró":5565,"##aje":5566,"##iña":5567,"##dura":5568,"##vera":5569,"##vies":5570,"##valo":5571,"##gon":5572,"##bado":5573,"##ítico":5574,"##yu":5575,"deno":5576,"demos":5577,"##cita":5578,"##cino":5579,"uniforme":5580,"entra":5581,"##inci":5582,"altas":5583,"##olar":5584,"##todos":5585,"parás":5586,"##mentaria":5587,"sudam":5588,"##ulta":5589,"perro":5590,"perdido":5591,"exig":5592,"##loque":5593,"##ocos":5594,"análo":5595,"##rando":5596,"caras":5597,"carro":5598,"cama":5599,"arquitec":5600,"usando":5601,"motivo":5602,"map":5603,"resolver":5604,"resolución":5605,"##medi":5606,"India":5607,"##ferente":5608,"tracto":5609,"patr":5610,"disper":5611,"abierto":5612,"pregun":5613,"##uración":5614,"espada":5615,"canal":5616,"provocar":5617,"##itarse":5618,"##tirse":5619,"quiere":5620,"tiempos":5621,"tax":5622,"dial":5623,"opuesto":5624,"creencias":5625,"pesar":5626,"Ali":5627,"monte":5628,"puntas":5629,"niño":5630,"torpe":5631,"guardan":5632,"##ólicas":5633,"poseen":5634,"hierbas":5635,"labores":5636,"##ceptible":5637,"beber":5638,"alteración":5639,"cambia":5640,"robusto":5641,"Plato":5642,"Plata":5643,"Figurativamente":5644,"profesional":5645,"nervios":5646,"carbón":5647,"mostrar":5648,"lleno":5649,"fenómeno":5650,"suelen":5651,"sorpres":5652,"sílabas":5653,"espectáculo":5654,"recep":5655,"prácticas":5656,"ciclo":5657,"Reunión":5658,"artillería":5659,"Ingeniería":5660,"Moneda":5661,"figurado":5662,"múltip":5663,"sudameric":5664,"arquitectón":5665,"Corte":5666,"Di":5667,"Ru":5668,"club":5669,"ges":5670,"goma":5671,"humo":5672,"lien":5673,"mente":5674,"oído":5675,"pár":5676,"tes":5677,"tol":5678,"##sia":5679,"##mn":5680,"##ema":5681,"##dentes":5682,"##EF":5683,"##DEF":5684,"##AU":5685,"##bable":5686,"##ículas":5687,"##LT":5688,"##RT":5689,"##ueve":5690,"##estro":5691,"##entino":5692,"##stas":5693,"##omun":5694,"allí":5695,"semb":5696,"##tiz":5697,"requiere":5698,"inma":5699,"inesper":5700,"permitir":5701,"estados":5702,"##igas":5703,"extran":5704,"##imia":5705,"##gusto":5706,"fortif":5707,"##ucar":5708,"notable":5709,"##ánicas":5710,"##queta":5711,"arquitectura":5712,"artículos":5713,"##parse":5714,"##itada":5715,"##izas":5716,"mod":5717,"resta":5718,"restr":5719,"mand":5720,"manda":5721,"haz":5722,"Prof":5723,"Producto":5724,"varón":5725,"##ísmo":5726,"termina":5727,"palma":5728,"elevado":5729,"aumentar":5730,"auxil":5731,"cerrada":5732,"mayores":5733,"tapa":5734,"llamar":5735,"falsa":5736,"expul":5737,"ideología":5738,"vender":5739,"ganar":5740,"digno":5741,"públicos":5742,"cintura":5743,"claridad":5744,"Texto":5745,"exclus":5746,"método":5747,"virtu":5748,"juez":5749,"avión":5750,"adornos":5751,"##ámina":5752,"dirige":5753,"escribe":5754,"arbusto":5755,"campos":5756,"multip":5757,"articula":5758,"caballerías":5759,"urb":5760,"artística":5761,"vacío":5762,"límite":5763,"músculos":5764,"presentan":5765,"católica":5766,"cónca":5767,"reconocer":5768,"Industria":5769,"circulación":5770,"previamente":5771,"reflexión":5772,"carrera":5773,"bacterias":5774,"##édito":5775,"Suele":5776,"técnicas":5777,"filosóf":5778,"##SORT":5779,"sitios":5780,"sanguí":5781,"##DEFAU":5782,"##LTSORT":5783,"##DEFAULTSORT":5784,"40":5785,"Bras":5786,"Ori":5787,"Ofici":5788,"Pale":5789,"Rom":5790,"Río":5791,"Tipografía":5792,"Util":5793,"XX":5794,"bru":5795,"bomb":5796,"fres":5797,"fáb":5798,"hin":5799,"horm":5800,"ital":5801,"nub":5802,"pien":5803,"pris":5804,"tribu":5805,"Área":5806,"##tú":5807,"##tec":5808,"##cciones":5809,"##atos":5810,"##ler":5811,"##mio":5812,"##mós":5813,"##mizo":5814,"##ela":5815,"##étal":5816,"##dada":5817,"##gadura":5818,"##pla":5819,"##péu":5820,"##fil":5821,"##bor":5822,"##bia":5823,"##xic":5824,"##osidad":5825,"##cimientos":5826,"##angular":5827,"##ican":5828,"##entarse":5829,"allá":5830,"##icaciones":5831,"rele":5832,"retra":5833,"##unciar":5834,"##ilidades":5835,"estu":5836,"##imos":5837,"##aminar":5838,"##iego":5839,"##cua":5840,"usaban":5841,"soportar":5842,"hablando":5843,"empar":5844,"escla":5845,"##ésima":5846,"Establ":5847,"marcha":5848,"##gráfica":5849,"aut":5850,"##emia":5851,"densidad":5852,"juz":5853,"respec":5854,"##endido":5855,"puntia":5856,"sueño":5857,"diversión":5858,"atmós":5859,"consideran":5860,"##mania":5861,"tempor":5862,"tabaco":5863,"aspectos":5864,"labrar":5865,"sobrena":5866,"tenga":5867,"triangular":5868,"proceder":5869,"estrecho":5870,"cristi":5871,"incluyendo":5872,"antiguas":5873,"guía":5874,"##crito":5875,"cultivado":5876,"orgánico":5877,"cuarto":5878,"conversación":5879,"fibra":5880,"percibir":5881,"último":5882,"permanente":5883,"conforman":5884,"celebra":5885,"Cubrir":5886,"Pose":5887,"sílaba":5888,"examen":5889,"Vivienda":5890,"encontrar":5891,"problema":5892,"relleno":5893,"facultades":5894,"reputación":5895,"obtenida":5896,"prostitu":5897,"tribun":5898,"dilig":5899,"dormir":5900,"cilíndrico":5901,"espiritual":5902,"Procedimiento":5903,"profundidad":5904,"Establecer":5905,"puntiagu":5906,"Echar":5907,"Hue":5908,"Masa":5909,"Mueble":5910,"Pene":5911,"Palo":5912,"Tar":5913,"bó":5914,"hil":5915,"ira":5916,"lit":5917,"mi":5918,"ove":5919,"ríg":5920,"rocas":5921,"sar":5922,"sección":5923,"vía":5924,"vestimenta":5925,"##tidas":5926,"##cla":5927,"##cus":5928,"##mit":5929,"##iario":5930,"##nadas":5931,"##drica":5932,"##vadas":5933,"##enden":5934,"##cis":5935,"##cible":5936,"##esar":5937,"##icarse":5938,"envés":5939,"entorno":5940,"concur":5941,"reemp":5942,"esqu":5943,"delim":5944,"deliber":5945,"##lete":5946,"cuch":5947,"##acha":5948,"esté":5949,"##istán":5950,"##quial":5951,"noble":5952,"##quete":5953,"##ifes":5954,"prec":5955,"manten":5956,"compuestos":5957,"Dep":5958,"medición":5959,"paga":5960,"Metal":5961,"pertenecen":5962,"abierta":5963,"Armas":5964,"nacimiento":5965,"costas":5966,"##estias":5967,"cansan":5968,"castigo":5969,"afi":5970,"neu":5971,"##áceos":5972,"humedad":5973,"transpar":5974,"blando":5975,"Sudam":5976,"causado":5977,"antigüedad":5978,"##ombra":5979,"mismos":5980,"crea":5981,"pescado":5982,"##cibir":5983,"refres":5984,"seco":5985,"aguda":5986,"molde":5987,"enfermizo":5988,"distinción":5989,"consideración":5990,"Colocar":5991,"digestivo":5992,"atraer":5993,"clases":5994,"desapar":5995,"alternas":5996,"señales":5997,"eréc":5998,"Manifes":5999,"trozos":6000,"visual":6001,"Práctica":6002,"aceptar":6003,"señalar":6004,"Sonido":6005,"busc":6006,"idiomas":6007,"fluido":6008,"funciona":6009,"típica":6010,"frecuente":6011,"derivado":6012,"Doctrina":6013,"imita":6014,"fibras":6015,"vasos":6016,"ilust":6017,"Región":6018,"globo":6019,"masculino":6020,"droga":6021,"minist":6022,"pruebas":6023,"combustible":6024,"Electr":6025,"delantera":6026,"jardines":6027,"herramientas":6028,"siguiente":6029,"belleza":6030,"reconocimiento":6031,"agríc":6032,"Ganadería":6033,"viejo":6034,"chocola":6035,"abejas":6036,"htt":6037,"Sudamérica":6038,"Ay":6039,"Atra":6040,"Ban":6041,"Cambio":6042,"Edi":6043,"Fel":6044,"Gra":6045,"Gre":6046,"He":6047,"Sacar":6048,"aer":6049,"ben":6050,"bras":6051,"bron":6052,"cónica":6053,"dru":6054,"fro":6055,"fiesta":6056,"hielo":6057,"justo":6058,"lento":6059,"móvil":6060,"muros":6061,"pudi":6062,"ron":6063,"rub":6064,"secuencia":6065,"vín":6066,"zar":6067,"ét":6068,"éx":6069,"##uación":6070,"##lad":6071,"##iqu":6072,"##iales":6073,"##edi":6074,"##ñe":6075,"##vio":6076,"##vados":6077,"##viar":6078,"##gador":6079,"##far":6080,"##jan":6081,"##eria":6082,"##asión":6083,"##orca":6084,"quedar":6085,"conson":6086,"##ectamente":6087,"##tiza":6088,"##tirar":6089,"##tista":6090,"##olencia":6091,"##mentado":6092,"##laciones":6093,"reales":6094,"repos":6095,"repeti":6096,"espar":6097,"inquie":6098,"delic":6099,"portá":6100,"permiten":6101,"##del":6102,"##quido":6103,"##amar":6104,"##ambre":6105,"##iera":6106,"##ierte":6107,"aca":6108,"anar":6109,"andar":6110,"desl":6111,"carta":6112,"##icilio":6113,"fortal":6114,"##ume":6115,"compuestas":6116,"personaje":6117,"haga":6118,"##minas":6119,"aplan":6120,"impos":6121,"impacto":6122,"recrea":6123,"preten":6124,"precios":6125,"escar":6126,"inflamación":6127,"margen":6128,"provecho":6129,"salsa":6130,"empleando":6131,"menores":6132,"##mático":6133,"transmitir":6134,"cultivo":6135,"##uelto":6136,"##uelve":6137,"##ilares":6138,"vivir":6139,"respira":6140,"superficial":6141,"subs":6142,"líquida":6143,"China":6144,"estudios":6145,"necesaria":6146,"##rismo":6147,"religiones":6148,"conocida":6149,"atraves":6150,"separa":6151,"integr":6152,"##ósitos":6153,"##ológicos":6154,"romance":6155,"genitales":6156,"Manera":6157,"demuestra":6158,"cristiana":6159,"virus":6160,"reproduc":6161,"Método":6162,"Cuba":6163,"puertas":6164,"impreso":6165,"juntas":6166,"bolsa":6167,"golpear":6168,"mejorar":6169,"correspondencia":6170,"relieve":6171,"proyecto":6172,"negocios":6173,"existir":6174,"firmeza":6175,"lucha":6176,"##émico":6177,"magnitud":6178,"denomina":6179,"competencia":6180,"adulto":6181,"Cristianismo":6182,"ampliamente":6183,"contexto":6184,"religiosas":6185,"domestic":6186,"Nueva":6187,"Señal":6188,"enseñanza":6189,"##cribir":6190,"Libro":6191,"cortesía":6192,"ceremon":6193,"perjuicio":6194,"##aceae":6195,"terapéu":6196,"cansancio":6197,"eréctil":6198,"Electrónica":6199,"chocolate":6200,"http":6201,"//":6202,"Ara":6203,"Aquel":6204,"Br":6205,"Bur":6206,"Cambiar":6207,"Da":6208,"Ejer":6209,"Mic":6210,"Oc":6211,"Puer":6212,"Tab":6213,"Tur":6214,"Tecnología":6215,"ara":6216,"darse":6217,"danza":6218,"etapa":6219,"fone":6220,"mir":6221,"nom":6222,"nie":6223,"ritu":6224,"telas":6225,"vér":6226,"vías":6227,"ésta":6228,"##tuna":6229,"##ua":6230,"##cent":6231,"##ae":6232,"##iéndose":6233,"##éis":6234,"##ñoso":6235,"##gética":6236,"##pro":6237,"##pto":6238,"##bios":6239,"##onos":6240,"##adera":6241,"##adero":6242,"unen":6243,"##entamiento":6244,"quede":6245,"##ónimo":6246,"conex":6247,"##eccionar":6248,"##tici":6249,"##tima":6250,"##tiendo":6251,"##rear":6252,"##rientes":6253,"##ritorio":6254,"retórica":6255,"esla":6256,"inicio":6257,"inicia":6258,"delgadas":6259,"percusión":6260,"##isten":6261,"##istentes":6262,"##ieron":6263,"acces":6264,"##tarios":6265,"medidas":6266,"notas":6267,"##áns":6268,"arg":6269,"##umbre":6270,"oblon":6271,"Sem":6272,"prendas":6273,"efec":6274,"colocar":6275,"cortas":6276,"temas":6277,"##cesa":6278,"##ficie":6279,"ped":6280,"pez":6281,"##ferir":6282,"disgusto":6283,"verga":6284,"generar":6285,"adh":6286,"adqu":6287,"prevenir":6288,"##larar":6289,"varía":6290,"espinos":6291,"salva":6292,"afil":6293,"pobre":6294,"realizado":6295,"realizan":6296,"diferencias":6297,"tap":6298,"finales":6299,"basado":6300,"Andes":6301,"dip":6302,"deben":6303,"reptiles":6304,"##case":6305,"Actividad":6306,"##iestas":6307,"insp":6308,"agujeros":6309,"##ometer":6310,"necesarias":6311,"##ásticos":6312,"considerable":6313,"doce":6314,"Colores":6315,"horas":6316,"mercado":6317,"extrae":6318,"trip":6319,"ejercer":6320,"occidental":6321,"comparación":6322,"estric":6323,"Aplí":6324,"métodos":6325,"nueve":6326,"Superficie":6327,"localidad":6328,"##tándose":6329,"consumir":6330,"combinación":6331,"pelos":6332,"naranja":6333,"sostiene":6334,"##tificar":6335,"voluntaria":6336,"juntos":6337,"Territorio":6338,"cuidar":6339,"parecida":6340,"económ":6341,"##ectoria":6342,"Gua":6343,"orgánica":6344,"regularmente":6345,"proporción":6346,"nervioso":6347,"reunión":6348,"ilum":6349,"verdoso":6350,"numerosos":6351,"Miedo":6352,"imperio":6353,"oculto":6354,"fiebre":6355,"participa":6356,"combustión":6357,"manifestar":6358,"espectáculos":6359,"problemas":6360,"Atl":6361,"mercancías":6362,"tierras":6363,"##ájaro":6364,"cerebro":6365,"Generalmente":6366,"Mostrar":6367,"apetito":6368,"atmósfera":6369,"Edificio":6370,"Aplícase":6371,"Cir":6372,"Eje":6373,"Ecuador":6374,"Fe":6375,"Fútbol":6376,"Mor":6377,"Pl":6378,"Pen":6379,"Sir":6380,"Serv":6381,"Términ":6382,"ago":6383,"ausencia":6384,"ber":6385,"girar":6386,"ign":6387,"jar":6388,"kg":6389,"llan":6390,"lesión":6391,"roc":6392,"tó":6393,"tensión":6394,"visión":6395,"vaca":6396,"ára":6397,"##tol":6398,"##teca":6399,"##cab":6400,"##mado":6401,"##oz":6402,"##iarse":6403,"##itivos":6404,"##ñada":6405,"##vido":6406,"##viendo":6407,"##gante":6408,"##úpe":6409,"##are":6410,"##citar":6411,"##anci":6412,"eng":6413,"entrar":6414,"conec":6415,"##eccion":6416,"aler":6417,"alqu":6418,"paral":6419,"parentesco":6420,"##lago":6421,"##undar":6422,"##dimientos":6423,"##mato":6424,"##isp":6425,"proto":6426,"##ocan":6427,"acel":6428,"análisis":6429,"mexic":6430,"##icismo":6431,"fortuna":6432,"##ucle":6433,"##áneo":6434,"cau":6435,"arena":6436,"##umar":6437,"especif":6438,"promo":6439,"colo":6440,"teoría":6441,"Decir":6442,"##meja":6443,"conservar":6444,"pata":6445,"aplicar":6446,"impar":6447,"abra":6448,"abertura":6449,"abrigo":6450,"##vertir":6451,"cabe":6452,"##rende":6453,"paser":6454,"marcar":6455,"##cara":6456,"##gantes":6457,"##ocico":6458,"##dese":6459,"humor":6460,"humil":6461,"vale":6462,"policía":6463,"basa":6464,"##ecerse":6465,"heridas":6466,"Desa":6467,"grados":6468,"aparatos":6469,"jud":6470,"espacios":6471,"debida":6472,"repite":6473,"repentina":6474,"opone":6475,"Exper":6476,"buques":6477,"resultados":6478,"equipos":6479,"volc":6480,"Pedazo":6481,"explo":6482,"molesta":6483,"necesita":6484,"santo":6485,"##ribuir":6486,"escritos":6487,"domicilio":6488,"completa":6489,"conduce":6490,"conducto":6491,"##tiod":6492,"romanos":6493,"extraord":6494,"meton":6495,"esfera":6496,"seguro":6497,"Hablar":6498,"vegetación":6499,"deportiva":6500,"mecánico":6501,"numer":6502,"ventaja":6503,"ataque":6504,"identidad":6505,"verdadero":6506,"apreciada":6507,"proporciona":6508,"totalmente":6509,"Expresar":6510,"almacenar":6511,"brillo":6512,"dificultades":6513,"Mineral":6514,"instal":6515,"verduras":6516,"extremadamente":6517,"psico":6518,"sobresal":6519,"automóviles":6520,"##capacidad":6521,"privile":6522,"Vasija":6523,"fabricar":6524,"##égimen":6525,"anormal":6526,"mapuc":6527,"múltiples":6528,"bóve":6529,"14":6530,"13":6531,"22":6532,"90":6533,"Apo":6534,"Bien":6535,"Cierto":6536,"Gas":6537,"Hum":6538,"Idi":6539,"Título":6540,"aé":6541,"agricultura":6542,"bil":6543,"din":6544,"emite":6545,"fiestas":6546,"giro":6547,"hocico":6548,"joy":6549,"lisa":6550,"nas":6551,"piso":6552,"pétal":6553,"ul":6554,"vi":6555,"vuelo":6556,"óse":6557,"##rp":6558,"##rosa":6559,"##roso":6560,"##cante":6561,"##carse":6562,"##ote":6563,"##nada":6564,"##dicos":6565,"##zante":6566,"##puesto":6567,"##fos":6568,"##forma":6569,"deu":6570,"deman":6571,"deuda":6572,"dedicado":6573,"##ciosa":6574,"##orías":6575,"##anim":6576,"##anca":6577,"##entro":6578,"enton":6579,"concha":6580,"##omor":6581,"##robar":6582,"segre":6583,"partida":6584,"##lama":6585,"referido":6586,"esque":6587,"suminist":6588,"##ulada":6589,"##ullo":6590,"##leo":6591,"##isar":6592,"Quedar":6593,"##resar":6594,"##guo":6595,"##ogé":6596,"desin":6597,"caver":6598,"obrar":6599,"##paración":6600,"##itando":6601,"motivos":6602,"mag":6603,"matemá":6604,"##inarse":6605,"reserv":6606,"##urgia":6607,"hablan":6608,"##iblia":6609,"##gaz":6610,"puedan":6611,"papa":6612,"dispar":6613,"impro":6614,"pred":6615,"preocu":6616,"infección":6617,"coloración":6618,"marcado":6619,"castel":6620,"##ubo":6621,"utilizan":6622,"male":6623,"blancos":6624,"caracteres":6625,"basada":6626,"Unir":6627,"plato":6628,"Algun":6629,"ordenada":6630,"montar":6631,"vaina":6632,"explicar":6633,"agrup":6634,"Dismin":6635,"##cern":6636,"gastos":6637,"satur":6638,"invierno":6639,"labios":6640,"desarrollar":6641,"separado":6642,"##licción":6643,"romana":6644,"cinta":6645,"ergu":6646,"Papa":6647,"procedente":6648,"procedimientos":6649,"conclusión":6650,"dependencia":6651,"alcohólicas":6652,"balón":6653,"Marca":6654,"construido":6655,"ocasión":6656,"elaborada":6657,"externo":6658,"ofens":6659,"armazón":6660,"Autom":6661,"islas":6662,"dividido":6663,"ondas":6664,"recorrido":6665,"##anth":6666,"##ópteros":6667,"redondo":6668,"continuo":6669,"modificar":6670,"Cinegética":6671,"comprom":6672,"código":6673,"enfrentar":6674,"dorso":6675,"argumentos":6676,"distinguir":6677,"directamente":6678,"dominio":6679,"Alemania":6680,"púrp":6681,"añade":6682,"Centro":6683,"herramienta":6684,"Cría":6685,"veinte":6686,"Hoja":6687,"Hojas":6688,"##táneamente":6689,"noticia":6690,"vocablo":6691,"tranqu":6692,"débil":6693,"industrial":6694,"cercano":6695,"cereales":6696,"intestino":6697,"adjetivo":6698,"síntomas":6699,"áspero":6700,"intelectual":6701,"sacerdote":6702,"repetidamente":6703,"riqueza":6704,"Alimento":6705,"sorpresa":6706,"Término":6707,"metonimia":6708,"Ber":6709,"Bio":6710,"Er":6711,"Familia":6712,"Junto":6713,"Nú":6714,"Pes":6715,"Pad":6716,"agrad":6717,"bon":6718,"cán":6719,"cens":6720,"cielo":6721,"emitir":6722,"gana":6723,"hora":6724,"id":6725,"jab":6726,"lis":6727,"lina":6728,"pi":6729,"sit":6730,"ár":6731,"##tente":6732,"##etría":6733,"##europe":6734,"##nfas":6735,"##ñarse":6736,"##vida":6737,"##varse":6738,"##gios":6739,"##bio":6740,"##íqu":6741,"##úp":6742,"##erso":6743,"##anal":6744,"##entan":6745,"enre":6746,"conti":6747,"##idencia":6748,"alem":6749,"##tem":6750,"retr":6751,"relo":6752,"retor":6753,"espe":6754,"inú":6755,"inten":6756,"intr":6757,"indese":6758,"##ull":6759,"##ulus":6760,"##ultado":6761,"##tuber":6762,"##leto":6763,"perros":6764,"##iende":6765,"##americ":6766,"##och":6767,"melan":6768,"card":6769,"cae":6770,"cavidad":6771,"##ell":6772,"##quedad":6773,"##umir":6774,"próx":6775,"compra":6776,"Real":6777,"entrega":6778,"leve":6779,"asi":6780,"mediano":6781,"##lasma":6782,"##ísticas":6783,"oral":6784,"extensamente":6785,"costado":6786,"posesión":6787,"mari":6788,"interno":6789,"soldados":6790,"divisiones":6791,"aumento":6792,"cierra":6793,"##ecido":6794,"transmisión":6795,"culturas":6796,"densa":6797,"bastante":6798,"despreci":6799,"Unión":6800,"dila":6801,"Extra":6802,"baila":6803,"##ionales":6804,"eventos":6805,"evidente":6806,"expresiones":6807,"refu":6808,"crom":6809,"cruel":6810,"##nosos":6811,"deseado":6812,"##rillos":6813,"molus":6814,"distintivo":6815,"##endio":6816,"capaces":6817,"##tícula":6818,"desarrolla":6819,"descendientes":6820,"tropa":6821,"compartir":6822,"actualmente":6823,"pintar":6824,"Cortar":6825,"químicos":6826,"Princip":6827,"observa":6828,"establecido":6829,"machos":6830,"muebles":6831,"##ítulos":6832,"favorable":6833,"puerto":6834,"controlar":6835,"territorios":6836,"obliga":6837,"horizonte":6838,"ventana":6839,"ventanas":6840,"perennes":6841,"celular":6842,"opiniones":6843,"correr":6844,"grisáceo":6845,"sufrimiento":6846,"literario":6847,"cumplimiento":6848,"enseña":6849,"proteín":6850,"percibe":6851,"frases":6852,"sucesión":6853,"registro":6854,"extremidades":6855,"manejar":6856,"entidades":6857,"acumulación":6858,"establece":6859,"cilíndrica":6860,"laterales":6861,"cañón":6862,"Crear":6863,"cuadrúpe":6864,"aprovechar":6865,"reducido":6866,"mercancía":6867,"obstáculo":6868,"ordinaria":6869,"investigación":6870,"redondeada":6871,"concreto":6872,"acostu":6873,"XVIII":6874,"lanceoladas":6875,"teatral":6876,"Hierba":6877,"moléculas":6878,"potencial":6879,"equilibrio":6880,"Ruido":6881,"inmaterial":6882,"Grecia":6883,"Idioma":6884,"##nfasis":6885,"16":6886,"Biblia":6887,"Ev":6888,"Ej":6889,"For":6890,"Oficio":6891,"Sí":6892,"Va":6893,"Viento":6894,"aust":6895,"bola":6896,"frac":6897,"lanza":6898,"pálido":6899,"rol":6900,"rica":6901,"riz":6902,"sensa":6903,"vina":6904,"Óp":6905,"áp":6906,"##rales":6907,"##uera":6908,"##cr":6909,"##calo":6910,"##mon":6911,"##iada":6912,"##ius":6913,"##ijo":6914,"##zon":6915,"##pecto":6916,"##férica":6917,"##áver":6918,"##áculos":6919,"##bita":6920,"##osex":6921,"##aste":6922,"##orde":6923,"##adir":6924,"##entía":6925,"enrol":6926,"quebr":6927,"aliv":6928,"##lamar":6929,"remos":6930,"dele":6931,"##ienen":6932,"estím":6933,"excep":6934,"##ocal":6935,"antic":6936,"angust":6937,"##rantes":6938,"desgra":6939,"carru":6940,"nove":6941,"##elos":6942,"arque":6943,"mancha":6944,"##uerza":6945,"Recinto":6946,"lejos":6947,"##cultura":6948,"pap":6949,"##ísticos":6950,"versos":6951,"##ensis":6952,"##itat":6953,"escamas":6954,"Mediterráneo":6955,"##duz":6956,"pasos":6957,"marinos":6958,"provisto":6959,"audio":6960,"##ecil":6961,"aflicción":6962,"fueron":6963,"tráns":6964,"coinci":6965,"senti":6966,"financi":6967,"fricción":6968,"gracias":6969,"dureza":6970,"##currir":6971,"fama":6972,"opuesta":6973,"contrato":6974,"contraposición":6975,"define":6976,"cree":6977,"creencia":6978,"plate":6979,"plomo":6980,"pesado":6981,"musul":6982,"profun":6983,"comunicar":6984,"Carne":6985,"Carpintería":6986,"molestia":6987,"enfermo":6988,"agru":6989,"Disciplina":6990,"##udal":6991,"monedas":6992,"horno":6993,"##ólico":6994,"Modo":6995,"contribu":6996,"##tículo":6997,"ruid":6998,"separados":6999,"romano":7000,"erecto":7001,"actualidad":7002,"Habitación":7003,"cristianismo":7004,"físicos":7005,"hábitat":7006,"depende":7007,"vigil":7008,"dulces":7009,"finalidad":7010,"disputa":7011,"mueble":7012,"indetermin":7013,"armadura":7014,"lanz":7015,"Salir":7016,"celeste":7017,"##ólogo":7018,"tonos":7019,"introduce":7020,"persp":7021,"carbono":7022,"##edores":7023,"Islas":7024,"##ificada":7025,"limpieza":7026,"impuls":7027,"columnas":7028,"dotada":7029,"montañas":7030,"vuelta":7031,"estrechamente":7032,"intenta":7033,"inverte":7034,"licor":7035,"comienzo":7036,"vulgaris":7037,"quince":7038,"púas":7039,"religiosos":7040,"abstrac":7041,"participantes":7042,"medicinales":7043,"deterioro":7044,"arbustos":7045,"pulmones":7046,"rapidez":7047,"irritación":7048,"conflicto":7049,"desembocan":7050,"incorpor":7051,"desprecio":7052,"entusiasmo":7053,"Brasil":7054,"Paleontología":7055,"relev":7056,"Metalurgia":7057,"Hembra":7058,"portátil":7059,"púrpura":7060,"Óptica":7061,"tránsito":7062,"45":7063,"Ata":7064,"Ade":7065,"Cur":7066,"Cob":7067,"Domin":7068,"Foto":7069,"Grado":7070,"Hon":7071,"Ja":7072,"Lu":7073,"Lan":7074,"Operación":7075,"Pu":7076,"Tel":7077,"Tendencia":7078,"ajedrez":7079,"cif":7080,"clor":7081,"due":7082,"dada":7083,"eb":7084,"fórmula":7085,"rival":7086,"tira":7087,"énfasis":7088,"##ucia":7089,"##uña":7090,"##uario":7091,"##mol":7092,"##iter":7093,"##iración":7094,"##puesta":7095,"##jera":7096,"##bido":7097,"##ks":7098,"devo":7099,"##cientes":7100,"##orio":7101,"unido":7102,"enver":7103,"encer":7104,"lavar":7105,"##idra":7106,"##ectiva":7107,"##ticia":7108,"##timiento":7109,"parale":7110,"parcialmente":7111,"##mentalmente":7112,"##ritos":7113,"recinto":7114,"##unción":7115,"##uncia":7116,"##uls":7117,"##uliar":7118,"portu":7119,"##terinaria":7120,"cuida":7121,"##tres":7122,"existente":7123,"##ped":7124,"##química":7125,"##zaje":7126,"acre":7127,"acop":7128,"accidente":7129,"anch":7130,"cariño":7131,"cate":7132,"##tración":7133,"usuario":7134,"Periodo":7135,"Segu":7136,"especiales":7137,"efectu":7138,"manip":7139,"##uerte":7140,"Esc":7141,"Intro":7142,"aplicado":7143,"verdes":7144,"##ensible":7145,"recíp":7146,"nativos":7147,"nacido":7148,"##ambor":7149,"marrón":7150,"##gráfico":7151,"terminar":7152,"calzado":7153,"raza":7154,"racional":7155,"rayos":7156,"emplear":7157,"funcional":7158,"##chado":7159,"cerrar":7160,"incomo":7161,"malo":7162,"caracterizan":7163,"Suf":7164,"qué":7165,"madero":7166,"conforme":7167,"Comida":7168,"misa":7169,"defiende":7170,"barcos":7171,"crédito":7172,"amarilla":7173,"instrucción":7174,"Carac":7175,"superioridad":7176,"organiza":7177,"Disposición":7178,"semana":7179,"directo":7180,"complejo":7181,"##áficos":7182,"señor":7183,"ajusta":7184,"fabáceas":7185,"hebre":7186,"estructuras":7187,"hábil":7188,"cuelga":7189,"estándar":7190,"consumen":7191,"juega":7192,"encarga":7193,"cadáver":7194,"alegre":7195,"ocurrir":7196,"muerto":7197,"conveniente":7198,"instituciones":7199,"criterio":7200,"ofensa":7201,"fundamento":7202,"fundamental":7203,"cilindro":7204,"León":7205,"multitud":7206,"representan":7207,"Presentar":7208,"Adquirir":7209,"trabajos":7210,"internacional":7211,"negativo":7212,"conceptos":7213,"experimentar":7214,"responsable":7215,"precisión":7216,"medicamentos":7217,"asociado":7218,"brin":7219,"fiel":7220,"psíqu":7221,"colectivo":7222,"conservación":7223,"Baile":7224,"precede":7225,"recubierto":7226,"chileno":7227,"trayectoria":7228,"inflorescencia":7229,"descomposición":7230,"máximo":7231,"munici":7232,"tóxica":7233,"Provocar":7234,"indoeurope":7235,"##yuge":7236,"denota":7237,"Dirig":7238,"modales":7239,"tribunal":7240,"éxito":7241,"Número":7242,"recípro":7243,"11":7244,"17":7245,"Cy":7246,"Comb":7247,"Emp":7248,"Emitir":7249,"Ras":7250,"Recu":7251,"Sim":7252,"Tienda":7253,"ax":7254,"aci":7255,"ama":7256,"atre":7257,"bue":7258,"cue":7259,"cog":7260,"cera":7261,"dio":7262,"jó":7263,"jugar":7264,"lid":7265,"lust":7266,"lingüística":7267,"lista":7268,"lámina":7269,"males":7270,"nieve":7271,"nace":7272,"olas":7273,"pil":7274,"rural":7275,"rigur":7276,"uva":7277,"vin":7278,"##tador":7279,"##radas":7280,"##cro":7281,"##mí":7282,"##mán":7283,"##don":7284,"##dro":7285,"##volver":7286,"##pital":7287,"##fato":7288,"##bilidad":7289,"##ware":7290,"##cinas":7291,"##onal":7292,"##entada":7293,"latino":7294,"latín":7295,"conden":7296,"conducir":7297,"##eco":7298,"alu":7299,"sean":7300,"##olog":7301,"##taciones":7302,"##unde":7303,"ino":7304,"inoc":7305,"incu":7306,"comidas":7307,"##ires":7308,"##igue":7309,"expe":7310,"##logo":7311,"##rump":7312,"acus":7313,"acomo":7314,"##icidad":7315,"##ántica":7316,"caz":7317,"cauc":7318,"moda":7319,"corrientes":7320,"mando":7321,"Def":7322,"hacía":7323,"conserva":7324,"asim":7325,"pag":7326,"pape":7327,"abur":7328,"adher":7329,"adquirir":7330,"recol":7331,"Arro":7332,"cabra":7333,"planos":7334,"plancha":7335,"##érm":7336,"posibilidad":7337,"Media":7338,"presentar":7339,"cantar":7340,"##genos":7341,"Partidario":7342,"afición":7343,"podr":7344,"cercan":7345,"transmite":7346,"blanda":7347,"##venes":7348,"gráfica":7349,"desplaza":7350,"Exp":7351,"falto":7352,"##mentativo":7353,"Alter":7354,"ordenador":7355,"morf":7356,"suelos":7357,"deseos":7358,"deseable":7359,"##tanos":7360,"secciones":7361,"decisiones":7362,"##ortun":7363,"gastar":7364,"sagrado":7365,"##áficas":7366,"Modif":7367,"##lorar":7368,"tarde":7369,"textos":7370,"error":7371,"trozo":7372,"Papel":7373,"fondos":7374,"océ":7375,"Temp":7376,"embara":7377,"sacra":7378,"Habita":7379,"cuadrado":7380,"Antiguo":7381,"establecidas":7382,"administrar":7383,"disponer":7384,"Veterinaria":7385,"apoya":7386,"factores":7387,"herbáceas":7388,"construir":7389,"buscar":7390,"Santa":7391,"comete":7392,"atacar":7393,"beneficios":7394,"políticas":7395,"inmun":7396,"verticales":7397,"dividir":7398,"provincias":7399,"terminales":7400,"esperado":7401,"persu":7402,"ofrecer":7403,"Recor":7404,"diseño":7405,"acompañado":7406,"trabajadores":7407,"adiv":7408,"sucesos":7409,"extendida":7410,"##guarizo":7411,"##émica":7412,"experimenta":7413,"Castilla":7414,"Cubierta":7415,"levantar":7416,"tinta":7417,"enfado":7418,"direcciones":7419,"Armazón":7420,"yeguarizo":7421,"legumin":7422,"ilegal":7423,"láminas":7424,"consecuencias":7425,"germ":7426,"exactamente":7427,"orejas":7428,"átomos":7429,"Extremo":7430,"gaseoso":7431,"pliegue":7432,"disfru":7433,"arquitectónico":7434,"mandíb":7435,"exclusivamente":7436,"pretende":7437,"ceremonias":7438,"salvaje":7439,"bóveda":7440,"pétalos":7441,"proteínas":7442,"ápice":7443,"sentimental":7444,"buey":7445,"jóvenes":7446,"80":7447,"Aumento":7448,"Bal":7449,"Cha":7450,"Colo":7451,"Dinero":7452,"Dibu":7453,"Fr":7454,"Fab":7455,"Guer":7456,"Guar":7457,"Top":7458,"Vir":7459,"ampar":7460,"bloque":7461,"bestias":7462,"cás":7463,"ceb":7464,"caca":7465,"fo":7466,"fant":7467,"glab":7468,"hir":7469,"jerar":7470,"kil":7471,"pica":7472,"pig":7473,"rid":7474,"rico":7475,"tec":7476,"tacto":7477,"umb":7478,"vaso":7479,"##sase":7480,"##rid":7481,"##ría":7482,"##rones":7483,"##urez":7484,"##col":7485,"##cada":7486,"##coc":7487,"##cera":7488,"##cencias":7489,"##lés":7490,"##long":7491,"##miso":7492,"##ovil":7493,"##ik":7494,"##ién":7495,"##et":7496,"##dre":7497,"##dores":7498,"##vir":7499,"##gri":7500,"##gil":7501,"##gna":7502,"##cipe":7503,"##uelos":7504,"##organ":7505,"lazo":7506,"##inadas":7507,"##inea":7508,"cong":7509,"conve":7510,"##ompe":7511,"##roga":7512,"elíp":7513,"alba":7514,"altera":7515,"##tigio":7516,"partidario":7517,"##rit":7518,"##rión":7519,"inj":7520,"surg":7521,"##ulce":7522,"porte":7523,"##ispo":7524,"##iendas":7525,"estro":7526,"##amá":7527,"##ieren":7528,"##respon":7529,"actor":7530,"acceder":7531,"angos":7532,"melo":7533,"##trología":7534,"##ella":7535,"##nacional":7536,"arru":7537,"arras":7538,"articular":7539,"Sex":7540,"Separar":7541,"promin":7542,"colm":7543,"restos":7544,"##urinario":7545,"comprim":7546,"propósitos":7547,"##cop":7548,"dicta":7549,"asiento":7550,"paño":7551,"apun":7552,"##ensar":7553,"adoles":7554,"precip":7555,"nativas":7556,"espera":7557,"espinoso":7558,"infusión":7559,"internos":7560,"paladar":7561,"elevación":7562,"empleados":7563,"##ecimiento":7564,"##itourinario":7565,"mucosa":7566,"humanas":7567,"caracterizados":7568,"viva":7569,"maderos":7570,"alimentar":7571,"cop":7572,"copia":7573,"##tenerse":7574,"Desc":7575,"materias":7576,"duda":7577,"roedores":7578,"confusión":7579,"Comen":7580,"destac":7581,"destina":7582,"char":7583,"barba":7584,"bailar":7585,"Algo":7586,"Pedir":7587,"toros":7588,"##iloé":7589,"Chiloé":7590,"cubiertas":7591,"necesidades":7592,"enfermos":7593,"atmos":7594,"Obs":7595,"darle":7596,"distinto":7597,"rug":7598,"ruta":7599,"separada":7600,"separación":7601,"##viación":7602,"##ológicas":7603,"habitaba":7604,"compara":7605,"bandera":7606,"Apro":7607,"electricidad":7608,"Abertura":7609,"astucia":7610,"películas":7611,"guitar":7612,"mamífero":7613,"sosp":7614,"##tificación":7615,"muertos":7616,"constituyen":7617,"cometido":7618,"##íferas":7619,"ingle":7620,"inglés":7621,"breves":7622,"pensamientos":7623,"identificación":7624,"identifica":7625,"artista":7626,"Aumentativo":7627,"correo":7628,"picante":7629,"pictórica":7630,"padre":7631,"navegación":7632,"responder":7633,"representado":7634,"##ópula":7635,"colocan":7636,"públicamente":7637,"protegerse":7638,"Isla":7639,"cocido":7640,"impulso":7641,"recurso":7642,"península":7643,"francesa":7644,"interpretación":7645,"hijo":7646,"montaña":7647,"asemeja":7648,"disminución":7649,"gravedad":7650,"Valor":7651,"músculo":7652,"cómo":7653,"rumbo":7654,"pronuncia":7655,"participar":7656,"Cristo":7657,"hidró":7658,"Cabo":7659,"peculiar":7660,"comienza":7661,"Líquido":7662,"Panamá":7663,"lateral":7664,"excreción":7665,"específica":7666,"Central":7667,"avance":7668,"estandar":7669,"cordill":7670,"##huana":7671,"Trastorno":7672,"membrana":7673,"medicinal":7674,"hemis":7675,"contraria":7676,"acontecimiento":7677,"histórico":7678,"infantil":7679,"perjudi":7680,"tristeza":7681,"lienzo":7682,"nubes":7683,"piensa":7684,"agrícola":7685,"drupa":7686,"anaran":7687,"Puerto":7688,"vértic":7689,"Atlántico":7690,"compromiso":7691,"Bioquímica":7692,"sitúa":7693,"inútil":7694,"marihuana":7695,"moluscos":7696,"Fotografía":7697,"anchura":7698,"papeles":7699,"convex":7700,"35":7701,"Agu":7702,"Cul":7703,"Formación":7704,"Femen":7705,"Jap":7706,"Nar":7707,"Pérdida":7708,"Quien":7709,"Rob":7710,"Sec":7711,"aper":7712,"agra":7713,"agrado":7714,"cópula":7715,"dur":7716,"fic":7717,"fing":7718,"fase":7719,"gor":7720,"gim":7721,"jine":7722,"lób":7723,"muest":7724,"nomb":7725,"nóm":7726,"nucle":7727,"orilla":7728,"pide":7729,"puro":7730,"pocos":7731,"rendi":7732,"rara":7733,"silla":7734,"viene":7735,"Úsase":7736,"##tés":7737,"##rí":7738,"##rom":7739,"##ugo":7740,"##cés":7741,"##ló":7742,"##iantes":7743,"##étera":7744,"##has":7745,"##hum":7746,"##hem":7747,"##zorca":7748,"##gno":7749,"##for":7750,"##ítr":7751,"##ítimo":7752,"##ernar":7753,"##enarse":7754,"##enca":7755,"##asion":7756,"##adística":7757,"##incu":7758,"##idores":7759,"##ecomun":7760,"##rafo":7761,"##olia":7762,"regu":7763,"sutil":7764,"##ulosa":7765,"competición":7766,"paraje":7767,"##terna":7768,"perio":7769,"percepción":7770,"##deza":7771,"estor":7772,"##trado":7773,"##ignar":7774,"anf":7775,"desn":7776,"desci":7777,"cartí":7778,"cartón":7779,"catal":7780,"artiod":7781,"mate":7782,"resguar":7783,"corn":7784,"habladas":7785,"compac":7786,"compasión":7787,"personajes":7788,"##torial":7789,"##mbras":7790,"peda":7791,"pelea":7792,"##uiendo":7793,"tracción":7794,"asiste":7795,"discre":7796,"impu":7797,"impre":7798,"implica":7799,"##onesa":7800,"abad":7801,"abus":7802,"cuernos":7803,"etcétera":7804,"personales":7805,"personalidad":7806,"interrupción":7807,"pale":7808,"##turado":7809,"##emas":7810,"negros":7811,"cerámica":7812,"incre":7813,"valentía":7814,"apare":7815,"aparente":7816,"aparición":7817,"##ombo":7818,"rotación":7819,"##curre":7820,"crema":7821,"ordenado":7822,"crecen":7823,"expan":7824,"cubiertos":7825,"ideal":7826,"amargo":7827,"##josos":7828,"doctr":7829,"primeros":7830,"capas":7831,"Moverse":7832,"tablero":7833,"conductor":7834,"negruz":7835,"fijar":7836,"liga":7837,"clasificación":7838,"descri":7839,"poderes":7840,"genio":7841,"genética":7842,"crust":7843,"País":7844,"caminar":7845,"caminos":7846,"Tratar":7847,"saca":7848,"edif":7849,"hembras":7850,"equivale":7851,"químicas":7852,"locomo":7853,"astuto":7854,"definida":7855,"gall":7856,"construcciones":7857,"Limp":7858,"limitado":7859,"cometer":7860,"carnes":7861,"puente":7862,"identificar":7863,"electrón":7864,"Internacional":7865,"Aumentar":7866,"telef":7867,"##antía":7868,"goza":7869,"peligros":7870,"patológica":7871,"fermentación":7872,"homosex":7873,"instala":7874,"interpretar":7875,"permanecer":7876,"universo":7877,"##rificar":7878,"hijos":7879,"##tiago":7880,"XVI":7881,"vacuno":7882,"americana":7883,"relacionados":7884,"pronunci":7885,"masculina":7886,"Madero":7887,"descubierto":7888,"científico":7889,"elegancia":7890,"previo":7891,"provocada":7892,"Sobre":7893,"Costa":7894,"Paraguay":7895,"promueve":7896,"Empleo":7897,"cinemato":7898,"mercad":7899,"Trabajo":7900,"húmedos":7901,"decoración":7902,"Finanzas":7903,"estrella":7904,"rodilla":7905,"utensilio":7906,"intercambio":7907,"##toxicación":7908,"híbr":7909,"trepadora":7910,"lingüístico":7911,"página":7912,"asociación":7913,"solemne":7914,"sanguíneo":7915,"Utilizar":7916,"retrae":7917,"transparente":7918,"eslava":7919,"Ejemp":7920,"Península":7921,"árabe":7922,"saturarse":7923,"despreciable":7924,"vinagre":7925,"Sufrir":7926,"Topografía":7927,"guitarra":7928,"Femenino":7929,"Japón":7930,"Ausencia":7931,"Caja":7932,"Dig":7933,"Fi":7934,"Mide":7935,"Ocu":7936,"Oce":7937,"Quer":7938,"Tira":7939,"Us":7940,"Usar":7941,"amp":7942,"apel":7943,"cero":7944,"gir":7945,"hur":7946,"huel":7947,"hogar":7948,"ilí":7949,"nal":7950,"pól":7951,"rastr":7952,"vic":7953,"Án":7954,"útero":7955,"##cendencia":7956,"##mal":7957,"##mus":7958,"##mética":7959,"##otel":7960,"##ibre":7961,"##éticas":7962,"##doso":7963,"##duras":7964,"##ótico":7965,"##zando":7966,"##vias":7967,"##vador":7968,"##vora":7969,"##gica":7970,"##jano":7971,"##joso":7972,"##bi":7973,"##enes":7974,"##adro":7975,"##icados":7976,"##entario":7977,"enam":7978,"##inta":7979,"conse":7980,"##ider":7981,"##omento":7982,"##rología":7983,"##rax":7984,"##racia":7985,"alab":7986,"alma":7987,"sep":7988,"##ticip":7989,"##olus":7990,"esencia":7991,"sul":7992,"##ulsión":7993,"##dial":7994,"##tual":7995,"cura":7996,"cuentas":7997,"##dea":7998,"##acen":7999,"##acífico":8000,"ester":8001,"##tenida":8002,"##iguar":8003,"##gus":8004,"descu":8005,"forra":8006,"##tosa":8007,"##land":8008,"##elar":8009,"arado":8010,"arran":8011,"maqu":8012,"colección":8013,"##urado":8014,"manual":8015,"mangas":8016,"propie":8017,"##ajos":8018,"##torias":8019,"Referente":8020,"peci":8021,"petró":8022,"traves":8023,"puesta":8024,"asientos":8025,"asigna":8026,"##camente":8027,"verso":8028,"cables":8029,"premio":8030,"escen":8031,"costados":8032,"varones":8033,"##ambres":8034,"prestar":8035,"pasiones":8036,"marcas":8037,"##grada":8038,"caliente":8039,"salen":8040,"dañ":8041,"Particip":8042,"particulares":8043,"poética":8044,"##deste":8045,"siguiendo":8046,"transición":8047,"fruc":8048,"tráfico":8049,"Sud":8050,"##cillos":8051,"##echar":8052,"##uelle":8053,"diferenci":8054,"polen":8055,"Deseo":8056,"Comun":8057,"fav":8058,"Examinar":8059,"creada":8060,"destreza":8061,"chis":8062,"placa":8063,"##tadores":8064,"literatura":8065,"volar":8066,"barb":8067,"barras":8068,"baraja":8069,"subdi":8070,"subtrop":8071,"eval":8072,"crecer":8073,"cráneo":8074,"torn":8075,"torso":8076,"explí":8077,"comunidades":8078,"extrema":8079,"fuentes":8080,"tienda":8081,"característicos":8082,"rojas":8083,"ciudades":8084,"parejas":8085,"digestión":8086,"complemento":8087,"llamadas":8088,"apropi":8089,"##ándulas":8090,"laboral":8091,"ejemplares":8092,"erección":8093,"##hemente":8094,"Mancha":8095,"oficina":8096,"visc":8097,"mérito":8098,"méritos":8099,"Habilidad":8100,"oscura":8101,"filosofía":8102,"dependen":8103,"legis":8104,"inclinado":8105,"vocal":8106,"vocales":8107,"reproducir":8108,"condimento":8109,"Cuando":8110,"manifies":8111,"perfección":8112,"obligaciones":8113,"juntar":8114,"ayud":8115,"carnosa":8116,"puño":8117,"alimentan":8118,"arroj":8119,"arrojar":8120,"troncos":8121,"Golpear":8122,"dividida":8123,"orificio":8124,"fundamentalmente":8125,"robust":8126,"publicación":8127,"tonel":8128,"Preparar":8129,"gota":8130,"gotas":8131,"adelante":8132,"moderna":8133,"afectado":8134,"secreta":8135,"Islam":8136,"ejercicios":8137,"articulación":8138,"caballería":8139,"desigual":8140,"adicional":8141,"folc":8142,"glándulas":8143,"artístico":8144,"asegura":8145,"emisión":8146,"vuelve":8147,"tosco":8148,"recién":8149,"esponjosos":8150,"tiras":8151,"Insecto":8152,"Cabal":8153,"transform":8154,"brotes":8155,"cónyuge":8156,"Electricidad":8157,"utilizando":8158,"botones":8159,"rellena":8160,"Incl":8161,"circuito":8162,"Distancia":8163,"llevaba":8164,"Nuevo":8165,"noticias":8166,"satisfacción":8167,"ceniza":8168,"absorber":8169,"sencillo":8170,"conjun":8171,"inflorescencias":8172,"máxima":8173,"concentración":8174,"carretera":8175,"Alcanza":8176,"utensilios":8177,"fantas":8178,"japon":8179,"computadora":8180,"aprendi":8181,"jurídica":8182,"originalmente":8183,"indígena":8184,"mensajes":8185,"carnívoro":8186,"hombro":8187,"cóncava":8188,"Hueso":8189,"Semilla":8190,"cavernosos":8191,"predomin":8192,"##cerniente":8193,"retráctil":8194,"angustia":8195,"hebreo":8196,"cáscara":8197,"Comenzar":8198,"Oceanía":8199,"27":8200,"70":8201,"Cop":8202,"Citr":8203,"Dolor":8204,"Educ":8205,"Hor":8206,"Hal":8207,"Ima":8208,"Mundo":8209,"Niño":8210,"Posición":8211,"Pájaro":8212,"Sob":8213,"Tri":8214,"Tubo":8215,"Vie":8216,"aro":8217,"bando":8218,"bíb":8219,"coger":8220,"fes":8221,"ful":8222,"gust":8223,"gato":8224,"hé":8225,"heces":8226,"lé":8227,"lec":8228,"oper":8229,"pí":8230,"pocas":8231,"rar":8232,"régimen":8233,"ses":8234,"sombrero":8235,"testi":8236,"vit":8237,"vello":8238,"vector":8239,"yeso":8240,"óx":8241,"##talmente":8242,"##tano":8243,"##rue":8244,"##rencia":8245,"##cón":8246,"##aña":8247,"##lle":8248,"##ix":8249,"##ipe":8250,"##iadas":8251,"##ef":8252,"##éticos":8253,"##hor":8254,"##ótica":8255,"##ómetros":8256,"##zarse":8257,"##viene":8258,"##pí":8259,"##facto":8260,"##bit":8261,"##barse":8262,"##íes":8263,"##yec":8264,"deidad":8265,"##ertad":8266,"##enciar":8267,"##onado":8268,"##ania":8269,"entero":8270,"quedan":8271,"##inando":8272,"##iden":8273,"elástica":8274,"alber":8275,"alcal":8276,"pará":8277,"##riado":8278,"reh":8279,"reba":8280,"incul":8281,"##ulto":8282,"##ablo":8283,"##abora":8284,"##dios":8285,"##dismo":8286,"##tuosa":8287,"cuidad":8288,"curar":8289,"##deo":8290,"exci":8291,"exca":8292,"##oce":8293,"ang":8294,"antrop":8295,"anteriores":8296,"desv":8297,"cargas":8298,"##uscar":8299,"##iciar":8300,"##ucha":8301,"##moh":8302,"##jeta":8303,"caída":8304,"##eramente":8305,"##ásico":8306,"Encar":8307,"Conduc":8308,"matar":8309,"reses":8310,"manus":8311,"##tensión":8312,"pedir":8313,"Ing":8314,"##derar":8315,"##derse":8316,"pató":8317,"Metrología":8318,"aprender":8319,"orina":8320,"Programa":8321,"cabos":8322,"empres":8323,"vehemente":8324,"postura":8325,"posibles":8326,"positiva":8327,"difusión":8328,"prestigio":8329,"pastores":8330,"marina":8331,"top":8332,"##turbación":8333,"calend":8334,"calentar":8335,"rayas":8336,"salario":8337,"afe":8338,"##ácte":8339,"transpor":8340,"quir":8341,"quie":8342,"simétr":8343,"madurar":8344,"basal":8345,"gráfico":8346,"despacho":8347,"aparecen":8348,"juven":8349,"sustento":8350,"repentino":8351,"Expul":8352,"buenos":8353,"falle":8354,"creación":8355,"chu":8356,"plazo":8357,"plá":8358,"bayas":8359,"morales":8360,"servía":8361,"evolución":8362,"expresado":8363,"Carencia":8364,"derrib":8365,"venen":8366,"##udicar":8367,"roja":8368,"rojiza":8369,"##imación":8370,"primaria":8371,"##manes":8372,"Canal":8373,"trasera":8374,"públicas":8375,"##lice":8376,"##hete":8377,"tomada":8378,"teniendo":8379,"oficios":8380,"saco":8381,"Imperio":8382,"electro":8383,"nuevos":8384,"tradiciones":8385,"##enderse":8386,"observar":8387,"vigilar":8388,"legales":8389,"Resultado":8390,"factura":8391,"dedicación":8392,"entran":8393,"limita":8394,"comprendido":8395,"Santiago":8396,"ayudar":8397,"contag":8398,"sufrir":8399,"orientación":8400,"hongos":8401,"robar":8402,"variantes":8403,"pubertad":8404,"aprecia":8405,"derivados":8406,"existen":8407,"absol":8408,"colocado":8409,"##éndola":8410,"francés":8411,"gluc":8412,"hiper":8413,"acondi":8414,"denominación":8415,"##terránea":8416,"informático":8417,"combatir":8418,"rumiantes":8419,"cáliz":8420,"Cuerda":8421,"Volverse":8422,"recubre":8423,"Camino":8424,"terceros":8425,"apoyar":8426,"División":8427,"primavera":8428,"reacciones":8429,"pantalón":8430,"deposita":8431,"atractivo":8432,"describe":8433,"Ideología":8434,"oreja":8435,"átomo":8436,"blanquecino":8437,"eficacia":8438,"almacenamiento":8439,"protesta":8440,"castaño":8441,"rústica":8442,"archivos":8443,"Organismo":8444,"Juntar":8445,"rabia":8446,"preguntas":8447,"sudamericano":8448,"cristianos":8449,"Depósito":8450,"inquietud":8451,"##éisbol":8452,"conexión":8453,"espinosas":8454,"##tolicismo":8455,"linaje":8456,"Caracter":8457,"Dibujo":8458,"##longación":8459,"##ovilismo":8460,"hidrógeno":8461,"petróleo":8462,"favores":8463,"Citrus":8464,"calendario":8465,"Bos":8466,"Célula":8467,"Dial":8468,"Dulce":8469,"Era":8470,"Fon":8471,"Har":8472,"Ment":8473,"Mús":8474,"Momento":8475,"Ocul":8476,"Ps":8477,"Pasta":8478,"Pub":8479,"Ren":8480,"Ran":8481,"Sos":8482,"Voc":8483,"Voz":8484,"atar":8485,"bio":8486,"cac":8487,"cho":8488,"coca":8489,"dol":8490,"eran":8491,"fre":8492,"fam":8493,"fér":8494,"gla":8495,"hero":8496,"hend":8497,"hechas":8498,"jap":8499,"liv":8500,"luna":8501,"liso":8502,"mim":8503,"mást":8504,"nuca":8505,"pira":8506,"pájar":8507,"sorte":8508,"tru":8509,"tit":8510,"tena":8511,"tambor":8512,"vil":8513,"vicio":8514,"visto":8515,"zo":8516,"##tecer":8517,"##tinas":8518,"##tinos":8519,"##tómica":8520,"##tware":8521,"##rá":8522,"##ugía":8523,"##cados":8524,"##lido":8525,"##lín":8526,"##iten":8527,"##eos":8528,"##ete":8529,"##nación":8530,"##éci":8531,"##écula":8532,"##ñir":8533,"##ñamo":8534,"##zadas":8535,"##pu":8536,"##fia":8537,"##brar":8538,"##ys":8539,"dejado":8540,"##erro":8541,"##erto":8542,"##erencia":8543,"##erno":8544,"##erable":8545,"##eráceas":8546,"##cico":8547,"##cinos":8548,"##ornia":8549,"##ade":8550,"##adá":8551,"##adizo":8552,"##alos":8553,"##icada":8554,"envas":8555,"quem":8556,"##inte":8557,"##idón":8558,"##idir":8559,"##ompa":8560,"##rael":8561,"elástico":8562,"altar":8563,"albor":8564,"sede":8565,"##tigar":8566,"##icatri":8567,"##teza":8568,"##riles":8569,"##ritus":8570,"redes":8571,"reducción":8572,"inn":8573,"inca":8574,"inhib":8575,"incapa":8576,"sug":8577,"delincu":8578,"porciones":8579,"##lemento":8580,"cuchar":8581,"custo":8582,"prove":8583,"##dez":8584,"##iral":8585,"##ocación":8586,"##resión":8587,"ans":8588,"##ivar":8589,"##usco":8590,"##iciosa":8591,"##ucía":8592,"##ucrist":8593,"comodidad":8594,"##podo":8595,"##moción":8596,"##dadores":8597,"artró":8598,"Encon":8599,"prést":8600,"##inarios":8601,"cortos":8602,"habilidades":8603,"##veza":8604,"componer":8605,"##mbolos":8606,"Recibir":8607,"Escas":8608,"haya":8609,"##derarse":8610,"medie":8611,"paz":8612,"paciente":8613,"aplas":8614,"apén":8615,"apasion":8616,"discos":8617,"orto":8618,"aba":8619,"abor":8620,"adyac":8621,"Artes":8622,"preferencia":8623,"escand":8624,"vara":8625,"espl":8626,"infin":8627,"marco":8628,"amigos":8629,"calma":8630,"calibre":8631,"divina":8632,"autó":8633,"dañar":8634,"afro":8635,"afuera":8636,"##áctilo":8637,"##embre":8638,"##chos":8639,"poema":8640,"especializado":8641,"validez":8642,"malas":8643,"cultivos":8644,"Suma":8645,"simb":8646,"coher":8647,"bases":8648,"Desarrol":8649,"símbolos":8650,"Cató":8651,"espacial":8652,"Andal":8653,"buenas":8654,"Materia":8655,"defecto":8656,"defens":8657,"creado":8658,"platos":8659,"pesada":8660,"moralmente":8661,"circula":8662,"insistente":8663,"mastel":8664,"exponer":8665,"##onato":8666,"##onave":8667,"secas":8668,"secundar":8669,"##rillas":8670,"aguja":8671,"Caribe":8672,"molesto":8673,"agentes":8674,"distinta":8675,"distintiva":8676,"Vara":8677,"digital":8678,"Canadá":8679,"curvas":8680,"ruin":8681,"desarrollado":8682,"desaf":8683,"fuertemente":8684,"ambas":8685,"tropas":8686,"tomado":8687,"aquellas":8688,"Pertenece":8689,"octa":8690,"comparte":8691,"comparten":8692,"Aplicar":8693,"##órico":8694,"cuadrada":8695,"Pron":8696,"##oloro":8697,"##crita":8698,"impresa":8699,"construida":8700,"construye":8701,"limón":8702,"armon":8703,"convencional":8704,"convencionalmente":8705,"políticos":8706,"ingres":8707,"contraste":8708,"correctamente":8709,"Autor":8710,"tomate":8711,"pronto":8712,"terminal":8713,"onda":8714,"posteriormente":8715,"logro":8716,"recorre":8717,"profesa":8718,"sello":8719,"mantenerse":8720,"dimensión":8721,"designa":8722,"histórica":8723,"Jugador":8724,"registra":8725,"aseo":8726,"programas":8727,"extremidad":8728,"viaje":8729,"sistemática":8730,"##piración":8731,"aprovecha":8732,"vueltas":8733,"desordenada":8734,"comprensión":8735,"asociadas":8736,"adulta":8737,"adultos":8738,"ensal":8739,"levanta":8740,"participación":8741,"antece":8742,"inmediata":8743,"sorp":8744,"burla":8745,"fotografía":8746,"simplemente":8747,"desconoci":8748,"descubrir":8749,"reconoce":8750,"específicamente":8751,"bulto":8752,"descanso":8753,"recuperar":8754,"##ponerse":8755,"sensible":8756,"timón":8757,"vícti":8758,"tercera":8759,"fisiológ":8760,"rebel":8761,"practicada":8762,"fragmentos":8763,"averiguar":8764,"Primera":8765,"cuestión":8766,"Extrem":8767,"Genitales":8768,"zapatos":8769,"eficaz":8770,"comenzar":8771,"agresivo":8772,"científicos":8773,"estimación":8774,"luminoso":8775,"prudencia":8776,"conquist":8777,"proveniente":8778,"globosa":8779,"Jesucrist":8780,"video":8781,"parásito":8782,"patrón":8783,"virtudes":8784,"italiana":8785,"juzga":8786,"sobrenatural":8787,"puntiagudo":8788,"rígido":8789,"desaparecer":8790,"consonante":8791,"integridad":8792,"Ejercer":8793,"Micología":8794,"nominal":8795,"ritual":8796,"adquir":8797,"Guatem":8798,"alquil":8799,"deudas":8800,"castellano":8801,"Disminuir":8802,"##tuberancia":8803,"próximo":8804,"cuadrúpedos":8805,"Ejecu":8806,"vigilancia":8807,"jerarquía":8808,"##grima":8809,"##hemencia":8810,"##ecomunicación":8811,"crustáceos":8812,"Educación":8813,"pájaros":8814,"Jesucristo":8815,"Ama":8816,"Aso":8817,"Bas":8818,"Cá":8819,"Cru":8820,"Cron":8821,"Hin":8822,"Joven":8823,"Rico":8824,"Roca":8825,"Sac":8826,"Sombrero":8827,"ader":8828,"azo":8829,"adición":8830,"bis":8831,"bello":8832,"ces":8833,"cambi":8834,"cól":8835,"cár":8836,"don":8837,"dici":8838,"déc":8839,"duras":8840,"fusión":8841,"hig":8842,"hipo":8843,"hech":8844,"jam":8845,"lon":8846,"mig":8847,"minas":8848,"mira":8849,"nad":8850,"pent":8851,"pus":8852,"pendiente":8853,"rosa":8854,"tup":8855,"urg":8856,"viste":8857,"vientos":8858,"zumo":8859,"##rec":8860,"##ricas":8861,"##cones":8862,"##centa":8863,"##li":8864,"##mu":8865,"##eño":8866,"##gaj":8867,"##pal":8868,"##pol":8869,"##pado":8870,"##pone":8871,"##fin":8872,"##ácido":8873,"##brado":8874,"##yente":8875,"##60":8876,"##erador":8877,"##enado":8878,"##enio":8879,"##ciles":8880,"##ueba":8881,"##oras":8882,"##esional":8883,"##anidades":8884,"##icel":8885,"encan":8886,"engros":8887,"##inio":8888,"##inoc":8889,"##inamiento":8890,"##idel":8891,"##teto":8892,"##tela":8893,"##lace":8894,"##rime":8895,"rej":8896,"reduce":8897,"indu":8898,"integ":8899,"inanim":8900,"intoxicación":8901,"delicado":8902,"##diato":8903,"perif":8904,"estrib":8905,"##tenas":8906,"##iobra":8907,"exposición":8908,"##istía":8909,"##imbo":8910,"##ocado":8911,"##ocracia":8912,"acar":8913,"acord":8914,"desal":8915,"desper":8916,"desgas":8917,"carnos":8918,"##ucción":8919,"nov":8920,"##lantar":8921,"##landa":8922,"cav":8923,"cazar":8924,"##dadas":8925,"arre":8926,"arbol":8927,"arcos":8928,"arcilla":8929,"especias":8930,"mazorca":8931,"prens":8932,"prome":8933,"colomb":8934,"corona":8935,"corpul":8936,"manz":8937,"##ulario":8938,"##neos":8939,"complicado":8940,"dichos":8941,"##media":8942,"##medio":8943,"Retirar":8944,"Escrito":8945,"muñ":8946,"peti":8947,"Incapacidad":8948,"##ferio":8949,"consa":8950,"trama":8951,"leer":8952,"##deras":8953,"medias":8954,"##mino":8955,"##minación":8956,"Medica":8957,"apos":8958,"sobreviv":8959,"discu":8960,"impuestos":8961,"##uste":8962,"pertenecer":8963,"##dencias":8964,"extensa":8965,"variación":8966,"##amblea":8967,"superar":8968,"canales":8969,"maris":8970,"interacción":8971,"intervención":8972,"tern":8973,"elevar":8974,"autón":8975,"llegado":8976,"daños":8977,"poesía":8978,"culturales":8979,"##omagn":8980,"trin":8981,"quilla":8982,"##uelta":8983,"viveza":8984,"vivaz":8985,"simula":8986,"madurez":8987,"codif":8988,"despide":8989,"aparejo":8990,"llamas":8991,"respal":8992,"respiración":8993,"Catal":8994,"roedor":8995,"##ógica":8996,"falso":8997,"destinados":8998,"##tadura":8999,"determinación":9000,"barra":9001,"batal":9002,"muslo":9003,"subf":9004,"subord":9005,"subterráneo":9006,"substancia":9007,"segmentos":9008,"evidencia":9009,"expresarse":9010,"indicios":9011,"cubren":9012,"##iolos":9013,"secos":9014,"agui":9015,"Carente":9016,"##stitución":9017,"##ceras":9018,"Piel":9019,"##endiendo":9020,"consideradas":9021,"tejado":9022,"cefal":9023,"atravies":9024,"integra":9025,"importantes":9026,"bebe":9027,"extraño":9028,"desagrado":9029,"##gnóst":9030,"textil":9031,"aplicaciones":9032,"oscur":9033,"habitaciones":9034,"ramificado":9035,"Teoría":9036,"primi":9037,"banco":9038,"már":9039,"Nota":9040,"Nave":9041,"Prun":9042,"roseta":9043,"oscuras":9044,"astron":9045,"depósito":9046,"combina":9047,"gela":9048,"gobernar":9049,"eléctricas":9050,"guis":9051,"cadu":9052,"cadera":9053,"cadenas":9054,"dispuestas":9055,"Vela":9056,"facilita":9057,"adornar":9058,"mezclar":9059,"tubos":9060,"bov":9061,"comprendida":9062,"cultivar":9063,"horizontalmente":9064,"ubica":9065,"carnoso":9066,"alimentarse":9067,"Internet":9068,"correcto":9069,"distribuye":9070,"Soldado":9071,"Guad":9072,"Guinea":9073,"esperanza":9074,"regulares":9075,"recordar":9076,"nervio":9077,"##estamento":9078,"envía":9079,"Compuesto":9080,"vulva":9081,"vestidos":9082,"##éndole":9083,"continua":9084,"mitología":9085,"almacena":9086,"enseñar":9087,"adecuada":9088,"homogé":9089,"inmediato":9090,"follaje":9091,"Juan":9092,"##ificaciones":9093,"plataforma":9094,"acuáticos":9095,"cáñamo":9096,"treinta":9097,"imperme":9098,"competid":9099,"manejo":9100,"fieles":9101,"metaf":9102,"acumular":9103,"verbos":9104,"dorsal":9105,"ajustar":9106,"Madrid":9107,"universidad":9108,"botón":9109,"administrativa":9110,"adoptar":9111,"delanteras":9112,"sometido":9113,"avanzar":9114,"contemp":9115,"afirma":9116,"siguen":9117,"cuadrados":9118,"ascendencia":9119,"legumbre":9120,"vistoso":9121,"gramaticales":9122,"dejando":9123,"deshones":9124,"recoge":9125,"Según":9126,"vocablos":9127,"Lleno":9128,"teléf":9129,"soberano":9130,"cercana":9131,"desempeña":9132,"linf":9133,"software":9134,"estrellas":9135,"empeño":9136,"acontecimientos":9137,"detalles":9138,"aromáticas":9139,"infecciosa":9140,"fastidio":9141,"amenaza":9142,"Trad":9143,"súbita":9144,"conquista":9145,"andina":9146,"vagina":9147,"Acum":9148,"minutos":9149,"dialectos":9150,"restring":9151,"Profesional":9152,"filosófica":9153,"fábrica":9154,"litúrg":9155,"cuchillo":9156,"étnico":9157,"Sirve":9158,"judíos":9159,"demanda":9160,"Automovilismo":9161,"bondad":9162,"reloj":9163,"cromos":9164,"Símbolo":9165,"sensaciones":9166,"aliviar":9167,"Introducir":9168,"leguminosas":9169,"pedazos":9170,"Limpiar":9171,"aprendizaje":9172,"quirúrg":9173,"Católica":9174,"Guatemala":9175,"Hincha":9176,"cólera":9177,"Añad":9178,"Bre":9179,"Clas":9180,"Dir":9181,"Fa":9182,"Fac":9183,"Form":9184,"Fuego":9185,"Hilo":9186,"Lar":9187,"Pel":9188,"Pop":9189,"Punta":9190,"Rica":9191,"Sil":9192,"Sección":9193,"Santo":9194,"Tienen":9195,"Ven":9196,"Van":9197,"Vent":9198,"Vol":9199,"Vaso":9200,"aero":9201,"arist":9202,"bajar":9203,"feb":9204,"fecha":9205,"ficción":9206,"fich":9207,"fumar":9208,"hués":9209,"lino":9210,"oeste":9211,"pir":9212,"rima":9213,"riña":9214,"uñas":9215,"vinos":9216,"ágil":9217,"ética":9218,"óv":9219,"##tén":9220,"##táceas":9221,"##uado":9222,"##ufici":9223,"##urante":9224,"##cero":9225,"##ago":9226,"##mante":9227,"##iri":9228,"##edir":9229,"##nab":9230,"##nio":9231,"##din":9232,"##har":9233,"##ómo":9234,"##zados":9235,"##villa":9236,"##gando":9237,"##pus":9238,"##pados":9239,"##pillo":9240,"##flu":9241,"##bres":9242,"##bérica":9243,"##ídas":9244,"##ímetro":9245,"##úne":9246,"##citos":9247,"##ciedad":9248,"##ortar":9249,"##anda":9250,"##ices":9251,"##icus":9252,"##icante":9253,"##icana":9254,"##entimiento":9255,"enz":9256,"enca":9257,"ensa":9258,"contar":9259,"contienen":9260,"coníferas":9261,"##idio":9262,"##idación":9263,"##rov":9264,"##rotar":9265,"##tea":9266,"##teles":9267,"##mentada":9268,"recip":9269,"sudor":9270,"##ulante":9271,"##ilitar":9272,"##tuar":9273,"##leta":9274,"##lema":9275,"##teres":9276,"cucur":9277,"prob":9278,"procu":9279,"prohib":9280,"##iaciones":9281,"##mpara":9282,"estaban":9283,"estabilidad":9284,"##tenimiento":9285,"##trica":9286,"##seudo":9287,"##imb":9288,"##iminar":9289,"##imens":9290,"acent":9291,"anillo":9292,"despo":9293,"meteor":9294,"carencia":9295,"##usia":9296,"##dador":9297,"usó":9298,"usual":9299,"obtención":9300,"oblic":9301,"##izos":9302,"##ifa":9303,"Separación":9304,"sopla":9305,"##ceae":9306,"Conducto":9307,"maestro":9308,"prensa":9309,"preca":9310,"##urales":9311,"compos":9312,"pegaj":9313,"Inst":9314,"consul":9315,"ases":9316,"##minismo":9317,"dispos":9318,"impone":9319,"versiones":9320,"admite":9321,"adentro":9322,"reca":9323,"empa":9324,"preposición":9325,"escena":9326,"escuela":9327,"escase":9328,"variar":9329,"pieles":9330,"posiciones":9331,"espes":9332,"prescri":9333,"presume":9334,"inflam":9335,"colorido":9336,"pastel":9337,"mares":9338,"provis":9339,"inters":9340,"interac":9341,"tercio":9342,"solar":9343,"divis":9344,"Parentesco":9345,"##ches":9346,"##charse":9347,"human":9348,"utilizar":9349,"coito":9350,"coorden":9351,"polici":9352,"finas":9353,"Desde":9354,"graves":9355,"judía":9356,"debilidad":9357,"opuestos":9358,"contraer":9359,"Magn":9360,"resultante":9361,"sexos":9362,"pescar":9363,"barrio":9364,"bau":9365,"morado":9366,"subir":9367,"insol":9368,"Pelo":9369,"masas":9370,"torre":9371,"explicación":9372,"agujero":9373,"furia":9374,"Cargo":9375,"organizado":9376,"##ribución":9377,"Discurso":9378,"huecos":9379,"considerados":9380,"doctor":9381,"capítulos":9382,"autorización":9383,"hortal":9384,"##áfrica":9385,"celo":9386,"reciben":9387,"aprobación":9388,"desarrollada":9389,"clasific":9390,"Aspecto":9391,"altern":9392,"capacidades":9393,"Mantener":9394,"españoles":9395,"ajenos":9396,"privado":9397,"privada":9398,"Tratamiento":9399,"mág":9400,"Impedir":9401,"heter":9402,"Corriente":9403,"alcance":9404,"Aband":9405,"Prueba":9406,"locución":9407,"rosado":9408,"##tángulo":9409,"encaj":9410,"longitudinal":9411,"geológico":9412,"eléctricos":9413,"gua":9414,"dispone":9415,"dispuesto":9416,"poblado":9417,"poblaciones":9418,"##ítm":9419,"Orna":9420,"controla":9421,"tubér":9422,"##ámeras":9423,"limos":9424,"armado":9425,"armonía":9426,"cultivan":9427,"##rich":9428,"anteriormente":9429,"dirigirse":9430,"constituido":9431,"bolas":9432,"##aseolus":9433,"ubicación":9434,"##árse":9435,"fluidos":9436,"físicamente":9437,"perennif":9438,"típicamente":9439,"adversa":9440,"contrad":9441,"hacienda":9442,"##culares":9443,"terminado":9444,"Levan":9445,"padres":9446,"esperar":9447,"azules":9448,"introduci":9449,"ornamentales":9450,"temperaturas":9451,"componente":9452,"flexibles":9453,"patria":9454,"ferrocar":9455,"convertir":9456,"españolas":9457,"imitación":9458,"impulsa":9459,"diálogo":9460,"caballero":9461,"designar":9462,"educa":9463,"programación":9464,"Regist":9465,"Consid":9466,"éstas":9467,"relacionada":9468,"relacionadas":9469,"cocción":9470,"cálculo":9471,"reyes":9472,"diagnóst":9473,"contenidos":9474,"manifestación":9475,"índice":9476,"involuc":9477,"Molusco":9478,"Mecanismo":9479,"afirmación":9480,"timidez":9481,"aislada":9482,"desplazarse":9483,"divertirse":9484,"Desplaz":9485,"agregar":9486,"##tagonia":9487,"ordinario":9488,"tuvo":9489,"carreras":9490,"Norteamérica":9491,"##ventud":9492,"Taller":9493,"indican":9494,"acabado":9495,"describir":9496,"Trabajar":9497,"Idea":9498,"ostent":9499,"##urias":9500,"Suceso":9501,"decorativo":9502,"constantemente":9503,"Phaseolus":9504,"Actuar":9505,"observación":9506,"hígado":9507,"oportunidad":9508,"templadas":9509,"inserta":9510,"Funcionario":9511,"simultáneamente":9512,"lineal":9513,"indígenas":9514,"excelente":9515,"cigarrillo":9516,"mínimo":9517,"navío":9518,"amerindio":9519,"geométrico":9520,"Jesús":9521,"receptor":9522,"gestos":9523,"inesperado":9524,"Oriental":9525,"Oficial":9526,"fresco":9527,"autonomía":9528,"respectivamente":9529,"oveja":9530,"deliberadamente":9531,"aficion":9532,"Manifestación":9533,"buscando":9534,"vínculo":9535,"repostería":9536,"fortaleza":9537,"domesticado":9538,"adhiere":9539,"estrictamente":9540,"Experi":9541,"sobresaliente":9542,"Humanidades":9543,"aéreo":9544,"censura":9545,"alemán":9546,"asiático":9547,"plateado":9548,"invertebrados":9549,"Telecomunicación":9550,"dueño":9551,"Dirigir":9552,"riguroso":9553,"##ologías":9554,"##rumpir":9555,"cacao":9556,"Sexualidad":9557,"hemisferio":9558,"artiodáctilo":9559,"homosexual":9560,"mercaderías":9561,"Dignidad":9562,"Fijar":9563,"Usualmente":9564,"forraje":9565,"Participio":9566,"Sudáfrica":9567,"subtropicales":9568,"japonés":9569,"Imagen":9570,"vitalidad":9571,"óxido":9572,"parámetros":9573,"Expulsar":9574,"contagiosa":9575,"Dialecto":9576,"artrópodos":9577,"Andalucía":9578,"Cronología":9579,"carnosas":9580,"caducif":9581,"Abandonar":9582,"24":9583,"65":9584,"Av":9585,"Aust":9586,"Aires":9587,"Bajar":9588,"Buscar":9589,"Ci":9590,"Cic":9591,"Círculo":9592,"Darse":9593,"Digno":9594,"Fenóm":9595,"Gob":9596,"Hel":9597,"Hijo":9598,"Lá":9599,"Lad":9600,"Local":9601,"My":9602,"Mer":9603,"Mensaje":9604,"On":9605,"Of":9606,"Olor":9607,"Prac":9608,"Pacífico":9609,"Rum":9610,"Sala":9611,"Ves":9612,"amino":9613,"biz":9614,"bala":9615,"cres":9616,"do":9617,"echa":9618,"euro":9619,"gre":9620,"jor":9621,"lenta":9622,"mist":9623,"mural":9624,"nudo":9625,"nacen":9626,"ovo":9627,"oraciones":9628,"orillas":9629,"pura":9630,"picar":9631,"pleg":9632,"riñ":9633,"rombo":9634,"rítm":9635,"sombra":9636,"tierno":9637,"venez":9638,"zan":9639,"##cen":9640,"##clas":9641,"##losa":9642,"##mia":9643,"##mano":9644,"##mético":9645,"##ié":9646,"##iable":9647,"##nal":9648,"##dando":9649,"##ógeno":9650,"##ópodos":9651,"##plasma":9652,"##fro":9653,"##form":9654,"##bral":9655,"##buladas":9656,"##íolo":9657,"##ka":9658,"##erado":9659,"##erba":9660,"##enom":9661,"##cidentes":9662,"##onces":9663,"##estra":9664,"##alí":9665,"unida":9666,"engen":9667,"conectar":9668,"##ecas":9669,"##roc":9670,"elabora":9671,"alambre":9672,"sed":9673,"sedi":9674,"##olina":9675,"##rezas":9676,"##lata":9677,"##rique":9678,"rever":9679,"reír":9680,"reiter":9681,"##uncul":9682,"intu":9683,"intim":9684,"sures":9685,"sucio":9686,"suba":9687,"sufr":9688,"sudeste":9689,"##ulgar":9690,"##ilizar":9691,"##dias":9692,"##iens":9693,"cuan":9694,"curi":9695,"cuenca":9696,"probable":9697,"estal":9698,"estética":9699,"estético":9700,"##irmar":9701,"##iega":9702,"##iegue":9703,"##ocr":9704,"##ocer":9705,"##ocrist":9706,"##oche":9707,"accidentes":9708,"##ogra":9709,"##paz":9710,"##ranza":9711,"desme":9712,"##ive":9713,"carpin":9714,"cariñ":9715,"##uco":9716,"##ucus":9717,"##pota":9718,"##jez":9719,"usadas":9720,"obed":9721,"##itán":9722,"##itados":9723,"sop":9724,"Entrar":9725,"motiv":9726,"Contr":9727,"Convertir":9728,"Concerniente":9729,"max":9730,"mapas":9731,"mampos":9732,"prín":9733,"resina":9734,"serp":9735,"coro":9736,"cortado":9737,"corral":9738,"cortante":9739,"cordón":9740,"maneras":9741,"mantienen":9742,"formato":9743,"Deci":9744,"Red":9745,"Reducir":9746,"Escultura":9747,"pedazo":9748,"##deros":9749,"paciencia":9750,"dispara":9751,"imprenta":9752,"imprimir":9753,"orque":9754,"pertenencia":9755,"versión":9756,"generación":9757,"abuso":9758,"##struir":9759,"Produce":9760,"cable":9761,"empieza":9762,"prede":9763,"predadores":9764,"##dosas":9765,"##cipl":9766,"vecinos":9767,"vejez":9768,"piedad":9769,"espiga":9770,"espigas":9771,"espiral":9772,"presas":9773,"Estim":9774,"sonar":9775,"##ocativo":9776,"informa":9777,"pase":9778,"intervalo":9779,"interroga":9780,"palm":9781,"calcio":9782,"##bata":9783,"saliente":9784,"llegue":9785,"hacerla":9786,"Partícula":9787,"afines":9788,"productivo":9789,"distancias":9790,"larvas":9791,"simpa":9792,"incendi":9793,"incoloro":9794,"transver":9795,"maltra":9796,"##uelis":9797,"##rimen":9798,"estatu":9799,"simetría":9800,"herr":9801,"Dese":9802,"gramática":9803,"grabación":9804,"grabado":9805,"gramí":9806,"desprende":9807,"jugos":9808,"sustra":9809,"Caer":9810,"Cavidad":9811,"determina":9812,"Antillas":9813,"##ómicos":9814,"debería":9815,"deberes":9816,"ropas":9817,"confección":9818,"mayoritaria":9819,"creer":9820,"##rosión":9821,"##graf":9822,"Acon":9823,"Acad":9824,"##ipinas":9825,"##endente":9826,"mono":9827,"montes":9828,"encuad":9829,"suela":9830,"evolu":9831,"refor":9832,"expone":9833,"moles":9834,"normales":9835,"##entarios":9836,"Obst":9837,"Oblig":9838,"semítica":9839,"gasto":9840,"Colum":9841,"ciudadanos":9842,"tempran":9843,"cebol":9844,"decía":9845,"Canarias":9846,"##peler":9847,"requis":9848,"circund":9849,"conocidos":9850,"##ándolos":9851,"##riatura":9852,"Asiento":9853,"alterar":9854,"erectos":9855,"Manjar":9856,"Instrumentos":9857,"Patagonia":9858,"prior":9859,"prisa":9860,"actuales":9861,"bandas":9862,"exclu":9863,"gruesos":9864,"gruesas":9865,"esférica":9866,"hema":9867,"cuadro":9868,"Abund":9869,"rosadas":9870,"rosáceas":9871,"##táneo":9872,"habituales":9873,"asteráceas":9874,"meses":9875,"##fago":9876,"legalmente":9877,"radiación":9878,"perfecto":9879,"mezclado":9880,"herbívor":9881,"circunferencia":9882,"##élidos":9883,"elaborar":9884,"Asturias":9885,"armadas":9886,"horizontales":9887,"garantía":9888,"junta":9889,"criar":9890,"crimin":9891,"lanzar":9892,"pierde":9893,"pierda":9894,"inmor":9895,"inmueble":9896,"ofende":9897,"periódico":9898,"corresponden":9899,"correspondientes":9900,"identific":9901,"electrones":9902,"funcionario":9903,"firma":9904,"oriental":9905,"variables":9906,"navegar":9907,"azulado":9908,"Calzado":9909,"pubes":9910,"publici":9911,"rasgo":9912,"doblar":9913,"campes":9914,"iniciar":9915,"profesionales":9916,"##óptero":9917,"##olosina":9918,"Fruta":9919,"deriva":9920,"convierte":9921,"reunir":9922,"imitar":9923,"cocida":9924,"economía":9925,"alternativamente":9926,"continúa":9927,"metálicos":9928,"Barco":9929,"vertebral":9930,"oculta":9931,"ocultar":9932,"ensan":9933,"maneja":9934,"Bolsa":9935,"ocupar":9936,"##oroeste":9937,"hospital":9938,"transformar":9939,"suspend":9940,"catól":9941,"católico":9942,"examinar":9943,"imaginación":9944,"colonias":9945,"utilizados":9946,"argumento":9947,"micros":9948,"cañones":9949,"jardín":9950,"##biliario":9951,"descarga":9952,"repugn":9953,"legumbres":9954,"civilización":9955,"recogen":9956,"domestica":9957,"Celeb":9958,"obstáculos":9959,"agrega":9960,"aluminio":9961,"independientemente":9962,"ocasionada":9963,"Declarar":9964,"aversión":9965,"Buenos":9966,"cereal":9967,"ubicada":9968,"##uchar":9969,"ciencias":9970,"frita":9971,"europea":9972,"remol":9973,"gaseosa":9974,"históricos":9975,"brusco":9976,"grosor":9977,"abandonar":9978,"atender":9979,"otorga":9980,"páginas":9981,"africano":9982,"coordinación":9983,"excelencia":9984,"razonable":9985,"razonamiento":9986,"involuntariamente":9987,"mutuamente":9988,"ovalada":9989,"extranjero":9990,"urbano":9991,"Oficina":9992,"Romper":9993,"prisión":9994,"Posee":9995,"prostitución":9996,"ovejas":9997,"neutr":9998,"ministro":9999,"respiratorias":10000,"Daño":10001,"Tabla":10002,"fonemas":10003,"ignor":10004,"paralelos":10005,"paseriforme":10006,"mapuches":10007,"idén":10008,"ordinariamente":10009,"envergadura":10010,"catedr":10011,"Arrojar":10012,"Modificar":10013,"bueyes":10014,"elípticas":10015,"dictamen":10016,"doctrinas":10017,"pólvora":10018,"Ángulo":10019,"enamor":10020,"fructif":10021,"##bitáceas":10022,"ansiedad":10023,"préstamo":10024,"Medicamento":10025,"subfamilia":10026,"atraviesa":10027,"Guadal":10028,"escasez":10029,"Considerar":10030,"Fenómeno":10031,"venezol":10032,"sureste":10033,"mampostería":10034,"Ajedrez":10035,"Cil":10036,"Cuar":10037,"Día":10038,"Dob":10039,"Dip":10040,"Fácil":10041,"Fuerza":10042,"II":10043,"Lista":10044,"Lesión":10045,"Men":10046,"Moles":10047,"Sab":10048,"Ub":10049,"Uso":10050,"Ze":10051,"ajo":10052,"bib":10053,"basta":10054,"cris":10055,"cáp":10056,"cór":10057,"cicatri":10058,"duer":10059,"damas":10060,"eri":10061,"flan":10062,"faja":10063,"huer":10064,"jer":10065,"list":10066,"listo":10067,"llano":10068,"mante":10069,"nor":10070,"noroeste":10071,"omn":10072,"pist":10073,"pot":10074,"pizar":10075,"pseudo":10076,"rito":10077,"rurales":10078,"sombr":10079,"sép":10080,"tob":10081,"tip":10082,"tend":10083,"tecn":10084,"térm":10085,"vís":10086,"ácidos":10087,"##tono":10088,"##rente":10089,"##recto":10090,"##rida":10091,"##uga":10092,"##udos":10093,"##ipa":10094,"##ipar":10095,"##itis":10096,"##iéndolo":10097,"##ñez":10098,"##vente":10099,"##vento":10100,"##gro":10101,"##gip":10102,"##preci":10103,"##jiga":10104,"##átil":10105,"##bal":10106,"##íritu":10107,"##yl":10108,"det":10109,"dedo":10110,"destrucción":10111,"##onente":10112,"##orios":10113,"##andes":10114,"##entadas":10115,"engan":10116,"enorme":10117,"lagos":10118,"latina":10119,"congre":10120,"##idimens":10121,"##omal":10122,"alea":10123,"##tile":10124,"##olla":10125,"##olomb":10126,"parecen":10127,"partidos":10128,"##rie":10129,"repetición":10130,"##unid":10131,"##unque":10132,"supon":10133,"supre":10134,"sumer":10135,"##ule":10136,"##ulan":10137,"##ilitud":10138,"##tum":10139,"##terse":10140,"##terios":10141,"##terno":10142,"pereza":10143,"##iencias":10144,"cuán":10145,"##mper":10146,"##dear":10147,"##acal":10148,"estip":10149,"##ignif":10150,"##peda":10151,"##amos":10152,"##ocup":10153,"acaba":10154,"ances":10155,"##daísmo":10156,"##icida":10157,"##ucho":10158,"##uche":10159,"##lana":10160,"##landia":10161,"caiga":10162,"##eles":10163,"##idamente":10164,"Perman":10165,"##itante":10166,"##ifornia":10167,"soporta":10168,"Enc":10169,"Entr":10170,"##cede":10171,"modos":10172,"Cont":10173,"Conoci":10174,"colgar":10175,"##inarias":10176,"corola":10177,"coriáceas":10178,"##riga":10179,"propone":10180,"Personaje":10181,"teorías":10182,"Depresión":10183,"##cope":10184,"##tora":10185,"##gaño":10186,"##cesis":10187,"Rev":10188,"consulta":10189,"sintag":10190,"traje":10191,"tratado":10192,"trampa":10193,"entregar":10194,"leñoso":10195,"Mej":10196,"aban":10197,"abarca":10198,"adC":10199,"adquiere":10200,"##veres":10201,"cabez":10202,"pref":10203,"##quieren":10204,"naciones":10205,"natación":10206,"vehemencia":10207,"postre":10208,"espina":10209,"espesa":10210,"presa":10211,"presentes":10212,"presentación":10213,"presidente":10214,"Eliminar":10215,"Estan":10216,"canta":10217,"mara":10218,"martillo":10219,"intermedi":10220,"##grar":10221,"objetivos":10222,"##ecución":10223,"##itarias":10224,"##caro":10225,"soldado":10226,"rapaz":10227,"divino":10228,"salvo":10229,"fundada":10230,"potencia":10231,"especialista":10232,"incómo":10233,"valle":10234,"valiente":10235,"transporta":10236,"caracterizadas":10237,"Suje":10238,"##rimon":10239,"denomin":10240,"estamp":10241,"estatura":10242,"viviendas":10243,"polines":10244,"herencia":10245,"heredi":10246,"grabar":10247,"judaísmo":10248,"##ombro":10249,"Categ":10250,"reposo":10251,"confusa":10252,"Compor":10253,"Existen":10254,"resultar":10255,"defectos":10256,"destaca":10257,"chan":10258,"pesos":10259,"equiv":10260,"##iesa":10261,"baje":10262,"punzante":10263,"insecto":10264,"crían":10265,"crónica":10266,"masco":10267,"expecta":10268,"indios":10269,"secular":10270,"##inastía":10271,"estudiantes":10272,"aguar":10273,"Cara":10274,"Card":10275,"molido":10276,"##omete":10277,"##maras":10278,"agilidad":10279,"Diseño":10280,"rojos":10281,"rojizas":10282,"##ábiga":10283,"##ásticas":10284,"primor":10285,"primeras":10286,"directa":10287,"director":10288,"decorar":10289,"conductores":10290,"##lore":10291,"menoscab":10292,"Herida":10293,"fijado":10294,"separarse":10295,"sujetan":10296,"extraído":10297,"ejemplar":10298,"lujo":10299,"cincu":10300,"cintas":10301,"semejanzas":10302,"osci":10303,"toman":10304,"tenido":10305,"##ralia":10306,"camar":10307,"ajena":10308,"embargo":10309,"hex":10310,"Correspon":10311,"incluir":10312,"incluyen":10313,"bienestar":10314,"##guete":10315,"##tidura":10316,"inclinada":10317,"establecidos":10318,"Filipinas":10319,"individuales":10320,"narración":10321,"reproduce":10322,"aviones":10323,"##táculo":10324,"mach":10325,"dispu":10326,"radical":10327,"voto":10328,"mecánicos":10329,"puertos":10330,"gallina":10331,"perfil":10332,"perfum":10333,"perfecta":10334,"Apariencia":10335,"haberse":10336,"sólidos":10337,"bols":10338,"protegido":10339,"Granada":10340,"benefici":10341,"igualdad":10342,"Raíz":10343,"pudor":10344,"ingesta":10345,"verticalmente":10346,"arroz":10347,"electrónica":10348,"Intervalo":10349,"##ragón":10350,"orificios":10351,"distribuir":10352,"orgánicos":10353,"California":10354,"tonto":10355,"campaña":10356,"selección":10357,"alfar":10358,"##menes":10359,"##peso":10360,"acompañar":10361,"amorosa":10362,"interpreta":10363,"sustantivos":10364,"foliolos":10365,"supl":10366,"suceda":10367,"suceder":10368,"artísticos":10369,"viaja":10370,"celebración":10371,"competente":10372,"relaciona":10373,"disminu":10374,"asociada":10375,"enseres":10376,"domésticos":10377,"tostado":10378,"##ufac":10379,"adaptado":10380,"atributos":10381,"contenida":10382,"remover":10383,"ingrediente":10384,"suspensión":10385,"licores":10386,"enfri":10387,"colonial":10388,"distinguen":10389,"Espíritu":10390,"espíritus":10391,"excrementos":10392,"##trans":10393,"descansar":10394,"veinti":10395,"básico":10396,"víveres":10397,"izquierdo":10398,"vistosas":10399,"únicamente":10400,"ovario":10401,"dejan":10402,"desplazamiento":10403,"Segundo":10404,"Llenar":10405,"tercero":10406,"musculares":10407,"endémico":10408,"alumno":10409,"Emplear":10410,"defenderse":10411,"absorb":10412,"industriales":10413,"coleg":10414,"investiga":10415,"primates":10416,"Primer":10417,"alojamiento":10418,"acabar":10419,"apacible":10420,"ceremonia":10421,"atractiva":10422,"eclesiástico":10423,"dioses":10424,"agarrar":10425,"nutrición":10426,"síntoma":10427,"##rocarb":10428,"fusiforme":10429,"disimular":10430,"perjudicar":10431,"templados":10432,"fecunda":10433,"asocia":10434,"comportamientos":10435,"mínima":10436,"guarnición":10437,"carnívoros":10438,"aquí":10439,"párrafo":10440,"auxiliar":10441,"sobrenaturales":10442,"diligencia":10443,"precolomb":10444,"Manifestar":10445,"aeronave":10446,"vínculos":10447,"repetitivo":10448,"necesariamente":10449,"Aquello":10450,"fonema":10451,"Servicio":10452,"privilegio":10453,"nasal":10454,"preocupación":10455,"Algunos":10456,"ofensiva":10457,"desgracia":10458,"carruajes":10459,"perspectiva":10460,"acredi":10461,"incomodidad":10462,"organizaciones":10463,"Recuperar":10464,"lustre":10465,"malestar":10466,"Alteración":10467,"embarazo":10468,"amparo":10469,"fotos":10470,"Observar":10471,"estandarte":10472,"cordillera":10473,"rendimiento":10474,"anfib":10475,"desciende":10476,"nalgas":10477,"propietario":10478,"escenario":10479,"manifiesto":10480,"empresas":10481,"absoluto":10482,"hendid":10483,"Asociación":10484,"adere":10485,"jamón":10486,"##idelidad":10487,"Cataluña":10488,"Prunus":10489,"teléfono":10490,"coordenadas":10491,"caducifolio":10492,"Australia":10493,"catedrales":10494,"Cilindro":10495,"Permanecer":10496,"21":10497,"Aunque":10498,"Cuc":10499,"Cigar":10500,"Dos":10501,"Empe":10502,"Frac":10503,"Flores":10504,"Háb":10505,"Liber":10506,"Mun":10507,"Mac":10508,"Norm":10509,"Os":10510,"Pun":10511,"Puesto":10512,"Paso":10513,"Someter":10514,"Ton":10515,"Tan":10516,"Tum":10517,"Vig":10518,"Vino":10519,"Za":10520,"atro":10521,"bri":10522,"bival":10523,"cun":10524,"ecos":10525,"eman":10526,"fier":10527,"feste":10528,"finge":10529,"gus":10530,"gestión":10531,"hala":10532,"hisp":10533,"imb":10534,"lent":10535,"mina":10536,"muelle":10537,"pilo":10538,"pacto":10539,"riv":10540,"reno":10541,"ritos":10542,"tig":10543,"tún":10544,"vera":10545,"vener":10546,"vital":10547,"ál":10548,"##tándolo":10549,"##rera":10550,"##ridos":10551,"##uada":10552,"##at":10553,"##lidos":10554,"##mun":10555,"##icionado":10556,"##ey":10557,"##eado":10558,"##dicas":10559,"##halar":10560,"##ófago":10561,"##ñosa":10562,"##zca":10563,"##vé":10564,"##gencia":10565,"##ptar":10566,"##piado":10567,"##fismo":10568,"##bes":10569,"##bran":10570,"##xo":10571,"##íolos":10572,"##ítima":10573,"##yc":10574,"##yar":10575,"##yentes":10576,"##kistán":10577,"##erna":10578,"##onada":10579,"##oros":10580,"##orada":10581,"##orrag":10582,"##icha":10583,"quedarse":10584,"##inus":10585,"##roeste":10586,"elip":10587,"##tila":10588,"##toño":10589,"parto":10590,"##lagos":10591,"retirar":10592,"esmal":10593,"##undos":10594,"intra":10595,"inno":10596,"succión":10597,"suroeste":10598,"##ilas":10599,"##abar":10600,"competi":10601,"##dimento":10602,"cuentan":10603,"estil":10604,"##tencias":10605,"##sequ":10606,"##lope":10607,"activa":10608,"acento":10609,"accident":10610,"ancla":10611,"##ividad":10612,"mel":10613,"mete":10614,"memor":10615,"##icias":10616,"##ucas":10617,"##ánea":10618,"##ándula":10619,"caj":10620,"cañas":10621,"caudal":10622,"obtienen":10623,"obispo":10624,"sopa":10625,"mañ":10626,"resal":10627,"reserva":10628,"restantes":10629,"lobo":10630,"hablante":10631,"propul":10632,"proposición":10633,"##tornos":10634,"dichas":10635,"##itudes":10636,"Institución":10637,"consciencia":10638,"consigue":10639,"trae":10640,"trazar":10641,"tratan":10642,"travies":10643,"asas":10644,"asco":10645,"asno":10646,"mediterránea":10647,"pañ":10648,"pavi":10649,"susceptible":10650,"disparar":10651,"discusión":10652,"impuesto":10653,"importar":10654,"orinar":10655,"abunda":10656,"adu":10657,"adj":10658,"recomp":10659,"Arque":10660,"emperador":10661,"preh":10662,"etn":10663,"##quiera":10664,"escol":10665,"extenso":10666,"costo":10667,"planas":10668,"planchas":10669,"varilla":10670,"##érg":10671,"vejiga":10672,"posib":10673,"posteriores":10674,"espas":10675,"espinosa":10676,"difuntos":10677,"Estr":10678,"##obil":10679,"informática":10680,"pasto":10681,"pasada":10682,"pasando":10683,"marg":10684,"marciales":10685,"provisiones":10686,"##turalmente":10687,"eleva":10688,"audi":10689,"salv":10690,"dato":10691,"afección":10692,"##uble":10693,"neum":10694,"negar":10695,"menstru":10696,"especializa":10697,"##mitiendo":10698,"transl":10699,"transit":10700,"frutal":10701,"trun":10702,"trece":10703,"maduro":10704,"pollo":10705,"causan":10706,"hermos":10707,"heráldica":10708,"Desh":10709,"Destr":10710,"despren":10711,"aparecer":10712,"jugada":10713,"llaman":10714,"responde":10715,"respirar":10716,"talón":10717,"##ómicas":10718,"dió":10719,"diur":10720,"deber":10721,"conforma":10722,"confuso":10723,"Compe":10724,"Compañ":10725,"oponer":10726,"sexualmente":10727,"litros":10728,"Acer":10729,"bate":10730,"##iona":10731,"estadounid":10732,"monó":10733,"puntu":10734,"subst":10735,"refrac":10736,"vaci":10737,"cron":10738,"cabalgadura":10739,"encuentro":10740,"centésima":10741,"comunicarse":10742,"indis":10743,"##orax":10744,"secta":10745,"sector":10746,"embu":10747,"moler":10748,"irres":10749,"aglu":10750,"aglom":10751,"Obrar":10752,"ánimos":10753,"guardia":10754,"##ástago":10755,"savia":10756,"##dices":10757,"ganancia":10758,"tejida":10759,"templo":10760,"contento":10761,"Canto":10762,"aspira":10763,"fij":10764,"fijan":10765,"separadas":10766,"intemper":10767,"##ceptar":10768,"##nasia":10769,"extrava":10770,"ambientes":10771,"claras":10772,"cruza":10773,"cruce":10774,"tenían":10775,"Paño":10776,"pulgar":10777,"habitaban":10778,"ramoso":10779,"##endedor":10780,"ajenas":10781,"comparar":10782,"comparables":10783,"clín":10784,"climas":10785,"estrech":10786,"sacri":10787,"seguidores":10788,"##pasar":10789,"consumido":10790,"astro":10791,"establecida":10792,"##ilater":10793,"definitiva":10794,"narra":10795,"reprobable":10796,"sostienen":10797,"favorece":10798,"señalado":10799,"##ámico":10800,"significados":10801,"Astrología":10802,"botel":10803,"juntan":10804,"épocas":10805,"constitución":10806,"constituida":10807,"mentir":10808,"Salsa":10809,"electromagn":10810,"adversidad":10811,"ond":10812,"publica":10813,"ingeniería":10814,"persistentes":10815,"proyecta":10816,"campana":10817,"Susceptible":10818,"ofrecen":10819,"iniciales":10820,"literal":10821,"representada":10822,"envuelto":10823,"##enares":10824,"reunidas":10825,"veloz":10826,"Israel":10827,"##mpetu":10828,"Antiguamente":10829,"acompañada":10830,"homólogo":10831,"llena":10832,"histor":10833,"urban":10834,"protector":10835,"supone":10836,"##renderse":10837,"##rifol":10838,"##riforme":10839,"negativas":10840,"vidri":10841,"extendido":10842,"bacteria":10843,"lucra":10844,"verdura":10845,"denominada":10846,"viajeros":10847,"Consiste":10848,"sueldo":10849,"imperial":10850,"celebrar":10851,"preciso":10852,"Aficionado":10853,"desordenado":10854,"cobrar":10855,"doméstica":10856,"cálculos":10857,"metabol":10858,"pronunciación":10859,"##cleta":10860,"biológica":10861,"olvid":10862,"esponjoso":10863,"hidro":10864,"enemigos":10865,"escuad":10866,"colectiva":10867,"colectividad":10868,"dorado":10869,"fotográfica":10870,"suspender":10871,"ajustado":10872,"almidón":10873,"Madera":10874,"imaginaria":10875,"Cerem":10876,"Vive":10877,"universitario":10878,"lateralmente":10879,"adopta":10880,"residencia":10881,"específicos":10882,"síntesis":10883,"sustitución":10884,"descansa":10885,"racimo":10886,"chaqueta":10887,"afirmar":10888,"Crece":10889,"llevando":10890,"clásico":10891,"básica":10892,"básicos":10893,"ilegales":10894,"plegar":10895,"escalera":10896,"##tagon":10897,"tumor":10898,"remata":10899,"declarar":10900,"enseñanzas":10901,"conceb":10902,"pantalla":10903,"aloja":10904,"vellos":10905,"estrateg":10906,"sofist":10907,"cuestion":10908,"remun":10909,"rodillas":10910,"Alcanzar":10911,"exageradamente":10912,"Sucesión":10913,"palacio":10914,"conflictos":10915,"aromático":10916,"Contraer":10917,"Contrato":10918,"disfra":10919,"disponibles":10920,"geográfico":10921,"científica":10922,"##amelo":10923,"arreglar":10924,"nocturnos":10925,"destruir":10926,"romperse":10927,"súbito":10928,"prolongada":10929,"solicitud":10930,"##áctilos":10931,"microorgan":10932,"hombros":10933,"rigidez":10934,"parásitos":10935,"análoga":10936,"taxon":10937,"mandato":10938,"##túan":10939,"cristianas":10940,"##mitido":10941,"refrescante":10942,"Felino":10943,"esparto":10944,"Occidente":10945,"iniciativa":10946,"argentino":10947,"económicos":10948,"tóxico":10949,"engran":10950,"alerta":10951,"mexicano":10952,"coloquial":10953,"paseriformes":10954,"mapuche":10955,"joyería":10956,"entonces":10957,"matemática":10958,"reservado":10959,"improvis":10960,"tranquilidad":10961,"cardinal":10962,"Extraer":10963,"acostumbra":10964,"rizoma":10965,"estímulos":10966,"profundas":10967,"agrupación":10968,"ruidosa":10969,"relevancia":10970,"Hongo":10971,"efectuar":10972,"psíquica":10973,"alucin":10974,"océano":10975,"pliegues":10976,"Coloquial":10977,"atmosférica":10978,"perjudicial":10979,"lóbulos":10980,"muestran":10981,"locomoción":10982,"Ocupar":10983,"consejo":10984,"evaluar":10985,"Caballo":10986,"léxico":10987,"derribar":10988,"Característica":10989,"japonesa":10990,"mástil":10991,"inneces":10992,"víctima":10993,"Amaz":10994,"cárcel":10995,"década":10996,"##centaje":10997,"indumentaria":10998,"autónoma":10999,"aguijón":11000,"competidores":11001,"Acumulación":11002,"Facultad":11003,"recipientes":11004,"cucurbitáceas":11005,"dispositivos":11006,"humanidad":11007,"diagnóstico":11008,"Experimentar":11009,"orquesta":11010,"cebolla":11011,"inmorales":11012,"Carduelis":11013,"esmalte":11014,"Az":11015,"Bajo":11016,"Cl":11017,"Dom":11018,"Euras":11019,"Epí":11020,"Fue":11021,"Fra":11022,"Flu":11023,"Fila":11024,"Formar":11025,"Gar":11026,"Igu":11027,"Irán":11028,"Jefe":11029,"Lig":11030,"Labor":11031,"Lógica":11032,"Mel":11033,"Mala":11034,"Mobil":11035,"Op":11036,"Orig":11037,"Otor":11038,"Pon":11039,"Poco":11040,"Panth":11041,"Rena":11042,"Rusia":11043,"Suerte":11044,"XII":11045,"Ya":11046,"arit":11047,"bob":11048,"crimen":11049,"dados":11050,"eti":11051,"euf":11052,"eucar":11053,"fuste":11054,"gala":11055,"heb":11056,"jo":11057,"mur":11058,"néc":11059,"rie":11060,"riego":11061,"som":11062,"sable":11063,"tib":11064,"vano":11065,"vál":11066,"válido":11067,"ww":11068,"ímpetu":11069,"##tul":11070,"##rero":11071,"##rina":11072,"##ring":11073,"##uran":11074,"##cm":11075,"##cería":11076,"##mm":11077,"##mana":11078,"##ianos":11079,"##eg":11080,"##narse":11081,"##dul":11082,"##dían":11083,"##dole":11084,"##ham":11085,"##hidra":11086,"##ócope":11087,"##zal":11088,"##vía":11089,"##vero":11090,"##vial":11091,"##gl":11092,"##gono":11093,"##pón":11094,"##pores":11095,"##pirar":11096,"##fren":11097,"##jía":11098,"##bu":11099,"##by":11100,"##bada":11101,"##bús":11102,"##10":11103,"##xeo":11104,"##ípar":11105,"##ítor":11106,"##úm":11107,"##yp":11108,"##ytes":11109,"##ML":11110,"deje":11111,"defici":11112,"deba":11113,"detenida":11114,"##erosa":11115,"##erancia":11116,"##enia":11117,"##enciales":11118,"##ast":11119,"##ordar":11120,"##esis":11121,"##adeza":11122,"##allas":11123,"##anes":11124,"##icor":11125,"##icáceas":11126,"##entados":11127,"enti":11128,"enaj":11129,"lazos":11130,"lagun":11131,"##into":11132,"##indo":11133,"##inales":11134,"congo":11135,"conju":11136,"conlle":11137,"##ecular":11138,"##rocha":11139,"elig":11140,"eludir":11141,"alb":11142,"alcalo":11143,"##tita":11144,"##tizo":11145,"##timos":11146,"##tistas":11147,"##ollas":11148,"##tope":11149,"##lamo":11150,"##lazado":11151,"##ries":11152,"##rigu":11153,"retar":11154,"realmente":11155,"reve":11156,"reún":11157,"remedi":11158,"esmero":11159,"ingles":11160,"inju":11161,"##ulla":11162,"##ilada":11163,"##ilio":11164,"poros":11165,"porcentaje":11166,"##dió":11167,"##dito":11168,"##mafro":11169,"##tuita":11170,"##lem":11171,"##legar":11172,"##terminar":11173,"pericar":11174,"probar":11175,"produz":11176,"prolongación":11177,"##mpas":11178,"##deocrist":11179,"estando":11180,"estancia":11181,"Quedarse":11182,"##trando":11183,"##igma":11184,"##ignia":11185,"##sonante":11186,"##sedad":11187,"##ime":11188,"##quis":11189,"##cionan":11190,"##ocada":11191,"##gués":11192,"anun":11193,"anda":11194,"anuncia":11195,"animación":11196,"desf":11197,"desent":11198,"desfa":11199,"meter":11200,"carpintería":11201,"nobles":11202,"##toso":11203,"##lanos":11204,"##ellón":11205,"##queo":11206,"arrol":11207,"Percibir":11208,"##itadas":11209,"##izador":11210,"relativa":11211,"Ense":11212,"maj":11213,"matemáticas":11214,"maquilla":11215,"serio":11216,"correa":11217,"cortés":11218,"manteca":11219,"manufac":11220,"habían":11221,"compu":11222,"comprar":11223,"comprobar":11224,"##toras":11225,"Reino":11226,"Escribir":11227,"pega":11228,"peñas":11229,"trazos":11230,"##tilidad":11231,"entretenimiento":11232,"lev":11233,"león":11234,"aser":11235,"asir":11236,"asentado":11237,"asienta":11238,"##minado":11239,"apto":11240,"apres":11241,"##ísta":11242,"impru":11243,"Portu":11244,"rectángulo":11245,"Arm":11246,"Arreg":11247,"Artista":11248,"##versión":11249,"Protuberancia":11250,"emprender":11251,"escam":11252,"cosmo":11253,"##ambia":11254,"##luencia":11255,"superst":11256,"##ésped":11257,"Estadística":11258,"canción":11259,"cangre":11260,"candida":11261,"canela":11262,"interviene":11263,"Diccionario":11264,"##turón":11265,"##turbarse":11266,"casualidad":11267,"rae":11268,"fundado":11269,"##rible":11270,"Pared":11271,"distante":11272,"##icara":11273,"especialidad":11274,"mucosas":11275,"originarios":11276,"quit":11277,"##cillas":11278,"estatus":11279,"simbol":11280,"mayús":11281,"polo":11282,"polin":11283,"##ñosas":11284,"Propenso":11285,"bienal":11286,"grav":11287,"gracioso":11288,"##canes":11289,"Unidades":11290,"dup":11291,"juventud":11292,"judeocrist":11293,"llave":11294,"Campo":11295,"Causa":11296,"Antrop":11297,"roda":11298,"Españ":11299,"Común":11300,"opciones":11301,"Extensión":11302,"destilación":11303,"plazas":11304,"habitó":11305,"pleno":11306,"Acom":11307,"##ipin":11308,"servil":11309,"sube":11310,"expresada":11311,"inscripción":11312,"insufici":11313,"refinamiento":11314,"vapores":11315,"torneo":11316,"explica":11317,"tamaños":11318,"ideales":11319,"estudiar":11320,"Carácter":11321,"intensos":11322,"##tórico":11323,"agitación":11324,"millón":11325,"ejes":11326,"venenos":11327,"semici":11328,"##ástima":11329,"capítulo":11330,"capitán":11331,"sativa":11332,"sagaz":11333,"autores":11334,"Colección":11335,"preparados":11336,"preparaciones":11337,"digna":11338,"complejos":11339,"Motivo":11340,"Moder":11341,"cemento":11342,"conting":11343,"decl":11344,"Cantab":11345,"curvo":11346,"atrae":11347,"labranza":11348,"Darle":11349,"fijos":11350,"tarjeta":11351,"descendiente":11352,"Asc":11353,"extracción":11354,"desagrad":11355,"##gnar":11356,"err":11357,"genital":11358,"genitourinario":11359,"crudo":11360,"tomarse":11361,"tendencias":11362,"trián":11363,"camisa":11364,"espectro":11365,"ají":11366,"clítor":11367,"esfor":11368,"Implemento":11369,"Especial":11370,"Habitu":11371,"cristales":11372,"viral":11373,"tradicionales":11374,"alcanzado":11375,"Abrir":11376,"mesas":11377,"definido":11378,"##triz":11379,"aviso":11380,"##drome":11381,"sosten":11382,"dispuestos":11383,"surco":11384,"surcos":11385,"antebra":11386,"Elevación":11387,"mueven":11388,"deportivas":11389,"favorecer":11390,"gallo":11391,"indefin":11392,"impresos":11393,"armada":11394,"voluntario":11395,"convenio":11396,"conveniencia":11397,"difíciles":11398,"garan":11399,"inmad":11400,"inmoral":11401,"##tines":11402,"purificar":11403,"Poder":11404,"##ardía":11405,"revolu":11406,"arbó":11407,"advers":11408,"niveles":11409,"libremente":11410,"ondula":11411,"introduc":11412,"introducción":11413,"apretar":11414,"proyección":11415,"recorrer":11416,"razonar":11417,"proporciones":11418,"rodeada":11419,"Susp":11420,"dejarlo":11421,"cuarzo":11422,"selva":11423,"frecuentes":11424,"Siria":11425,"adelan":11426,"vuln":11427,"Repro":11428,"flexión":11429,"totalidad":11430,"afectar":11431,"patente":11432,"patrimonio":11433,"redondas":11434,"colocada":11435,"imán":11436,"cocinar":11437,"impulsos":11438,"caballeros":11439,"##ófono":11440,"Pueb":11441,"registrar":11442,"modific":11443,"conformidad":11444,"cámaras":11445,"viajar":11446,"partícula":11447,"precisa":11448,"judiciales":11449,"coche":11450,"coches":11451,"músico":11452,"ensamb":11453,"dibujar":11454,"inversión":11455,"olfato":11456,"enemistad":11457,"enfrentamiento":11458,"repetido":11459,"Sociedad":11460,"fotograf":11461,"pecíolo":11462,"150":11463,"índole":11464,"estimar":11465,"estimula":11466,"coraje":11467,"##domést":11468,"administrativo":11469,"adoptada":11470,"residuo":11471,"Indicar":11472,"previsto":11473,"provocado":11474,"sustituye":11475,"sustituída":11476,"jardinería":11477,"Entregar":11478,"reducida":11479,"yema":11480,"bajos":11481,"graduación":11482,"cubrirse":11483,"cordero":11484,"##trógeno":11485,"Segunda":11486,"látigo":11487,"frontal":11488,"despedir":11489,"declaración":11490,"##éfalo":11491,"cerebral":11492,"violentamente":11493,"pantalones":11494,"concreta":11495,"conjuntos":11496,"adjetivos":11497,"concentra":11498,"eclesiásticos":11499,"filamentos":11500,"ocupado":11501,"Diferencia":11502,"áspera":11503,"fabricado":11504,"Todo":11505,"fusil":11506,"psicológica":11507,"psicológico":11508,"disponible":11509,"geográfica":11510,"Función":11511,"fecund":11512,"detenerse":11513,"proyectiles":11514,"jurídico":11515,"triste":11516,"Cinta":11517,"##idaridad":11518,"fabricada":11519,"Acuer":11520,"auxilio":11521,"estupe":11522,"esclavos":11523,"hileras":11524,"nobleza":11525,"mantenimiento":11526,"delicadeza":11527,"aplanado":11528,"terapéuticos":11529,"Arauc":11530,"accesorios":11531,"económicas":11532,"iluminar":11533,"Feminismo":11534,"Pliegue":11535,"conectado":11536,"mexicana":11537,"promover":11538,"imparte":11539,"cabezas":11540,"extraordinaria":11541,"instalación":11542,"ultra":11543,"esqueleto":11544,"magist":11545,"agrupadas":11546,"Error":11547,"Pesca":11548,"Padre":11549,"espejo":11550,"indeseable":11551,"Principio":11552,"acostumb":11553,"estímulo":11554,"audiovis":11555,"ruidoso":11556,"indeterminado":11557,"abstracto":11558,"Curva":11559,"Dominicana":11560,"portugue":11561,"manipular":11562,"municipio":11563,"Combinación":11564,"incumb":11565,"sacramento":11566,"adivinación":11567,"germánica":11568,"mandíbulas":11569,"fantástico":11570,"albañ":11571,"prominente":11572,"anaranjado":11573,"vértice":11574,"expansión":11575,"descripción":11576,"electrónicos":11577,"instalaciones":11578,"híbrido":11579,"Quercus":11580,"apellido":11581,"viscoso":11582,"raro":11583,"Fonética":11584,"Publicación":11585,"titular":11586,"incapaz":11587,"secundaria":11588,"higiene":11589,"pentámeras":11590,"respaldo":11591,"Tradi":11592,"Añadir":11593,"Clase":11594,"Dirección":11595,"fichas":11596,"óvulo":11597,"Instal":11598,"policial":11599,"perennifolio":11600,"Levantar":11601,"Ciudad":11602,"##oncesto":11603,"mayoritariamente":11604,"Molestar":11605,"sintagma":11606,"Categoría":11607,"anfibios":11608,"Fraccionario":11609,"mañana":11610,"diócesis":11611,"estadounidense":11612,"intemperie":11613,"Eurasia":11614,"Epíteto":11615,"Mobiliario":11616,"Panthera":11617,"néctar":11618,"www":11619,"lagunas":11620,"reúnen":11621,"##mafrodi":11622,"desfavor":11623,"maquillaje":11624,"Antropología":11625,"Cantabria":11626,"clítoris":11627,"antebrazo":11628,"23":11629,"500":11630,"600":11631,"AD":11632,"Aro":11633,"Ado":11634,"Aca":11635,"Aceptar":11636,"Bo":11637,"Bél":11638,"Cla":11639,"Duración":11640,"Denom":11641,"Ef":11642,"Etapa":11643,"Fib":11644,"Frag":11645,"Fórmula":11646,"Hip":11647,"Il":11648,"Jer":11649,"Junta":11650,"Muestra":11651,"Musa":11652,"Opin":11653,"Pul":11654,"Pob":11655,"Recha":11656,"Sar":11657,"Sor":11658,"Sín":11659,"Suel":11660,"Th":11661,"Tes":11662,"Tem":11663,"Tanto":11664,"Vic":11665,"Vene":11666,"ater":11667,"ator":11668,"apor":11669,"aven":11670,"ahí":11671,"aporta":11672,"bl":11673,"bi":11674,"blas":11675,"cot":11676,"dó":11677,"diente":11678,"dolencia":11679,"dinastía":11680,"eta":11681,"fom":11682,"fonde":11683,"fós":11684,"figuradamente":11685,"gig":11686,"git":11687,"greg":11688,"game":11689,"hesper":11690,"justa":11691,"kilos":11692,"lástima":11693,"mirar":11694,"ní":11695,"nores":11696,"nuest":11697,"nacer":11698,"nulo":11699,"operar":11700,"otoño":11701,"pac":11702,"pano":11703,"pende":11704,"ricos":11705,"rentas":11706,"sano":11707,"secu":11708,"tens":11709,"tirar":11710,"uvas":11711,"yo":11712,"yuca":11713,"Últi":11714,"##sor":11715,"##tíf":11716,"##tris":11717,"##rad":11718,"##rés":11719,"##ríf":11720,"##rensión":11721,"##uos":11722,"##uciones":11723,"##util":11724,"##ct":11725,"##cun":11726,"##ceno":11727,"##colo":11728,"##años":11729,"##avent":11730,"##lla":11731,"##lecer":11732,"##iados":11733,"##ijas":11734,"##ianas":11735,"##eda":11736,"##nan":11737,"##nam":11738,"##nus":11739,"##dri":11740,"##dus":11741,"##hue":11742,"##hal":11743,"##his":11744,"##óc":11745,"##ódico":11746,"##vidos":11747,"##gancia":11748,"##ptos":11749,"##férico":11750,"##jol":11751,"##jidad":11752,"##ádi":11753,"##ículo":11754,"##ívar":11755,"##íbar":11756,"##úcido":11757,"##wa":11758,"##erturas":11759,"##encio":11760,"##ció":11761,"##citamente":11762,"##onancia":11763,"##asos":11764,"##ues":11765,"##orb":11766,"##oración":11767,"##oriano":11768,"##estre":11769,"##adio":11770,"##adillo":11771,"##aldad":11772,"##alismo":11773,"##antar":11774,"##anus":11775,"##anáceas":11776,"##icciones":11777,"enro":11778,"ente":11779,"endo":11780,"enoj":11781,"##ónicas":11782,"##ónima":11783,"condes":11784,"##idado":11785,"##rob":11786,"##roco":11787,"altos":11788,"aliento":11789,"altip":11790,"##tie":11791,"##tipo":11792,"##timentos":11793,"##ollo":11794,"parrilla":11795,"##icato":11796,"##teo":11797,"##tez":11798,"##temp":11799,"##mentan":11800,"##mentario":11801,"##taje":11802,"##taña":11803,"##lamiento":11804,"rein":11805,"reparar":11806,"eso":11807,"esenciales":11808,"inad":11809,"inus":11810,"inmo":11811,"injer":11812,"comisión":11813,"comand":11814,"comarca":11815,"##diz":11816,"##tuario":11817,"##letas":11818,"##terías":11819,"pere":11820,"perd":11821,"perver":11822,"permiso":11823,"##ienzo":11824,"##delo":11825,"##activo":11826,"estación":11827,"##igü":11828,"exacto":11829,"excepción":11830,"##pear":11831,"##pelo":11832,"##iental":11833,"##istos":11834,"##istoso":11835,"##quimbo":11836,"##amen":11837,"##amanca":11838,"##zación":11839,"##rumb":11840,"##ocarse":11841,"##ocadura":11842,"acog":11843,"acora":11844,"actores":11845,"aclarar":11846,"##ogado":11847,"##pato":11848,"anci":11849,"angular":11850,"anillos":11851,"##rangular":11852,"desm":11853,"desar":11854,"desdic":11855,"desvi":11856,"noci":11857,"noción":11858,"nobiliario":11859,"##jecimiento":11860,"##landes":11861,"cator":11862,"catolicismo":11863,"##quea":11864,"##quetas":11865,"aren":11866,"arteri":11867,"ardor":11868,"Perturbación":11869,"obsequ":11870,"##itre":11871,"##izante":11872,"Sevilla":11873,"sopor":11874,"relato":11875,"Enfr":11876,"Enviar":11877,"motiva":11878,"Conducir":11879,"mata":11880,"mator":11881,"magia":11882,"##garrar":11883,"reside":11884,"resistir":11885,"serlo":11886,"series":11887,"coron":11888,"cortada":11889,"corbata":11890,"manto":11891,"mandar":11892,"manjar":11893,"maniobra":11894,"habil":11895,"hablados":11896,"compla":11897,"propenso":11898,"Detener":11899,"Determinar":11900,"##gañar":11901,"##rase":11902,"Escri":11903,"consciente":11904,"sinónimo":11905,"##únculo":11906,"pues":11907,"lep":11908,"leña":11909,"asa":11910,"asado":11911,"asombro":11912,"apenas":11913,"discri":11914,"discor":11915,"discipl":11916,"##énico":11917,"vergas":11918,"generoso":11919,"abrup":11920,"adju":11921,"adhes":11922,"recom":11923,"rectos":11924,"rectas":11925,"empo":11926,"prefer":11927,"escuelas":11928,"naves":11929,"##renal":11930,"planetas":11931,"##posiciones":11932,"superflu":11933,"espol":11934,"espeso":11935,"inflama":11936,"infunde":11937,"marinas":11938,"tercer":11939,"calce":11940,"calaba":11941,"familias":11942,"raya":11943,"autos":11944,"sala":11945,"salada":11946,"salga":11947,"saliva":11948,"empleadas":11949,"llegan":11950,"##áctico":11951,"distra":11952,"neur":11953,"mencionado":11954,"cerdos":11955,"cerdas":11956,"cerveza":11957,"incomp":11958,"valer":11959,"hojal":11960,"transitar":11961,"trá":11962,"trompe":11963,"estaciones":11964,"similitud":11965,"madrigu":11966,"coa":11967,"codo":11968,"sentencia":11969,"polis":11970,"frág":11971,"herir":11972,"hervir":11973,"hermafrodi":11974,"anticip":11975,"Despe":11976,"Desper":11977,"gramos":11978,"##varra":11979,"desplazar":11980,"aparta":11981,"respuestas":11982,"Camp":11983,"Andar":11984,"diario":11985,"diestro":11986,"debil":11987,"conformación":11988,"confundir":11989,"confeccion":11990,"##uarios":11991,"misión":11992,"falsedad":11993,"chib":11994,"chocar":11995,"playa":11996,"##grafo":11997,"pesc":11998,"pesa":11999,"barn":12000,"bata":12001,"##ionalmente":12002,"ordenados":12003,"montura":12004,"montada":12005,"origina":12006,"morir":12007,"mortal":12008,"servidor":12009,"subterrán":12010,"circul":12011,"cirugía":12012,"nitrógeno":12013,"evac":12014,"insistencia":12015,"vainas":12016,"masiva":12017,"torero":12018,"cubano":12019,"cubría":12020,"secado":12021,"embria":12022,"embrión":12023,"amarrar":12024,"amarillos":12025,"agudeza":12026,"Carta":12027,"molecular":12028,"santos":12029,"agita":12030,"miles":12031,"milicia":12032,"Disponer":12033,"aceit":12034,"guarne":12035,"gasa":12036,"caprifol":12037,"sagr":12038,"##iguración":12039,"invitación":12040,"completar":12041,"compleja":12042,"tabl":12043,"conducción":12044,"ruinas":12045,"trastorno":12046,"##ándolas":12047,"atrapar":12048,"labora":12049,"separan":12050,"sujeción":12051,"roman":12052,"romántica":12053,"comerciales":12054,"borda":12055,"cruzar":12056,"triun":12057,"pulver":12058,"Trato":12059,"Tratándose":12060,"cliente":12061,"producidas":12062,"Aplicado":12063,"Apócope":12064,"sacudir":12065,"Especialmente":12066,"pinnadas":12067,"Noticia":12068,"femeninas":12069,"nuevas":12070,"Navarra":12071,"cuaderno":12072,"concluir":12073,"rosca":12074,"encom":12075,"obscu":12076,"artefacto":12077,"astuta":12078,"mesana":12079,"combinar":12080,"##güe":12081,"gobier":12082,"establecimientos":12083,"ball":12084,"narc":12085,"acepta":12086,"aceptado":12087,"aceptable":12088,"avent":12089,"avis":12090,"Médico":12091,"##tidae":12092,"condimentos":12093,"moment":12094,"momentos":12095,"Marcar":12096,"Marrue":12097,"galería":12098,"ocurren":12099,"perfora":12100,"entren":12101,"entradas":12102,"comportarse":12103,"tubular":12104,"boxeo":12105,"dirigido":12106,"dirigida":12107,"criado":12108,"ataca":12109,"##árma":12110,"##árqu":12111,"inmig":12112,"##írculos":12113,"producirse":12114,"revista":12115,"Interpre":12116,"Capaz":12117,"divididas":12118,"picadura":12119,"terminadas":12120,"orgullo":12121,"logra":12122,"poniendo":12123,"tonalidad":12124,"dolorosa":12125,"procesar":12126,"representaciones":12127,"Precip":12128,"derivada":12129,"periódicamente":12130,"moderación":12131,"afectada":12132,"Recur":12133,"198":12134,"Presenta":12135,"acompañamiento":12136,"penal":12137,"vasal":12138,"instancia":12139,"permanece":12140,"##óxido":12141,"continuar":12142,"Regla":12143,"pasaje":12144,"Consumir":12145,"americanas":12146,"metálicas":12147,"Barra":12148,"Valle":12149,"clave":12150,"coch":12151,"cobra":12152,"rumiante":12153,"##cidentales":12154,"Castigo":12155,"brácte":12156,"dibujos":12157,"Cubierto":12158,"intento":12159,"compañero":12160,"diagon":12161,"tinte":12162,"vanidad":12163,"burbu":12164,"repetir":12165,"lógico":12166,"transformación":12167,"brota":12168,"almend":12169,"##tisfacer":12170,"suavemente":12171,"penetr":12172,"estimular":12173,"Adornar":12174,"utilizadas":12175,"descubrimiento":12176,"dominó":12177,"Espec":12178,"elegir":12179,"elegante":12180,"amarillentas":12181,"nudos":12182,"Incor":12183,"sustituir":12184,"Sopa":12185,"reparte":12186,"Coquimbo":12187,"helico":12188,"##tabilidad":12189,"llevaban":12190,"Agente":12191,"abstracción":12192,"bajas":12193,"gradual":12194,"riesgos":12195,"Llenarse":12196,"faringe":12197,"endémica":12198,"promis":12199,"fronteras":12200,"satisfacer":12201,"cenici":12202,"fragante":12203,"refleja":12204,"arbustiva":12205,"tocan":12206,"pulmonar":12207,"ubicadas":12208,"Galicia":12209,"ladrillo":12210,"ladrillos":12211,"húmedo":12212,"escultura":12213,"2002":12214,"europeo":12215,"exagerada":12216,"Vasco":12217,"dramática":12218,"intelectuales":12219,"Privar":12220,"extinto":12221,"extinta":12222,"computadoras":12223,"Actualmente":12224,"oportuno":12225,"académ":12226,"académico":12227,"escapar":12228,"arreglo":12229,"molécula":12230,"nocturna":12231,"rústico":12232,"destruye":12233,"africanos":12234,"Cinología":12235,"pisos":12236,"semies":12237,"prolongado":12238,"marcada":12239,"amerindia":12240,"geométrica":12241,"demostrar":12242,"pregunta":12243,"fortificación":12244,"Profesión":12245,"multiplicar":12246,"articulaciones":12247,"fábricas":12248,"hincha":12249,"emparentado":12250,"juzgar":12251,"temporada":12252,"mix":12253,"aficionado":12254,"bronce":12255,"deslizarse":12256,"imposible":12257,"recreativa":12258,"##ticismo":12259,"adquis":12260,"afilada":12261,"ignora":12262,"explotación":12263,"óseo":12264,"entonación":12265,"matemático":12266,"##anthus":12267,"Centroamérica":12268,"Berber":12269,"jabón":12270,"contienda":12271,"##ellecer":12272,"refugio":12273,"enrolla":12274,"carruaje":12275,"cifra":12276,"cloro":12277,"devoto":12278,"paralelo":12279,"portugués":12280,"brinda":12281,"recíproco":12282,"axilares":12283,"podría":12284,"inmune":12285,"persuadir":12286,"Recorrer":12287,"mandíbula":12288,"Guerra":12289,"cebada":12290,"ridícula":12291,"adolescencia":12292,"convexa":12293,"Agujero":12294,"Secre":12295,"agravio":12296,"jinetes":12297,"nombrar":12298,"regula":12299,"cartílago":12300,"cornisa":12301,"sulf":12302,"pecioladas":12303,"apropiarse":12304,"Viejo":12305,"lectura":12306,"incultos":12307,"excitación":12308,"juvenil":12309,"venenosa":12310,"Vocablo":12311,"choque":12312,"fértil":12313,"alboroto":12314,"Encontrar":12315,"ingresos":12316,"rebelión":12317,"promedio":12318,"muñeca":12319,"petición":12320,"cromosomas":12321,"pegajosa":12322,"Ornamento":12323,"Ladrón":12324,"Practicar":12325,"subatómica":12326,"sufrido":12327,"curiosidad":12328,"encuadern":12329,"Columna":12330,"herbívoro":12331,"Cuarto":12332,"biblio":12333,"Conocimiento":12334,"expectativas":12335,"colegiado":12336,"Cucur":12337,"Tumor":12338,"rivales":12339,"##tilag":12340,"competiciones":12341,"propulsado":12342,"Arqueología":12343,"salvajes":12344,"##ilateral":12345,"Ceremonia":12346,"Otorgar":12347,"Renacimiento":12348,"Portugal":12349,"cosmopol":12350,"Acompañ":12351,"##ipinnadas":12352,"semicir":12353,"errores":12354,"##doméstico":12355,"Acuerdo":12356,"estupefa":12357,"Bélgica":12358,"Venecia":12359,"cotid":12360,"etapas":12361,"gregoriano":12362,"hesperidio":12363,"noreste":12364,"catorce":12365,"discordia":12366,"adjudica":12367,"caprifoliáceas":12368,"Marruecos":12369,"300":12370,"6mm":12371,"Aj":12372,"Ape":12373,"Agre":12374,"Boca":12375,"Cri":12376,"Clar":12377,"Cór":12378,"Emoción":12379,"Gl":12380,"Gesto":12381,"Hol":12382,"Hun":12383,"Jos":12384,"Log":12385,"Luna":12386,"Lámina":12387,"Llamar":12388,"Mur":12389,"Much":12390,"Nub":12391,"Norma":12392,"Ocas":12393,"Oposición":12394,"Pena":12395,"Ros":12396,"Samb":12397,"Sierra":12398,"Sacerdo":12399,"Ten":12400,"Usado":12401,"Windo":12402,"afer":12403,"atado":12404,"asta":12405,"bran":12406,"bici":12407,"buc":12408,"béisbol":12409,"ciento":12410,"cena":12411,"cuesta":12412,"cítr":12413,"césped":12414,"círculos":12415,"dona":12416,"eus":12417,"fen":12418,"fidelidad":12419,"gentil":12420,"gesto":12421,"hones":12422,"hub":12423,"huir":12424,"jac":12425,"jub":12426,"jaz":12427,"láp":12428,"listas":12429,"mies":12430,"mund":12431,"mulas":12432,"náu":12433,"oru":12434,"odio":12435,"picos":12436,"puros":12437,"piñ":12438,"pájaro":12439,"plasma":12440,"sic":12441,"sales":12442,"sés":12443,"sáb":12444,"tent":12445,"techos":12446,"tecnología":12447,"vitu":12448,"vena":12449,"vástago":12450,"wik":12451,"Ép":12452,"íg":12453,"##sen":12454,"##sivo":12455,"##ty":12456,"##tética":12457,"##rección":12458,"##uci":12459,"##uria":12460,"##urus":12461,"##cá":12462,"##centes":12463,"##cóp":12464,"##lismo":12465,"##loso":12466,"##món":12467,"##ota":12468,"##oks":12469,"##itivas":12470,"##itencia":12471,"##eada":12472,"##eus":12473,"##érigo":12474,"##dén":12475,"##dicar":12476,"##didades":12477,"##óticas":12478,"##ótesis":12479,"##ópodo":12480,"##ñido":12481,"##zó":12482,"##zqu":12483,"##zgo":12484,"##vul":12485,"##vales":12486,"##ges":12487,"##gón":12488,"##giarse":12489,"##pic":12490,"##pidos":12491,"##pso":12492,"##ptera":12493,"##25":12494,"##xis":12495,"##ív":12496,"##ígenes":12497,"##yr":12498,"##yn":12499,"##yuno":12500,"deca":12501,"depresión":12502,"##astro":12503,"##ork":12504,"##orno":12505,"##esiones":12506,"##adencia":12507,"unicel":12508,"##entando":12509,"##entésimo":12510,"enteras":12511,"queja":12512,"quedando":12513,"lax":12514,"##inan":12515,"##inismo":12516,"conje":12517,"conme":12518,"contorno":12519,"conceder":12520,"##omper":12521,"##ecar":12522,"##ectivo":12523,"##roe":12524,"##rata":12525,"elas":12526,"elección":12527,"almoh":12528,"alvé":12529,"sever":12530,"sepul":12531,"##tografía":12532,"parad":12533,"parla":12534,"parques":12535,"partidas":12536,"##icaz":12537,"##ta1":12538,"##rió":12539,"##rigar":12540,"ret":12541,"reo":12542,"reina":12543,"retir":12544,"rebo":12545,"reúne":12546,"esófago":12547,"##unca":12548,"ine":12549,"inal":12550,"invar":12551,"insegu":12552,"invención":12553,"suc":12554,"sucia":12555,"suyo":12556,"##uloso":12557,"##ilan":12558,"##illado":12559,"##abil":12560,"comentarios":12561,"porta":12562,"portador":12563,"##dioso":12564,"##isca":12565,"pera":12566,"peri":12567,"##deos":12568,"##irada":12569,"exal":12570,"##quero":12571,"##quias":12572,"##iel":12573,"##cionada":12574,"##oceno":12575,"##guen":12576,"ach":12577,"aclar":12578,"accidental":12579,"acudir":12580,"##patía":12581,"ansia":12582,"anomal":12583,"desun":12584,"cargos":12585,"caramelo":12586,"##icioso":12587,"##uce":12588,"notar":12589,"##mover":12590,"##lantes":12591,"caen":12592,"arenos":12593,"usarse":12594,"usarlo":12595,"usuarios":12596,"##itmo":12597,"##izantes":12598,"Semej":12599,"relativas":12600,"Enf":12601,"Encu":12602,"Entidad":12603,"Energía":12604,"motores":12605,"Cono":12606,"Conver":12607,"Conven":12608,"matas":12609,"##testar":12610,"efici":12611,"collar":12612,"colonia":12613,"resiste":12614,"resuelve":12615,"resonancia":12616,"##uría":12617,"cordel":12618,"manadas":12619,"lotería":12620,"teología":12621,"temb":12622,"tedio":12623,"Deterior":12624,"Reacción":12625,"##otado":12626,"pegar":12627,"pezón":12628,"Intox":12629,"tramos":12630,"entrelaz":12631,"lema":12632,"asada":12633,"asig":12634,"pais":12635,"patio":12636,"paquete":12637,"Meter":12638,"disc":12639,"discur":12640,"impa":12641,"imprime":12642,"##éntr":12643,"generado":12644,"generales":12645,"abar":12646,"abiertas":12647,"abiertos":12648,"aberturas":12649,"##enses":12650,"ados":12651,"##struo":12652,"Arábiga":12653,"Prot":12654,"cabina":12655,"premis":12656,"escenas":12657,"escolar":12658,"naturalmente":12659,"nació":12660,"cosmético":12661,"varas":12662,"varían":12663,"variante":12664,"variaciones":12665,"##lucir":12666,"##érida":12667,"especu":12668,"##social":12669,"formados":12670,"formarse":12671,"##jeras":12672,"##estima":12673,"##estimiento":12674,"presunción":12675,"Estro":12676,"sonora":12677,"canasta":12678,"cannab":12679,"marea":12680,"toque":12681,"##gráficas":12682,"termo":12683,"amon":12684,"amable":12685,"amigo":12686,"cala":12687,"calef":12688,"animado":12689,"solitario":12690,"divinidad":12691,"salsas":12692,"empleaba":12693,"llegada":12694,"##genit":12695,"afán":12696,"afín":12697,"afinidad":12698,"##ubles":12699,"##ublic":12700,"distrito":12701,"certeza":12702,"líder":12703,"especializada":12704,"valía":12705,"valora":12706,"maldad":12707,"blancu":12708,"##íns":12709,"##omatope":12710,"tridimens":12711,"quién":12712,"##veno":12713,"maduración":12714,"sentado":12715,"pronombre":12716,"fría":12717,"sirva":12718,"bienavent":12719,"##mase":12720,"Despo":12721,"Descub":12722,"graf":12723,"gratuita":12724,"desprov":12725,"Unido":12726,"Unirse":12727,"aparentemente":12728,"Cama":12729,"talla":12730,"##ómito":12731,"dióxido":12732,"repiten":12733,"republic":12734,"Como":12735,"Mah":12736,"Matar":12737,"falsas":12738,"che":12739,"chas":12740,"placent":12741,"##doro":12742,"pese":12743,"pesad":12744,"pesados":12745,"litro":12746,"equip":12747,"equipa":12748,"volverse":12749,"ordena":12750,"ordenar":12751,"##ristas":12752,"subal":12753,"subcu":12754,"submar":12755,"suborden":12756,"evan":12757,"event":12758,"movido":12759,"insec":12760,"insul":12761,"inspiración":12762,"refiri":12763,"crítica":12764,"deseada":12765,"indio":12766,"cubriendo":12767,"##mplir":12768,"estudiante":12769,"molino":12770,"molinos":12771,"irse":12772,"organizar":12773,"valoración":12774,"vencer":12775,"vendedor":12776,"hueca":12777,"ángel":12778,"inferencia":12779,"semic":12780,"##ortés":12781,"capullo":12782,"grandeza":12783,"templar":12784,"inventar":12785,"digerir":12786,"complementar":12787,"Modelo":12788,"cepillo":12789,"Canción":12790,"conductas":12791,"curvos":12792,"tradu":12793,"trasero":12794,"trascendencia":12795,"desarrollan":12796,"negación":12797,"fijada":12798,"##ariamente":12799,"##licada":12800,"##licarse":12801,"descenso":12802,"sujetos":12803,"bebés":12804,"desazón":12805,"comerci":12806,"borra":12807,"bordo":12808,"cinturón":12809,"sobren":12810,"Polvo":12811,"Políg":12812,"triturar":12813,"violeta":12814,"Pañ":12815,"Trampa":12816,"Transf":12817,"bancos":12818,"bantú":12819,"Aplicación":12820,"esfuer":12821,"sacud":12822,"Impos":12823,"médica":12824,"Haber":12825,"hep":12826,"elector":12827,"virre":12828,"Navidad":12829,"cuadros":12830,"cuadrangular":12831,"propiamente":12832,"experto":12833,"experiencias":12834,"locales":12835,"encaminar":12836,"consumida":12837,"astas":12838,"astros":12839,"astring":12840,"Resto":12841,"balance":12842,"balcones":12843,"##ordura":12844,"definir":12845,"alejado":12846,"alejarse":12847,"aviesa":12848,"sabores":12849,"antemano":12850,"deportivos":12851,"María":12852,"Apartar":12853,"##ámide":12854,"significación":12855,"Libre":12856,"territorial":12857,"books":12858,"convencer":12859,"encier":12860,"Terminar":12861,"Grano":12862,"carnal":12863,"fluye":12864,"mejora":12865,"##tinente":12866,"ofreci":12867,"ingerir":12868,"celtas":12869,"Poema":12870,"arroja":12871,"revolución":12872,"artificio":12873,"advertir":12874,"corromper":12875,"isl":12876,"dividen":12877,"Pastel":12878,"sufren":12879,"correas":12880,"distribuida":12881,"hongo":12882,"lengu":12883,"lengü":12884,"once":12885,"televis":12886,"tijera":12887,"ingenioso":12888,"persecución":12889,"proporcionar":12890,"Precio":12891,"ornamentos":12892,"literarias":12893,"cuarenta":12894,"envol":12895,"enviado":12896,"selvas":12897,"mosto":12898,"mosqu":12899,"existía":12900,"existentes":12901,"##mendar":12902,"reunidos":12903,"reuniones":12904,"colocados":12905,"continuación":12906,"limpio":12907,"diecis":12908,"ninguno":12909,"199":12910,"193":12911,"fibrosa":12912,"penitencia":12913,"constancia":12914,"suav":12915,"franjas":12916,"ilus":12917,"folíolos":12918,"prácticamente":12919,"extenderse":12920,"luces":12921,"artísticas":12922,"experimentado":12923,"acuática":12924,"acuático":12925,"acuñada":12926,"conformado":12927,"viajes":12928,"suelta":12929,"terrestres":12930,"justificar":12931,"preciosa":12932,"populares":12933,"tosca":12934,"pronunciado":12935,"independientes":12936,"adaptación":12937,"reciente":12938,"recientemente":12939,"lluvias":12940,"oliva":12941,"hidrocarb":12942,"remoto":12943,"Cabeza":12944,"autoestima":12945,"pecado":12946,"presentado":12947,"licencia":12948,"conservan":12949,"operativo":12950,"Nego":12951,"estimulante":12952,"Representar":12953,"encontrarse":12954,"universal":12955,"elegido":12956,"amarillenta":12957,"excremento":12958,"Moldura":12959,"ahora":12960,"interesante":12961,"sometidos":12962,"provocando":12963,"bulbo":12964,"descargar":12965,"corporales":12966,"corporación":12967,"cristalina":12968,"cristalino":12969,"mitades":12970,"helen":12971,"##tablo":12972,"Agru":12973,"básicamente":12974,"sensor":12975,"sensibilidad":12976,"aislado":12977,"turbación":12978,"gradualmente":12979,"Delito":12980,"deshon":12981,"cordones":12982,"Después":12983,"pleito":12984,"escalar":12985,"génitourinario":12986,"giratorio":12987,"Dividir":12988,"Empleado":12989,"soberanía":12990,"ocasiona":12991,"ocasionado":12992,"membranas":12993,"desempeño":12994,"Buena":12995,"tocando":12996,"tribus":12997,"concede":12998,"reaccionar":12999,"indicando":13000,"exacta":13001,"exactitud":13002,"hemorrag":13003,"##éditos":13004,"apagar":13005,"sintética":13006,"Substancia":13007,"flamen":13008,"##parazón":13009,"eclesiástica":13010,"inconven":13011,"drama":13012,"fracas":13013,"fragantes":13014,"decorativos":13015,"nutrientes":13016,"Dificul":13017,"teatros":13018,"Florece":13019,"Hierro":13020,"Toda":13021,"brusca":13022,"extinción":13023,"disimulo":13024,"grosero":13025,"felicidad":13026,"##tilobuladas":13027,"explosivo":13028,"querido":13029,"Organización":13030,"exhibe":13031,"rigor":13032,"exigir":13033,"análogo":13034,"carrocería":13035,"sudamericana":13036,"párpados":13037,"fortificado":13038,"expulsa":13039,"filosófico":13040,"Romano":13041,"hormigas":13042,"tributo":13043,"esclav":13044,"diligencias":13045,"Ayuda":13046,"Banda":13047,"bronqu":13048,"frotar":13049,"pudiente":13050,"pudiendo":13051,"zarcillos":13052,"##ediencia":13053,"Arabia":13054,"Turquía":13055,"arañas":13056,"conexiones":13057,"oblonga":13058,"voluntariamente":13059,"iluminación":13060,"Circun":13061,"paralelas":13062,"extraordinario":13063,"Gastar":13064,"joyas":13065,"nasales":13066,"hablantes":13067,"cáncer":13068,"jabalí":13069,"áridos":13070,"intenciones":13071,"indeseables":13072,"##americano":13073,"indeterminada":13074,"Atacar":13075,"Lanzar":13076,"ebulus":13077,"devoción":13078,"paralela":13079,"cadáveres":13080,"indoeuropea":13081,"recíprocamente":13082,"Similar":13083,"lidia":13084,"inoport":13085,"acusado":13086,"cazadores":13087,"pagaba":13088,"océanos":13089,"disfrutar":13090,"hirviendo":13091,"kilómetros":13092,"pigmento":13093,"angosto":13094,"comprimido":13095,"rugby":13096,"vértices":13097,"Narración":13098,"apertura":13099,"fingir":13100,"gimnasia":13101,"cartílagos":13102,"edificación":13103,"telefónica":13104,"cinematográfica":13105,"Ejemplo":13106,"huella":13107,"sept":13108,"arrancar":13109,"dañino":13110,"subdivid":13111,"tornillo":13112,"toneladas":13113,"conjuntamente":13114,"predominante":13115,"bíblico":13116,"Conducta":13117,"patógeno":13118,"plátano":13119,"glucosa":13120,"acondicionado":13121,"Bosque":13122,"Harina":13123,"mimbre":13124,"##écima":13125,"envase":13126,"custodia":13127,"apéndice":13128,"coherente":13129,"masteleros":13130,"diciembre":13131,"encanto":13132,"desgaste":13133,"cavidades":13134,"manzana":13135,"trinquete":13136,"batalla":13137,"gelatin":13138,"bovino":13139,"impermeable":13140,"quirúrgica":13141,"##dinámica":13142,"probabilidad":13143,"precaución":13144,"espesor":13145,"inflamable":13146,"heterogé":13147,"limosna":13148,"ferrocarril":13149,"Desplazarse":13150,"ovoide":13151,"riñón":13152,"engend":13153,"obedece":13154,"motivación":13155,"príncipe":13156,"gramíneas":13157,"molestar":13158,"requisitos":13159,"fructifican":13160,"cápsula":13161,"duerme":13162,"supremo":13163,"cuánto":13164,"estipulado":13165,"##ignificante":13166,"mascotas":13167,"aguardiente":13168,"menoscabo":13169,"alfarería":13170,"precolombina":13171,"Cigarrillo":13172,"Normalmente":13173,"recompensa":13174,"etnias":13175,"indiscre":13176,"urbanidad":13177,"metabolismo":13178,"concebir":13179,"microorganismos":13180,"Amazonas":13181,"##hidrato":13182,"elige":13183,"alcaloides":13184,"inglesa":13185,"Española":13186,"Especialista":13187,"Habitualmente":13188,"fotografías":13189,"audiovisual":13190,"Denominación":13191,"Opinión":13192,"comandante":13193,"matorrales":13194,"discriminación":13195,"madrigueras":13196,"brácteas":13197,"cosmopolita":13198,"semicircular":13199,"Sambucus":13200,"Window":13201,"Época":13202,"premisas":13203,"Polígono":13204,"26":13205,"32":13206,"36":13207,"AR":13208,"Alar":13209,"Atenas":13210,"Be":13211,"Bra":13212,"Bel":13213,"Bola":13214,"Bloque":13215,"Béisbol":13216,"Cis":13217,"Civ":13218,"Cierta":13219,"Cuch":13220,"Club":13221,"EE":13222,"Fer":13223,"Fas":13224,"Fan":13225,"Fre":13226,"Fla":13227,"Fri":13228,"Fáb":13229,"Frase":13230,"Grito":13231,"Golosina":13232,"Hy":13233,"Hos":13234,"Han":13235,"Hoy":13236,"Im":13237,"Ibérica":13238,"Lado":13239,"Mas":13240,"Mes":13241,"Mul":13242,"Mim":13243,"Mesa":13244,"Nivel":13245,"Nicara":13246,"Oración":13247,"Ofr":13248,"Pesa":13249,"Ron":13250,"Rue":13251,"Riv":13252,"Régimen":13253,"Sum":13254,"Tre":13255,"Tot":13256,"Tribu":13257,"Tole":13258,"Testamento":13259,"Vis":13260,"Via":13261,"Vac":13262,"Vendedor":13263,"aur":13264,"atiende":13265,"boc":13266,"biología":13267,"binario":13268,"bestia":13269,"bilateral":13270,"coj":13271,"castr":13272,"cito":13273,"cúb":13274,"cach":13275,"cesar":13276,"dog":13277,"daba":13278,"diminu":13279,"dándole":13280,"euc":13281,"ecu":13282,"eva":13283,"fero":13284,"fea":13285,"fosas":13286,"festivo":13287,"gin":13288,"gordura":13289,"hizo":13290,"jura":13291,"lun":13292,"moch":13293,"ná":13294,"od":13295,"oce":13296,"ocio":13297,"otom":13298,"oye":13299,"pimiento":13300,"psicología":13301,"raso":13302,"risa":13303,"sierra":13304,"soga":13305,"té":13306,"tac":13307,"tech":13308,"tril":13309,"títulos":13310,"vora":13311,"vocativo":13312,"vómito":13313,"web":13314,"zamb":13315,"Útil":13316,"##sus":13317,"##ts":13318,"##tenta":13319,"##tonar":13320,"##rino":13321,"##ricos":13322,"##rador":13323,"##rensible":13324,"##uter":13325,"##ude":13326,"##upe":13327,"##uñas":13328,"##urio":13329,"##camiento":13330,"##cron":13331,"##cólico":13332,"##ata":13333,"##acia":13334,"##ladar":13335,"##mada":13336,"##mología":13337,"##midal":13338,"##od":13339,"##iper":13340,"##itrar":13341,"##elación":13342,"##ejos":13343,"##dable":13344,"##dario":13345,"##ód":13346,"##ógenos":13347,"##ñeza":13348,"##zuelo":13349,"##gam":13350,"##gente":13351,"##gras":13352,"##pt":13353,"##pl":13354,"##pía":13355,"##pciones":13356,"##puestas":13357,"##fón":13358,"##fac":13359,"##jamiento":13360,"##ácidos":13361,"##bs":13362,"##bras":13363,"##ídeo":13364,"##úan":13365,"##ymus":13366,"##O2":13367,"##50":13368,"degrad":13369,"dejarse":13370,"##erante":13371,"##ereza":13372,"##eraria":13373,"##arla":13374,"##arde":13375,"##cierto":13376,"##asas":13377,"##ors":13378,"##estr":13379,"##especi":13380,"##adr":13381,"##adiza":13382,"##anada":13383,"##anum":13384,"unirse":13385,"enun":13386,"ende":13387,"engre":13388,"enfa":13389,"enlaz":13390,"entiende":13391,"enrique":13392,"quedado":13393,"lagar":13394,"latitud":13395,"latón":13396,"lavado":13397,"##inist":13398,"cond":13399,"congel":13400,"conejo":13401,"##idáceas":13402,"##idiendo":13403,"##idencial":13404,"##omba":13405,"##ectado":13406,"##rof":13407,"##rote":13408,"elon":13409,"albar":13410,"alqui":13411,"alambres":13412,"severa":13413,"##tió":13414,"##redar":13415,"parar":13416,"parro":13417,"pariente":13418,"parientes":13419,"partid":13420,"##texto":13421,"##taño":13422,"##later":13423,"##risa":13424,"retro":13425,"reper":13426,"retener":13427,"retablo":13428,"esgrima":13429,"##undi":13430,"##untar":13431,"inda":13432,"incur":13433,"inex":13434,"inap":13435,"sumo":13436,"##abellón":13437,"poroso":13438,"##dium":13439,"##tula":13440,"##letes":13441,"perece":13442,"pertur":13443,"perío":13444,"persegu":13445,"perdiendo":13446,"perímetro":13447,"permitiendo":13448,"procre":13449,"progenit":13450,"##mputo":13451,"##dep":13452,"##acruz":13453,"estru":13454,"##iojos":13455,"##iodismo":13456,"##irado":13457,"##irmación":13458,"##tivar":13459,"##igón":13460,"excede":13461,"##logos":13462,"##pedo":13463,"##pelar":13464,"##istor":13465,"##ieb":13466,"##ieta":13467,"##guir":13468,"##guard":13469,"acol":13470,"acorde":13471,"anís":13472,"anud":13473,"antí":13474,"andal":13475,"desma":13476,"desac":13477,"desus":13478,"desierto":13479,"desuso":13480,"##ivers":13481,"##daz":13482,"medal":13483,"cargar":13484,"carros":13485,"caribe":13486,"cartilag":13487,"forzar":13488,"##jear":13489,"cat":13490,"catar":13491,"caud":13492,"cajas":13493,"caparazón":13494,"##goci":13495,"##elarse":13496,"argentina":13497,"##umido":13498,"Pers":13499,"Periodismo":13500,"##parente":13501,"##pararse":13502,"##itta":13503,"##izando":13504,"##ife":13505,"Engaño":13506,"##ced":13507,"Consta":13508,"##peras":13509,"colch":13510,"colgado":13511,"colabor":13512,"restitu":13513,"resguard":13514,"sería":13515,"sereno":13516,"##enerse":13517,"corren":13518,"mandi":13519,"lob":13520,"lodo":13521,"habitar":13522,"compuls":13523,"Dejarse":13524,"Determin":13525,"Repe":13526,"Reducción":13527,"Repetición":13528,"Esco":13529,"Esgrima":13530,"##otan":13531,"##otho":13532,"peor":13533,"peinado":13534,"##teriales":13535,"sinte":13536,"traba":13537,"trauma":13538,"asent":13539,"asignar":13540,"medicinas":13541,"##poración":13542,"pato":13543,"pagos":13544,"paula":13545,"papas":13546,"##minencia":13547,"aptitud":13548,"apuestas":13549,"suscita":13550,"sobremes":13551,"vers":13552,"verificar":13553,"verdosas":13554,"abono":13555,"admitir":13556,"adicción":13557,"rectitud":13558,"Argu":13559,"cabel":13560,"prem":13561,"preex":13562,"escor":13563,"costura":13564,"plane":13565,"planes":13566,"##luye":13567,"##ísimo":13568,"##ísima":13569,"##éricos":13570,"posesiones":13571,"difunto":13572,"difundir":13573,"##estial":13574,"Estra":13575,"Estación":13576,"sonoro":13577,"infancia":13578,"cantos":13579,"pasan":13580,"marítimo":13581,"interval":13582,"intermedio":13583,"interrumpir":13584,"terror":13585,"aman":13586,"palme":13587,"palanca":13588,"##izaciones":13589,"solid":13590,"soltar":13591,"solidez":13592,"solidaridad":13593,"solanáceas":13594,"casillas":13595,"castillo":13596,"divinos":13597,"##zoica":13598,"elementales":13599,"salto":13600,"saltar":13601,"fundir":13602,"fundido":13603,"cierran":13604,"##ecida":13605,"regresar":13606,"afectos":13607,"##emias":13608,"necio":13609,"neuro":13610,"##chada":13611,"##chera":13612,"pozo":13613,"cerr":13614,"simpl":13615,"incas":13616,"valvas":13617,"utilización":13618,"transacción":13619,"malicia":13620,"culinaria":13621,"Suiza":13622,"quar":13623,"dentado":13624,"dentados":13625,"dentadas":13626,"coo":13627,"cohete":13628,"sentencias":13629,"taza":13630,"finos":13631,"basto":13632,"basales":13633,"basura":13634,"bastón":13635,"basándose":13636,"##ñosos":13637,"Descripción":13638,"gratitud":13639,"aparenta":13640,"aparentar":13641,"sífil":13642,"sílice":13643,"Ante":13644,"talento":13645,"Come":13646,"Compar":13647,"Comunidad":13648,"Expeler":13649,"contrab":13650,"fallo":13651,"faltar":13652,"resultan":13653,"deformación":13654,"chor":13655,"cham":13656,"sexto":13657,"plena":13658,"equid":13659,"equinoc":13660,"Accidente":13661,"baño":13662,"batería":13663,"muscula":13664,"##ionada":13665,"##ipié":13666,"Almac":13667,"Alcal":13668,"ordenadas":13669,"montado":13670,"originada":13671,"encub":13672,"moreno":13673,"moralidad":13674,"subje":13675,"movible":13676,"insignificante":13677,"vaga":13678,"mastica":13679,"masturbarse":13680,"tortura":13681,"expendio":13682,"explorar":13683,"Muro":13684,"indign":13685,"embellecer":13686,"agudas":13687,"agujas":13688,"molestias":13689,"molduras":13690,"##gelación":13691,"valorar":13692,"milenio":13693,"Disco":13694,"tiendas":13695,"decim":13696,"decide":13697,"venda":13698,"libra":13699,"guaran":13700,"##inete":13701,"gasolina":13702,"captar":13703,"capturar":13704,"##dicarse":13705,"autoridades":13706,"horario":13707,"hornos":13708,"ganas":13709,"gancho":13710,"dominar":13711,"##ponente":13712,"##teger":13713,"##áficamente":13714,"ceder":13715,"azucar":13716,"traducción":13717,"ruidos":13718,"hiere":13719,"labio":13720,"negando":13721,"Ocupación":13722,"ligar":13723,"##viatura":13724,"Así":13725,"Asunto":13726,"Asamblea":13727,"comerciar":13728,"luci":13729,"Militar":13730,"##íptero":13731,"señala":13732,"sexualidad":13733,"sobrante":13734,"claramente":13735,"genético":13736,"genérico":13737,"Polonia":13738,"cruda":13739,"Pakistán":13740,"pantan":13741,"pantanos":13742,"puls":13743,"oficinas":13744,"ramos":13745,"ramificada":13746,"ramificaciones":13747,"procedencia":13748,"actuación":13749,"clientes":13750,"visita":13751,"Apre":13752,"esférico":13753,"métrica":13754,"seguida":13755,"Especialidad":13756,"Habitante":13757,"pinta":13758,"socialmente":13759,"cristiano":13760,"nueces":13761,"Correa":13762,"virgen":13763,"Nacional":13764,"##óricos":13765,"equivalía":13766,"concord":13767,"##vilizar":13768,"Abst":13769,"encor":13770,"encog":13771,"encaja":13772,"encéfalo":13773,"obses":13774,"##faz":13775,"dependiente":13776,"dependiendo":13777,"vigencia":13778,"geometría":13779,"Resid":13780,"Respecto":13781,"caduca":13782,"avivar":13783,"rápidos":13784,"abundan":13785,"abundantes":13786,"dispuesta":13787,"surgen":13788,"Velo":13789,"amplitud":13790,"votos":13791,"mecan":13792,"fach":13793,"faculta":13794,"figurativamente":13795,"galeras":13796,"galerías":13797,"grito":13798,"gritos":13799,"##andera":13800,"##andilla":13801,"perfeccionar":13802,"Aparecer":13803,"controver":13804,"tubulares":13805,"##élico":13806,"cultivadas":13807,"cultivares":13808,"garf":13809,"crianza":13810,"criterios":13811,"influir":13812,"ataques":13813,"órbita":13814,"igualar":13815,"Raza":13816,"Salamanca":13817,"offici":13818,"inger":13819,"celulosa":13820,"alimenticio":13821,"corresponder":13822,"arroyo":13823,"arroyos":13824,"funcione":13825,"revistas":13826,"artistas":13827,"adverso":13828,
[...]
