{"version":"1.0","truncation":null,"padding":null,"added_tokens":[{"id":0,"special":true,"content":"<pad/>","single_word":false,"lstrip":false,"rstrip":false,"normalized":false},{"id":1,"special":true,"content":"</seq>","single_word":false,"lstrip":false,"rstrip":false,"normalized":false},{"id":2,"special":true,"content":"<seq>","single_word":false,"lstrip":false,"rstrip":false,"normalized":false},{"id":3,"special":true,"content":"<unk/>","single_word":false,"lstrip":false,"rstrip":false,"normalized":false},{"id":4,"special":true,"content":"<en>","single_word":false,"lstrip":false,"rstrip":false,"normalized":false},{"id":5,"special":true,"content":"<es>","single_word":false,"lstrip":false,"rstrip":false,"normalized":false},{"id":6,"special":true,"content":"<fr>","single_word":false,"lstrip":false,"rstrip":false,"normalized":false},{"id":7,"special":true,"content":"<it>","single_word":false,"lstrip":false,"rstrip":false,"normalized":false},{"id":8,"special":true,"content":"<ru>","single_word":false,"lstrip":false,"rstrip":false,"normalized":false}],"normalizer":null,"pre_tokenizer":{"type":"Whitespace"},"post_processor":null,"decoder":null,"model":{"type":"WordPiece","unk_token":"<unk/>","continuing_subword_prefix":"##","max_input_chars_per_word":100,"vocab":{"<pad/>":0,"</seq>":1,"<seq>":2,"<unk/>":3,"<en>":4,"<es>":5,"<fr>":6,"<it>":7,"<ru>":8,"!":9,"#":10,"$":11,"%":12,"&":13,"'":14,"(":15,")":16,"+":17,",":18,"-":19,".":20,"/":21,"0":22,"1":23,"2":24,"3":25,"4":26,"5":27,"6":28,"7":29,"8":30,"9":31,":":32,";":33,"<":34,"=":35,">":36,"?":37,"@":38,"A":39,"B":40,"C":41,"D":42,"E":43,"F":44,"G":45,"H":46,"I":47,"J":48,"K":49,"L":50,"M":51,"N":52,"O":53,"P":54,"Q":55,"R":56,"S":57,"T":58,"U":59,"V":60,"W":61,"X":62,"Y":63,"Z":64,"[":65,"\\":66,"]":67,"^":68,"_":69,"`":70,"a":71,"b":72,"c":73,"d":74,"e":75,"f":76,"g":77,"h":78,"i":79,"j":80,"k":81,"l":82,"m":83,"n":84,"o":85,"p":86,"q":87,"r":88,"s":89,"t":90,"u":91,"v":92,"w":93,"x":94,"y":95,"z":96,"{":97,"}":98,"¥":99,"°":100,"³":101,"º":102,"À":103,"Â":104,"È":105,"É":106,"Ê":107,"Î":108,"Ô":109,"à":110,"á":111,"â":112,"ä":113,"å":114,"æ":115,"ç":116,"è":117,"é":118,"ê":119,"ë":120,"í":121,"î":122,"ï":123,"ó":124,"ô":125,"ö":126,"ù":127,"û":128,"ü":129,"ō":130,"Œ":131,"œ":132,"ə":133,"ʼ":134,"̧":135,"Ζ":136,"Σ":137,"α":138,"ζ":139,"η":140,"θ":141,"ι":142,"μ":143,"ν":144,"ρ":145,"ς":146,"σ":147,"τ":148,"φ":149,"ό":150,"Ϛ":151,"ϛ":152,"ء":153,"्":154,"‎":155,"‐":156,"—":157,"…":158,"‹":159,"›":160,"‿":161,"₳":162,"₴":163,"™":164,"℥":165,"→":166,"−":167,"≃":168,"◌":169,"☧":170,"♠":171,"♣":172,"♥":173,"♦":174,"卍":175,"卐":176,"글":177,"한":178,"ﺀ":179,"🚃":180,"##a":181,"##r":182,"##t":183,"##i":184,"##o":185,"##n":186,"##q":187,"##u":188,"##e":189,"##c":190,"##h":191,"##f":192,"##é":193,"##s":194,"##m":195,"##l":196,"##b":197,"##d":198,"##p":199,"##g":200,"##â":201,"##E":202,"##y":203,"##v":204,"##j":205,"##z":206,"##x":207,"##3":208,"##è":209,"##w":210,"##k":211,"##O":212,"##ï":213,"##C":214,"##D":215,"##î":216,"##ô":217,"##ê":218,"##2":219,"##G":220,"##8":221,"##4":222,"##0":223,"##I":224,"##9":225,"##ç":226,"##S":227,"##œ":228,"##B":229,"##6":230,"##A":231,"##M":232,"##û":233,"##H":234,"##N":235,"##F":236,"##7":237,"##5":238,"##ʼ":239,"##+":240,"##P":241,"##1":242,"##T":243,"##V":244,"##'":245,"##.":246,"##W":247,"##U":248,"##ë":249,"##_":250,"##L":251,"##à":252,"##ρ":253,"##ό":254,"##ν":255,"##η":256,"##σ":257,"##ι":258,"##ς":259,"##—":260,"##R":261,"##-":262,"##Z":263,"##X":264,"##ü":265,"##글":266,"##á":267,"##ä":268,"##í":269,"##Â":270,"##τ":271,"##ö":272,"##→":273,"##ù":274,"##ō":275,"##ó":276,"##`":277,"##Y":278,"##K":279,"##å":280,"##æ":281,"##º":282,"##…":283,"##Q":284,"##/":285,"##es":286,"##on":287,"##er":288,"##nt":289,"##re":290,"de":291,"##ti":292,"##ui":293,"un":294,"##ar":295,"##ur":296,"##ue":297,"##an":298,"##me":299,"##le":300,"##ie":301,"##ai":302,"##te":303,"##li":304,"##or":305,"##que":306,"##se":307,"la":308,"##ou":309,"##tion":310,"##ne":311,"##si":312,"##ant":313,"ou":314,"##oi":315,"une":316,"qui":317,"et":318,"##om":319,"##ment":320,"##ri":321,"des":322,"par":323,"##st":324,"en":325,"##ce":326,"##té":327,"##ra":328,"au":329,"le":330,"##our":331,"##ve":332,"les":333,"##ans":334,"##in":335,"##ch":336,"##au":337,"ch":338,"##ro":339,"##al":340,"##en":341,"##de":342,"##lle":343,"##is":344,"##ge":345,"est":346,"##aire":347,"##us":348,"##ig":349,"Qui":350,"que":351,"du":352,"##ol":353,"##ci":354,"##tre":355,"##ré":356,"con":357,"dans":358,"##la":359,"ex":360,"##og":361,"##mi":362,"se":363,"##ers":364,"##ée":365,"##res":366,"##at":367,"dé":368,"##qu":369,"##sion":370,"##ation":371,"##pp":372,"##cu":373,"##as":374,"##it":375,"##ction":376,"Par":377,"##ure":378,"pl":379,"com":380,"##mp":381,"re":382,"pour":383,"##ère":384,"ce":385,"##ten":386,"##ble":387,"##lier":388,"on":389,"##tif":390,"##os":391,"##il":392,"##ont":393,"pro":394,"##ique":395,"in":396,"qu":397,"##uré":398,"##onne":399,"##eu":400,"##iguré":401,"##ot":402,"##ff":403,"##ait":404,"Figuré":405,"##ran":406,"sur":407,"quel":408,"ré":409,"##les":410,"##ct":411,"##ir":412,"##ais":413,"##ogie":414,"Re":415,"##di":416,"parti":417,"##ose":418,"##ale":419,"##ain":420,"##tique":421,"##onn":422,"##ul":423,"##ami":424,"##et":425,"##ort":426,"##ux":427,"##ert":428,"##age":429,"##ali":430,"di":431,"##oit":432,"ar":433,"an":434,"plus":435,"##tension":436,"##és":437,"extension":438,"##ien":439,"##ab":440,"##ph":441,"tr":442,"##dre":443,"##ersonne":444,"for":445,"En":446,"##ag":447,"chose":448,"##ologie":449,"##urs":450,"##vec":451,"##ois":452,"##ac":453,"##ét":454,"##che":455,"##amilier":456,"##vi":457,"avec":458,"or":459,"Familier":460,"##el":461,"su":462,"sou":463,"##ser":464,"ét":465,"pas":466,"##pe":467,"##ces":468,"##én":469,"##ion":470,"##éra":471,"man":472,"dont":473,"quelque":474,"##ante":475,"##aux":476,"##lé":477,"aux":478,"ent":479,"##out":480,"##ari":481,"Ar":482,"##ance":483,"##mb":484,"comp":485,"ra":486,"app":487,"##im":488,"Ch":489,"##oir":490,"##ques":491,"pré":492,"peu":493,"Action":494,"particu":495,"##ées":496,"##latif":497,"##tte":498,"##ér":499,"##lant":500,"##tit":501,"etc":502,"##sp":503,"##uit":504,"##ès":505,"##sse":506,"##ver":507,"##ter":508,"fait":509,"vi":510,"##ang":511,"##illi":512,"##vant":513,"##nte":514,"Relatif":515,"cor":516,"##ru":517,"son":518,"Qu":519,"##orte":520,"##able":521,"Vie":522,"##ens":523,"ob":524,"ne":525,"##lo":526,"aut":527,"il":528,"Vieilli":529,"cert":530,"cou":531,"ac":532,"##ati":533,"##lig":534,"##oire":535,"##oli":536,"##ist":537,"##um":538,"##ler":539,"##roit":540,"##ière":541,"##vent":542,"particulier":543,"autre":544,"parlant":545,"##ité":546,"##ren":547,"Se":548,"##rit":549,"##du":550,"##qui":551,"##ron":552,"##ss":553,"Personne":554,"##isme":555,"pe":556,"int":557,"##raph":558,"Mé":559,"##ieu":560,"comme":561,"être":562,"##un":563,"##éri":564,"##min":565,"##op":566,"certain":567,"##ég":568,"##iè":569,"##ême":570,"##jet":571,"An":572,"où":573,"éc":574,"##ient":575,"In":576,"car":577,"te":578,"mo":579,"##sé":580,"##ic":581,"##tt":582,"faire":583,"##mes":584,"##ouve":585,"##ograph":586,"entre":587,"##mble":588,"sa":589,"##osi":590,"quelqu":591,"esp":592,"dis":593,"##ier":594,"##tili":595,"##ments":596,"personne":597,"pri":598,"##mer":599,"##sique":600,"##ap":601,"per":602,"ter":603,"##tin":604,"##ole":605,"sans":606,"li":607,"##semble":608,"##anique":609,"##tat":610,"ser":611,"##tie":612,"##ub":613,"même":614,"##omb":615,"emp":616,"deux":617,"utili":618,"##are":619,"##cul":620,"mé":621,"##voir":622,"##lles":623,"forme":624,"##ons":625,"##ili":626,"imp":627,"##sent":628,"##ond":629,"##ps":630,"##ine":631,"##pé":632,"##cher":633,"manière":634,"dit":635,"mar":636,"prop":637,"##ut":638,"##des":639,"##cine":640,"al":641,"peut":642,"##oses":643,"Quali":644,"##tes":645,"##ong":646,"##lic":647,"rapp":648,"##cer":649,"ad":650,"cour":651,"tra":652,"##for":653,"##lement":654,"fa":655,"##decine":656,"ph":657,"##ner":658,"Cel":659,"##aine":660,"##ture":661,"##oin":662,"##ieurs":663,"rep":664,"gén":665,"choses":666,"##end":667,"##omp":668,"##ersonn":669,"##ote":670,"che":671,"##osition":672,"Celui":673,"Médecine":674,"##cien":675,"ses":676,"##dé":677,"##iel":678,"##ail":679,"##nti":680,"##vre":681,"Ce":682,"##alement":683,"##oc":684,"plusieurs":685,"##omme":686,"##fie":687,"##ligion":688,"pla":689,"##hé":690,"##teur":691,"gran":692,"mét":693,"personn":694,"action":695,"##ad":696,"##ord":697,"exp":698,"##otanique":699,"sont":700,"##am":701,"##and":702,"corps":703,"Au":704,"##rou":705,"##ête":706,"##ard":707,"fe":708,"Botanique":709,"donn":710,"##be":711,"Pe":712,"res":713,"##nes":714,"##ssi":715,"dép":716,"##vers":717,"généra":718,"Dé":719,"ép":720,"##érie":721,"anim":722,"##uet":723,"##atif":724,"##ris":725,"sens":726,"poi":727,"##th":728,"##endre":729,"##quel":730,"Pro":731,"##cé":732,"tou":733,"##act":734,"##abit":735,"soit":736,"autres":737,"diff":738,"ab":739,"##omie":740,"Qualifie":741,"##duit":742,"Dés":743,"##llement":744,"mal":745,"comm":746,"##quer":747,"Ph":748,"##tés":749,"##con":750,"##oy":751,"##cip":752,"##ors":753,"##ographie":754,"##ace":755,"##got":756,"Religion":757,"##péci":758,"##nce":759,"##tr":760,"##use":761,"consi":762,"personnes":763,"tout":764,"Désuet":765,"très":766,"##lan":767,"##titu":768,"char":769,"Argot":770,"objet":771,"partie":772,"Gé":773,"ag":774,"##erie":775,"aff":776,"##sage":777,"##uis":778,"cette":779,"##ulaire":780,"##oci":781,"sy":782,"##stru":783,"##rès":784,"##aires":785,"##cou":786,"##ing":787,"ma":788,"sert":789,"Droit":790,"Vari":791,"co":792,"pou":793,"##ères":794,"##ature":795,"##rer":796,"Note":797,"##usique":798,"##istoire":799,"Faire":800,"long":801,"##rig":802,"##ven":803,"##ma":804,"souvent":805,"fami":806,"bois":807,"temp":808,"fi":809,"##rie":810,"##ème":811,"##ts":812,"``":813,"##leur":814,"fer":815,"##ay":816,"##gan":817,"##nement":818,"##ilit":819,"##inaire":820,"sub":821,"sous":822,"##mé":823,"##chi":824,"##mme":825,"##par":826,"##jor":827,"##ieux":828,"rapport":829,"État":830,"ca":831,"##lation":832,"##ours":833,"##inal":834,"cons":835,"Variante":836,"##rance":837,"Bi":838,"mor":839,"anal":840,"Histoire":841,"Ré":842,"##if":843,"st":844,"##olu":845,"##éjor":846,"##tement":847,"##ransi":848,"certaines":849,"eff":850,"nom":851,"cha":852,"##alité":853,"##ants":854,"##imie":855,"lang":856,"##ony":857,"Ensemble":858,"##uer":859,"##port":860,"famille":861,"Di":862,"ver":863,"rés":864,"##opulaire":865,"##oins":866,"##ettre":867,"nature":868,"cel":869,"acc":870,"fon":871,"##dui":872,"##ures":873,"##ilitaire":874,"##éjoratif":875,"##ombre":876,"##ches":877,"inter":878,"éle":879,"##ales":880,"rég":881,"##tient":882,"##alis":883,"##ign":884,"emplo":885,"leur":886,"sé":887,"##ob":888,"##sine":889,"appar":890,"##olitique":891,"##ransitif":892,"Con":893,"##rop":894,"certains":895,"##été":896,"état":897,"opp":898,"##pi":899,"ord":900,"##arine":901,"Int":902,"celle":903,"##cture":904,"##nts":905,"plur":906,"##igne":907,"mon":908,"pos":909,"##quelle":910,"laquelle":911,"##enre":912,"##asse":913,"inf":914,"Péjoratif":915,"trans":916,"##tive":917,"fr":918,"##vé":919,"##met":920,"lequel":921,"pluriel":922,"att":923,"déf":924,"##ations":925,"ap":926,"Ex":927,"Populaire":928,"##rée":929,"bien":930,"France":931,"##actère":932,"analogie":933,"##ule":934,"##rique":935,"##aison":936,"petit":937,"col":938,"eau":939,"prin":940,"##résent":941,"##mm":942,"pub":943,"Ang":944,"##fois":945,"##ression":946,"habit":947,"lieu":948,"##ues":949,"##ronom":950,"résul":951,"rou":952,"ég":953,"##aille":954,"généralement":955,"##per":956,"Or":957,"cul":958,"##sin":959,"lui":960,"elle":961,"##lè":962,"organ":963,"##ise":964,"##tis":965,"##tite":966,"##aise":967,"##cle":968,"commun":969,"av":970,"ouv":971,"prof":972,"nombre":973,"orig":974,"##lon":975,"Pl":976,"##ysique":977,"##stance":978,"##aut":979,"##licisme":980,"Musique":981,"##çon":982,"##uel":983,"produit":984,"espè":985,"jus":986,"si":987,"##int":988,"Nom":989,"fin":990,"moins":991,"Marine":992,"##lée":993,"##itu":994,"gra":995,"##tions":996,"usage":997,"##auv":998,"##culture":999,"##ronominal":1000,"bou":1001,"##fi":1002,"##osé":1003,"De":1004,"Pronominal":1005,"##antes":1006,"##ec":1007,"Chimie":1008,"dou":1009,"##rendre":1010,"Ag":1011,"##uisine":1012,"am":1013,"ensemble":1014,"##ièce":1015,"lég":1016,"temps":1017,"##der":1018,"##esse":1019,"Sorte":1020,"##lique":1021,"##ger":1022,"##lin":1023,"Il":1024,"Anglicisme":1025,"sui":1026,"mot":1027,"##aî":1028,"##ande":1029,"destin":1030,"esprit":1031,"avant":1032,"##cep":1033,"utilisé":1034,"diffé":1035,"utilis":1036,"Zo":1037,"pay":1038,"##matique":1039,"Car":1040,"##ore":1041,"##ous":1042,"form":1043,"porte":1044,"##cc":1045,"hum":1046,"élé":1047,"##xe":1048,"dire":1049,"Zoologie":1050,"##atomie":1051,"##ouvement":1052,"Militaire":1053,"ren":1054,"##oph":1055,"##bre":1056,"##omm":1057,"indi":1058,"##eux":1059,"##acté":1060,"Anatomie":1061,"princip":1062,"vers":1063,"##ages":1064,"op":1065,"ti":1066,"fonction":1067,"##rain":1068,"celui":1069,"Te":1070,"soci":1071,"me":1072,"##lu":1073,"##lli":1074,"##lière":1075,"##gent":1076,"##chite":1077,"##tér":1078,"##ration":1079,"##rence":1080,"Petit":1081,"Géographie":1082,"at":1083,"nouve":1084,"Sy":1085,"mes":1086,"pre":1087,"##ves":1088,"orth":1089,"propre":1090,"##ses":1091,"##mie":1092,"##olog":1093,"##cule":1094,"animaux":1095,"Un":1096,"ba":1097,"non":1098,"##eau":1099,"##aite":1100,"représent":1101,"cr":1102,"##aisse":1103,"##pect":1104,"disp":1105,"terre":1106,"grande":1107,"##roupe":1108,"spéci":1109,"##né":1110,"##ché":1111,"Cuisine":1112,"##iques":1113,"##val":1114,"Partie":1115,"Ab":1116,"fran":1117,"déc":1118,"ri":1119,"aussi":1120,"##éral":1121,"##ges":1122,"App":1123,"mais":1124,"##tiques":1125,"##chitecture":1126,"##chn":1127,"##dent":1128,"voir":1129,"##sig":1130,"vie":1131,"enf":1132,"##iss":1133,"##dique":1134,"##rage":1135,"trav":1136,"off":1137,"##ile":1138,"##ude":1139,"##rib":1140,"résultat":1141,"genre":1142,"port":1143,"##uses":1144,"##umi":1145,"##cité":1146,"sol":1147,"conn":1148,"trou":1149,"couleur":1150,"pra":1151,"après":1152,"gar":1153,"cau":1154,"min":1155,"##onner":1156,"ass":1157,"mati":1158,"situ":1159,"atte":1160,"##ies":1161,"##tenir":1162,"jeu":1163,"##tée":1164,"##ourn":1165,"##ographique":1166,"façon":1167,"##oue":1168,"##ène":1169,"##oiss":1170,"Architecture":1171,"##ille":1172,"##yp":1173,"##duire":1174,"voi":1175,"##oie":1176,"ordre":1177,"homme":1178,"##tout":1179,"##rê":1180,"##oui":1181,"écrit":1182,"##inguis":1183,"différe":1184,"pays":1185,"bas":1186,"ci":1187,"moy":1188,"Politique":1189,"droit":1190,"cont":1191,"contre":1192,"atta":1193,"Rare":1194,"blan":1195,"##mis":1196,"##ances":1197,"divers":1198,"ancien":1199,"can":1200,"fond":1201,"sc":1202,"rép":1203,"grand":1204,"##onymie":1205,"##inguistique":1206,"Le":1207,"##èg":1208,"##sible":1209,"conf":1210,"##ctri":1211,"donné":1212,"point":1213,"dés":1214,"##riculture":1215,"##atiques":1216,"##ode":1217,"##sc":1218,"cui":1219,"##mbre":1220,"Spéci":1221,"feui":1222,"##aleur":1223,"##dition":1224,"##mon":1225,"##ération":1226,"##ébe":1227,"##leurs":1228,"##abli":1229,"##ébec":1230,"##venir":1231,"ni":1232,"##stème":1233,"Québec":1234,"été":1235,"##ple":1236,"ordinaire":1237,"Esp":1238,"Linguistique":1239,"donne":1240,"##ienne":1241,"##élé":1242,"langue":1243,"ve":1244,"##cation":1245,"ai":1246,"##cte":1247,"##yant":1248,"##oig":1249,"##mettre":1250,"Man":1251,"##quité":1252,"##struction":1253,"Al":1254,"Dis":1255,"cl":1256,"fé":1257,"ju":1258,"lors":1259,"La":1260,"inc":1261,"supp":1262,"métal":1263,"métonymie":1264,"##llip":1265,"##face":1266,"##gé":1267,"##aiss":1268,"sup":1269,"opposition":1270,"Agriculture":1271,"cap":1272,"dom":1273,"##rise":1274,"Tr":1275,"##men":1276,"Lit":1277,"##érieur":1278,"##llipse":1279,"cô":1280,"év":1281,"##ntes":1282,"##tenant":1283,"##bles":1284,"##sir":1285,"##agne":1286,"liqui":1287,"##vité":1288,"arb":1289,"arri":1290,"emploie":1291,"vol":1292,"Art":1293,"particulière":1294,"Intransitif":1295,"Can":1296,"##ici":1297,"##lage":1298,"Anti":1299,"po":1300,"##âtre":1301,"##athé":1302,"ann":1303,"##érique":1304,"servant":1305,"cri":1306,"##tant":1307,"##sus":1308,"##dac":1309,"##rir":1310,"##strument":1311,"humain":1312,"siè":1313,"Dans":1314,"##one":1315,"##antité":1316,"##merce":1317,"mouvement":1318,"règ":1319,"##ence":1320,"##formatique":1321,"##érieure":1322,"animal":1323,"né":1324,"##aient":1325,"rec":1326,"premi":1327,"##gie":1328,"caractère":1329,"beau":1330,"mettre":1331,"##ras":1332,"##ppe":1333,"##anger":1334,"appartient":1335,"Fe":1336,"##ate":1337,"surtout":1338,"caracté":1339,"Antiquité":1340,"mauv":1341,"##velo":1342,"ellipse":1343,"Éc":1344,"##tice":1345,"##stant":1346,"arm":1347,"##érer":1348,"gro":1349,"enc":1350,"avoir":1351,"fab":1352,"na":1353,"##tres":1354,"##droit":1355,"env":1356,"leurs":1357,"##iste":1358,"##urer":1359,"préc":1360,"##ieuse":1361,"moyen":1362,"Rendre":1363,"##matiques":1364,"toute":1365,"lit":1366,"déb":1367,"##ssement":1368,"##sy":1369,"chi":1370,"##minist":1371,"public":1372,"Mar":1373,"air":1374,"ont":1375,"tel":1376,"##ud":1377,"##uelle":1378,"##coup":1379,"orthographique":1380,"Cou":1381,"sujet":1382,"était":1383,"##areil":1384,"##dactique":1385,"im":1386,"##ède":1387,"##ffe":1388,"##aître":1389,"Am":1390,"Didactique":1391,"Mettre":1392,"##cours":1393,"prov":1394,"##abi":1395,"ayant":1396,"Être":1397,"concer":1398,"met":1399,"rendre":1400,"trop":1401,"##ication":1402,"##hi":1403,"##tir":1404,"##osoph":1405,"parties":1406,"##agn":1407,"##titude":1408,"nouveau":1409,"Sou":1410,"surface":1411,"##ulg":1412,"appel":1413,"##ange":1414,"##orité":1415,"##ini":1416,"##oles":1417,"##qué":1418,"##oser":1419,"##ilosoph":1420,"##ada":1421,"##téraire":1422,"mer":1423,"##vert":1424,"##ttant":1425,"##tend":1426,"perme":1427,"pi":1428,"##tier":1429,"Habit":1430,"équi":1431,"##ruit":1432,"##éré":1433,"##mple":1434,"##duction":1435,"espèces":1436,"cla":1437,"vis":1438,"##ath":1439,"Petite":1440,"ali":1441,"bâ":1442,"tête":1443,"##oque":1444,"##sive":1445,"suc":1446,"##amment":1447,"##chnique":1448,"##ume":1449,"##tent":1450,"##mique":1451,"ang":1452,"import":1453,"longue":1454,"bi":1455,"fil":1456,"por":1457,"##gue":1458,"##rimer":1459,"franç":1460,"Ent":1461,"cir":1462,"##ied":1463,"##aisant":1464,"matière":1465,"##athématiques":1466,"not":1467,"Biologie":1468,"ces":1469,"fra":1470,"##lie":1471,"senti":1472,"##ssemb":1473,"région":1474,"cré":1475,"emb":1476,"id":1477,"##oû":1478,"servi":1479,"oc":1480,"va":1481,"objets":1482,"Spécialement":1483,"hy":1484,"valeur":1485,"##tile":1486,"##form":1487,"travail":1488,"Lieu":1489,"pièce":1490,"##ète":1491,"##sif":1492,"dét":1493,"plantes":1494,"femme":1495,"mont":1496,"argent":1497,"force":1498,"concerne":1499,"do":1500,"##solu":1501,"##ane":1502,"viole":1503,"For":1504,"Ou":1505,"dur":1506,"relig":1507,"part":1508,"##rend":1509,"ant":1510,"groupe":1511,"##sente":1512,"##nel":1513,"##ins":1514,"##mité":1515,"sec":1516,"cent":1517,"physique":1518,"pied":1519,"soi":1520,"Ét":1521,"permettant":1522,"Sport":1523,"hom":1524,"##vée":1525,"fau":1526,"vue":1527,"##ramm":1528,"but":1529,"oise":1530,"##ateur":1531,"##écu":1532,"##ense":1533,"désig":1534,"place":1535,"effet":1536,"Canada":1537,"Lang":1538,"Mét":1539,"lar":1540,"main":1541,"thé":1542,"chau":1543,"donner":1544,"employ":1545,"ta":1546,"##roi":1547,"##ype":1548,"##rol":1549,"constitu":1550,"##éraldique":1551,"##abillement":1552,"péri":1553,"##aint":1554,"contr":1555,"exer":1556,"##dic":1557,"##égét":1558,"haut":1559,"extr":1560,"##tenu":1561,"Femme":1562,"Sub":1563,"œu":1564,"##cen":1565,"déter":1566,"##ative":1567,"Ma":1568,"Mathématiques":1569,"chez":1570,"Com":1571,"Éle":1572,"plan":1573,"vivant":1574,"colle":1575,"Caractère":1576,"beaucoup":1577,"Comp":1578,"##lis":1579,"##sions":1580,"cal":1581,"faite":1582,"poli":1583,"sus":1584,"éch":1585,"##ect":1586,"##iens":1587,"liquide":1588,"Me":1589,"fort":1590,"vari":1591,"##lace":1592,"##onyme":1593,"Transitif":1594,"##une":1595,"##sement":1596,"##enir":1597,"vit":1598,"##tien":1599,"quantité":1600,"##adie":1601,"indivi":1602,"##sych":1603,"cas":1604,"vé":1605,"##cience":1606,"##ilosophie":1607,"Héraldique":1608,"Sui":1609,"Ter":1610,"mas":1611,"pres":1612,"pier":1613,"sorte":1614,"##dés":1615,"selon":1616,"##ith":1617,"origine":1618,"ordinairement":1619,"gr":1620,"mus":1621,"##aï":1622,"##anisme":1623,"##lat":1624,"##lément":1625,"végét":1626,"ext":1627,"Cha":1628,"distin":1629,"Physique":1630,"##ulgaire":1631,"##vis":1632,"petite":1633,"##oute":1634,"feuilles":1635,"Gran":1636,"mil":1637,"tour":1638,"##uve":1639,"##fé":1640,"##cide":1641,"##dust":1642,"pouvoir":1643,"utilisée":1644,"Littéraire":1645,"##vres":1646,"##teau":1647,"##orter":1648,"considé":1649,"##oisson":1650,"fleurs":1651,"gou":1652,"pat":1653,"##dat":1654,"##air":1655,"##ines":1656,"composé":1657,"destiné":1658,"mesure":1659,"##rom":1660,"##timent":1661,"reg":1662,"accomp":1663,"espèce":1664,"base":1665,"pap":1666,"##aie":1667,"##rui":1668,"##til":1669,"comb":1670,"présent":1671,"Qualité":1672,"Fait":1673,"cer":1674,"##gré":1675,"##êt":1676,"parfois":1677,"##ceau":1678,"courant":1679,"élect":1680,"siècle":1681,"Avec":1682,"Pièce":1683,"bal":1684,"##ession":1685,"##oure":1686,"peau":1687,"particulièrement":1688,"caractéris":1689,"Habitant":1690,"Habillement":1691,"##uellement":1692,"##euble":1693,"##culaire":1694,"jusqu":1695,"principalement":1696,"##rologie":1697,"Cour":1698,"##ste":1699,"##vage":1700,"##tivité":1701,"##cier":1702,"art":1703,"##endant":1704,"Trans":1705,"fl":1706,"##yc":1707,"##est":1708,"Philosophie":1709,"##alisme":1710,"##pide":1711,"hau":1712,"politique":1713,"##deur":1714,"Imp":1715,"Tra":1716,"fois":1717,"##ôt":1718,"##irer":1719,"##cess":1720,"telle":1721,"propri":1722,"occu":1723,"##solument":1724,"mou":1725,"vert":1726,"##ori":1727,"dessus":1728,"manque":1729,"compos":1730,"tous":1731,"hui":1732,"mê":1733,"prendre":1734,"##ection":1735,"établi":1736,"Plus":1737,"Ob":1738,"##inte":1739,"##èce":1740,"##ries":1741,"exc":1742,"ins":1743,"Ancien":1744,"Plante":1745,"Sur":1746,"taille":1747,"##ade":1748,"##ulier":1749,"##jec":1750,"sex":1751,"Rep":1752,"peuple":1753,"administ":1754,"Technique":1755,"bar":1756,"musique":1757,"##vor":1758,"ind":1759,"trois":1760,"Inter":1761,"détermin":1762,"plante":1763,"remp":1764,"##ronique":1765,"##ilité":1766,"faci":1767,"éléments":1768,"bru":1769,"##ni":1770,"##loi":1771,"##dit":1772,"##pes":1773,"dég":1774,"##ables":1775,"##acées":1776,"##ttes":1777,"fruit":1778,"##gique":1779,"endroit":1780,"##gement":1781,"##ctes":1782,"cheval":1783,"général":1784,"culture":1785,"Jeu":1786,"elles":1787,"feu":1788,"rom":1789,"tiss":1790,"##action":1791,"devant":1792,"##cun":1793,"système":1794,"organis":1795,"Li":1796,"##och":1797,"##cent":1798,"##mps":1799,"##éter":1800,"ville":1801,"autorité":1802,"entrep":1803,"##inture":1804,"##veloppe":1805,"fabri":1806,"ém":1807,"##atique":1808,"##od":1809,"##esti":1810,"passer":1811,"consid":1812,"originaire":1813,"aide":1814,"joue":1815,"piè":1816,"tient":1817,"##nonyme":1818,"##ém":1819,"eng":1820,"##cune":1821,"quali":1822,"##ager":1823,"##vision":1824,"cause":1825,"lumi":1826,"##eur":1827,"##quant":1828,"Absolument":1829,"encore":1830,"Langue":1831,"doit":1832,"pens":1833,"sing":1834,"##vation":1835,"##sité":1836,"##las":1837,"Instrument":1838,"march":1839,"cours":1840,"Emp":1841,"Vulgaire":1842,"vête":1843,"##mmes":1844,"##yle":1845,"##00":1846,"##lise":1847,"##térie":1848,"ils":1849,"##ctrine":1850,"Ad":1851,"Mal":1852,"##canique":1853,"##pper":1854,"##asser":1855,"##olution":1856,"pratique":1857,"inte":1858,"mâ":1859,"tri":1860,"##az":1861,"##ption":1862,"##orm":1863,"quelcon":1864,"##lève":1865,"blanc":1866,"notamment":1867,"19":1868,"##arence":1869,"##acité":1870,"##ls":1871,"##ourd":1872,"conc":1873,"Géologie":1874,"Manière":1875,"Pré":1876,"somme":1877,"contient":1878,"quand":1879,"##onnement":1880,"##ette":1881,"Homme":1882,"Su":1883,"af":1884,"aig":1885,"mu":1886,"sign":1887,"##ctif":1888,"##ément":1889,"##jout":1890,"##aisir":1891,"##téri":1892,"##inion":1893,"rouge":1894,"##ologique":1895,"fémin":1896,"##aissance":1897,"men":1898,"rac":1899,"soli":1900,"##nant":1901,"##elle":1902,"##yth":1903,"oiseaux":1904,"tran":1905,"##éd":1906,"##êche":1907,"##nelle":1908,"rem":1909,"comporte":1910,"Informatique":1911,"transport":1912,"jou":1913,"##ber":1914,"##omét":1915,"qua":1916,"serv":1917,"agit":1918,"morale":1919,"##ntion":1920,"##duite":1921,"côté":1922,"##oût":1923,"milieu":1924,"sp":1925,"##teurs":1926,"##réable":1927,"monde":1928,"petits":1929,"pâ":1930,"pén":1931,"sang":1932,"##vire":1933,"##ières":1934,"vent":1935,"quelconque":1936,"bon":1937,"bri":1938,"fig":1939,"tant":1940,"##nith":1941,"##ug":1942,"##rier":1943,"présente":1944,"##icie":1945,"ouvrage":1946,"Appareil":1947,"pièces":1948,"Af":1949,"Ast":1950,"as":1951,"cro":1952,"##sée":1953,"##insi":1954,"##rog":1955,"déli":1956,"qualité":1957,"Che":1958,"coup":1959,"Espèce":1960,"Disp":1961,"hommes":1962,"##nithologie":1963,"loi":1964,"Ég":1965,"##étique":1966,"##vrir":1967,"##veau":1968,"reç":1969,"##serie":1970,"##forme":1971,"Ornithologie":1972,"Commerce":1973,"##uil":1974,"ceux":1975,"##ronomie":1976,"##tivement":1977,"mots":1978,"opinion":1979,"mauvaise":1980,"Gramm":1981,"ainsi":1982,"télé":1983,"##rale":1984,"##ignes":1985,"exécu":1986,"discours":1987,"marque":1988,"chev":1989,"légère":1990,"Grammaire":1991,"Bel":1992,"##co":1993,"arti":1994,"expri":1995,"charge":1996,"##ribu":1997,"diverses":1998,"arbres":1999,"##dustrie":2000,"Les":2001,"bran":2002,"mis":2003,"mag":2004,"##uy":2005,"##ulation":2006,"##nent":2007,"##illes":2008,"trait":2009,"éto":2010,"terme":2011,"tradition":2012,"société":2013,"Dont":2014,"cre":2015,"fré":2016,"her":2017,"mort":2018,"nour":2019,"##fier":2020,"##net":2021,"##cevoir":2022,"##quée":2023,"certaine":2024,"espace":2025,"fix":2026,"memb":2027,"différentes":2028,"##stances":2029,"tex":2030,"phy":2031,"quatre":2032,"Genre":2033,"Vi":2034,"bout":2035,"bord":2036,"##ust":2037,"##indre":2038,"exe":2039,"##ducation":2040,"##oyer":2041,"ancienne":2042,"Po":2043,"br":2044,"der":2045,"sal":2046,"relatif":2047,"prépar":2048,"toutes":2049,"symb":2050,"profession":2051,"représentant":2052,"chimique":2053,"aliment":2054,"Afrique":2055,"Belgique":2056,"Rég":2057,"ban":2058,"bonne":2059,"hi":2060,"prend":2061,"##éro":2062,"##veux":2063,"conser":2064,"recou":2065,"proté":2066,"inse":2067,"rapide":2068,"Déf":2069,"##oyen":2070,"règles":2071,"Tout":2072,"assemb":2073,"gé":2074,"grain":2075,"pui":2076,"##bes":2077,"uni":2078,"##orer":2079,"##iser":2080,"rappro":2081,"expression":2082,"Prop":2083,"chaque":2084,"avait":2085,"prati":2086,"nécess":2087,"jour":2088,"sor":2089,"##ament":2090,"##fs":2091,"ense":2092,"apparence":2093,"intér":2094,"Métrologie":2095,"cy":2096,"##oï":2097,"##née":2098,"##urgie":2099,"##orique":2100,"##resse":2101,"##eut":2102,"chargé":2103,"##uerre":2104,"Synonyme":2105,"Membre":2106,"fruits":2107,"singulier":2108,"four":2109,"pal":2110,"sac":2111,"##cri":2112,"##sme":2113,"##xy":2114,"##onde":2115,"##arde":2116,"##chant":2117,"##cit":2118,"Per":2119,"fai":2120,"log":2121,"trouve":2122,"travers":2123,"service":2124,"Cor":2125,"Une":2126,"us":2127,"##resp":2128,"##astique":2129,"ret":2130,"##ill":2131,"réun":2132,"rare":2133,"##ssent":2134,"suivant":2135,"situation":2136,"afin":2137,"Toute":2138,"cin":2139,"faisant":2140,"mari":2141,"militaire":2142,"no":2143,"##amb":2144,"##cée":2145,"##arm":2146,"exces":2147,"##aisser":2148,"souff":2149,"all":2150,"##ignité":2151,"##ception":2152,"considéré":2153,"Donner":2154,"nég":2155,"pendant":2156,"voire":2157,"##vient":2158,"dém":2159,"##onnerie":2160,"autour":2161,"alors":2162,"##aliste":2163,"sépar":2164,"bâtiment":2165,"large":2166,"##roite":2167,"marchand":2168,"bat":2169,"pol":2170,"sort":2171,"véri":2172,"##rait":2173,"##bi":2174,"##II":2175,"##rin":2176,"contenant":2177,"##euse":2178,"compte":2179,"##ositif":2180,"sentiment":2181,"pierre":2182,"font":2183,"##cles":2184,"##jur":2185,"##este":2186,"##téra":2187,"##chée":2188,"substance":2189,"Avoir":2190,"Jus":2191,"Mor":2192,"Né":2193,"On":2194,"assi":2195,"iss":2196,"nation":2197,"rend":2198,"##mée":2199,"religion":2200,"##dité":2201,"Celle":2202,"publique":2203,"justice":2204,"envir":2205,"extrême":2206,"ir":2207,"ligne":2208,"étend":2209,"##gment":2210,"##onné":2211,"corresp":2212,"prix":2213,"terrain":2214,"consiste":2215,"voix":2216,"œuvre":2217,"gouver":2218,"fréque":2219,"jau":2220,"Éducation":2221,"##romp":2222,"##lue":2223,"extérie":2224,"##dio":2225,"Chose":2226,"respect":2227,"Construction":2228,"suite":2229,"élément":2230,"Amérique":2231,"is":2232,"##puis":2233,"##anse":2234,"##ancer":2235,"##let":2236,"##orie":2237,"##oile":2238,"parlée":2239,"##chine":2240,"##mine":2241,"prog":2242,"##vention":2243,"femmes":2244,"diffici":2245,"ouvert":2246,"Système":2247,"Fin":2248,"Mouvement":2249,"Prendre":2250,"sau":2251,"ten":2252,"##av":2253,"##cs":2254,"##œur":2255,"##uri":2256,"##lex":2257,"parle":2258,"commerce":2259,"manif":2260,"autrui":2261,"##culté":2262,"langage":2263,"lorsqu":2264,"supérieure":2265,"##rant":2266,"##estion":2267,"cher":2268,"##cipe":2269,"partir":2270,"Arme":2271,"activité":2272,"poss":2273,"Substance":2274,"extré":2275,"Objet":2276,"Très":2277,"table":2278,"##udi":2279,"##sie":2280,"##oncer":2281,"##oiries":2282,"parler":2283,"##iles":2284,"quelques":2285,"##ésie":2286,"##ifique":2287,"style":2288,"##hicule":2289,"français":2290,"ven":2291,"##ime":2292,"##vin":2293,"##tible":2294,"##rages":2295,"spécialement":2296,"navire":2297,"##jectif":2298,"##armac":2299,"##gée":2300,"##jours":2301,"##èle":2302,"depuis":2303,"##ises":2304,"seul":2305,"##ains":2306,"##aît":2307,"Ouv":2308,"individ":2309,"pensée":2310,"Mo":2311,"Meuble":2312,"##usion":2313,"##oul":2314,"appartenant":2315,"armoiries":2316,"idée":2317,"féminin":2318,"har":2319,"maison":2320,"ple":2321,"raison":2322,"voy":2323,"##ire":2324,"##ible":2325,"##âce":2326,"##èse":2327,"##rat":2328,"rési":2329,"arrê":2330,"vive":2331,"acte":2332,"moment":2333,"direction":2334,"##ouil":2335,"Écologie":2336,"française":2337,"tissu":2338,"Ac":2339,"céré":2340,"tomb":2341,"type":2342,"Élément":2343,"él":2344,"##gu":2345,"##ester":2346,"##oix":2347,"##ric":2348,"##rière":2349,"##auté":2350,"procé":2351,"Chasse":2352,"##obile":2353,"Exp":2354,"lumière":2355,"Min":2356,"mun":2357,"nu":2358,"construction":2359,"décou":2360,"impression":2361,"différents":2362,"##jouter":2363,"exemple":2364,"gri":2365,"gaz":2366,"##ast":2367,"##ôle":2368,"##iller":2369,"informatique":2370,"artif":2371,"##chement":2372,"couvert":2373,"consistant":2374,"agir":2375,"##ométrie":2376,"Ne":2377,"Thé":2378,"dignité":2379,"guerre":2380,"norm":2381,"val":2382,"dessin":2383,"lett":2384,"dén":2385,"##tenue":2386,"compl":2387,"autom":2388,"##umes":2389,"toujours":2390,"langues":2391,"bouche":2392,"##atholi":2393,"entreprise":2394,"Justice":2395,"Co":2396,"St":2397,"position":2398,"th":2399,"##gn":2400,"##rent":2401,"##lir":2402,"autrefois":2403,"écri":2404,"##rouver":2405,"##conomie":2406,"garn":2407,"premier":2408,"mauvais":2409,"religieux":2410,"Élevage":2411,"Moyen":2412,"maint":2413,"rien":2414,"##lor":2415,"##dant":2416,"degré":2417,"##tic":2418,"##lam":2419,"réf":2420,"##acle":2421,"intérieur":2422,"permet":2423,"mép":2424,"ferme":2425,"Rép":2426,"##obi":2427,"porter":2428,"arrière":2429,"première":2430,"##formation":2431,"mascu":2432,"aspect":2433,"bras":2434,"he":2435,"méri":2436,"noir":2437,"num":2438,"##na":2439,"##êcher":2440,"##onc":2441,"instrument":2442,"##alent":2443,"oblig":2444,"##iciel":2445,"court":2446,"##arder":2447,"Dép":2448,"enfant":2449,"##férence":2450,"papier":2451,"étoffe":2452,"##jurieux":2453,"hors":2454,"nord":2455,"vin":2456,"voie":2457,"##lité":2458,"##lacer":2459,"recher":2460,"réc":2461,"artis":2462,"##mbla":2463,"terres":2464,"emploi":2465,"repro":2466,"naturel":2467,"Suisse":2468,"grâce":2469,"bour":2470,"##œu":2471,"##ret":2472,"##sence":2473,"##oint":2474,"descen":2475,"##stal":2476,"##rés":2477,"contin":2478,"déri":2479,"cet":2480,"##onneur":2481,"tromp":2482,"succ":2483,"propos":2484,"aller":2485,"favor":2486,"##fice":2487,"##ochimie":2488,"Des":2489,"soie":2490,"évé":2491,"##adi":2492,"##sant":2493,"##ètre":2494,"##airement":2495,"manières":2496,"Mécanique":2497,"pris":2498,"##arent":2499,"maladie":2500,"##lations":2501,"également":2502,"douce":2503,"18":2504,"Fa":2505,"cé":2506,"gu":2507,"goût":2508,"rang":2509,"sole":2510,"##tal":2511,"##ope":2512,"##enser":2513,"const":2514,"##éné":2515,"prép":2516,"##istre":2517,"servent":2518,"stru":2519,"petites":2520,"##mission":2521,"supérieur":2522,"employé":2523,"symbole":2524,"lettres":2525,"masculin":2526,"Nord":2527,"gen":2528,"imm":2529,"##ènes":2530,"##ît":2531,"##omique":2532,"##alisé":2533,"##oiture":2534,"##lange":2535,"influe":2536,"destinée":2537,"blanche":2538,"mêmes":2539,"Astronomie":2540,"correspond":2541,"Ser":2542,"psych":2543,"rais":2544,"ton":2545,"Économie":2546,"##ox":2547,"dem":2548,"##quelles":2549,"##chet":2550,"dure":2551,"##quante":2552,"##osph":2553,"étran":2554,"Injurieux":2555,"métier":2556,"rapporte":2557,"camp":2558,"moral":2559,"champ":2560,"culti":2561,"Cont":2562,"Que":2563,"##ige":2564,"##ortion":2565,"production":2566,"##énom":2567,"actions":2568,"fille":2569,"##médi":2570,"naturelle":2571,"ouvrages":2572,"Tex":2573,"située":2574,"visage":2575,"idées":2576,"propriété":2577,"comportement":2578,"chevaux":2579,"Finance":2580,"Ca":2581,"Psych":2582,"Rh":2583,"lo":2584,"##ze":2585,"##çonnerie":2586,"##ailles":2587,"##user":2588,"ref":2589,"##lesse":2590,"obser":2591,"##atis":2592,"éclat":2593,"##quels":2594,"États":2595,"Organ":2596,"##tisme":2597,"soldat":2598,"aime":2599,"longueur":2600,"sentiments":2601,"acide":2602,"mur":2603,"veut":2604,"âme":2605,"éner":2606,"##ome":2607,"##cées":2608,"##ds":2609,"##yn":2610,"##ueur":2611,"##onnaie":2612,"super":2613,"étant":2614,"utilise":2615,"phra":2616,"##endance":2617,"cheveux":2618,"affec":2619,"organisme":2620,"formant":2621,"enfants":2622,"hyper":2623,"Courant":2624,"Jeune":2625,"Minéral":2626,"Do":2627,"Pour":2628,"Sé":2629,"XV":2630,"gre":2631,"pop":2632,"ro":2633,"##anté":2634,"##isse":2635,"##iter":2636,"##aines":2637,"##miner":2638,"Industrie":2639,"##ographe":2640,"phot":2641,"Géométrie":2642,"simple":2643,"formule":2644,"tire":2645,"##ologisme":2646,"scient":2647,"domaine":2648,"collectif":2649,"marchandises":2650,"Néologisme":2651,"possède":2652,"Eur":2653,"Groupe":2654,"Télé":2655,"près":2656,"##nth":2657,"##oires":2658,"##ourner":2659,"change":2660,"commer":2661,"obtenir":2662,"##ssant":2663,"chemin":2664,"commune":2665,"Pharmac":2666,"froi":2667,"défini":2668,"habitants":2669,"imag":2670,"Trav":2671,"Assemb":2672,"Mot":2673,"Op":2674,"cœur":2675,"loc":2676,"laisse":2677,"sen":2678,"##tation":2679,"##ent":2680,"##éographie":2681,"##tirer":2682,"##ogue":2683,"##mif":2684,"##mise":2685,"sembla":2686,"déci":2687,"formé":2688,"##verse":2689,"livre":2690,"médic":2691,"alco":2692,"affaire":2693,"Biochimie":2694,"élevé":2695,"##umeur":2696,"composée":2697,"Aut":2698,"Acc":2699,"Sens":2700,"dos":2701,"gens":2702,"Ép":2703,"##oquer":2704,"##vil":2705,"##tié":2706,"##aig":2707,"##iné":2708,"##olé":2709,"indé":2710,"appareil":2711,"Char":2712,"##verte":2713,"Indi":2714,"agréable":2715,"Soci":2716,"fourn":2717,"honneur":2718,"mi":2719,"pression":2720,"##cal":2721,"##urée":2722,"##urité":2723,"##lever":2724,"chré":2725,"##cite":2726,"étude":2727,"compar":2728,"écon":2729,"mod":2730,"##ailler":2731,"##ammif":2732,"abs":2733,"##cipient":2734,"accord":2735,"biens":2736,"classe":2737,"Morceau":2738,"jaune":2739,"bro":2740,"humi":2741,"os":2742,"prê":2743,"##ase":2744,"##comm":2745,"##lure":2746,"##ones":2747,"##liers":2748,"##ral":2749,"développe":2750,"Parti":2751,"##lési":2752,"##apon":2753,"##cclési":2754,"cuir":2755,"##rimerie":2756,"période":2757,"##aïsme":2758,"excessive":2759,"difficile":2760,"At":2761,"Dieu":2762,"aj":2763,"gal":2764,"pron":2765,"##ice":2766,"##nation":2767,"##bilité":2768,"##îne":2769,"##Ie":2770,"sexe":2771,"peine":2772,"mode":2773,"territ":2774,"##ock":2775,"ress":2776,"points":2777,"Réun":2778,"produits":2779,"disposition":2780,"attention":2781,"niveau":2782,"grossi":2783,"Grande":2784,"##oriz":2785,"Internet":2786,"vêtement":2787,"asse":2788,"poisson":2789,"rig":2790,"vend":2791,"##ualité":2792,"##tianisme":2793,"##uille":2794,"##art":2795,"##ueux":2796,"##leu":2797,"##uste":2798,"##ogéographie":2799,"rév":2800,"##sses":2801,"caract":2802,"médi":2803,"##lication":2804,"affaires":2805,"effort":2806,"color":2807,"civi":2808,"années":2809,"qualités":2810,"caractères":2811,"Jeux":2812,"Personn":2813,"esc":2814,"puis":2815,"soin":2816,"##app":2817,"##iti":2818,"##stitu":2819,"##ège":2820,"##uite":2821,"##melle":2822,"##nements":2823,"##inage":2824,"conj":2825,"déj":2826,"##cules":2827,"##diction":2828,"viande":2829,"Ind":2830,"Désig":2831,"##ristianisme":2832,"Biogéographie":2833,"effect":2834,"humaine":2835,"Unité":2836,"armée":2837,"susp":2838,"Transport":2839,"jouer":2840,"##icielle":2841,"membres":2842,"faible":2843,"bruit":2844,"figuré":2845,"##otion":2846,"##cteur":2847,"##jourd":2848,"unité":2849,"##neau":2850,"##ension":2851,"##llect":2852,"proc":2853,"produire":2854,"réser":2855,"Endroit":2856,"passe":2857,"##lées":2858,"##rup":2859,"chef":2860,"époque":2861,"fonctions":2862,"preuve":2863,"feuille":2864,"règle":2865,"nourrit":2866,"vérité":2867,"éloig":2868,"Textile":2869,"Psychologie":2870,"scientifique":2871,"Ajouter":2872,"ecclési":2873,"oxy":2874,"pain":2875,"sour":2876,"volu":2877,"##ué":2878,"##cin":2879,"##hors":2880,"##ll":2881,"##bole":2882,"##orde":2883,"paroles":2884,"##veur":2885,"##all":2886,"##endu":2887,"##issement":2888,"Enf":2889,"##aces":2890,"sud":2891,"Anim":2892,"libre":2893,"désag":2894,"doctrine":2895,"constitué":2896,"branches":2897,"dern":2898,"irré":2899,"mépris":2900,"Gén":2901,"ast":2902,"mul":2903,"occ":2904,"vaisse":2905,"##ach":2906,"##rai":2907,"##itre":2908,"##fication":2909,"##éen":2910,"##once":2911,"deme":2912,"dehors":2913,"##tine":2914,"##anie":2915,"##oisi":2916,"##rist":2917,"parf":2918,"##rable":2919,"partis":2920,"##ligence":2921,"verre":2922,"##tériel":2923,"Représent":2924,"intérêt":2925,"hyperbole":2926,"cra":2927,"horiz":2928,"pé":2929,"rai":2930,"##tter":2931,"##êts":2932,"##œurs":2933,"##lit":2934,"##oule":2935,"##tées":2936,"queue":2937,"##itaire":2938,"divis":2939,"grandes":2940,"méth":2941,"possé":2942,"église":2943,"##tisan":2944,"##ceptible":2945,"individu":2946,"pattes":2947,"électrique":2948,"Ancienne":2949,"musi":2950,"mérite":2951,"commerci":2952,"Men":2953,"Son":2954,"ais":2955,"droite":2956,"vig":2957,"##asi":2958,"##nd":2959,"##mment":2960,"##tition":2961,"##uelles":2962,"##ignement":2963,"plaisir":2964,"reven":2965,"##ditions":2966,"##érable":2967,"Christianisme":2968,"mob":2969,"impri":2970,"##ander":2971,"resse":2972,"aliments":2973,"circon":2974,"Grand":2975,"Maladie":2976,"intellect":2977,"figure":2978,"##térature":2979,"individus":2980,"compléter":2981,"Minéralogie":2982,"Ass":2983,"Ironique":2984,"Quel":2985,"anti":2986,"dra":2987,"rée":2988,"tub":2989,"##alier":2990,"##ib":2991,"##ute":2992,"##cus":2993,"##loit":2994,"##onie":2995,"##tives":2996,"##omologie":2997,"chant":2998,"##citer":2999,"détr":3000,"dimen":3001,"trai":3002,"quelquefois":3003,"cartes":3004,"matéri":3005,"fixe":3006,"post":3007,"hyd":3008,"pieds":3009,"théâtre":3010,"organisation":3011,"rapprocher":3012,"Doctrine":3013,"ressemb":3014,"Rés":3015,"Sud":3016,"danger":3017,"essent":3018,"mat":3019,"ner":3020,"suit":3021,"toile":3022,"##ton":3023,"##lla":3024,"##lot":3025,"##vu":3026,"##onge":3027,"##uire":3028,"##arch":3029,"##téor":3030,"##char":3031,"##tence":3032,"prob":3033,"inv":3034,"forte":3035,"appro":3036,"##ième":3037,"##ications":3038,"lib":3039,"adjectif":3040,"phénom":3041,"##oyau":3042,"tempéra":3043,"oppos":3044,"habitude":3045,"connaître":3046,"Entomologie":3047,"Établi":3048,"véhicule":3049,"solide":3050,"physi":3051,"Région":3052,"protéger":3053,"extrémité":3054,"Att":3055,"Acte":3056,"Boisson":3057,"bo":3058,"lu":3059,"lait":3060,"nuit":3061,"spect":3062,"tre":3063,"tot":3064,"Âge":3065,"##ite":3066,"##guer":3067,"##tég":3068,"##irurgie":3069,"dist":3070,"org":3071,"appli":3072,"peup":3073,"couleurs":3074,"modi":3075,"marquer":3076,"exprimer":3077,"boiss":3078,"avantage":3079,"formée":3080,"reconn":3081,"succes":3082,"désigne":3083,"cherche":3084,"influence":3085,"Réunion":3086,"fleur":3087,"net":3088,"âge":3089,"##asion":3090,"##naire":3091,"##udes":3092,"##cré":3093,"##étés":3094,"##mét":3095,"##âche":3096,"##onté":3097,"##urant":3098,"châ":3099,"##cident":3100,"exa":3101,"proche":3102,"insp":3103,"réaction":3104,"arbre":3105,"fortement":3106,"peuvent":3107,"données":3108,"##cédé":3109,"maladi":3110,"inférieure":3111,"améri":3112,"Forme":3113,"religieuse":3114,"végétaux":3115,"Administ":3116,"exprime":3117,"cylin":3118,"Pre":3119,"Sol":3120,"Science":3121,"Type":3122,"cru":3123,"eux":3124,"fri":3125,"tor":3126,"tenir":3127,"yeux":3128,"én":3129,"##erm":3130,"##reur":3131,"##uie":3132,"##oise":3133,"aucune":3134,"recevoir":3135,"armes":3136,"##cessus":3137,"manquante":3138,"ray":3139,"##renant":3140,"##opt":3141,"face":3142,"plat":3143,"##êtement":3144,"donnée":3145,"Peinture":3146,"pouvant":3147,"simp":3148,"rivi":3149,"matières":3150,"gros":3151,"##inition":3152,"désigner":3153,"exerci":3154,"vêtements":3155,"texte":3156,"muni":3157,"ailes":3158,"lin":3159,"pur":3160,"vale":3161,"éb":3162,"êtres":3163,"##Xe":3164,"##onction":3165,"##ination":3166,"chair":3167,"##llem":3168,"##rées":3169,"cond":3170,"seule":3171,"formes":3172,"suff":3173,"##pent":3174,"viv":3175,"générale":3176,"ment":3177,"régions":3178,"Église":3179,"Définition":3180,"Armement":3181,"Europe":3182,"Désigne":3183,"Fig":3184,"Mes":3185,"Nouve":3186,"Pas":3187,"er":3188,"fine":3189,"lou":3190,"laine":3191,"moi":3192,"science":3193,"tab":3194,"tirer":3195,"vient":3196,"##lar":3197,"##dence":3198,"##ître":3199,"##êtes":3200,"##çant":3201,"##oux":3202,"##sier":3203,"dess":3204,"##celle":3205,"##cence":3206,"auquel":3207,"condition":3208,"exac":3209,"##att":3210,"##tendre":3211,"##agé":3212,"##étorique":3213,"##vités":3214,"Chirurgie":3215,"sons":3216,"##ouvements":3217,"mém":3218,"##ards":3219,"pointe":3220,"jeunes":3221,"administra":3222,"énergie":3223,"Cap":3224,"Fran":3225,"Gar":3226,"Gro":3227,"cit":3228,"juri":3229,"lignes":3230,"##rète":3231,"##odes":3232,"##fique":3233,"##bon":3234,"dev":3235,"##arras":3236,"paral":3237,"aucun":3238,"chien":3239,"rev":3240,"relie":3241,"souver":3242,"passage":3243,"applique":3244,"Inf":3245,"empêcher":3246,"repos":3247,"Prog":3248,"Phy":3249,"chargée":3250,"cell":3251,"##alisation":3252,"résulte":3253,"organe":3254,"tige":3255,"sociale":3256,"associ":3257,"appelé":3258,"détail":3259,"second":3260,"exerce":3261,"extra":3262,"haute":3263,"administration":3264,"cérémon":3265,"déjà":3266,"digne":3267,"gau":3268,"hyp":3269,"mic":3270,"meuble":3271,"tend":3272,"tourn":3273,"édi":3274,"##vale":3275,"##vés":3276,"##artement":3277,"##rice":3278,"plut":3279,"##tifs":3280,"former":3281,"##elligence":3282,"étaient":3283,"passion":3284,"##lég":3285,"entour":3286,"##mbour":3287,"##érien":3288,"reste":3289,"longues":3290,"régu":3291,"titre":3292,"droits":3293,"sucre":3294,"Terre":3295,"Terme":3296,"Imprimerie":3297,"servir":3298,"Dispositif":3299,"Elle":3300,"Is":3301,"hé":3302,"sauv":3303,"##uiserie":3304,"##ouse":3305,"##sibilité":3306,"##dement":3307,"##isation":3308,"consé":3309,"##mier":3310,"seu":3311,"sent":3312,"##uler":3313,"##aliser":3314,"arme":3315,"##abilité":3316,"##étaire":3317,"##ssance":3318,"proposition":3319,"matériel":3320,"##oblesse":3321,"orthographe":3322,"décor":3323,"Soutenu":3324,"remar":3325,"nécessaire":3326,"gouvernement":3327,"extérieur":3328,"plein":3329,"numéro":3330,"recherche":3331,"structure":3332,"##téorologie":3333,"Off":3334,"actes":3335,"##ame":3336,"##sti":3337,"##do":3338,"##ueil":3339,"parole":3340,"##iner":3341,"chasse":3342,"conte":3343,"conduite":3344,"##lamm":3345,"##ats":3346,"plaisant":3347,"comesti":3348,"rela":3349,"projet":3350,"écl":3351,"##osité":3352,"##ciences":3353,"placé":3354,"ressemble":3355,"Déb":3356,"diffi":3357,"atteint":3358,"métallique":3359,"liquides":3360,"importance":3361,"vertu":3362,"Asie":3363,"Bou":3364,"Dim":3365,"bes":3366,"glace":3367,"santé":3368,"tém":3369,"##ah":3370,"##quit":3371,"##xualité":3372,"##ondre":3373,"##stes":3374,"##ster":3375,"##atoire":3376,"dévelo":3377,"ans":3378,"Arch":3379,"composition":3380,"vif":3381,"cordes":3382,"Quantité":3383,"Senti":3384,"Météorologie":3385,"abond":3386,"##usement":3387,"machine":3388,"substances":3389,"verbe":3390,"principe":3391,"avance":3392,"##ousser":3393,"portent":3394,"opéra":3395,"social":3396,"##ouille":3397,"contra":3398,"domes":3399,"arriver":3400,"##icier":3401,"##rammation":3402,"presque":3403,"facilement":3404,"##ythologie":3405,"tromper":3406,"phrase":3407,"territoire":3408,"horizont":3409,"maladies":3410,"plutôt":3411,"..":3412,"Cal":3413,"Ren":3414,"Sans":3415,"clo":3416,"catholi":3417,"mœurs":3418,"mouvements":3419,"##ainte":3420,"##usque":3421,"Ret":3422,"entrée":3423,"##loy":3424,"peinture":3425,"techn":3426,"perdu":3427,"##utation":3428,"Produit":3429,"Extr":3430,"utilisant":3431,"trouver":3432,"jeune":3433,"contact":3434,"Espace":3435,"##iennent":3436,"support":3437,"année":3438,"violence":3439,"Suite":3440,"occupe":3441,"romaine":3442,"spor":3443,"cinq":3444,"organique":3445,"Administration":3446,"valeurs":3447,"Titre":3448,"bra":3449,"fla":3450,"mise":3451,"sin":3452,"spi":3453,"tir":3454,"trib":3455,"typ":3456,"évent":3457,"##ape":3458,"##ades":3459,"##cre":3460,"##lés":3461,"##tiles":3462,"##ceaux":3463,"lesquelles":3464,"##autique":3465,"conven":3466,"##culation":3467,"##illon":3468,"rét":3469,"##onnée":3470,"dimin":3471,"soutenir":3472,"##oindre":3473,"malh":3474,"##contre":3475,"ordin":3476,"habituellement":3477,"communauté":3478,"profit":3479,"Devenir":3480,"suivi":3481,"représenté":3482,"dispos":3483,"travaille":3484,"portant":3485,"connaissance":3486,"canon":3487,"vente":3488,"humains":3489,"provoque":3490,"Maçonnerie":3491,"vitesse":3492,"allong":3493,"ouverture":3494,"Ouvrage":3495,"succès":3496,"Personnage":3497,"demeure":3498,"seulement":3499,"Sentiment":3500,"Long":3501,"fais":3502,"jamb":3503,"laisser":3504,"masse":3505,"##bé":3506,"##dor":3507,"##ym":3508,"##yse":3509,"##reg":3510,"##arre":3511,"##line":3512,"conforme":3513,"semble":3514,"dév":3515,"Partisan":3516,"ornement":3517,"propres":3518,"##ardinage":3519,"poils":3520,"chaîne":3521,"posses":3522,"nombreuses":3523,"renf":3524,"##lusion":3525,"garde":3526,"écriture":3527,"attache":3528,"supporter":3529,"vivants":3530,"combat":3531,"excès":3532,"étendue":3533,"occasion":3534,"Dimin":3535,"17":3536,"Log":3537,"Utili":3538,"avi":3539,"has":3540,"pin":3541,"##ax":3542,"##raine":3543,"##ttre":3544,"##ôme":3545,"##ône":3546,"##liques":3547,"##omobile":3548,"envers":3549,"exist":3550,"##mite":3551,"répé":3552,"divi":3553,"divin":3554,"##outure":3555,"compagn":3556,"préci":3557,"obsc":3558,"termes":3559,"##former":3560,"repas":3561,"plate":3562,"poids":3563,"coqui":3564,"poudre":3565,"contraire":3566,"##tienne":3567,"pierres":3568,"considérée":3569,"occup":3570,"huile":3571,"Chemin":3572,"sortir":3573,"##obilier":3574,"genres":3575,"demande":3576,"grec":3577,"froid":3578,"assez":3579,"mémoire":3580,"Comm":3581,"Dég":3582,"Fruit":3583,"Passer":3584,"Si":3585,"bec":3586,"blas":3587,"bleu":3588,"cat":3589,"cot":3590,"eu":3591,"eur":3592,"prom":3593,"rus":3594,"signe":3595,"tap":3596,"voiture":3597,"éche":3598,"##ae":3599,"##cisme":3600,"##die":3601,"##pte":3602,"##por":3603,"##vées":3604,"den":3605,"##oiff":3606,"desse":3607,"##ramme":3608,"lesquels":3609,"##résente":3610,"##resser":3611,"délic":3612,"##mpe":3613,"##oth":3614,"rése":3615,"Rec":3616,"##ulm":3617,"forment":3618,"orient":3619,"##arité":3620,"##ruption":3621,"##miné":3622,"livres":3623,"ferment":3624,"internation":3625,"garant":3626,"fondé":3627,"clair":3628,"fabrication":3629,"signif":3630,"insectes":3631,"usages":3632,"Colle":3633,"soldats":3634,"vigueur":3635,"Figure":3636,"micro":3637,"Pou":3638,"XI":3639,"eaux":3640,"foi":3641,"faut":3642,"jet":3643,"japon":3644,"pan":3645,"##aque":3646,"##ty":3647,"##nom":3648,"##nir":3649,"##ules":3650,"##car":3651,"##cie":3652,"##sser":3653,"##lais":3654,"##ller":3655,"##don":3656,"##pt":3657,"##çons":3658,"##arg":3659,"augment":3660,"##roph":3661,"##isc":3662,"conditions":3663,"##ult":3664,"##vier":3665,"manche":3666,"compé":3667,"coups":3668,"##icale":3669,"représente":3670,"catég":3671,"verna":3672,"membre":3673,"##oissons":3674,"##ctricité":3675,"jugement":3676,"capit":3677,"chiff":3678,"chauss":3679,"##lisme":3680,"police":3681,"hauteur":3682,"assemblée":3683,"##cription":3684,"Aff":3685,"Pâ":3686,"Peu":3687,"cuisine":3688,"fu":3689,"journ":3690,"monnaie":3691,"roi":3692,"éli":3693,"œil":3694,"##nie":3695,"##cour":3696,"##clé":3697,"##long":3698,"##mener":3699,"##ouer":3700,"sein":3701,"question":3702,"##ortant":3703,"entier":3704,"obst":3705,"couvre":3706,"Sexualité":3707,"intro":3708,"école":3709,"##ombrable":3710,"mélange":3711,"alter":3712,"département":3713,"vertic":3714,"attrib":3715,"moyens":3716,"volont":3717,"précède":3718,"##lacement":3719,"musulm":3720,"##loitation":3721,"Régionalisme":3722,"tabac":3723,"dessous":3724,"Ces":3725,"Eth":3726,"Mauv":3727,"Nos":3728,"Pay":3729,"Trou":3730,"aim":3731,"doig":3732,"fen":3733,"lé":3734,"meu":3735,"mammif":3736,"nous":3737,"ore":3738,"pr":3739,"##ache":3740,"##ns":3741,"##cti":3742,"##mation":3743,"##mosph":3744,"##xim":3745,"##ètres":3746,"##être":3747,"##uide":3748,"##andes":3749,"lame":3750,"##rige":3751,"##aud":3752,"##isé":3753,"plomb":3754,"prote":3755,"inj":3756,"##oter":3757,"réus":3758,"##ulte":3759,"diver":3760,"##ague":3761,"##agné":3762,"##umer":3763,"intelligence":3764,"alph":3765,"Autre":3766,"resp":3767,"aband":3768,"affir":3769,"affect":3770,"##riger":3771,"défin":3772,"représentation":3773,"mince":3774,"atteinte":3775,"##scri":3776,"capable":3777,"capacité":3778,"volonté":3779,"publics":3780,"image":3781,"Entre":3782,"centre":3783,"collec":3784,"politiques":3785,"écha":3786,"présentant":3787,"caractérisée":3788,"sexuel":3789,"considérable":3790,"nécessaires":3791,"enseignement":3792,"##oïde":3793,"événement":3794,"soleil":3795,"population":3796,"semblable":3797,"mobile":3798,"Nosologie":3799,"Bour":3800,"Danse":3801,"Gra":3802,"Pri":3803,"Pra":3804,"Tirer":3805,"amb":3806,"basse":3807,"danse":3808,"fut":3809,"hos":3810,"humeur":3811,"lois":3812,"sph":3813,"##rb":3814,"##cés":3815,"##sation":3816,"##bri":3817,"##yd":3818,"##ève":3819,"##ètes":3820,"dents":3821,"##sil":3822,"##oler":3823,"##réh":3824,"contenu":3825,"existe":3826,"##ates":3827,"##cure":3828,"distance":3829,"pass":3830,"##titue":3831,"acti":3832,"moteur":3833,"adresse":3834,"personnage":3835,"##conde":3836,"affection":3837,"interp":3838,"culte":3839,"profond":3840,"amour":3841,"principal":3842,"##ateurs":3843,"caractéri":3844,"##tendue":3845,"équipe":3846,"porté":3847,"##formations":3848,"violent":3849,"durée":3850,"effets":3851,"Chacune":3852,"distingue":3853,"##oureux":3854,"reçu":3855,"téléph":3856,"mariage":3857,"manifeste":3858,"arrêter":3859,"descend":3860,"##atisf":3861,"Opération":3862,"nourriture":3863,"volume":3864,"Établissement":3865,"vernaculaire":3866,"Ethn":3867,"Bande":3868,"Cons":3869,"Jardinage":3870,"Ver":3871,"act":3872,"bor":3873,"béné":3874,"ess":3875,"fati":3876,"jui":3877,"jours":3878,"lieux":3879,"sport":3880,"##oder":3881,"##pl":3882,"##xi":3883,"##èmes":3884,"##tip":3885,"##tiers":3886,"##urg":3887,"##temps":3888,"##orce":3889,"##chir":3890,"chaleur":3891,"##dire":3892,"forces":3893,"##peur":3894,"##énombrable":3895,"##éron":3896,"##ntement":3897,"corde":3898,"commence":3899,"marché":3900,"##aill":3901,"longtemps":3902,"##méli":3903,"cellu":3904,"principes":3905,"situé":3906,"tels":3907,"caractéristique":3908,"caractéristiques":3909,"rempli":3910,"hipp":3911,"grains":3912,"écrire":3913,"Rhétorique":3914,"Travail":3915,"développement":3916,"ecclésiastique":3917,"Menuiserie":3918,"circonstances":3919,"cylind":3920,"Programmation":3921,"Islam":3922,"cellules":3923,"Typ":3924,"axe":3925,"glo":3926,"noire":3927,"naissance":3928,"so":3929,"sab":3930,"soig":3931,"vir":3932,"voul":3933,"##cale":3934,"##stique":3935,"##bres":3936,"##quence":3937,"##ommes":3938,"##rine":3939,"##decin":3940,"duquel":3941,"relève":3942,"##tendu":3943,"réalité":3944,"dix":3945,"entra":3946,"obtenue":3947,"couvrir":3948,"dispar":3949,"##culp":3950,"impos":3951,"épaisse":3952,"pousse":3953,"Diff":3954,"colère":3955,"égard":3956,"##iseau":3957,"légumes":3958,"indiquer":3959,"atteindre":3960,"cuivre":3961,"côtés":3962,"angle":3963,"important":3964,"faute":3965,"oiseau":3966,"mains":3967,"creux":3968,"hiér":3969,"poly":3970,"issu":3971,"extrêmement":3972,"XVII":3973,"Indénombrable":3974,"Représentation":3975,"condam":3976,"Typographie":3977,"Col":3978,"Eff":3979,"Fi":3980,"Oc":3981,"ber":3982,"bacté":3983,"cli":3984,"fo":3985,"faux":3986,"gout":3987,"mén":3988,"pare":3989,"ronde":3990,"signes":3991,"##avant":3992,"##curité":3993,"##lâ":3994,"##ôte":3995,"##uration":3996,"##olte":3997,"confor":3998,"##miques":3999,"##ctions":4000,"##ffes":4001,"##onnes":4002,"passé":4003,"Inde":4004,"mécanique":4005,"##ocra":4006,"poil":4007,"Prof":4008,"abri":4009,"roues":4010,"organes":4011,"atmosph":4012,"nouvelle":4013,"Unis":4014,"bateau":4015,"juge":4016,"Machine":4017,"cerveau":4018,"Supp":4019,"pâte":4020,"reçoit":4021,"traits":4022,"graines":4023,"environ":4024,"Soldat":4025,"alphab":4026,"hiérarch":4027,"Cir":4028,"Fra":4029,"Vêtement":4030,"ara":4031,"acier":4032,"améli":4033,"cu":4034,"fle":4035,"gla":4036,"hon":4037,"hab":4038,"ident":4039,"mol":4040,"mère":4041,"pot":4042,"pét":4043,"poissons":4044,"rond":4045,"tail":4046,"##acher":4047,"##tures":4048,"##ieuses":4049,"##lié":4050,"##oivent":4051,"parasi":4052,"##istence":4053,"##olie":4054,"##lab":4055,"##aste":4056,"##cter":4057,"##érant":4058,"acqui":4059,"course":4060,"Déc":4061,"##parer":4062,"##paration":4063,"consac":4064,"morceau":4065,"opposé":4066,"Ext":4067,"route":4068,"professe":4069,"rencontre":4070,"Temps":4071,"crois":4072,"ridi":4073,"voisin":4074,"début":4075,"Couleur":4076,"appelée":4077,"services":4078,"docu":4079,"Chacun":4080,"institu":4081,"tissus":4082,"intention":4083,"rapidement":4084,"expressions":4085,"fréquent":4086,"voyage":4087,"Théâtre":4088,"Sociologie":4089,"##commun":4090,"Animal":4091,"##oisième":4092,"examen":4093,"régulière":4094,"catholique":4095,"réseau":4096,"Cette":4097,"Mobilier":4098,"Vé":4099,"bles":4100,"bande":4101,"due":4102,"gib":4103,"jard":4104,"neu":4105,"pau":4106,"pers":4107,"pul":4108,"écu":4109,"élève":4110,"##ry":4111,"##ution":4112,"##mant":4113,"##log":4114,"##vain":4115,"##rement":4116,"unes":4117,"##iellement":4118,"latin":4119,"##oudre":4120,"##sibles":4121,"enne":4122,"enreg":4123,"##isp":4124,"conduit":4125,"remettre":4126,"relations":4127,"##onter":4128,"quoi":4129,"référence":4130,"##elles":4131,"manger":4132,"Arbre":4133,"complément":4134,"radio":4135,"faits":4136,"corre":4137,"##rences":4138,"##cultés":4139,"proportion":4140,"générique":4141,"##uisant":4142,"morales":4143,"possible":4144,"douleur":4145,"élég":4146,"##ologiques":4147,"travaux":4148,"Aller":4149,"précis":4150,"provin":4151,"Outil":4152,"susceptible":4153,"##ruire":4154,"déterminer":4155,"##diter":4156,"##ribution":4157,"Corps":4158,"##lexion":4159,"heure":4160,"correspondant":4161,"alcooli":4162,"température":4163,"rivière":4164,"Nouvelle":4165,"Archaïsme":4166,"dessein":4167,"XIXe":4168,"activités":4169,"Comb":4170,"Lég":4171,"Mythologie":4172,"Saint":4173,"ami":4174,"dig":4175,"fâ":4176,"jeux":4177,"my":4178,"mine":4179,"paille":4180,"série":4181,"##ide":4182,"##ctement":4183,"##dure":4184,"##èche":4185,"##êne":4186,"devoir":4187,"unique":4188,"##ueuse":4189,"parce":4190,"auteur":4191,"##lasse":4192,"prot":4193,"inu":4194,"informations":4195,"##otte":4196,"##ffer":4197,"##viation":4198,"étudi":4199,"##peau":4200,"mani":4201,"complè":4202,"##opéen":4203,"rappelle":4204,"##ordinaire":4205,"maj":4206,"conscience":4207,"Conf":4208,"défense":4209,"##tisserie":4210,"principale":4211,"arrive":4212,"durant":4213,"propriétés":4214,"opinions":4215,"exécuter":4216,"issue":4217,"harmon":4218,"Pharmacie":4219,"Indivi":4220,"désagréable":4221,"physiques":4222,"...":4223,"Extrême":4224,"coton":4225,"Cr":4226,"Est":4227,"cout":4228,"mois":4229,"odeur":4230,"pes":4231,"pêche":4232,"rui":4233,"ris":4234,"ryth":4235,"sû":4236,"stat":4237,"venir":4238,"##pin":4239,"##erme":4240,"demi":4241,"##teaux":4242,"##sile":4243,"aujourd":4244,"changer":4245,"seigne":4246,"inst":4247,"industrie":4248,"information":4249,"initi":4250,"##otation":4251,"réduit":4252,"Remettre":4253,"##agement":4254,"traite":4255,"comportant":4256,"Chine":4257,"vivre":4258,"##lerie":4259,"##raphie":4260,"##unal":4261,"moder":4262,"médecine":4263,"adver":4264,"rest":4265,"syn":4266,"cadre":4267,"consomm":4268,"Bible":4269,"grave":4270,"##issant":4271,"officielle":4272,"grands":4273,"Spécialiste":4274,"Alg":4275,"Littérature":4276,"siège":4277,"littéraire":4278,"Souvent":4279,"fils":4280,"film":4281,"muscles":4282,"établissement":4283,"sexuelle":4284,"servait":4285,"légèrement":4286,"membran":4287,"favorable":4288,"guère":4289,"locu":4290,"Assemblage":4291,"juridiction":4292,"plaisanterie":4293,"spirit":4294,"possession":4295,"gibier":4296,"Individu":4297,"Ap":4298,"Couture":4299,"Fau":4300,"Journ":4301,"dor":4302,"gl":4303,"gris":4304,"oran":4305,"osse":4306,"ras":4307,"rab":4308,"Étendue":4309,"évi":4310,"##ave":4311,"##iquer":4312,"##sés":4313,"##laire":4314,"##page":4315,"##anci":4316,"##lige":4317,"out":4318,"enn":4319,"##chés":4320,"chap":4321,"chiens":4322,"##denti":4323,"##depte":4324,"##olaire":4325,"##rément":4326,"contes":4327,"dési":4328,"##culer":4329,"produite":4330,"instal":4331,"Eng":4332,"soumis":4333,"étroit":4334,"compris":4335,"précé":4336,"vidé":4337,"##ssé":4338,"peint":4339,"perdre":4340,"méc":4341,"rappel":4342,"courte":4343,"faculté":4344,"métaux":4345,"stu":4346,"chambre":4347,"naturellement":4348,"##ignon":4349,"front":4350,"léger":4351,"formation":4352,"riches":4353,"anciens":4354,"lorsque":4355,"provo":4356,"végétal":4357,"brusque":4358,"recouvre":4359,"##ouiller":4360,"économique":4361,"possédant":4362,"##arrasser":4363,"parallè":4364,"relief":4365,"opérations":4366,"compagnie":4367,"caractérisé":4368,"10":4369,"Bruit":4370,"Situ":4371,"Sous":4372,"Vin":4373,"aqu":4374,"ait":4375,"croit":4376,"célé":4377,"donc":4378,"esti":4379,"fro":4380,"fête":4381,"odor":4382,"père":4383,"pati":4384,"populaire":4385,"rh":4386,"sail":4387,"tort":4388,"##rure":4389,"##rouve":4390,"##tos":4391,"##no":4392,"##èvre":4393,"##oni":4394,"##onique":4395,"##andre":4396,"##inale":4397,"##chty":4398,"conç":4399,"celles":4400,"##tification":4401,"prostitu":4402,"surp":4403,"##ultat":4404,"arc":4405,"Env":4406,"##server":4407,"entité":4408,"entend":4409,"entendre":4410,"comprenant":4411,"écar":4412,"alté":4413,"expérien":4414,"épi":4415,"sylla":4416,"Variété":4417,"Récipient":4418,"élevée":4419,"transp":4420,"Orient":4421,"six":4422,"gramm":4423,"Union":4424,"voile":4425,"fabrique":4426,"Marque":4427,"porc":4428,"embar":4429,"montagne":4430,"antique":4431,"centrale":4432,"Langage":4433,"variable":4434,"flot":4435,"Surtout":4436,"mâle":4437,"transporter":4438,"pénét":4439,"brû":4440,"##diovis":4441,"campagne":4442,"Résultat":4443,"spectacle":4444,"édifice":4445,"divinité":4446,"##oiffure":4447,"vouloir":4448,"Anth":4449,"Dét":4450,"Fil":4451,"Hor":4452,"Noblesse":4453,"amp":4454,"fum":4455,"ha":4456,"paie":4457,"penser":4458,"vrai":4459,"##asin":4460,"##nés":4461,"##ball":4462,"##vrer":4463,"##ancier":4464,"##aies":4465,"##str":4466,"lettre":4467,"##issent":4468,"##rég":4469,"confi":4470,"sel":4471,"##cum":4472,"plu":4473,"reb":4474,"relation":4475,"indust":4476,"dirige":4477,"arron":4478,"##acée":4479,"entière":4480,"##loc":4481,"##umage":4482,"inten":4483,"savoir":4484,"##arente":4485,"admi":4486,"adap":4487,"##érieures":4488,"synt":4489,"code":4490,"constitue":4491,"morceaux":4492,"##ignons":4493,"fonctionnement":4494,"mesurer":4495,"connaiss":4496,"troupes":4497,"minéra":4498,"grosse":4499,"importante":4500,"partage":4501,"brun":4502,"lumine":4503,"Employ":4504,"herb":4505,"conserver":4506,"Propri":4507,"intérêts":4508,"extérieure":4509,"préposition":4510,"étrang":4511,"##médiaire":4512,"##cussion":4513,"##éronautique":4514,"Bâ":4515,"Dou":4516,"Péri":4517,"Pêche":4518,"cop":4519,"grou":4520,"tur":4521,"usité":4522,"##oz":4523,"##eaux":4524,"##cot":4525,"##gén":4526,"##ueilli":4527,"##licité":4528,"##siologie":4529,"choc":4530,"##mités":4531,"reti":4532,"incon":4533,"entrer":4534,"entoure":4535,"comprendre":4536,"Christ":4537,"vide":4538,"neur":4539,"neige":4540,"carb":4541,"personnel":4542,"femelle":4543,"sensation":4544,"commis":4545,"##métique":4546,"noms":4547,"Dire":4548,"montre":4549,"from":4550,"fins":4551,"boule":4552,"Cartes":4553,"croix":4554,"connaît":4555,"client":4556,"fausse":4557,"Élect":4558,"combus":4559,"déterminé":4560,"maintenir":4561,"artistique":4562,"événements":4563,"multip":4564,"phénomènes":4565,"européen":4566,"fâch":4567,"Ichty":4568,"Jés":4569,"aver":4570,"ign":4571,"promp":4572,"sti":4573,"sable":4574,"satisf":4575,"zone":4576,"Éch":4577,"Équit":4578,"##ié":4579,"##nces":4580,"##ncer":4581,"##he":4582,"##là":4583,"##llant":4584,"##pit":4585,"##vit":4586,"##timents":4587,"##urance":4588,"##oration":4589,"##neur":4590,"##veill":4591,"chir":4592,"##rouil":4593,"##alon":4594,"##aler":4595,"conse":4596,"conduire":4597,"pours":4598,"étud":4599,"passions":4600,"obtenu":4601,"##sson":4602,"écou":4603,"technique":4604,"espagn":4605,"perç":4606,"marbre":4607,"##utri":4608,"couronne":4609,"respi":4610,"déplacer":4611,"##venu":4612,"verb":4613,"sécurité":4614,"frais":4615,"collè":4616,"cultures":4617,"nombreux":4618,"##cept":4619,"renfor":4620,"trouble":4621,"fonds":4622,"##sivement":4623,"portée":4624,"chaud":4625,"considération":4626,"exécution":4627,"herbes":4628,"fixer":4629,"sortes":4630,"tomber":4631,"Pharmacologie":4632,"Automobile":4633,"grossière":4634,"dernier":4635,"comestible":4636,"témoig":4637,"ordinateur":4638,"fleuve":4639,"Situation":4640,"Ichtyologie":4641,"Équitation":4642,"étudie":4643,"Adepte":4644,"Cré":4645,"Cert":4646,"Catholi":4647,"Fonction":4648,"Nombre":4649,"Res":4650,"ach":4651,"boire":4652,"bœu":4653,"dû":4654,"hor":4655,"joui":4656,"laiss":4657,"pure":4658,"péd":4659,"rôle":4660,"tuy":4661,"##ymp":4662,"##estin":4663,"dent":4664,"##tiquer":4665,"##ordre":4666,"##nellement":4667,"eth":4668,"chat":4669,"chag":4670,"##rogue":4671,"convient":4672,"existence":4673,"seconde":4674,"dérou":4675,"##ppé":4676,"retr":4677,"##illage":4678,"processus":4679,"invent":4680,"##ranger":4681,"récipient":4682,"##ulsion":4683,"forêt":4684,"radi":4685,"appui":4686,"cord":4687,"couper":4688,"##érir":4689,"##ierre":4690,"privil":4691,"liber":4692,"empêche":4693,"##hétique":4694,"syst":4695,"##venant":4696,"##part":4697,"intermédiaire":4698,"##alisée":4699,"poste":4700,"attribu":4701,"rendu":4702,"Abré":4703,"troupe":4704,"attaché":4705,"attachée":4706,"pointu":4707,"Écrit":4708,"Coup":4709,"circ":4710,"accompagn":4711,"émotion":4712,"brillant":4713,"Poétique":4714,"derrière":4715,"puissance":4716,"environnement":4717,"##esterie":4718,"détruire":4719,"peuples":4720,"succession":4721,"exercice":4722,"Mesure":4723,"Physiologie":4724,"remarqu":4725,"Pays":4726,"##diovisuel":4727,"Atte":4728,"Bal":4729,"Cau":4730,"Ju":4731,"Mon":4732,"Mont":4733,"Où":4734,"Point":4735,"Sel":4736,"bu":4737,"bron":4738,"bête":4739,"doivent":4740,"familier":4741,"ger":4742,"gui":4743,"histoire":4744,"imi":4745,"identi":4746,"saisir":4747,"##aci":4748,"##dinal":4749,"##lette":4750,"##licite":4751,"##inaison":4752,"chan":4753,"##igation":4754,"##igare":4755,"##ogne":4756,"Paris":4757,"red":4758,"##tifier":4759,"arts":4760,"soud":4761,"comprend":4762,"race":4763,"##ablement":4764,"##enses":4765,"intég":4766,"Mélange":4767,"##ièvre":4768,"prise":4769,"marche":4770,"explo":4771,"dépour":4772,"charpe":4773,"##ociation":4774,"##struments":4775,"maxim":4776,"chacun":4777,"ordres":4778,"Ornement":4779,"##fié":4780,"doute":4781,"meille":4782,"dispositif":4783,"spécifique":4784,"offre":4785,"fondament":4786,"cuire":4787,"moyenne":4788,"immédi":4789,"Foresterie":4790,"Étude":4791,"Disposition":4792,"traditionnelle":4793,"retour":4794,"Ouvrier":4795,"solen":4796,"médicament":4797,"ressour":4798,"Enfant":4799,"raisin":4800,"dimensions":4801,"boissons":4802,"améric":4803,"tribunal":4804,"fermentation":4805,"##ultan":4806,"catégorie":4807,"altern":4808,"ridicule":4809,"Anthrop":4810,"plupart":4811,"connaissances":4812,"Jésus":4813,"Aéronautique":4814,"Cé":4815,"Comme":4816,"Num":4817,"cyc":4818,"fas":4819,"gâ":4820,"milli":4821,"milit":4822,"parent":4823,"sim":4824,"sili":4825,"talent":4826,"tox":4827,"ul":4828,"ôter":4829,"##ak":4830,"##taire":4831,"##iant":4832,"##iers":4833,"##odi":4834,"##lance":4835,"##estions":4836,"delà":4837,"##tissement":4838,"##lières":4839,"##omes":4840,"##stra":4841,"enveloppe":4842,"##chées":4843,"convention":4844,"##attre":4845,"désir":4846,"##ites":4847,"pluie":4848,"retenir":4849,"instruction":4850,"instruments":4851,"##otball":4852,"division":4853,"arom":4854,"train":4855,"soup":4856,"souple":4857,"##terne":4858,"couche":4859,"perte":4860,"persi":4861,"utilité":4862,"marin":4863,"##verser":4864,"absence":4865,"subi":4866,"élever":4867,"##ropre":4868,"juste":4869,"double":4870,"Caracté":4871,"atti":4872,"grandeur":4873,"##umine":4874,"civil":4875,"répon":4876,"Espagne":4877,"évolution":4878,"telles":4879,"vapeur":4880,"tax":4881,"constituée":4882,"Électricité":4883,"fortune":4884,"graine":4885,"distinguer":4886,"composés":4887,"établir":4888,"joueurs":4889,"aigu":4890,"tranchant":4891,"ventre":4892,"article":4893,"##uyer":4894,"traditionnel":4895,"négative":4896,"##rompre":4897,"extrémités":4898,"Théologie":4899,"valant":4900,"##obiologie":4901,"indép":4902,"chrétienne":4903,"gauche":4904,"difficulté":4905,"protection":4906,"parents":4907,"alphabet":4908,"##communications":4909,"Véhicule":4910,"expérience":4911,"intensité":4912,"##ueillir":4913,"chirurg":4914,"Allem":4915,"Bien":4916,"Esc":4917,"Pol":4918,"Tou":4919,"Top":4920,"bre":4921,"cab":4922,"fant":4923,"pu":4924,"path":4925,"soins":4926,"tonne":4927,"##atement":4928,"##nage":4929,"##crit":4930,"##mat":4931,"##lvi":4932,"##bli":4933,"##dée":4934,"##dation":4935,"##ycle":4936,"##xte":4937,"##ticulture":4938,"##orté":4939,"##riser":4940,"##isant":4941,"##ogène":4942,"démon":4943,"prolong":4944,"questions":4945,"##onnais":4946,"compose":4947,"appré":4948,"Change":4949,"prés":4950,"présence":4951,"particuliers":4952,"sav":4953,"diss":4954,"limi":4955,"courage":4956,"philosoph":4957,"placée":4958,"épau":4959,"touche":4960,"Phot":4961,"accès":4962,"sév":4963,"inflamm":4964,"##tiste":4965,"opération":4966,"attitude":4967,"Uni":4968,"garni":4969,"bassin":4970,"poésie":4971,"##sychi":4972,"##verture":4973,"frapper":4974,"violente":4975,"##tiennent":4976,"##estation":4977,"Emploi":4978,"pâle":4979,"pénible":4980,"tantôt":4981,"bords":4982,"Poésie":4983,"préparer":4984,"recouvert":4985,"cultivée":4986,"alcool":4987,"##olécule":4988,"parfum":4989,"Quelque":4990,"traitement":4991,"essentiellement":4992,"nett":4993,"souverain":4994,"domestique":4995,"hasard":4996,"grecque":4997,"mammifères":4998,"cylindrique":4999,"goutte":5000,"Emb":5001,"Gr":5002,"Ital":5003,"Ly":5004,"Pén":5005,"câ":5006,"cuit":5007,"hist":5008,"imme":5009,"mout":5010,"nat":5011,"pont":5012,"rue":5013,"rude":5014,"sait":5015,"vendre":5016,"##oti":5017,"##uation":5018,"##lus":5019,"##gène":5020,"##yer":5021,"##voire":5022,"##èque":5023,"##oncé":5024,"##tière":5025,"##ancé":5026,"ouest":5027,"##ass":5028,"Parler":5029,"plumage":5030,"quad":5031,"##aissent":5032,"##onnête":5033,"##ulé":5034,"##oisse":5035,"visible":5036,"##ntelle":5037,"##rudence":5038,"##érité":5039,"##mination":5040,"dissi":5041,"utiliser":5042,"advers":5043,"ressent":5044,"dépense":5045,"éprouve":5046,"toucher":5047,"café":5048,"stra":5049,"communication":5050,"##fices":5051,"attend":5052,"scolaire":5053,"confus":5054,"Maroc":5055,"monter":5056,"extrait":5057,"œuvres":5058,"sommet":5059,"fixé":5060,"##ustes":5061,"séparer":5062,"bourge":5063,"continue":5064,"Organe":5065,"absor":5066,"dimension":5067,"matériaux":5068,"##optère":5069,"extraordinaire":5070,"éventuellement":5071,"délicat":5072,"japonais":5073,"respons":5074,"grammati":5075,"Catholicisme":5076,"Anthropologie":5077,"''":5078,"Fant":5079,"Mag":5080,"Monnaie":5081,"Na":5082,"Pal":5083,"ciel":5084,"coc":5085,"fusion":5086,"là":5087,"nui":5088,"pren":5089,"rose":5090,"solution":5091,"van":5092,"vole":5093,"vigne":5094,"##aur":5095,"##rais":5096,"##oche":5097,"##odique":5098,"##ylé":5099,"##vore":5100,"##œud":5101,"##ûte":5102,"##lets":5103,"##aitement":5104,"##ortir":5105,"outil":5106,"##mentaire":5107,"##rim":5108,"parlé":5109,"##cente":5110,"chin":5111,"##usé":5112,"##ciaire":5113,"##mir":5114,"plâtre":5115,"retirer":5116,"##osse":5117,"inat":5118,"##ffre":5119,"particip":5120,"##ulaires":5121,"##alités":5122,"tronc":5123,"troisième":5124,"souh":5125,"##pec":5126,"manœu":5127,"nez":5128,"##ducteur":5129,"##minée":5130,"Inc":5131,"Inse":5132,"termine":5133,"serré":5134,"Cent":5135,"mach":5136,"coque":5137,"analogue":5138,"champs":5139,"Division":5140,"##uleux":5141,"atomique":5142,"Sylvi":5143,"pratiques":5144,"assurer":5145,"différente":5146,"attaque":5147,"attacher":5148,"Trait":5149,"évê":5150,"éviter":5151,"recour":5152,"envoy":5153,"équili":5154,"créer":5155,"employée":5156,"contrô":5157,"facili":5158,"étoffes":5159,"alimentaire":5160,"assemblage":5161,"pratiquée":5162,"réunion":5163,"isol":5164,"nuclé":5165,"superf":5166,"sensible":5167,"##aigre":5168,"modèle":5169,"révolution":5170,"partisan":5171,"Quelqu":5172,"simplement":5173,"Capacité":5174,"sentir":5175,"éclai":5176,"international":5177,"Frapper":5178,"##diterran":5179,"Extrêmement":5180,"vidéo":5181,"Période":5182,"groupes":5183,"Italie":5184,"Bar":5185,"Bra":5186,"Hyd":5187,"Ligne":5188,"Pap":5189,"Plan":5190,"Pierre":5191,"Rapp":5192,"Table":5193,"aér":5194,"drogue":5195,"fun":5196,"han":5197,"mali":5198,"morte":5199,"messe":5200,"mètres":5201,"note":5202,"ov":5203,"tau":5204,"tig":5205,"##ca":5206,"##cieux":5207,"##ére":5208,"##bler":5209,"##gne":5210,"##vait":5211,"##ki":5212,"##êle":5213,"##ern":5214,"##nter":5215,"##reau":5216,"uns":5217,"##ara":5218,"##arc":5219,"##anes":5220,"##quet":5221,"##oine":5222,"##riques":5223,"lever":5224,"##ismatique":5225,"##olf":5226,"##atri":5227,"##qués":5228,"Parfois":5229,"plant":5230,"quar":5231,"Rem":5232,"Reg":5233,"Remp":5234,"participe":5235,"Enveloppe":5236,"##elli":5237,"étroite":5238,"complet":5239,"apprê":5240,"Chau":5241,"##terre":5242,"##anges":5243,"autor":5244,"accep":5245,"##quin":5246,"inté":5247,"##minées":5248,"écla":5249,"prim":5250,"adj":5251,"phon":5252,"plaque":5253,"Aujourd":5254,"épais":5255,"Procédé":5256,"##céder":5257,"simi":5258,"différence":5259,"##ommage":5260,"nouvelles":5261,"croiss":5262,"disposé":5263,"décomp":5264,"enfer":5265,"office":5266,"causer":5267,"contrat":5268,"##cteurs":5269,"judi":5270,"cristal":5271,"circulaire":5272,"taches":5273,"constitution":5274,"Substant":5275,"##ativement":5276,"accompagne":5277,"électronique":5278,"Lib":5279,"Livre":5280,"fabriqué":5281,"considère":5282,"figures":5283,"magasin":5284,"creuse":5285,"pratiqué":5286,"logiciel":5287,"artificiel":5288,"Façon":5289,"raisonnement":5290,"Télécommunications":5291,"source":5292,"ressemblant":5293,"nerveux":5294,"boisson":5295,"##optères":5296,"linge":5297,"moitié":5298,"cérémonies":5299,"relativement":5300,"meubles":5301,"réussi":5302,"Ethnobiologie":5303,"atmosphère":5304,"ennemi":5305,"province":5306,"moderne":5307,"consommation":5308,"osseux":5309,"Propriété":5310,"fromage":5311,"##veillance":5312,"Abréviation":5313,"remarquable":5314,"ressources":5315,"Allemagne":5316,"Affe":5317,"Fo":5318,"Im":5319,"Oiseau":5320,"Race":5321,"Tour":5322,"Tiss":5323,"ache":5324,"allem":5325,"glu":5326,"py":5327,"poit":5328,"sali":5329,"sculp":5330,"voit":5331,"vieux":5332,"villes":5333,"##nées":5334,"##fic":5335,"##érance":5336,"##ât":5337,"##zarre":5338,"##ke":5339,"##uiser":5340,"##lent":5341,"##lection":5342,"##orge":5343,"##ories":5344,"##téb":5345,"contenir":5346,"##mière":5347,"##itation":5348,"indique":5349,"##ots":5350,"récit":5351,"##ctur":5352,"souter":5353,"préj":5354,"##sseau":5355,"##venti":5356,"privé":5357,"perm":5358,"##omber":5359,"plastique":5360,"exploitation":5361,"Augment":5362,"Audiovisuel":5363,"animé":5364,"abord":5365,"##cipline":5366,"tempor":5367,"##assemb":5368,"Angle":5369,"égale":5370,"communiquer":5371,"##uels":5372,"##fiant":5373,"utilisation":5374,"Appel":5375,"connu":5376,"voies":5377,"voiles":5378,"scène":5379,"crimi":5380,"provoquer":5381,"appelés":5382,"visant":5383,"anglais":5384,"religieuses":5385,"Éto":5386,"##tillerie":5387,"cercle":5388,"balle":5389,"fluide":5390,"signal":5391,"mission":5392,"magist":5393,"textes":5394,"préparation":5395,"Régime":5396,"Défaut":5397,"géomét":5398,"pratiquant":5399,"nationale":5400,"procédé":5401,"céles":5402,"construit":5403,"Assemblée":5404,"semblables":5405,"décision":5406,"Attitude":5407,"vaisseau":5408,"divisé":5409,"aisément":5410,"##oyaume":5411,"amérind":5412,"Gros":5413,"sauvages":5414,"Officier":5415,"besoin":5416,"techniques":5417,"catal":5418,"obstacle":5419,"doigts":5420,"interpré":5421,"commencement":5422,"entraî":5423,"Employé":5424,"Numismatique":5425,"réponse":5426,"Changement":5427,"Sylviculture":5428,"200":5429,"Ant":5430,"Cos":5431,"Eau":5432,"From":5433,"Jui":5434,"Mati":5435,"Maison":5436,"Mode":5437,"Pris":5438,"Ra":5439,"Sc":5440,"Vent":5441,"bomb":5442,"bague":5443,"flex":5444,"lut":5445,"lourd":5446,"lancer":5447,"pun":5448,"rub":5449,"sit":5450,"vous":5451,"vulgaire":5452,"##ifie":5453,"##ument":5454,"##uble":5455,"##près":5456,"##âcher":5457,"##èles":5458,"##èdes":5459,"##ondeur":5460,"devenir":5461,"##tiens":5462,"##urre":5463,"##urait":5464,"##anée":5465,"##melles":5466,"##ores":5467,"ouverte":5468,"##ompe":5469,"enlever":5470,"##rag":5471,"##rasse":5472,"auprès":5473,"##vet":5474,"##chon":5475,"concours":5476,"exag":5477,"exception":5478,"excelle":5479,"##cup":5480,"##mpt":5481,"##tensile":5482,"protes":5483,"inh":5484,"iné":5485,"dipl":5486,"anneau":5487,"##agnes":5488,"##acé":5489,"orgue":5490,"passant":5491,"Changer":5492,"préserver":5493,"##angulaire":5494,"accum":5495,"##umin":5496,"intestin":5497,"##iège":5498,"cardinal":5499,"moquer":5500,"liées":5501,"impré":5502,"donnant":5503,"épée":5504,"##rises":5505,"charn":5506,"substant":5507,"Rév":5508,"utilisés":5509,"payer":5510,"déclar":5511,"maisons":5512,"causée":5513,"canne":5514,"cuite":5515,"Manif":5516,"cesser":5517,"doctri":5518,"Champ":5519,"insu":5520,"déterminée":5521,"tranqui":5522,"excessif":5523,"automatique":5524,"automobile":5525,"étranger":5526,"##nthèse":5527,"ressort":5528,"grossier":5529,"intellectuelle":5530,"réel":5531,"ressemblance":5532,"phénomène":5533,"rayons":5534,"exactement":5535,"cellule":5536,"allongé":5537,"Logique":5538,"Mauvais":5539,"fenêtre":5540,"abandonner":5541,"hiérarchie":5542,"identité":5543,"Algérie":5544,"admiration":5545,"militaires":5546,"Étoffe":5547,"Fromage":5548,"Beau":5549,"Coiffure":5550,"Mas":5551,"Portion":5552,"Pousser":5553,"Somme":5554,"Sciences":5555,"blé":5556,"bière":5557,"fou":5558,"fier":5559,"farine":5560,"ital":5561,"joie":5562,"lai":5563,"nage":5564,"pen":5565,"pote":5566,"péjoratif":5567,"rob":5568,"roue":5569,"sai":5570,"##uter":5571,"##caire":5572,"##fait":5573,"##éma":5574,"##land":5575,"##vue":5576,"##vie":5577,"##èvres":5578,"##îte":5579,"##tel":5580,"##queuse":5581,"##ouc":5582,"##sis":5583,"##sives":5584,"##rite":5585,"end":5586,"choix":5587,"##endi":5588,"##istique":5589,"##cir":5590,"conten":5591,"rembour":5592,"résine":5593,"argu":5594,"artillerie":5595,"trous":5596,"souvenir":5597,"##cession":5598,"##outes":5599,"application":5600,"prési":5601,"prétent":5602,"##érieurs":5603,"##terie":5604,"vib":5605,"corp":5606,"accent":5607,"##olique":5608,"##rons":5609,"intense":5610,"##ériorité":5611,"molle":5612,"perd":5613,"perp":5614,"médecin":5615,"adop":5616,"placer":5617,"plats":5618,"personnages":5619,"dépasse":5620,"épre":5621,"Processus":5622,"synonyme":5623,"symét":5624,"maçonnerie":5625,"fibres":5626,"rapports":5627,"stock":5628,"oppose":5629,"défendre":5630,"défaut":5631,"Exer":5632,"résultant":5633,"gras":5634,"Agronomie":5635,"optique":5636,"représenter":5637,"représentée":5638,"spécialiste":5639,"spécialisé":5640,"##ypt":5641,"inclin":5642,"nav":5643,"Amas":5644,"mets":5645,"antérieure":5646,"secrète":5647,"constituant":5648,"calcul":5649,"exclu":5650,"facile":5651,"brut":5652,"dégoût":5653,"émail":5654,"sommeil":5655,"racines":5656,"sangui":5657,"banque":5658,"##citanie":5659,"Perte":5660,"logique":5661,"tableau":5662,"pleine":5663,"garnie":5664,"mainten":5665,"degrés":5666,"réflé":5667,"réflexion":5668,"obligation":5669,"Dessin":5670,"roche":5671,"changement":5672,"imagination":5673,"Société":5674,"dernière":5675,"vaisseaux":5676,"tube":5677,"inspire":5678,"exercices":5679,"sauvage":5680,"contexte":5681,"jambes":5682,"tapis":5683,"Recueil":5684,"Pouvoir":5685,"Pâtisserie":5686,"volontairement":5687,"échapper":5688,"Pratique":5689,"##rbanisme":5690,"XVIIIe":5691,"Occitanie":5692,"améliorer":5693,"habile":5694,"jardins":5695,"entièrement":5696,"chagrin":5697,"liberté":5698,"chanvre":5699,"immédiatement":5700,"##yléd":5701,"Insecte":5702,"Tissu":5703,"situe":5704,"Bas":5705,"Cri":5706,"Ciné":5707,"Du":5708,"Dom":5709,"Fé":5710,"Jud":5711,"Pla":5712,"Us":5713,"Voiture":5714,"avent":5715,"bé":5716,"bét":5717,"bêtes":5718,"caisse":5719,"dog":5720,"fos":5721,"flé":5722,"gren":5723,"lance":5724,"nœud":5725,"oct":5726,"pose":5727,"sati":5728,"saint":5729,"sciences":5730,"transi":5731,"veu":5732,"vag":5733,"##otique":5734,"##oxy":5735,"##nisme":5736,"##ha":5737,"##lème":5738,"##llage":5739,"##bation":5740,"##dd":5741,"##vrant":5742,"##valent":5743,"##jection":5744,"##êtir":5745,"##onf":5746,"##reaux":5747,"##anitaire":5748,"##lettes":5749,"##liquer":5750,"lames":5751,"##nex":5752,"parmi":5753,"paraître":5754,"ens":5755,"##cium":5756,"conti":5757,"concent":5758,"##lacées":5759,"##quête":5760,"prod":5761,"##aisons":5762,"##agner":5763,"ornements":5764,"mange":5765,"apporte":5766,"apparent":5767,"obé":5768,"coupe":5769,"accident":5770,"##dule":5771,"peur":5772,"##raphique":5773,"##ériques":5774,"##égal":5775,"imper":5776,"##ompense":5777,"commande":5778,"##oyens":5779,"charbon":5780,"agric":5781,"filet":5782,"interval":5783,"régime":5784,"sép":5785,"posée":5786,"Exa":5787,"colon":5788,"colonne":5789,"profondeur":5790,"légis":5791,"élévation":5792,"croire":5793,"officier":5794,"assure":5795,"blanches":5796,"fondée":5797,"premiers":5798,"littérature":5799,"##oûte":5800,"employer":5801,"échange":5802,"véhi":5803,"##oureuse":5804,"##yclisme":5805,"organismes":5806,"joueur":5807,"pensées":5808,"télévision":5809,"phytos":5810,"enseigne":5811,"Perdre":5812,"procédés":5813,"robe":5814,"rigide":5815,"réserve":5816,"musical":5817,"commercial":5818,"##métologie":5819,"Garnir":5820,"devrait":5821,"tirant":5822,"précision":5823,"obscur":5824,"garantir":5825,"glob":5826,"Journalisme":5827,"paiement":5828,"Photographie":5829,"poitrine":5830,"Cosmétologie":5831,"Cinéma":5832,"15":5833,"As":5834,"Av":5835,"Fête":5836,"Mammif":5837,"Rus":5838,"Sa":5839,"Urbanisme":5840,"asp":5841,"beur":5842,"foin":5843,"huit":5844,"lien":5845,"loin":5846,"murs":5847,"nul":5848,"pli":5849,"ru":5850,"rotation":5851,"tar":5852,"tâche":5853,"vain":5854,"voc":5855,"Ôter":5856,"##ition":5857,"##idés":5858,"##nis":5859,"##nab":5860,"##uée":5861,"##eure":5862,"##cond":5863,"##érence":5864,"##mun":5865,"##bée":5866,"##da":5867,"##voquer":5868,"##ènement":5869,"##60":5870,"##esses":5871,"##reinte":5872,"##tième":5873,"##orph":5874,"##organ":5875,"lac":5876,"lab":5877,"##oiles":5878,"paraît":5879,"##stration":5880,"ench":5881,"##ceinte":5882,"##tén":5883,"##rémité":5884,"##ater":5885,"rect":5886,"insé":5887,"insig":5888,"##rances":5889,"##rangement":5890,"répar":5891,"diriger":5892,"##phém":5893,"forêts":5894,"##agère":5895,"##acés":5896,"##cheur":5897,"étal":5898,"##ions":5899,"##rith":5900,"écoule":5901,"écorce":5902,"lié":5903,"##ublique":5904,"empru":5905,"##culaires":5906,"marteau":5907,"phosph":5908,"plaît":5909,"Produire":5910,"##useau":5911,"consistance":5912,"affi":5913,"maître":5914,"pousser":5915,"fid":5916,"chacune":5917,"élevage":5918,"ordinal":5919,"avis":5920,"amén":5921,"utilisateur":5922,"sociales":5923,"Symb":5924,"crainte":5925,"rire":5926,"écrits":5927,"Discours":5928,"juger":5929,"arbustes":5930,"beauté":5931,"précau":5932,"images":5933,"mettant":5934,"bâtiments":5935,"création":5936,"travailler":5937,"doté":5938,"durable":5939,"##nels":5940,"Sports":5941,"théorie":5942,"tache":5943,"planète":5944,"Composé":5945,"regarde":5946,"émo":5947,"engage":5948,"Préparation":5949,"signifie":5950,"mener":5951,"agitation":5952,"croy":5953,"croît":5954,"Viande":5955,"bandes":5956,"rarement":5957,"Moment":5958,"heures":5959,"artiste":5960,"continu":5961,"Téléph":5962,"humides":5963,"ajou":5964,"suspension":5965,"procurer":5966,"matériau":5967,"lutte":5968,"suffis":5969,"menton":5970,"Franç":5971,"secondaire":5972,"cérémonie":5973,"malheur":5974,"Diminution":5975,"précise":5976,"coquille":5977,"Commun":5978,"échelle":5979,"épaisseur":5980,"Effet":5981,"##avantage":5982,"Extrémité":5983,"document":5984,"complète":5985,"estime":5986,"syllabes":5987,"charpente":5988,"##sychiat":5989,"Matière":5990,"doctrines":5991,"Mammifère":5992,"Bo":5993,"Cit":5994,"Fami":5995,"Fille":5996,"Gou":5997,"Opp":5998,"Oues":5999,"Pours":6000,"Porter":6001,"Tête":6002,"Tendance":6003,"agent":6004,"bl":6005,"bille":6006,"cub":6007,"gorge":6008,"ly":6009,"mens":6010,"mieux":6011,"noyau":6012,"oli":6013,"ori":6014,"pend":6015,"péjor":6016,"pape":6017,"saison":6018,"tro":6019,"ving":6020,"zones":6021,"##acu":6022,"##rue":6023,"##riel":6024,"##iration":6025,"##odé":6026,"##nologie":6027,"##fection":6028,"##mons":6029,"##dae":6030,"##ys":6031,"##xique":6032,"##êtres":6033,"dex":6034,"##uivre":6035,"##ann":6036,"##lexe":6037,"##lises":6038,"##riers":6039,"##inaires":6040,"chante":6041,"##roy":6042,"##dente":6043,"##igner":6044,"##ciation":6045,"##astiques":6046,"Paroles":6047,"plumes":6048,"reli":6049,"rejet":6050,"inqui":6051,"##ranche":6052,"Recou":6053,"##ularité":6054,"##amine":6055,"dite":6056,"##iennes":6057,"##abili":6058,"##acles":6059,"Choses":6060,"préférence":6061,"visi":6062,"viandes":6063,"actif":6064,"##istes":6065,"##duc":6066,"##ssure":6067,"Médic":6068,"teint":6069,"disque":6070,"permettre":6071,"lire":6072,"méd":6073,"courbe":6074,"épouse":6075,"fiction":6076,"accor":6077,"régulier":6078,"poser":6079,"inférieur":6080,"publiques":6081,"profonde":6082,"financi":6083,"boules":6084,"Manque":6085,"débit":6086,"Couper":6087,"sujets":6088,"angles":6089,"notes":6090,"montagnes":6091,"Ouverture":6092,"##lisation":6093,"casque":6094,"ballon":6095,"##vores":6096,"dégra":6097,"Empire":6098,"Suc":6099,"aiguille":6100,"herbe":6101,"cinéma":6102,"largeur":6103,"progres":6104,"programme":6105,"normalisé":6106,"garnit":6107,"struct":6108,"champignons":6109,"tuber":6110,"appliquer":6111,"Premier":6112,"convenable":6113,"disposées":6114,"Utilisé":6115,"compétition":6116,"##courir":6117,"introduit":6118,"Entrep":6119,"##réhen":6120,"impossible":6121,"amitié":6122,"rappelant":6123,"lumineux":6124,"fâcheux":6125,"##utrition":6126,"nettoyer":6127,"Lyonnais":6128,"nuisible":6129,"beurre":6130,"##rithmétique":6131,"Ouest":6132,"20":6133,"Avant":6134,"Bret":6135,"Cas":6136,"Dist":6137,"Four":6138,"Fourn":6139,"Hau":6140,"Poli":6141,"Sén":6142,"aci":6143,"cam":6144,"cesse":6145,"don":6146,"date":6147,"gré":6148,"glan":6149,"gast":6150,"lyc":6151,"mathé":6152,"moindre":6153,"pique":6154,"vom":6155,"vra":6156,"vén":6157,"élan":6158,"Œnologie":6159,"##aph":6160,"##nité":6161,"##uosité":6162,"##ey":6163,"##fe":6164,"##sées":6165,"##lois":6166,"##dom":6167,"##gner":6168,"##je":6169,"##èbre":6170,"devenu":6171,"##uité":6172,"##ielle":6173,"##aitre":6174,"##orme":6175,"##oué":6176,"##omac":6177,"##ommer":6178,"parvenir":6179,"aust":6180,"##vement":6181,"##auche":6182,"##geant":6183,"##uscule":6184,"conv":6185,"expé":6186,"##ressée":6187,"déte":6188,"plais":6189,"réalisation":6190,"##aiser":6191,"##alise":6192,"##vice":6193,"soumettre":6194,"##outer":6195,"Argent":6196,"rame":6197,"racine":6198,"apparente":6199,"##oirs":6200,"##ttent":6201,"objectif":6202,"##lore":6203,"accide":6204,"access":6205,"autrement":6206,"entretien":6207,"propose":6208,"adoles":6209,"##formes":6210,"faveur":6211,"repose":6212,"personnalité":6213,"##roup":6214,"femelles":6215,"dépenses":6216,"##lanc":6217,"subord":6218,"accro":6219,"Consi":6220,"infant":6221,"Exc":6222,"habitation":6223,"rouges":6224,"avancer":6225,"sile":6226,"grade":6227,"##fiait":6228,"suivre":6229,"direct":6230,"directement":6231,"attirer":6232,"mess":6233,"mesures":6234,"riche":6235,"offici":6236,"connue":6237,"minist":6238,"contag":6239,"candi":6240,"##ablir":6241,"féod":6242,"incomm":6243,"Terrain":6244,"tourner":6245,"pouvoirs":6246,"patri":6247,"accompli":6248,"propriétaire":6249,"occuper":6250,"Surnom":6251,"romain":6252,"fabriquer":6253,"délib":6254,"Égyp":6255,"branche":6256,"magné":6257,"conserve":6258,"insecti":6259,"univer":6260,"univers":6261,"rapproche":6262,"Propos":6263,"allure":6264,"Modi":6265,"dessinée":6266,"terrestre":6267,"prépare":6268,"Rhône":6269,"phrases":6270,"photographique":6271,"imaginaire":6272,"fournir":6273,"chrétiens":6274,"prêtre":6275,"efforts":6276,"effectuer":6277,"éloigner":6278,"méprisable":6279,"musicale":6280,"essentiel":6281,"modifier":6282,"Première":6283,"exactitude":6284,"difficultés":6285,"domestiques":6286,"Longue":6287,"russe":6288,"##ximité":6289,"bless":6290,"seigneur":6291,"adverbe":6292,"Électronique":6293,"tuyau":6294,"dépourvu":6295,"indépend":6296,"adversaire":6297,"Navire":6298,"tiges":6299,"Angleterre":6300,"Prison":6301,"véhicules":6302,"Famille":6303,"Médicament":6304,"Fournir":6305,"Bro":6306,"Boul":6307,"Cer":6308,"Japon":6309,"Manger":6310,"Pos":6311,"Plat":6312,"Placer":6313,"Rome":6314,"Sus":6315,"Vol":6316,"avenir":6317,"ajouter":6318,"cm":6319,"dieu":6320,"dyn":6321,"fat":6322,"gli":6323,"gestion":6324,"garder":6325,"hété":6326,"habillement":6327,"idé":6328,"jo":6329,"joint":6330,"lux":6331,"lier":6332,"lèvres":6333,"mû":6334,"pai":6335,"paire":6336,"pil":6337,"rues":6338,"ratt":6339,"saut":6340,"sommes":6341,"top":6342,"tendre":6343,"tours":6344,"vété":6345,"Équi":6346,"##aurant":6347,"##rerie":6348,"##cis":6349,"##cop":6350,"##ho":6351,"##fond":6352,"##férer":6353,"##bu":6354,"##dient":6355,"##yr":6356,"##ômes":6357,"##tise":6358,"##ané":6359,"##anité":6360,"##andu":6361,"##ointe":6362,"parten":6363,"##staux":6364,"##strait":6365,"enrou":6366,"##veil":6367,"##veiller":6368,"##gents":6369,"##réables":6370,"##résil":6371,"déd":6372,"revient":6373,"pourrait":6374,"proie":6375,"procure":6376,"insi":6377,"quant":6378,"réduire":6379,"##onnier":6380,"études":6381,"##érap":6382,"##arition":6383,"Artiste":6384,"raff":6385,"radic":6386,"précédé":6387,"corne":6388,"autant":6389,"##ssée":6390,"motif":6391,"modes":6392,"entretenir":6393,"privée":6394,"impose":6395,"impét":6396,"alg":6397,"Qualifiait":6398,"faç":6399,"##ainement":6400,"##adis":6401,"##amais":6402,"Auteur":6403,"éprouver":6404,"longs":6405,"subsi":6406,"morph":6407,"foncé":6408,"interruption":6409,"habituel":6410,"Ord":6411,"cultive":6412,"ouvrir":6413,"destination":6414,"disposer":6415,"décla":6416,"trouvent":6417,"troubles":6418,"scrup":6419,"désh":6420,"cuisson":6421,"claire":6422,"chimiques":6423,"tropic":6424,"bizarre":6425,"crédit":6426,"désignant":6427,"théologie":6428,"chauff":6429,"péril":6430,"Comté":6431,"planche":6432,"variété":6433,"flux":6434,"brute":6435,"puisse":6436,"puiss":6437,"sortie":6438,"cycle":6439,"##crire":6440,"séparé":6441,"garnir":6442,"récompense":6443,"reproduction":6444,"observ":6445,"affecte":6446,"coloré":6447,"civilité":6448,"conjug":6449,"oxygène":6450,"astre":6451,"imprimé":6452,"intellectuel":6453,"Passage":6454,"citoyens":6455,"conséque":6456,"Débarrasser":6457,"sportive":6458,"faisait":6459,"Diminuer":6460,"occupation":6461,"Peuple":6462,"Fix":6463,"bactéries":6464,"Profession":6465,"arabe":6466,"élégance":6467,"sûr":6468,"mécanisme":6469,"confiance":6470,"Bâtiment":6471,"carbone":6472,"européenne":6473,"ignor":6474,"conseil":6475,"accompagnée":6476,"bronze":6477,"responsable":6478,"Fantastique":6479,"Football":6480,"préjudi":6481,"permane":6482,"flexible":6483,"Judaïsme":6484,"ensuite":6485,"phytosanitaire":6486,"Russie":6487,"émotions":6488,"Bretagne":6489,"100":6490,"Côte":6491,"Classe":6492,"Fou":6493,"Fab":6494,"Faux":6495,"Fond":6496,"Hi":6497,"Her":6498,"Jur":6499,"Lar":6500,"Mus":6501,"Myc":6502,"Péd":6503,"Sal":6504,"az":6505,"alig":6506,"cali":6507,"cac":6508,"cad":6509,"gêne":6510,"jette":6511,"jamais":6512,"mac":6513,"pon":6514,"roy":6515,"rassemb":6516,"tit":6517,"vaut":6518,"##ront":6519,"##tabilité":6520,"##hre":6521,"##heur":6522,"##yme":6523,"##vure":6524,"##ks":6525,"##ties":6526,"##anim":6527,"##andé":6528,"##oré":6529,"##nelles":6530,"##anter":6531,"##oisir":6532,"##menter":6533,"##stre":6534,"##ourir":6535,"##vence":6536,"##chette":6537,"##dem":6538,"##cuter":6539,"##assi":6540,"plai":6541,"revenir":6542,"##èrent":6543,"##èrement":6544,"##osy":6545,"##osée":6546,"provenant":6547,"surmon":6548,"réd":6549,"diale":6550,"dioc":6551,"##ablie":6552,"##agon":6553,"auxquels":6554,"Arrê":6555,"rap":6556,"rapi":6557,"sonore":6558,"obs":6559,"obtient":6560,"illu":6561,"écoles":6562,"carton":6563,"mouil":6564,"saveur":6565,"##olet":6566,"##ombres":6567,"allég":6568,"##ciens":6569,"dépend":6570,"dépendance":6571,"Provoquer":6572,"Provence":6573,"abatt":6574,"agg":6575,"synthèse":6576,"mate":6577,"matérie":6578,"cost":6579,"subit":6580,"cacher":6581,"cavité":6582,"fondre":6583,"Conc":6584,"infec":6585,"transmettre":6586,"transmission":6587,"habits":6588,"communs":6589,"Degré":6590,"doul":6591,"crème":6592,"##ribuer":6593,"différent":6594,"attachement":6595,"##ctrice":6596,"annonce":6597,"crime":6598,"cristaux":6599,"armées":6600,"envie":6601,"##ieusement":6602,"Souff":6603,"classi":6604,"importun":6605,"portion":6606,"détourner":6607,"montrer":6608,"secret":6609,"##écules":6610,"employés":6611,"tambour":6612,"contrôle":6613,"Mexique":6614,"##aïque":6615,"patron":6616,"registre":6617,"accomplir":6618,"accompagné":6619,"##lèvement":6620,"##édonie":6621,"morts":6622,"##illons":6623,"notion":6624,"battre":6625,"bataille":6626,"chercher":6627,"hardi":6628,"récolte":6629,"Faculté":6630,"XVIe":6631,"excessivement":6632,"pronon":6633,"ecclésiastiques":6634,"méthode":6635,"réelle":6636,"traité":6637,"administrative":6638,"Franche":6639,"développer":6640,"Calédonie":6641,"avion":6642,"jeter":6643,"attribue":6644,"oreilles":6645,"collectivité":6646,"téléphone":6647,"fatigue":6648,"juifs":6649,"soigner":6650,"honte":6651,"institution":6652,"enregist":6653,"enregistre":6654,"protège":6655,"pénétrer":6656,"fumée":6657,"industriel":6658,"combustion":6659,"stim":6660,"bœuf":6661,"simultan":6662,"Grèce":6663,"judiciaire":6664,"##phémisme":6665,"Symbole":6666,"Sénégal":6667,"Égypte":6668,"Mycologie":6669,"Ber":6670,"Bois":6671,"Cond":6672,"Er":6673,"Guerre":6674,"Mou":6675,"Pi":6676,"Pé":6677,"Prê":6678,"Place":6679,"Poisson":6680,"Prin":6681,"Rét":6682,"Sac":6683,"Sign":6684,"Siège":6685,"Ten":6686,"Tenir":6687,"bul":6688,"cant":6689,"fac":6690,"habi":6691,"hôte":6692,"honnête":6693,"maigre":6694,"océ":6695,"pant":6696,"pense":6697,"râ":6698,"romp":6699,"roch":6700,"tu":6701,"toit":6702,"tiennent":6703,"urb":6704,"Év":6705,"Évé":6706,"équ":6707,"élab":6708,"îles":6709,"##ames":6710,"##arences":6711,"##rois":6712,"##roiss":6713,"##naires":6714,"##fre":6715,"##pre":6716,"##gile":6717,"##ôture":6718,"##estes":6719,"##ares":6720,"##andi":6721,"##mence":6722,"##liser":6723,"enj":6724,"##rase":6725,"##raction":6726,"lent":6727,"##inant":6728,"##chit":6729,"chrom":6730,"chlor":6731,"chèvre":6732,"##roque":6733,"##ismes":6734,"##olue":6735,"conci":6736,"conventi":6737,"##lave":6738,"exciter":6739,"section":6740,"##asie":6741,"rele":6742,"rece":6743,"réag":6744,"##aisie":6745,"Relation":6746,"##ulf":6747,"##vise":6748,"étage":6749,"auxquelles":6750,"apparences":6751,"##uits":6752,"vite":6753,"##angé":6754,"##angerie":6755,"couple":6756,"pente":6757,"intérieure":6758,"prière":6759,"perception":6760,"perfection":6761,"empreinte":6762,"mélo":6763,"adhé":6764,"##endar":6765,"##order":6766,"dépla":6767,"déplacement":6768,"Dém":6769,"poig":6770,"charges":6771,"fermée":6772,"cav":6773,"Réduire":6774,"##ifier":6775,"vertéb":6776,"##duisent":6777,"sécré":6778,"monétaire":6779,"habitant":6780,"avancé":6781,"amuser":6782,"légiti":6783,"destinées":6784,"causé":6785,"anciennement":6786,"répand":6787,"désordre":6788,"évènement":6789,"annuelle":6790,"humaines":6791,"recueillir":6792,"fabuleux":6793,"navi":6794,"précieux":6795,"frapp":6796,"frappe":6797,"vase":6798,"vache":6799,"Métall":6800,"œufs":6801,"détermine":6802,"calcaire":6803,"musculaire":6804,"distinction":6805,"regard":6806,"mouvoir":6807,"##oriale":6808,"Surface":6809,"qualifie":6810,"mâts":6811,"##jouterie":6812,"races":6813,"##rogène":6814,"##ustre":6815,"exemp":6816,"insecte":6817,"##rinaire":6818,"assimi":6819,"céréales":6820,"artificielle":6821,"normale":6822,"République":6823,"obligé":6824,"enfantin":6825,"reproduire":6826,"célè":6827,"Accomp":6828,"##commoder":6829,"prononcer":6830,"médioc":6831,"effectue":6832,"suspend":6833,"procès":6834,"Généra":6835,"##achie":6836,"revenus":6837,"Association":6838,"drap":6839,"totale":6840,"Inflamm":6841,"cellulaire":6842,"hypoc":6843,"comestibles":6844,"abondance":6845,"cloche":6846,"typique":6847,"Collec":6848,"Collection":6849,"augmenter":6850,"journée":6851,"Mauvaise":6852,"oreille":6853,"collective":6854,"Cirque":6855,"taillé":6856,"##logerie":6857,"coutume":6858,"orange":6859,"stupide":6860,"céléb":6861,"Causer":6862,"##igarette":6863,"tonneau":6864,"équilibre":6865,"nucléaire":6866,"lutter":6867,"protest":6868,"Révolution":6869,"##nabis":6870,"vingt":6871,"conventionne":6872,"Métallurgie":6873,"Inflammation":6874,"Bon":6875,"Bonne":6876,"Dén":6877,"Durée":6878,"Dern":6879,"Masse":6880,"Norm":6881,"Nav":6882,"Pres":6883,"Pub":6884,"Soi":6885,"Sau":6886,"Sole":6887,"Sortir":6888,"Tuer":6889,"Ve":6890,"amen":6891,"ble":6892,"bac":6893,"cens":6894,"gam":6895,"gendar":6896,"hém":6897,"lign":6898,"liens":6899,"mut":6900,"mathématiques":6901,"nar":6902,"nos":6903,"noblesse":6904,"ora":6905,"put":6906,"pomme":6907,"pommes":6908,"zo":6909,"Él":6910,"éval":6911,"élas":6912,"étendre":6913,"##aments":6914,"##adé":6915,"##rh":6916,"##uves":6917,"##més":6918,"##by":6919,"##dar":6920,"##gées":6921,"##gogne":6922,"##ût":6923,"##estre":6924,"dette":6925,"##uir":6926,"unir":6927,"##arie":6928,"##orale":6929,"##omètre":6930,"##rire":6931,"##vette":6932,"chic":6933,"##alyse":6934,"##issage":6935,"estomac":6936,"Quitter":6937,"##cision":6938,"##lateur":6939,"sept":6940,"##ureau":6941,"retenue":6942,"remise":6943,"proximité":6944,"inscri":6945,"Relig":6946,"##onnées":6947,"diac":6948,"diam":6949,"armé":6950,"Enlever":6951,"##oison":6952,"étang":6953,"étoiles":6954,"établie":6955,"ramp":6956,"précip":6957,"particulières":6958,"##ttement":6959,"##ssence":6960,"oblique":6961,"##loph":6962,"coupé":6963,"accou":6964,"Ins":6965,"carte":6966,"primi":6967,"prince":6968,"terminé":6969,"deuxième":6970,"mécon":6971,"marcher":6972,"marins":6973,"alc":6974,"##tesse":6975,"facultés":6976,"pharmac":6977,"places":6978,"placés":6979,"métrop":6980,"exposer":6981,"##thique":6982,"abdo":6983,"agriculture":6984,"cohé":6985,"##ayer":6986,"Bijouterie":6987,"Rési":6988,"chapeau":6989,"interdit":6990,"apparten":6991,"colonnes":6992,"roule":6993,"égal":6994,"organiques":6995,"##clen":6996,"avaient":6997,"original":6998,"graminées":6999,"rense":7000,"indiquant":7001,"##chéologie":7002,"ministre":7003,"assurance":7004,"cire":7005,"réputation":7006,"Alpes":7007,"supplément":7008,"Traitement":7009,"évoque":7010,"poche":7011,"règne":7012,"Couvrir":7013,"Soumettre":7014,"appellation":7015,"pitié":7016,"embras":7017,"groupement":7018,"central":7019,"larges":7020,"Comptabilité":7021,"calme":7022,"tourne":7023,"présenter":7024,"excré":7025,"Repro":7026,"barb":7027,"barre":7028,"indis":7029,"Interp":7030,"endroits":7031,"Liqui":7032,"mât":7033,"mâch":7034,"198":7035,"spont":7036,"déliv":7037,"exprimée":7038,"nourri":7039,"insen":7040,"puissant":7041,"##illard":7042,"élémentaire":7043,"sauf":7044,"arrêt":7045,"tombe":7046,"procédure":7047,"Exploitation":7048,"artifice":7049,"descendre":7050,"Destin":7051,"prison":7052,"183":7053,"Service":7054,"productions":7055,"observer":7056,"Organisation":7057,"appareils":7058,"fournit":7059,"commerciale":7060,"libéra":7061,"opposée":7062,"Atta":7063,"reconnaître":7064,"chât":7065,"rivières":7066,"##penterie":7067,"administratif":7068,"Grosse":7069,"revêt":7070,"conséquence":7071,"diminuer":7072,"jambe":7073,"##ymn":7074,"##rophe":7075,"volontaire":7076,"prête":7077,"échappe":7078,"hippiques":7079,"globe":7080,"disparaître":7081,"molécules":7082,"parasite":7083,"myst":7084,"rythme":7085,"membrane":7086,"brusquement":7087,"saillie":7088,"prostituée":7089,"commission":7090,"espagnole":7091,"collège":7092,"chirurgicale":7093,"Quelquefois":7094,"immeuble":7095,"quadrup":7096,"machines":7097,"faciliter":7098,"géométrique":7099,"Ustensile":7100,"produisant":7101,"emprunt":7102,"accordé":7103,"##réhensible":7104,"mathématique":7105,"vraie":7106,"Hipp":7107,"célèbre":7108,"Collectivement":7109,"Navigation":7110,"Soleil":7111,"abdomen":7112,"Ara":7113,"Alli":7114,"Cô":7115,"Cab":7116,"Cord":7117,"Hom":7118,"Je":7119,"Lo":7120,"Laisser":7121,"No":7122,"Non":7123,"Présent":7124,"Rou":7125,"Rac":7126,"Th":7127,"Tur":7128,"Trouver":7129,"Zone":7130,"bel":7131,"blo":7132,"bouil":7133,"blâ":7134,"cur":7135,"cog":7136,"durer":7137,"fur":7138,"fal":7139,"flè":7140,"hâ":7141,"hal":7142,"héri":7143,"mir":7144,"mule":7145,"museau":7146,"nombres":7147,"rê":7148,"sar":7149,"sci":7150,"sér":7151,"sombre":7152,"utile":7153,"village":7154,"éme":7155,"éro":7156,"île":7157,"##axe":7158,"##top":7159,"##tude":7160,"##mées":7161,"##lai":7162,"##lule":7163,"##laise":7164,"##llon":7165,"##bout":7166,"##gle":7167,"##ôts":7168,"##eries":7169,"devient":7170,"debout":7171,"##urerie":7172,"##anément":7173,"##neaux":7174,"##anth":7175,"oub":7176,"##oman":7177,"##omachie":7178,"##stesse":7179,"lente":7180,"lecture":7181,"##chal":7182,"##chage":7183,"##chante":7184,"##rote":7185,"conver":7186,"exige":7187,"##asme":7188,"rent":7189,"##tenus":7190,"prose":7191,"inég":7192,"##rancher":7193,"Relations":7194,"##dication":7195,"##aindre":7196,"##amique":7197,"##aliers":7198,"dirig":7199,"architecture":7200,"ancre":7201,"orner":7202,"##anteau":7203,"préal":7204,"prévenir":7205,"##éraire":7206,"##ortement":7207,"auton":7208,"couverte":7209,"acception":7210,"Médecin":7211,"##ographiques":7212,"##ting":7213,"limité":7214,"limite":7215,"emper":7216,"mél":7217,"##ondance":7218,"altitude":7219,"courtes":7220,"phase":7221,"##oing":7222,"dépas":7223,"époux":7224,"Proté":7225,"##lande":7226,"agrément":7227,"major":7228,"coord":7229,"cache":7230,"stri":7231,"naturels":7232,"##pid":7233,"monté":7234,"transform":7235,"défend":7236,"Ordre":7237,"fines":7238,"finesse":7239,"doux":7240,"douze":7241,"##esseur":7242,"##linaire":7243,"avantages":7244,"différen":7245,"tirée":7246,"spéciale":7247,"Absence":7248,"riz":7249,"canal":7250,"Alté":7251,"clos":7252,"clôture":7253,"incor":7254,"siècles":7255,"moyennant":7256,"##hib":7257,"équipes":7258,"clas":7259,"anglicisme":7260,"fraction":7261,"montant":7262,"antérieur":7263,"Compar":7264,"graisse":7265,"végétale":7266,"papillon":7267,"combinaison":7268,"##grédient":7269,"Course":7270,"mêlée":7271,"barbe":7272,"##vorable":7273,"remplir":7274,"mâles":7275,"blancs":7276,"197":7277,"menu":7278,"joues":7279,"nourrir":7280,"Viole":7281,"préparé":7282,"préparée":7283,"alimentation":7284,"protéines":7285,"##citation":7286,"souffre":7287,"souffrir":7288,"séparation":7289,"terrains":7290,"résistance":7291,"munie":7292,"écrite":7293,"aspects":7294,"terrestres":7295,"##cheter":7296,"dureté":7297,"logement":7298,"superp":7299,"##issements":7300,"changements":7301,"Charpenterie":7302,"chrétien":7303,"économie":7304,"accorder":7305,"ajust":7306,"##ockey":7307,"Génétique":7308,"multitude":7309,"Représenter":7310,"détruit":7311,"problème":7312,"examiner":7313,"vivacité":7314,"erreur":7315,"reposant":7316,"détails":7317,"sportif":7318,"répéti":7319,"euphémisme":7320,"densité":7321,"##argon":7322,"chaussure":7323,"attribut":7324,"musulmans":7325,"Cesser":7326,"réussir":7327,"affirmation":7328,"définie":7329,"sphère":7330,"sphérique":7331,"##isprudence":7332,"correction":7333,"inutile":7334,"majuscule":7335,"outrage":7336,"ennuy":7337,"précédent":7338,"parallèles":7339,"herbacée":7340,"écoulement":7341,"respirat":7342,"renforcer":7343,"##ymph":7344,"Cépage":7345,"sévère":7346,"prennent":7347,"chinois":7348,"contrôler":7349,"intéres":7350,"similaire":7351,"temporaire":7352,"céleste":7353,"moquerie":7354,"corpore":7355,"épreuve":7356,"##ddh":7357,"agricole":7358,"Gouver":7359,"officiers":7360,"Boulangerie":7361,"vétérinaire":7362,"Pédologie":7363,"Événement":7364,"navires":7365,"Généralement":7366,"12":7367,"Ali":7368,"Bate":7369,"Cong":7370,"Fer":7371,"Hé":7372,"IS":7373,"Joue":7374,"Mol":7375,"Pan":7376,"Troupe":7377,"Voir":7378,"XXe":7379,"agents":7380,"brou":7381,"borde":7382,"cos":7383,"cale":7384,"fru":7385,"fili":7386,"faces":7387,"gard":7388,"heur":7389,"lune":7390,"lisse":7391,"magn":7392,"pale":7393,"piste":7394,"pav":7395,"rô":7396,"sèche":7397,"sulf":7398,"ty":7399,"voûte":7400,"élè":7401,"##amin":7402,"##iment":7403,"##ost":7404,"##oques":7405,"##nif":7406,"##uant":7407,"##mati":7408,"##lom":7409,"##pture":7410,"##yl":7411,"##ka":7412,"##H1":7413,"##tieuse":7414,"##ano":7415,"##tentement":7416,"##lior":7417,"##lisé":7418,"##orger":7419,"outre":7420,"quitter":7421,"##rammes":7422,"lentement":7423,"##ourer":7424,"##ourdi":7425,"##chu":7426,"##ennes":7427,"##isée":7428,"##iserie":7429,"##usée":7430,"##olont":7431,"semi":7432,"##ressé":7433,"déclen":7434,"##ppes":7435,"##assin":7436,"plume":7437,"ondes":7438,"##ilh":7439,"inverse":7440,"ingrédient":7441,"quoti":7442,"récip":7443,"rémun":7444,"Rejet":7445,"ardeur":7446,"trompe":7447,"fortif":7448,"forcé":7449,"##acer":7450,"##étude":7451,"éth":7452,"passent":7453,"Cher":7454,"prév":7455,"particules":7456,"vivent":7457,"victi":7458,"illég":7459,"couches":7460,"Sexe":7461,"carrée":7462,"teinte":7463,"motifs":7464,"##tilité":7465,"termin":7466,"liaison":7467,"impropre":7468,"alli":7469,"adulte":7470,"courses":7471,"##andie":7472,"restre":7473,"##versation":7474,"malgré":7475,"##tituer":7476,"sympt":7477,"pouvait":7478,"familles":7479,"##leurer":7480,"subir":7481,"rapporter":7482,"mortier":7483,"Réf":7484,"effic":7485,"nommée":7486,"verte":7487,"accomm":7488,"régler":7489,"Conj":7490,"opposer":7491,"monument":7492,"défa":7493,"apla":7494,"biensé":7495,"habitudes":7496,"égales":7497,"gravité":7498,"boute":7499,"légumine":7500,"indire":7501,"atomes":7502,"baie":7503,"franchi":7504,"Apparence":7505,"causes":7506,"matin":7507,"##misph":7508,"anciennes":7509,"répondre":7510,"confection":7511,"##scrit":7512,"Discipline":7513,"fécond":7514,"inconn":7515,"domine":7516,"##icile":7517,"critique":7518,"néces":7519,"préciser":7520,"bâton":7521,"circulation":7522,"embry":7523,"Méth":7524,"périph":7525,"exercer":7526,"œuf":7527,"variante":7528,"press":7529,"végétation":7530,"distingu":7531,"regroup":7532,"balance":7533,"##oureusement":7534,"##ections":7535,"indulg":7536,"indéter":7537,"concert":7538,"Super":7539,"aigre":7540,"spati":7541,"brill":7542,"##illesse":7543,"traditionnellement":7544,"fixée":7545,"Viticulture":7546,"faibles":7547,"réunit":7548,"souffrance":7549,"négation":7550,"démar":7551,"fréquemment":7552,"respecter":7553,"difficilement":7554,"tenu":7555,"découvert":7556,"impressions":7557,"Style":7558,"dérision":7559,"douceur":7560,"psychologique":7561,"Organisme":7562,"affecté":7563,"local":7564,"Charge":7565,"Indiquer":7566,"comparaison":7567,"humide":7568,"dispositions":7569,"civile":7570,"unités":7571,"librement":7572,"méthodes":7573,"imprime":7574,"hydro":7575,"involont":7576,"opposés":7577,"nettement":7578,"crust":7579,"énoncé":7580,"développé":7581,"Retour":7582,"diminution":7583,"renferme":7584,"exister":7585,"divise":7586,"divine":7587,"signification":7588,"chiffres":7589,"chaussée":7590,"introduire":7591,"doigt":7592,"lépid":7593,"Bourgogne":7594,"##réhension":7595,"profondément":7596,"virus":7597,"XVIIe":7598,"honor":7599,"Déclar":7600,"professeur":7601,"neuf":7602,"manip":7603,"locution":7604,"##straire":7605,"minéraux":7606,"aversion":7607,"prompt":7608,"témoignage":7609,"laissant":7610,"circons":7611,"aromatique":7612,"limites":7613,"épaules":7614,"câble":7615,"inattendu":7616,"souhait":7617,"évêque":7618,"Brassi":7619,"##atrième":7620,"Chaussure":7621,"primaire":7622,"##keting":7623,"Augmentation":7624,"magistra":7625,"ruban":7626,"veulent":7627,"continent":7628,"péjorative":7629,"Normandie":7630,"Liquide":7631,"Hippologie":7632,"Côté":7633,"Bateau":7634,"regroupant":7635,"Amp":7636,"Amener":7637,"Arithmétique":7638,"Dignité":7639,"Imi":7640,"Lor":7641,"Mari":7642,"Mod":7643,"Monde":7644,"Nature":7645,"Poi":7646,"Pét":7647,"Rom":7648,"Signe":7649,"Sculp":7650,"Tun":7651,"Tous":7652,"Taur":7653,"Usage":7654,"ave":7655,"bag":7656,"domp":7657,"far":7658,"gent":7659,"germ":7660,"graphique":7661,"gestes":7662,"ivoire":7663,"lion":7664,"liste":7665,"moin":7666,"pis":7667,"pist":7668,"pronom":7669,"plis":7670,"ranger":7671,"ralent":7672,"ronge":7673,"royaume":7674,"sale":7675,"sag":7676,"tré":7677,"tendance":7678,"ur":7679,"vel":7680,"Ém":7681,"Édi":7682,"Éche":7683,"ère":7684,"élo":7685,"émis":7686,"étendu":7687,"##raire":7688,"##rurerie":7689,"##tru":7690,"##ia":7691,"##nature":7692,"##cient":7693,"##fères":7694,"##ématique":7695,"##laires":7696,"##dans":7697,"##yz":7698,"##èdent":7699,"##Cl":7700,"##53":7701,"##50":7702,"##erelle":7703,"dedans":7704,"##iette":7705,"##telier":7706,"laver":7707,"latéra":7708,"##siles":7709,"##mentaires":7710,"##rimé":7711,"##cel":7712,"##auts":7713,"chal":7714,"##roc":7715,"##alie":7716,"##enne":7717,"##get":7718,"externe":7719,"##quérir":7720,"planté":7721,"coméd":7722,"onde":7723,"##oss":7724,"projec":7725,"ino":7726,"inno":7727,"##otes":7728,"révé":7729,"Ref":7730,"Recher":7731,"##ets":7732,"##ortable":7733,"archite":7734,"anc":7735,"##éracées":7736,"Archéologie":7737,"comprise":7738,"complexe":7739,"ram":7740,"approp":7741,"apporter":7742,"oblige":7743,"active":7744,"acteurs":7745,"##atives":7746,"##liger":7747,"##roniques":7748,"##ssait":7749,"carni":7750,"tent":7751,"moelle":7752,"##icat":7753,"espérance":7754,"disc":7755,"discussion":7756,"serment":7757,"serrer":7758,"empire":7759,"méditerran":7760,"##cherie":7761,"allant":7762,"admis":7763,"##ailli":7764,"plas":7765,"exploi":7766,"départ":7767,"Proc":7768,"abstrait":7769,"malade":7770,"##contin":7771,"affai":7772,"poussi":7773,"fila":7774,"##mément":7775,"caché":7776,"stable":7777,"résoudre":7778,"naturelles":7779,"internet":7780,"##obili":7781,"Contre":7782,"Intro":7783,"mondi":7784,"Exécu":7785,"habituelle":7786,"communes":7787,"doub":7788,"amoureux":7789,"destinés":7790,"utilisées":7791,"renv":7792,"tiré":7793,"tiers":7794,"message":7795,"bateaux":7796,"crâ":7797,"dispose":7798,"Abri":7799,"franc":7800,"écrites":7801,"attaquer":7802,"cannabis":7803,"répond":7804,"répug":7805,"répandu":7806,"féd":7807,"domaines":7808,"côte":7809,"évacu":7810,"voler":7811,"recomm":7812,"grosses":7813,"débat":7814,"provient":7815,"cirque":7816,"fraî":7817,"embarras":7818,"extraire":7819,"##lisser":7820,"variations":7821,"milieux":7822,"regarder":7823,"cerf":7824,"Trace":7825,"occupé":7826,"vertus":7827,"établit":7828,"Repas":7829,"facilité":7830,"bruy":7831,"romains":7832,"organisé":7833,"199":7834,"solides":7835,"##ugby":7836,"##iciellement":7837,"croûte":7838,"Chez":7839,"Disposer":7840,"traiter":7841,"alimentaires":7842,"jaunes":7843,"##minence":7844,"progrès":7845,"vendu":7846,"résister":7847,"découle":7848,"découverte":7849,"Stru":7850,"maintien":7851,"favoriser":7852,"cultivé":7853,"chemins":7854,"sensibilité":7855,"dossier":7856,"indéf":7857,"##uillet":7858,"révolte":7859,"médié":7860,"éloigné":7861,"désagréables":7862,"diviser":7863,"dangereux":7864,"##charge":7865,"invari":7866,"##crétion":7867,"cylindre":7868,"hémisph":7869,"remarquer":7870,"besoins":7871,"développ":7872,"horizontale":7873,"allongée":7874,"répétition":7875,"obscurité":7876,"orientale":7877,"obstacles":7878,"verticale":7879,"musulman":7880,"Trouble":7881,"affectation":7882,"équipement":7883,"sports":7884,"condamné":7885,"conformité":7886,"documents":7887,"précisément":7888,"uniquement":7889,"étudiant":7890,"harmonie":7891,"sûre":7892,"Faute":7893,"prostitution":7894,"arrondie":7895,"retire":7896,"##rouiller":7897,"espagnol":7898,"ethnie":7899,"systèmes":7900,"Selon":7901,"persist":7902,"Toucher":7903,"bourgeois":7904,"grammaticale":7905,"éclairage":7906,"Rapport":7907,"exagéré":7908,"excellent":7909,"##endiculaire":7910,"##sychiatrie":7911,"olive":7912,"dextre":7913,"Entreprise":7914,"caca":7915,"diocèse":7916,"rapidité":7917,"rochers":7918,"##andise":7919,"médiocre":7920,"Éloig":7921,"ISO":7922,"indulgence":7923,"Tauromachie":7924,".-":7925,"AD":7926,"Cro":7927,"Conn":7928,"Ellipse":7929,"Ge":7930,"Gui":7931,"Hist":7932,"Ir":7933,"Lé":7934,"Nu":7935,"Roche":7936,"Toile":7937,"Tige":7938,"Vert":7939,"ama":7940,"ajout":7941,"be":7942,"bloc":7943,"grê":7944,"goû":7945,"héré":7946,"imite":7947,"jur":7948,"lour":7949,"lig":7950,"marine":7951,"mètre":7952,"nuire":7953,"ovale":7954,"pne":7955,"page":7956,"pru":7957,"pages":7958,"rit":7959,"tan":7960,"tal":7961,"##table":7962,"##iance":7963,"##olle":7964,"##olier":7965,"##eb":7966,"##érop":7967,"##lons":7968,"##donner":7969,"##vir":7970,"##vois":7971,"##ja":7972,"##ker":7973,"##ïde":7974,"##tig":7975,"##arisme":7976,"##lidés":7977,"##ortions":7978,"##sen":7979,"##section":7980,"latine":7981,"quin":7982,"##mentation":7983,"##rime":7984,"parure":7985,"parlement":7986,"envelo":7987,"enceinte":7988,"##téré":7989,"##raper":7990,"##chance":7991,"chute":7992,"##rot":7993,"##role":7994,"esthétique":7995,"##cière":7996,"##lable":7997,"##ataire":7998,"##itaires":7999,"comique":8000,"##mper":8001,"remon":8002,"##ontrer":8003,"proje":8004,"inscrit":8005,"quart":8006,"##oterie":8007,"surf":8008,"surveiller":8009,"réci":8010,"réaliser":8011,"##irmer":8012,"##aissé":8013,"##dium":8014,"##onnable":8015,"##alin":8016,"##phtal":8017,"foresti":8018,"##acte":8019,"##chemin":8020,"soutient":8021,"soutien":8022,"étou":8023,"étonnement":8024,"étym":8025,"manches":8026,"##érante":8027,"faites":8028,"viol":8029,"cornes":8030,"écart":8031,"Inscri":8032,"carbon":8033,"savant":8034,"perform":8035,"percevoir":8036,"liés":8037,"serait":8038,"serpent":8039,"emph":8040,"imprimerie":8041,"marqué":8042,"##uth":8043,"Cellule":8044,"exposé":8045,"donnait":8046,"dépose":8047,"##atifs":8048,"##cédent":8049,"diffusion":8050,"malades":8051,"##ingue":8052,"maï":8053,"poumons":8054,"fermé":8055,"nommer":8056,"nommé":8057,"chape":8058,"Diale":8059,"fonte":8060,"interne":8061,"##alisées":8062,"sédi":8063,"appartiennent":8064,"égyp":8065,"Orth":8066,"profil":8067,"originaires":8068,"site":8069,"finance":8070,"grasse":8071,"Dem":8072,"Cart":8073,"principales":8074,"opère":8075,"timi":8076,"##raindre":8077,"Techn":8078,"##llité":8079,"orthod":8080,"croi":8081,"offic":8082,"minière":8083,"assais":8084,"situées":8085,"##ouette":8086,"basque":8087,"confusion":8088,"donnent":8089,"club":8090,"incomp":8091,"suppose":8092,"domesti":8093,"arbuste":8094,"arrivée":8095,"premières":8096,"École":8097,"naï":8098,"précieuse":8099,"publication":8100,"Couche":8101,"équivale":8102,"équipage":8103,"bât":8104,"biologique":8105,"hyg":8106,"détacher":8107,"Former":8108,"homogène":8109,"théories":8110,"politesse":8111,"quantités":8112,"vérit":8113,"véhé":8114,"##ithète":8115,"##estament":8116,"Impression":8117,"instin":8118,"rempla":8119,"fabriquée":8120,"passereaux":8121,"menace":8122,"bonheur":8123,"ascen":8124,"Cheval":8125,"articulation":8126,"exprimant":8127,"fixes":8128,"salle":8129,"professionnel":8130,"banc":8131,"##oïque":8132,"réunis":8133,"considérées":8134,"démocra":8135,"batt":8136,"ligneuse":8137,"##rompu":8138,"tension":8139,"manifes":8140,"manifester":8141,"voyelle":8142,"arrêté":8143,"vivement":8144,"découvrir":8145,"normalement":8146,"dénote":8147,"dérivation":8148,"céder":8149,"guérir":8150,"immun":8151,"psychique":8152,"étrange":8153,"observation":8154,"muraille":8155,"photographie":8156,"senestre":8157,"Épouse":8158,"midi":8159,"économ":8160,"escalier":8161,"effectué":8162,"suspendu":8163,"Animaux":8164,"irrégu":8165,"##ristocra":8166,"hydrogène":8167,"tempérament":8168,"distribution":8169,"friv":8170,"loup":8171,"souveraine":8172,"associé":8173,"hypoth":8174,"entouré":8175,"contemp":8176,"japonaise":8177,"##carb":8178,"fusil":8179,"mammifère":8180,"sexuels":8181,"hostile":8182,"affections":8183,"hippomobile":8184,"hiérarchique":8185,"régulièrement":8186,"Combinaison":8187,"provoquée":8188,"parallèle":8189,"Horlogerie":8190,"inconsi":8191,"satisfaction":8192,"perçoit":8193,"Certains":8194,"jouir":8195,"retrouve":8196,"cordage":8197,"systématique":8198,"maximum":8199,"millions":8200,"Caractéris":8201,"Toponymie":8202,"##yclette":8203,"apprécier":8204,"historique":8205,"outils":8206,"manœuvre":8207,"envoyé":8208,"isolée":8209,"aérienne":8210,"souterraine":8211,"baguette":8212,"diplôme":8213,"perpendiculaire":8214,"Exerci":8215,"habileté":8216,"colonies":8217,"rectangulaire":8218,"mensonge":8219,"lycée":8220,"Consid":8221,"contagieuse":8222,"blessure":8223,"partenaire":8224,"Fixer":8225,"préjudice":8226,"Prêtre":8227,"légitime":8228,"Dernier":8229,"Jean":8230,"miroir":8231,"classique":8232,"élèves":8233,"quotid":8234,"franchise":8235,"lépidoptère":8236,"Lorraine":8237,"Sculpture":8238,"Air":8239,"Ath":8240,"Br":8241,"Brésil":8242,"Cet":8243,"Cyclisme":8244,"Ivoire":8245,"Lu":8246,"Mi":8247,"Molécule":8248,"Neur":8249,"Orig":8250,"Pu":8251,"Rap":8252,"SI":8253,"Sin":8254,"Spor":8255,"bale":8256,"brique":8257,"cami":8258,"clé":8259,"cint":8260,"caill":8261,"dames":8262,"essence":8263,"fre":8264,"foule":8265,"gue":8266,"gir":8267,"golf":8268,"gonf":8269,"idi":8270,"inex":8271,"jadis":8272,"lan":8273,"lique":8274,"linguistique":8275,"monn":8276,"miel":8277,"myth":8278,"molécule":8279,"naître":8280,"omb":8281,"orale":8282,"pomp":8283,"rur":8284,"ruse":8285,"rites":8286,"tom":8287,"tun":8288,"tard":8289,"tribu":8290,"use":8291,"vas":8292,"vil":8293,"##rête":8294,"##iée":8295,"##ium":8296,"##nance":8297,"##uté":8298,"##ujet":8299,"##eurs":8300,"##cacées":8301,"##fications":8302,"##son":8303,"##mal":8304,"##ly":8305,"##bine":8306,"##bule":8307,"##pée":8308,"##vante":8309,"##jou":8310,"##èves":8311,"##time":8312,"##tières":8313,"##arque":8314,"##ana":8315,"##anque":8316,"##anche":8317,"##liner":8318,"##oris":8319,"##orée":8320,"##oric":8321,"##quelette":8322,"##oub":8323,"##ouvoir":8324,"##rices":8325,"##river":8326,"destru":8327,"parchemin":8328,"##rade":8329,"##veille":8330,"##ina":8331,"##chard":8332,"choquer":8333,"choisi":8334,"##igu":8335,"##iger":8336,"##ciers":8337,"convi":8338,"concep":8339,"conception":8340,"conversation":8341,"##laves":8342,"exact":8343,"selle":8344,"sels":8345,"pourvoir":8346,"pourvu":8347,"ingén":8348,"##urés":8349,"##ottes":8350,"surnature":8351,"réduite":8352,"Rev":8353,"##onnant":8354,"##ulant":8355,"arrête":8356,"##aby":8357,"##aboli":8358,"##agée":8359,"Ard":8360,"Arriver":8361,"appuie":8362,"appuyer":8363,"##imes":8364,"vise":8365,"vives":8366,"Quand":8367,"illicite":8368,"couteau":8369,"accé":8370,"##umé":8371,"##ritoire":8372,"commen":8373,"saurait":8374,"##iliaire":8375,"marais":8376,"marron":8377,"proportions":8378,"##onger":8379,"##lications":8380,"##certitude":8381,"##ords":8382,"expos":8383,"expliquer":8384,"##amie":8385,"Peau":8386,"déplace":8387,"dépôt":8388,"épine":8389,"Protes":8390,"Production":8391,"##ncement":8392,"poussent":8393,"famili":8394,"subal":8395,"consom":8396,"Réaction":8397,"sty":8398,"effra":8399,"électri":8400,"électricité":8401,"##ropicale":8402,"ordonn":8403,"frui":8404,"aper":8405,"Exe":8406,"roux":8407,"communément":8408,"avoc":8409,"financier":8410,"##aînement":8411,"##cepti":8412,"renouve":8413,"##ophy":8414,"nouveaux":8415,"vieilli":8416,"enfonce":8417,"offense":8418,"portait":8419,"portaient":8420,"portative":8421,"minéral":8422,"basée":8423,"désapp":8424,"désavantage":8425,"Spécifique":8426,"feuillage":8427,"Esprit":8428,"veiller":8429,"Allure":8430,"Lame":8431,"incert":8432,"incap":8433,"domin":8434,"domination":8435,"Liturgie":8436,"recru":8437,"débarrasser":8438,"Marquer":8439,"concernant":8440,"permettent":8441,"pige":8442,"clavier":8443,"angoisse":8444,"créé":8445,"occident":8446,"##sification":8447,"détour":8448,"Métal":8449,"chaude":8450,"calom":8451,"vélo":8452,"Chapeau":8453,"distinct":8454,"##romagné":8455,"flui":8456,"mousse":8457,"brune":8458,"##niers":8459,"##ditation":8460,"roman":8461,"triang":8462,"tristesse":8463,"conclusion":8464,"Sujet":8465,"muque":8466,"tranche":8467,"pâtisserie":8468,"##rographie":8469,"articu":8470,"articles":8471,"géographique":8472,"palmi":8473,"notre":8474,"sauce":8475,"tenue":8476,"venant":8477,"Acadie":8478,"élarg":8479,"ther":8480,"thème":8481,"Réputation":8482,"numérique":8483,"récol":8484,"dérivé":8485,"favorise":8486,"187":8487,"cultivées":8488,"populaires":8489,"Travaux":8490,"absur":8491,"civilisation":8492,"partisans":8493,"méthodique":8494,"posséder":8495,"dramatique":8496,"mater":8497,"modification":8498,"simplicité":8499,"consécu":8500,"horizontal":8501,"disposés":8502,"faisaient":8503,"existant":8504,"promesse":8505,"échec":8506,"denrées":8507,"compétence":8508,"aimable":8509,"affectueux":8510,"populations":8511,"Grade":8512,"Pratiquer":8513,"hospit":8514,"actuel":8515,"culinaire":8516,"identique":8517,"consacré":8518,"croissent":8519,"alcoolisée":8520,"risque":8521,"risques":8522,"statut":8523,"restaurant":8524,"syndic":8525,"locutions":8526,"évidente":8527,"ennui":8528,"aquatique":8529,"célébri":8530,"frottement":8531,"saillant":8532,"Envoyer":8533,"écarte":8534,"altérer":8535,"épidé":8536,"embarcation":8537,"combustible":8538,"##vitable":8539,"Fonctionnaire":8540,"achat":8541,"purement":8542,"privilég":8543,"imitant":8544,"explosion":8545,"américaine":8546,"alternativement":8547,"toxique":8548,"Caractérise":8549,"mouton":8550,"Maghre":8551,"##rimander":8552,"Hydro":8553,"Papier":8554,"Tableau":8555,"hanches":8556,"phonèmes":8557,"Substanti":8558,"Substantif":8559,"Appellation":8560,"amérindien":8561,"Juif":8562,"inévitable":8563,"Manifester":8564,"italien":8565,"saints":8566,"argument":8567,"symétrie":8568,"aventure":8569,"intervalle":8570,"insignif":8571,"précaution":8572,"lyrique":8573,"Succession":8574,"acides":8575,"glandes":8576,"infanterie":8577,"candidat":8578,"féodal":8579,"conséquences":8580,"##roissement":8581,"Soierie":8582,"rampant":8583,"embrasser":8584,"##ymnastique":8585,"##ddhisme":8586,"Joueur":8587,"calend":8588,"réciproque":8589,"Chercher":8590,"Modèle":8591,"Édifice":8592,"méditerranéen":8593,"invariable":8594,"Cartographie":8595,"inconsidé":8596,"Caractéristique":8597,"Spécifiquement":8598,"Maghreb":8599,"Assi":8600,"Bu":8601,"Bat":8602,"C1":8603,"Cin":8604,"Cours":8605,"Céré":8606,"Déter":8607,"Esti":8608,"Fl":8609,"Fai":8610,"File":8611,"Gau":8612,"Loui":8613,"Liste":8614,"Lancer":8615,"Mu":8616,"Mali":8617,"Mic":8618,"Mets":8619,"Porte":8620,"Position":8621,"Rob":8622,"Tri":8623,"ax":8624,"alé":8625,"amener":8626,"aqueuse":8627,"bant":8628,"blesse":8629,"bonnes":8630,"cut":8631,"din":8632,"frit":8633,"foie":8634,"ge":8635,"gain":8636,"je":8637,"laissé":8638,"mous":8639,"mythologie":8640,"mèche":8641,"nob":8642,"nette":8643,"poing":8644,"range":8645,"routes":8646,"stéri":8647,"taux":8648,"vu":8649,"vote":8650,"Épi":8651,"Éval":8652,"âne":8653,"éte":8654,"éducation":8655,"émission":8656,"##rè":8657,"##iale":8658,"##ovi":8659,"##obe":8660,"##ex":8661,"##euses":8662,"##connerie":8663,"##éant":8664,"##mologie":8665,"##dal":8666,"##gés":8667,"##va":8668,"##vag":8669,"##O2":8670,"##21":8671,"##40":8672,"##ticule":8673,"##uilles":8674,"##ariser":8675,"##arnir":8676,"##urt":8677,"##ueille":8678,"##anc":8679,"##aniques":8680,"##tements":8681,"##seurs":8682,"##seud":8683,"laï":8684,"lampe":8685,"lapin":8686,"##ouche":8687,"##siane":8688,"##ril":8689,"##rières":8690,"parois":8691,"##rac":8692,"##rave":8693,"##rations":8694,"##anson":8695,"##aude":8696,"chêne":8697,"##roie":8698,"##ende":8699,"##llet":8700,"##isser":8701,"##igle":8702,"##olat":8703,"convain":8704,"##lages":8705,"##ogènes":8706,"secours":8707,"##ress":8708,"comble":8709,"commise":8710,"##ossé":8711,"proph":8712,"prosp":8713,"invention":8714,"indem":8715,"##onnements":8716,"##rane":8717,"réalisé":8718,"##division":8719,"arrog":8720,"tron":8721,"Enn":8722,"##ville":8723,"souci":8724,"soustraire":8725,"passive":8726,"##cessible":8727,"mandat":8728,"entendu":8729,"Artisan":8730,"compas":8731,"composi":8732,"Chant":8733,"préh":8734,"préf":8735,"précep":8736,"prétend":8737,"##lantique":8738,"##ternes":8739,"vision":8740,"##ntemps":8741,"corpor":8742,"cordon":8743,"coucher":8744,"##atie":8745,"##ronie":8746,"peindre":8747,"Méditerran":8748,"Mélior":8749,"commencer":8750,"##ériculture":8751,"##iègle":8752,"écur":8753,"écailles":8754,"cart":8755,"moteurs":8756,"##ick":8757,"##ttoman":8758,"distil":8759,"printemps":8760,"terminer":8761,"liée":8762,"##ubles":8763,"##aret":8764,"marques":8765,"allusion":8766,"courants":8767,"traî":8768,"traditions":8769,"philosophie":8770,"repou":8771,"##aillir":8772,"exploit":8773,"##andard":8774,"##beille":8775,"dépl":8776,"Dév":8777,"éper":8778,"épis":8779,"éprou":8780,"époques":8781,"##risme":8782,"abb":8783,"absolu":8784,"malf":8785,"Phénom":8786,"charre":8787,"charme":8788,"agité":8789,"maçons":8790,"##venue":8791,"familière":8792,"##aye":8793,"subite":8794,"cavités":8795,"Réc":8796,"standard":8797,"verd":8798,"interrompre":8799,"élevés":8800,"sélection":8801,"appartement":8802,"états":8803,"possibilité":8804,"possibles":8805,"transvers":8806,"transmis":8807,"transformation":8808,"Exciter":8809,"Agitation":8810,"indic":8811,"sociaux":8812,"spécial":8813,"spécialisée":8814,"##umière":8815,"minim":8816,"blanch":8817,"scand":8818,"conflit":8819,"confondre":8820,"désuet":8821,"##scop":8822,"cuisin":8823,"niais":8824,"Manège":8825,"jugé":8826,"incons":8827,"métalliques":8828,"supériorité":8829,"côtes":8830,"criti":8831,"règlement":8832,"Femelle":8833,"caractérise":8834,"encre":8835,"Amour":8836,"##hiz":8837,"appelées":8838,"piété":8839,"Habitante":8840,"équipé":8841,"##athie":8842,"##athologie":8843,"bip":8844,"travaillant":8845,"##sifs":8846,"Formation":8847,"anth":8848,"##insule":8849,"chauffer":8850,"contrairement":8851,"Composition":8852,"calcium":8853,"##ecter":8854,"variables":8855,"Chaque":8856,"##vresse":8857,"mêlé":8858,"Surp":8859,"sexuelles":8860,"culturel":8861,"considérer":8862,"concurre":8863,"Préparer":8864,"afric":8865,"féminine":8866,"solidité":8867,"joué":8868,"péninsule":8869,"délit":8870,"bouts":8871,"hiver":8872,"ensemb":8873,"##oïdes":8874,"palais":8875,"##crip":8876,"faim":8877,"Corde":8878,"réunies":8879,"souffle":8880,"souffrances":8881,"marchands":8882,"vérifier":8883,"gouverner":8884,"possesseur":8885,"procéder":8886,"Exposer":8887,"nuages":8888,"Répandre":8889,"obligatoire":8890,"succin":8891,"doucement":8892,"Faci":8893,"Serrurerie":8894,"raisons":8895,"affectée":8896,"Séparer":8897,"roches":8898,"Groupement":8899,"Travailler":8900,"Motoc":8901,"##aigne":8902,"mira":8903,"humidité":8904,"Particip":8905,"souris":8906,"hydra":8907,"opposées":8908,"distribu":8909,"appliqué":8910,"appliquée":8911,"château":8912,"inspiration":8913,"vivace":8914,"vivaces":8915,"citron":8916,"tournant":8917,"éclair":8918,"Retrancher":8919,"flatte":8920,"pincées":8921,"internationales":8922,"fenêtres":8923,"téléphonique":8924,"bordé":8925,"sabre":8926,"parasites":8927,"voyageurs":8928,"neutre":8929,"pulpe":8930,"heureux":8931,"digestion":8932,"membranes":8933,"spirituel":8934,"spirituelle":8935,"dormir":8936,"Engin":8937,"richesse":8938,"richesses":8939,"odorif":8940,"rhétorique":8941,"conçu":8942,"syllabe":8943,"minérale":8944,"chocolat":8945,"fausseté":8946,"poursuit":8947,"verbal":8948,"bœufs":8949,"ethn":8950,"inventé":8951,"attribuée":8952,"Atteindre":8953,"maximale":8954,"américain":8955,"attire":8956,"Polyn":8957,"philosophique":8958,"Pénét":8959,"coco":8960,"Centre":8961,"quartier":8962,"Affect":8963,"Image":8964,"amérindienne":8965,"Antilles":8966,"déclarer":8967,"tranquillité":8968,"Massif":8969,"président":8970,"navig":8971,"sanguin":8972,"##ylédones":8973,"vagues":8974,"##oxyde":8975,"Examiner":8976,"étalage":8977,"fidèles":8978,"ajouté":8979,"suffisante":8980,"Poursuite":8981,"Recouvrir":8982,"subordonné":8983,"glisse":8984,"paix":8985,"radical":8986,"chauffage":8987,"classification":8988,"cavalier":8989,"conventionnelle":8990,"insensible":8991,"quadrupèdes":8992,"empereur":8993,"Altérer":8994,"symptômes":8995,"défavorable":8996,"Méthode":8997,"spatiale":8998,"brillante":8999,"magistrats":9000,"architectur":9001,"crâne":9002,"Vertu":9003,"goûts":9004,"surfaces":9005,"maïs":9006,"Puériculture":9007,"électriques":9008,"Louisiane":9009,"bantoue":9010,"Méditerranée":9011,"Mélioratif":9012,"30":9013,"Ama":9014,"Bout":9015,"Bacté":9016,"Borde":9017,"Barre":9018,"Cl":9019,"Cru":9020,"Cigarette":9021,"Gre":9022,"Jo":9023,"Més":9024,"Nég":9025,"Pui":9026,"Ri":9027,"Rest":9028,"Sab":9029,"Tre":9030,"Tomber":9031,"Vaste":9032,"Wi":9033,"aille":9034,"bet":9035,"bile":9036,"bisc":9037,"cler":9038,"cité":9039,"coin":9040,"cada":9041,"dr":9042,"dame":9043,"fie":9044,"flu":9045,"foyer":9046,"fleu":9047,"fièvre":9048,"glisser":9049,"hume":9050,"ironique":9051,"ironie":9052,"ivresse":9053,"még":9054,"mond":9055,"mène":9056,"mille":9057,"natif":9058,"noy":9059,"neut":9060,"nutrition":9061,"pit":9062,"rot":9063,"rock":9064,"som":9065,"sch":9066,"sén":9067,"solu":9068,"sultan":9069,"tol":9070,"tumeur":9071,"vogue":9072,"viennent":9073,"équité":9074,"##rus":9075,"##raise":9076,"##tage":9077,"##ial":9078,"##iteur":9079,"##oquant":9080,"##cons":9081,"##hou":9082,"##his":9083,"##lusque":9084,"##bis":9085,"##dage":9086,"##doc":9087,"##derie":9088,"##gues":9089,"##gies":9090,"##yg":9091,"##jour":9092,"##joui":9093,"##zième":9094,"##zyme":9095,"##O3":9096,"##09":9097,"##çait":9098,"##ars":9099,"##arer":9100,"##urrence":9101,"##anoui":9102,"##aign":9103,"##liation":9104,"##liction":9105,"##lines":9106,"##licit":9107,"##oral":9108,"##oriques":9109,"##sition":9110,"ouvre":9111,"##rité":9112,"##rich":9113,"##risse":9114,"##struire":9115,"enro":9116,"##cell":9117,"##tégie":9118,"autel":9119,"##veurs":9120,"chen":9121,"chère":9122,"chance":9123,"cham":9124,"##ros":9125,"##rocher":9126,"##usant":9127,"content":9128,"concept":9129,"excite":9130,"exagé":9131,"##minent":9132,"déla":9133,"déchar":9134,"Partir":9135,"requi":9136,"relâ":9137,"relié":9138,"cela":9139,"ceinture":9140,"ond":9141,"##osés":9142,"prome":9143,"infor":9144,"insin":9145,"incen":9146,"quatrième":9147,"##othé":9148,"##otype":9149,"réforme":9150,"##aisance":9151,"Recevoir":9152,"##ulée":9153,"diur":9154,"dicot":9155,"argile":9156,"##abulaire":9157,"##abiller":9158,"tru":9159,"Ense":9160,"##agu":9161,"##agers":9162,"orches":9163,"étape":9164,"##énie":9165,"manuel":9166,"##ariat":9167,"Arts":9168,"Arbri":9169,"compli":9170,"comptes":9171,"appelle":9172,"apprent":9173,"Chré":9174,"##spirer":9175,"##version":9176,"corro":9177,"couvrant":9178,"acteur":9179,"carrière":9180,"tente":9181,"modé":9182,"disait":9183,"discuter":9184,"discontin":9185,"percé":9186,"sera":9187,"serre":9188,"serpe":9189,"implique":9190,"impôts":9191,"marg":9192,"marée":9193,"marquée":9194,"courir":9195,"tracé":9196,"traduction":9197,"##formé":9198,"##nerie":9199,"reptiles":9200,"##oteur":9201,"chevre":9202,"respec":9203,"dépression":9204,"Désir":9205,"éparg":9206,"épithète":9207,"##érieux":9208,"Prob":9209,"Prostitu":9210,"abat":9211,"absolument":9212,"malad":9213,"partiellement":9214,"coop":9215,"coffre":9216,"fermer":9217,"fertile":9218,"##paravant":9219,"consonne":9220,"effec":9221,"résolu":9222,"accorde":9223,"fonde":9224,"fondement":9225,"intervention":9226,"séduit":9227,"Condition":9228,"Convention":9229,"monte":9230,"posé":9231,"infini":9232,"défen":9233,"défauts":9234,"coloni":9235,"rousse":9236,"églises":9237,"##itude":9238,"##auvres":9239,"bouff":9240,"boucles":9241,"douleurs":9242,"suivent":9243,"##cepter":9244,"formées":9245,"renc":9246,"##ophone":9247,"##ommaire":9248,"indication":9249,"principaux":9250,"Temp":9251,"##térieurs":9252,"attendre":9253,"attén":9254,"crypt":9255,"franchir":9256,"décap":9257,"##chnie":9258,"##udeur":9259,"portes":9260,"minu":9261,"mines":9262,"assiette":9263,"##ènements":9264,"##ouilli":9265,"contours":9266,"répandre":9267,"##ègre":9268,"confession":9269,"##mone":9270,"##monie":9271,"Troisième":9272,"##mension":9273,"évolu":9274,"critiquer":9275,"naz":9276,"envah":9277,"Marché":9278,"Marketing":9279,"Couvert":9280,"tropicale":9281,"##iniâtre":9282,"piv":9283,"piquant":9284,"Habitation":9285,"équivalent":9286,"sucrée":9287,"anglaise":9288,"Entrer":9289,"frappé":9290,"créée":9291,"largement":9292,"##roid":9293,"contrainte":9294,"extrê":9295,"planches":9296,"planètes":9297,"Compagn":9298,"fortes":9299,"fortun":9300,"casser":9301,"Territoire":9302,"presser":9303,"pressant":9304,"végétales":9305,"regroupe":9306,"moule":9307,"administrer":9308,"indig":9309,"remplacer":9310,"engager":9311,"qualifier":9312,"singes":9313,"##azz":9314,"raccour":9315,"##édération":9316,"jouant":9317,"servaient":9318,"briser":9319,"présentent":9320,"Astrologie":9321,"Chef":9322,"coupable":9323,"télévis":9324,"artistes":9325,"Poème":9326,"Régler":9327,"Proposition":9328,"sorti":9329,"traverser":9330,"réunir":9331,"religions":9332,"fréquente":9333,"islam":9334,"tendu":9335,"Expression":9336,"nuance":9337,"##astre":9338,"valoir":9339,"dénig":9340,"écrivain":9341,"mauvaises":9342,"fermeté":9343,"artisan":9344,"bourre":9345,"dérivés":9346,"genoux":9347,"raisonnable":9348,"observe":9349,"##atistiques":9350,"Optique":9351,"Autorité":9352,"prêt":9353,"Atlantique":9354,"procède":9355,"réservoir":9356,"réservé":9357,"Générique":9358,"astres":9359,"vaisselle":9360,"raide":9361,"aisée":9362,"aisance":9363,"imprimée":9364,"intellectuelles":9365,"postérieur":9366,"toilette":9367,"Établir":9368,"totalement":9369,"distribuer":9370,"simples":9371,"Nouveau":9372,"jeunesse":9373,"association":9374,"abondant":9375,"flamme":9376,"sinc":9377,"179":9378,"Simp":9379,"blasonnement":9380,"augmentation":9381,"Troubler":9382,"prône":9383,"Prix":9384,"futur":9385,"passager":9386,"Versification":9387,"bénéfice":9388,"soient":9389,"soigne":9390,"climat":9391,"conformément":9392,"Extra":9393,"pauvre":9394,"pulv":9395,"alcoolique":9396,"Confiserie":9397,"ruine":9398,"films":9399,"gloire":9400,"Engager":9401,"peintre":9402,"provoquant":9403,"entités":9404,"altération":9405,"arrondi":9406,"synthétique":9407,"constituent":9408,"Douleur":9409,"fâcheuse":9410,"collèges":9411,"déroule":9412,"cordages":9413,"privilège":9414,"circuit":9415,"civils":9416,"absorber":9417,"délicatesse":9418,"Palé":9419,"Inclin":9420,"recourbée":9421,"éclats":9422,"croissance":9423,"allemande":9424,"voitures":9425,"souterrain":9426,"inhum":9427,"potent":9428,"##oucissement":9429,"navigation":9430,"concentration":9431,"Aspect":9432,"Français":9433,"Citoyen":9434,"dégradation":9435,"structures":9436,"Police":9437,"accidentelle":9438,"accomplissement":9439,"rapprochent":9440,"dynas":9441,"##veillant":9442,"ignorance":9443,"Jurisprudence":9444,"rassembler":9445,"abattu":9446,"matelas":9447,"costume":9448,"infectieuse":9449,"océan":9450,"élastique":9451,"mécontentement":9452,"appartenance":9453,"renseigne":9454,"mulet":9455,"autonome":9456,"restreint":9457,"Tunis":9458,"Recherche":9459,"carnivore":9460,"Structure":9461,"sûreté":9462,"Guinée":9463,"grêle":9464,"forestière":9465,"naïve":9466,"hygiè":9467,"Considérer":9468,"Exemp":9469,"muqueuses":9470,"Substantivement":9471,"calendrier":9472,"distillation":9473,"ensembles":9474,"Polynésie":9475,"fleuves":9476,"exagérée":9477,"informatiques":9478,"Arbrisseau":9479,"Prostituée":9480,"000":9481,"Agent":9482,"Branche":9483,"Croi":9484,"Crier":9485,"Deux":9486,"Gal":9487,"Jet":9488,"Lati":9489,"Pant":9490,"Pau":9491,"Pen":9492,"Rais":9493,"Royaume":9494,"Tourner":9495,"Usine":9496,"Vers":9497,"Valeur":9498,"Végét":9499,"XII":9500,"ail":9501,"alo":9502,"ample":9503,"aristocra":9504,"bin":9505,"bis":9506,"bond":9507,"bris":9508,"besti":9509,"baiser":9510,"bouilli":9511,"coli":9512,"crit":9513,"coiffure":9514,"doc":9515,"dresser":9516,"dommage":9517,"fan":9518,"fron":9519,"flan":9520,"final":9521,"foudre":9522,"fût":9523,"gi":9524,"gê":9525,"grise":9526,"gaie":9527,"hu":9528,"hin":9529,"los":9530,"lim":9531,"lard":9532,"lèvre":9533,"lièvre":9534,"més":9535,"mourir":9536,"nit":9537,"noix":9538,"norme":9539,"om":9540,"pert":9541,"pel":9542,"pieux":9543,"paître":9544,"pair":9545,"positif":9546,"pendu":9547,"pauvres":9548,"pudeur":9549,"railler":9550,"rumin":9551,"san":9552,"sot":9553,"to":9554,"ts":9555,"transitif":9556,"tendant":9557,"tôt":9558,"vague":9559,"wi":9560,"élu":9561,"##tur":9562,"##ides":9563,"##iteau":9564,"##ize":9565,"##otisme":9566,"##nat":9567,"##uge":9568,"##ecture":9569,"##faction":9570,"##ficie":9571,"##éens":9572,"##lures":9573,"##bons":9574,"##din":9575,"##dées":9576,"##disme":9577,"##pon":9578,"##pus":9579,"##propre":9580,"##gence":9581,"##vable":9582,"##vins":9583,"##xén":9584,"##xic":9585,"##kis":9586,"##ôpit":9587,"##êler":9588,"##onale":9589,"##onible":9590,"##erai":9591,"##reurs":9592,"dentelle":9593,"##tiver":9594,"##tieux":9595,"unie":9596,"##ortée":9597,"##seur":9598,"lace":9599,"##sivité":9600,"ouï":9601,"##ompé":9602,"paroi":9603,"##stres":9604,"##raver":9605,"##raient":9606,"##ourg":9607,"##inie":9608,"##chau":9609,"##chure":9610,"##alade":9611,"##cille":9612,"##ciable":9613,"conve":9614,"constant":9615,"##lative":9616,"##latéra":9617,"##ogn":9618,"sem":9619,"##atrice":9620,"déce":9621,"déro":9622,"##quées":9623,"Parole":9624,"rel":9625,"rente":9626,"cep":9627,"proches":9628,"invi":9629,"instance":9630,"inves":9631,"instant":9632,"##onnet":9633,"réce":9634,"récup":9635,"##ctus":9636,"##ctoire":9637,"Revenir":9638,"##dia":9639,"##dier":9640,"##dite":9641,"##diques":9642,"##onniers":9643,"##ortun":9644,"##aline":9645,"diagn":9646,"arth":9647,"archi":9648,"and":9649,"anorm":9650,"##agnement":9651,"orné":9652,"soutenu":9653,"soumission":9654,"soufre":9655,"étoile":9656,"##érables":9657,"##éramique":9658,"manus":9659,"##ario":9660,"Arranger":9661,"##mbrane":9662,"raf":9663,"préfé":9664,"##verg":9665,"##vercle":9666,"corri":9667,"corni":9668,"##ensé":9669,"coule":9670,"couvercle":9671,"##olithique":9672,"##quier":9673,"##ériment":9674,"Ann":9675,"écoli":9676,"écolier":9677,"carré":9678,"##osités":9679,"perche":9680,"permis":9681,"perceptible":9682,"percussion":9683,"liv":9684,"##ube":9685,"formellement":9686,"importe":9687,"impéri":9688,"imposer":9689,"imprimer":9690,"##pétition":9691,"propul":9692,"admettre":9693,"traverse":9694,"reposer":9695,"génit":9696,"##ompt":9697,"##ocy":9698,"exposition":9699,"resser":9700,"##versé":9701,"animales":9702,"touchant":9703,"diffère":9704,"abu":9705,"abré":9706,"malpropre":9707,"command":9708,"Phon":9709,"##titudes":9710,"charrue":9711,"agression":9712,"affran":9713,"##ociologie":9714,"coag":9715,"##rigue":9716,"caval":9717,"consul":9718,"analyse":9719,"effil":9720,"verge":9721,"accroissement":9722,"interface":9723,"interaction":9724,"monoc":9725,"infir":9726,"transpor":9727,"aptitude":9728,"colé":9729,"égards":9730,"##lèmes":9731,"communique":9732,"boucle":9733,"doué":9734,"Agir":9735,"légères":9736,"##derme":9737,"porteur":9738,"opiniâtre":9739,"fonctionnaire":9740,"sociétés":9741,"##téraires":9742,"##ologies":9743,"##aissement":9744,"spécifi":9745,"décrit":9746,"rivage":9747,"Apporter":9748,"vieillesse":9749,"officiel":9750,"portatif":9751,"##umier":9752,"troub":9753,"garçon":9754,"attente":9755,"pointue":9756,"incar":9757,"incroy":9758,"##aissant":9759,"supérieures":9760,"évènements":9761,"##icide":9762,"poème":9763,"poète":9764,"poêle":9765,"##onef":9766,"encour":9767,"envoyer":9768,"littéraires":9769,"March":9770,"Améri":9771,"provis":9772,"mett":9773,"mercure":9774,"merveille":9775,"piano":9776,"##érées":9777,"##tention":9778,"bio":9779,"biais":9780,"biologie":9781,"embal":9782,"##sifier":9783,"argenté":9784,"violet":9785,"antic":9786,"fautes":9787,"##roitement":9788,"périodique":9789,"Matéri":9790,"collection":9791,"Comportement":9792,"##liste":9793,"Membrane":9794,"mass":9795,"massif":9796,"muscle":9797,"Chambre":9798,"goud":9799,"regards":9800,"présents":9801,"##oureuses":9802,"Transformation":9803,"hauts":9804,"établies":9805,"Obtenir":9806,"sexes":9807,"déterminées":9808,"entreprises":9809,"passereau":9810,"qualifié":9811,"marchandise":9812,"Empêcher":9813,"raccommoder":9814,"crochet":9815,"croître":9816,"##rogation":9817,"exécute":9818,"légèreté":9819,"exprimé":9820,"recouvrir":9821,"recouverte":9822,"géologique":9823,"uniforme":9824,"universe":9825,"pratiquer":9826,"fourrure":9827,"palmier":9828,"sacrés":9829,"noble":9830,"battant":9831,"pollu":9832,"correspondre":9833,"programmes":9834,"momentanément":9835,"##gué":9836,"grimp":9837,"dignités":9838,"automne":9839,"##lores":9840,"##lamation":9841,"Déplacement":9842,"recherché":9843,"descendant":9844,"guéri":9845,"constante":9846,"Serrer":9847,"demander":9848,"Catég":9849,"froide":9850,"médicaments":9851,"Éprouver":9852,"Charles":9853,"fourni":9854,"abstenir":9855,"brouil":9856,"Particule":9857,"ajoute":9858,"conjecture":9859,"##rainte":9860,"parfaite":9861,"crav":9862,"##tterie":9863,"revendi":9864,"##lots":9865,"approche":9866,"bovins":9867,"trente":9868,"total":9869,"avantageux":9870,"reconnaissance":9871,"réactions":9872,"torré":9873,"ébran":9874,"mentale":9875,"louanges":9876,"devait":9877,"revêtement":9878,"tendue":9879,"édifices":9880,"relative":9881,"types":9882,"rétablir":9883,"Utilisation":9884,"Dégager":9885,"blasonne":9886,"rusé":9887,"délicate":9888,"capitale":9889,"chiffre":9890,"couvrent":9891,"Cessation":9892,"prô":9893,"affirm":9894,"Ethnologie":9895,"sovi":9896,"berb":9897,"berg":9898,"pétrole":9899,"consacre":9900,"jardin":9901,"paume":9902,"complètement":9903,"coutumes":9904,"instruire":9905,"évident":9906,"chapiteau":9907,"désire":9908,"rappeler":9909,"aquatiques":9910,"écarter":9911,"transparente":9912,"divinités":9913,"##straite":9914,"clients":9915,"satisfaire":9916,"laissée":9917,"retraite":9918,"Jugement":9919,"meilleur":9920,"Commencer":9921,"parenté":9922,"silicium":9923,"ult":9924,"pathologique":9925,"composent":9926,"gouttelettes":9927,"Pénis":9928,"natur":9929,"##lusques":9930,"dissim":9931,"chinoise":9932,"funeste":9933,"plantée":9934,"Regarder":9935,"##ellicule":9936,"apprêter":9937,"croissant":9938,"allemand":9939,"criminelle":9940,"Juifs":9941,"charnue":9942,"tranquille":9943,"Domaine":9944,"béton":9945,"bétail":9946,"croyances":9947,"orifices":9948,"##abilités":9949,"Avantage":9950,"vénération":9951,"convul":9952,"accessoire":9953,"silence":9954,"universi":9955,"indépendante":9956,"insistance":9957,"Professionnel":9958,"permanent":9959,"ponct":9960,"prononciation":9961,"Erreur":9962,"habite":9963,"rompre":9964,"évaluer":9965,"diamètre":9966,"excréments":9967,"brouss":9968,"Rejeter":9969,"involontaire":9970,"Déclarer":9971,"Pétrographie":9972,"dompter":9973,"affaibli":9974,"mondiale":9975,"fraîcheur":9976,"hémisphère":9977,"Histologie":9978,"étymologique":9979,"emphatique":9980,"Dialecte":9981,"Technologie":9982,"Exercice":9983,"cailloux":9984,"incertain":9985,"Faible":9986,"##ovible":9987,"préceptes":9988,"Phénomène":9989,"verdâtre":9990,"critiqué":9991,"ailleurs":9992,"better":9993,"extrêmes":9994,"dynastie":9995,"diagnos":9996,"cavalerie":9997,"incroyable":9998,"merveilleux":9999,"Catégorie":10000,"14":10001,"Base":10002,"Clo":10003,"Cop":10004,"Eu":10005,"Golf":10006,"Hyp":10007,"Lin":10008,"Lami":10009,"Mur":10010,"Mun":10011,"Pop":10012,"Pic":10013,"Rui":10014,"Règ":10015,"Voi":10016,"Volu":10017,"Vase":10018,"XX":10019,"aur":10020,"asi":10021,"aurait":10022,"acheter":10023,"bos":10024,"bap":10025,"bad":10026,"botanique":10027,"cét":10028,"curi":10029,"coiff":10030,"es":10031,"fure":10032,"fend":10033,"fasse":10034,"folie":10035,"gagne":10036,"héraldique":10037,"hôpit":10038,"joindre":10039,"lust":10040,"laissent":10041,"mit":10042,"mail":10043,"mailles":10044,"molé":10045,"manteau":10046,"noise":10047,"oral":10048,"ottoman":10049,"pa":10050,"paires":10051,"rois":10052,"sonne":10053,"sommaire":10054,"tâ":10055,"tét":10056,"utiles":10057,"urine":10058,"ves":10059,"vou":10060,"vaste":10061,"zomb":10062,"zéro":10063,"Én":10064,"Étendre":10065,"éru":10066,"éruption":10067,"##amer":10068,"##rètes":10069,"##tail":10070,"##ivation":10071,"##nait":10072,"##nais":10073,"##nante":10074,"##nier":10075,"##qû":10076,"##uf":10077,"##uments":10078,"##cante":10079,"##ctive":10080,"##canisme":10081,"##corde":10082,"##hm":10083,"##hyd":10084,"##fert":10085,"##mar":10086,"##lén":10087,"##lante":10088,"##lard":10089,"##bie":10090,"##pins":10091,"##go":10092,"##ya":10093,"##vas":10094,"##vrier":10095,"##ject":10096,"##zer":10097,"##èbres":10098,"##îtres":10099,"##oniques":10100,"##rection":10101,"##tisse":10102,"##uition":10103,"##arme":10104,"##urier":10105,"##uette":10106,"##levé":10107,"##siner":10108,"##sines":10109,"##oiffe":10110,"quitte":10111,"##omanie":10112,"dessé":10113,"description":10114,"parap":10115,"parcours":10116,"parlées":10117,"##térale":10118,"##rate":10119,"auparavant":10120,"##chait":10121,"##autés":10122,"chasser":10123,"chœur":10124,"##demment":10125,"##ission":10126,"##ussi":10127,"duc":10128,"conique":10129,"condi":10130,"concevoir":10131,"##lades":10132,"##lature":10133,"exh":10134,"excédent":10135,"##ogues":10136,"sep":10137,"décon":10138,"##asp":10139,"##iture":10140,"Paraître":10141,"Parcourir":10142,"##ureux":10143,"commentaires":10144,"pourv":10145,"prolon":10146,"induction":10147,"inanim":10148,"##onnette":10149,"##ffet":10150,"##rangé":10151,"surnom":10152,"réduction":10153,"réjoui":10154,"##dine":10155,"##osex":10156,"##alique":10157,"arra":10158,"anse":10159,"anéant":10160,"##phe":10161,"End":10162,"##agés":10163,"orbi":10164,"étages":10165,"##pection":10166,"##énétique":10167,"entrain":10168,"##ariot":10169,"Arb":10170,"compréhension":10171,"comprimé":10172,"rames":10173,"apposition":10174,"préser":10175,"prévient":10176,"##tteur":10177,"via":10178,"oblong":10179,"autoch":10180,"##ligible":10181,"##umération":10182,"Seconde":10183,"##ritann":10184,"##ducteurs":10185,"##quième":10186,"##ronautique":10187,"##ssage":10188,"##ssante":10189,"peaux":10190,"pelage":10191,"peines":10192,"intime":10193,"##éries":10194,"écran":10195,"Invention":10196,"Instal":10197,"teneur":10198,"##icien":10199,"espiègle":10200,"prières":10201,"##merie":10202,"emplois":10203,"méditation":10204,"impar":10205,"alb":10206,"admet":10207,"adverse":10208,"couramment":10209,"trac":10210,"trace":10211,"repousser":10212,"reprises":10213,"##ocation":10214,"##ader":10215,"explication":10216,"##amorph":10217,"##ardie":10218,"##ssier":10219,"déplor":10220,"génération":10221,"Démon":10222,"touché":10223,"abstraite":10224,"commander":10225,"Phili":10226,"##oyant":10227,"coï":10228,"cochon":10229,"filets":10230,"cadu":10231,"station":10232,"Dipl":10233,"accout":10234,"accueil":10235,"intersection":10236,"réglé":10237,"##ignitaire":10238,"ordonné":10239,"défaite":10240,"##ulent":10241,"collab":10242,"publicit":10243,"égaux":10244,"égalité":10245,"##sinage":10246,"communautés":10247,"grat":10248,"bouc":10249,"##fiés":10250,"Deme":10251,"amas":10252,"paysage":10253,"humanité":10254,"renoncer":10255,"mesurée":10256,"bav":10257,"dispers":10258,"##valle":10259,"offrant":10260,"##ribue":10261,"portable":10262,"minces":10263,"assuré":10264,"écritures":10265,"cime":10266,"ciment":10267,"contrée":10268,"cancer":10269,"canad":10270,"répub":10271,"confort":10272,"pointes":10273,"désord":10274,"niaise":10275,"supporte":10276,"##menade":10277,"arbal":10278,"volon":10279,"volaille":10280,"##tantisme":10281,"débiteur":10282,"##udget":10283,"immer":10284,"piqû":10285,"classes":10286,"importants":10287,"Entourer":10288,"créancier":10289,"déta":10290,"détri":10291,"Form":10292,"Ouvrir":10293,"partager":10294,"centra":10295,"centim":10296,"soirée":10297,"Étudi":10298,"périodes":10299,"Maho":10300,"##lisée":10301,"suscite":10302,"échanger":10303,"échapp":10304,"variées":10305,"presse":10306,"##viser":10307,"accompagnement":10308,"##ruite":10309,"cercles":10310,"mouche":10311,"composant":10312,"composées":10313,"composants":10314,"excède":10315,"Repousser":10316,"indienne":10317,"Intervalle":10318,"détermination":10319,"feutre":10320,"organiser":10321,"éman":10322,"engendre":10323,"Languedoc":10324,"intenti":10325,"triangulaire":10326,"191":10327,"1960":10328,"aigle":10329,"muqueuse":10330,"signature":10331,"menuiserie":10332,"remont":10333,"quasi":10334,"péni":10335,"pénètre":10336,"sanglier":10337,"Astronautique":10338,"coupée":10339,"Églises":10340,"articul":10341,"symbolique":10342,"professionnelle":10343,"conservé":10344,"conservation":10345,"recouvrant":10346,"assembler":10347,"assemblées":10348,"Propre":10349,"sacer":10350,"loger":10351,"retard":10352,"suivantes":10353,"issus":10354,"national":10355,"environs":10356,"##viner":10357,"individuelle":10358,"momentanée":10359,"Activité":10360,"constructions":10361,"artificiellement":10362,"couverture":10363,"normal":10364,"Statistiques":10365,"thérap":10366,"garnies":10367,"Réprimander":10368,"méridi":10369,"obliger":10370,"récla":10371,"bourg":10372,"trompeuse":10373,"immobile":10374,"immobili":10375,"Contr":10376,"Contrat":10377,"refuser":10378,"Pourvoir":10379,"définition":10380,"définitivement":10381,"##caloïde":10382,"modèles":10383,"absolue":10384,"broy":10385,"ostent":10386,"Parties":10387,"prononce":10388,"##ocktail":10389,"assemble":10390,"Transporter":10391,"éloignée":10392,"divisée":10393,"plaisirs":10394,"mobiles":10395,"réellement":10396,"Réser":10397,"maturité":10398,"matrice":10399,"nerfs":10400,"##llages":10401,"problèmes":10402,"libres":10403,"tremble":10404,"inspirer":10405,"cruauté":10406,"tortil":10407,"municip":10408,"munitions":10409,"juridique":10410,"extravag":10411,"décoratif":10412,"relatives":10413,"Retourner":10414,"convenu":10415,"malheure":10416,"combattre":10417,"178":10418,"signifier":10419,"panier":10420,"catégories":10421,"Pâte":10422,"verticalement":10423,"Payer":10424,"injus":10425,"divertir":10426,"définit":10427,"ambiance":10428,"ambigu":10429,"actuelle":10430,"actuellement":10431,"bornes":10432,"fatigué":10433,"juif":10434,"sodium":10435,"sabot":10436,"virt":10437,"entraîne":10438,"Différence":10439,"football":10440,"ménage":10441,"amélioration":10442,"pétales":10443,"acquis":10444,"persu":10445,"correct":10446,"élégant":10447,"inutiles":10448,"Crypt":10449,"pesant":10450,"pesante":10451,"initiale":10452,"Aptitude":10453,"odorante":10454,"patience":10455,"patient":10456,"conçue":10457,"conçoit":10458,"adapter":10459,"lumineuse":10460,"étrangers":10461,"étrangère":10462,"étrangères":10463,"stig":10464,"poursuivre":10465,"respiration":10466,"grossièrement":10467,"Créature":10468,"Certaines":10469,"déroulement":10470,"Montrer":10471,"soudaine":10472,"aiguë":10473,"prolonger":10474,"épaule":10475,"parfumé":10476,"stratégie":10477,"grammatical":10478,"participant":10479,"souhaite":10480,"##pective":10481,"Traiter":10482,"Hydrologie":10483,"taureaux":10484,"enfermé":10485,"##ficatif":10486,"Augmenter":10487,"interprétation":10488,"orgueil":10489,"substantivation":10490,"Beaucoup":10491,"vibration":10492,"Exercer":10493,"##ylédone":10494,"dogmes":10495,"nœuds":10496,"intervalles":10497,"labour":10498,"aménagé":10499,"financière":10500,"rameaux":10501,"adolescence":10502,"silen":10503,"messages":10504,"incommode":10505,"magnétique":10506,"insecticide":10507,"université":10508,"Large":10509,"Muscle":10510,"hardiesse":10511,"enregistrement":10512,"Rétablir":10513,"pantalon":10514,"##roissance":10515,"concilier":10516,"relevant":10517,"poignet":10518,"protestante":10519,"gamme":10520,"lignée":10521,"diacri":10522,"étangs":10523,"##lophone":10524,"rouleau":10525,"supplémentaire":10526,"Reproduction":10527,"mâchoire":10528,"1980":10529,"Destiné":10530,"Alliage":10531,"Roussi":10532,"flèche":10533,"##rotechnique":10534,"préalable":10535,"Gouvernement":10536,"Congo":10537,"ingrédients":10538,"rémunération":10539,"légumineuses":10540,"Romains":10541,"##yzant":10542,"filaments":10543,"cacao":10544,"Neurologie":10545,"Sportif":10546,"camion":10547,"gueule":10548,"Protestantisme":10549,"subalterne":10550,"Déterminer":10551,"nobles":10552,"##rètement":10553,"laïc":10554,"compassion":10555,"##scopique":10556,"concurrents":10557,"Motocyclisme":10558,"##housi":10559,"Génériquement":10560,"renseignements":10561,"Tunisie":10562,"hygiène":10563,"##xénète":10564,"ouïe":10565,"arthrop":10566,"écoliers":10567,"Phonétique":10568,"monocot":10569,"provisoire":10570,"mettait":10571,"Volume":10572,"orbite":10573,"autocht":10574,"##ritannique":10575,"Mahomet":10576,"16":10577,"11":10578,"25":10579,"50":10580,"Aig":10581,"Aux":10582,"Bri":10583,"Boli":10584,"Bord":10585,"Bras":10586,"Boute":10587,"Bouil":10588,"Bloc":10589,"Cam":10590,"Code":10591,"FF":10592,"Fas":10593,"Gu":10594,"Gâ":10595,"Idée":10596,"Jargon":10597,"Loi":10598,"Lim":10599,"Loc":10600,"Lune":10601,"Lumière":10602,"Mer":10603,"Mort":10604,"Mad":10605,"Moins":10606,"Mise":10607,"Nour":10608,"Nat":10609,"Ophtal":10610,"Por":10611,"Pers":10612,"Port":10613,"Pér":10614,"Pron":10615,"Ru":10616,"Ray":10617,"Soin":10618,"Série":10619,"Sav":10620,"Tourn":10621,"Tax":10622,"Tâcher":10623,"User":10624,"Vier":10625,"aéro":10626,"aérien":10627,"atelier":10628,"baisse":10629,"baisser":10630,"buste":10631,"byzant":10632,"britannique":10633,"cris":10634,"clan":10635,"cuve":10636,"ciseau":10637,"fes":10638,"farde":10639,"fâche":10640,"fesses":10641,"gai":10642,"gel":10643,"geste":10644,"gagner":10645,"hol":10646,"imb":10647,"joi":10648,"jazz":10649,"kil":10650,"lub":10651,"lob":10652,"mig":10653,"maux":10654,"mili":10655,"mors":10656,"nau":10657,"nomme":10658,"nutri":10659,"pêcher":10660,"purée":10661,"prenant":10662,"puits":10663,"ration":10664,"roc":10665,"sh":10666,"sourd":10667,"sève":10668,"ski":10669,"tam":10670,"tonner":10671,"tailler":10672,"vo":10673,"vont":10674,"vac":10675,"zin":10676,"Éli":10677,"Éner":10678,"Émission":10679,"émer":10680,"Œu":10681,"##af":10682,"##oî":10683,"##unt":10684,"##ulique":10685,"##ulat":10686,"##has":10687,"##éc":10688,"##lut":10689,"##luer":10690,"##bran":10691,"##dan":10692,"##dres":10693,"##gi":10694,"##visme":10695,"##ïdes":10696,"##înes":10697,"##ôtres":10698,"##20":10699,"##TA":10700,"##ël":10701,"##onte":10702,"##onqui":10703,"##reux":10704,"##urk":10705,"##lies":10706,"##liure":10707,"##ormes":10708,"##omalie":10709,"##mente":10710,"##riche":10711,"parer":10712,"partout":10713,"paroisse":10714,"audi":10715,"auber":10716,"leçons":10717,"levier":10718,"##ouri":10719,"##inité":10720,"##chis":10721,"##chants":10722,"##chlor":10723,"##auph":10724,"chaux":10725,"chanson":10726,"##rob":10727,"##rome":10728,"##rossi":10729,"##isage":10730,"##cil":10731,"##cifères":10732,"conducteur":10733,"exal":10734,"extérieurs":10735,"##ressif":10736,"##ator":10737,"dér":10738,"déch":10739,"déchi":10740,"découp":10741,"détéri":10742,"déchet":10743,"##quait":10744,"##quants":10745,"##assier":10746,"Parf":10747,"plaindre":10748,"remb":10749,"requête":10750,"pourpre":10751,"ong":10752,"##ontologie":10753,"inci":10754,"incul":10755,"querelle":10756,"##aiter":10757,"survient":10758,"réparer":10759,"réalisée":10760,"##aisses":10761,"Reliure":10762,"##ulose":10763,"##ulture":10764,"##ett":10765,"diz":10766,"distances":10767,"ard":10768,"arch":10769,"arro":10770,"##abond":10771,"forcer":10772,"fortification":10773,"Enzyme":10774,"##aga":10775,"orge":10776,"sun":10777,"mandar":10778,"enthousi":10779,"##outch":10780,"##arités":10781,"##mbres":10782,"compt":10783,"appé":10784,"Châ":10785,"préd":10786,"prévoir":10787,"préoc":10788,"##versement":10789,"vice":10790,"vivres":10791,"visibles":10792,"##ensation":10793,"authe":10794,"cous":10795,"accessible":10796,"##quie":10797,"##ssées":10798,"Mécanisme":10799,"##opéens":10800,"Analyse":10801,"écoz":10802,"teinture":10803,"moti":10804,"##séqui":10805,"dissé":10806,"dissolu":10807,"discipline":10808,"personnelle":10809,"priver":10810,"privation":10811,"##omberie":10812,"empois":10813,"emporte":10814,"utilisent":10815,"##arentes":10816,"##culose":10817,"méchante":10818,"implicite":10819,"##sentir":10820,"##psie":10821,"propag":10822,"##utes":10823,"allu":10824,"adou":10825,"courrier":10826,"génétique":10827,"génére":10828,"##aillie":10829,"##ntif":10830,"plafond":10831,"##adaire":10832,"##ordant":10833,"expose":10834,"##ssis":10835,"dépit":10836,"dépasser":10837,"dépouiller":10838,"Déli":10839,"Décou":10840,"Délai":10841,"##riste":10842,"touff":10843,"touffe":10844,"abî":10845,"mals":10846,"##aceae":10847,"symp":10848,"mame":10849,"subj":10850,"substitu":10851,"##méable":10852,"morbi":10853,"analy":10854,"##ifiques":10855,"stade":10856,"statis":10857,"stress":10858,"chaînes":10859,"Divin":10860,"verres":10861,"résolution":10862,"séchée":10863,"apparaît":10864,"Concept":10865,"montée":10866,"infra":10867,"transaction":10868,"transformer":10869,"princes":10870,"rouler":10871,"égout":10872,"##lètement":10873,"communiste":10874,"aval":10875,"origines":10876,"Plaisant":10877,"Plaisir":10878,"Plomberie":10879,"produites":10880,"justif":10881,"gravée":10882,"amis":10883,"amovible":10884,"légume":10885,"esprits":10886,"payé":10887,"##orel":10888,"##ousie":10889,"formules":10890,"directe":10891,"timbre":10892,"Petits":10893,"atome":10894,"Syrie":10895,"proprement":10896,"##ologue":10897,"cruel":10898,"dispute":10899,"spécialité":10900,"##valoir":10901,"Abondance":10902,"décrire":10903,"Appar":10904,"Application":10905,"enfance":10906,"enferm":10907,"résultats":10908,"sols":10909,"trouvant":10910,"mini":10911,"situations":10912,"##ournée":10913,"basses":10914,"confédération":10915,"Alcaloïde":10916,"inclu":10917,"supprimer":10918,"cône":10919,"arboric":10920,"arbrisse":10921,"annoncer":10922,"crin":10923,"név":10924,"envoie":10925,"litres":10926,"débar":10927,"débris":10928,"Marcher":10929,"classement":10930,"visuelle":10931,"sucré":10932,"longuement":10933,"porcel":10934,"détache":10935,"Force":10936,"Fortification":10937,"secteur":10938,"larmes":10939,"##dicap":10940,"Subir":10941,"Subdivision":10942,"Complètement":10943,"polir":10944,"susciter":10945,"suscepti":10946,"variation":10947,"masque":10948,"masses":10949,"gousse":10950,"patrie":10951,"combinant":10952,"présenté":10953,"présentée":10954,"électromagné":10955,"mêle":10956,"mêlés":10957,"établis":10958,"sexuellement":10959,"Reprendre":10960,"Interrompre":10961,"remplit":10962,"organisée":10963,"fabric":10964,"##000":10965,"solitude":10966,"remor":10967,"servie":10968,"pénis":10969,"chevalier":10970,"textile":10971,"salut":10972,"symboles":10973,"conserv":10974,"Proportion":10975,"enseign":10976,"sacri":10977,"mariée":10978,"noctur":10979,"##biologie":10980,"assigner":10981,"nationalité":10982,"publiquement":10983,"fréquence":10984,"fréquentes":10985,"isla":10986,"isolé":10987,"manifestation":10988,"vendent":10989,"voyelles":10990,"résidence":10991,"Accident":10992,"couvertures":10993,"Théorie":10994,"dessins":10995,"complaisance":10996,"hex":10997,"obligations":10998,"reproduit":10999,"bourse":11000,"continuer":11001,"Description":11002,"rangées":11003,"genou":11004,"immodé":11005,"tonique":11006,"Contra":11007,"Cacher":11008,"Cavité":11009,"loge":11010,"Docu":11011,"photo":11012,"Autriche":11013,"Accord":11014,"Épre":11015,"indési":11016,"comparer":11017,"modération":11018,"prononc":11019,"rigueur":11020,"rigoureusement":11021,"colorant":11022,"Enfoncer":11023,"irrég":11024,"horizon":11025,"péti":11026,"##ndiens":11027,"chanter":11028,"##archie":11029,"approcher":11030,"libérer":11031,"boxe":11032,"totalité":11033,"successivement":11034,"énumération":11035,"purg":11036,"suffit":11037,"erg":11038,"parallé":11039,"entourant":11040,"propositions":11041,"Boucherie":11042,"Archaïque":11043,"contrac":11044,"horizontalement":11045,"horizontales":11046,"brac":11047,"brav":11048,"singe":11049,"spirale":11050,"malhonnête":11051,"ordinateurs":11052,"travaillent":11053,"existait":11054,"coquilles":11055,"occupant":11056,"Simple":11057,"bleuâtre":11058,"orientée":11059,"élite":11060,"musulmane":11061,"bactérie":11062,"ménagement":11063,"atmosphérique":11064,"Support":11065,"Supporter":11066,"mollusques":11067,"fréquenté":11068,"paup":11069,"perspective":11070,"ruisseau":11071,"statue":11072,"seigneuri":11073,"rassemble":11074,"précédemment":11075,"stupé":11076,"odorat":11077,"transparent":11078,"flott":11079,"flottant":11080,"Détourner":11081,"Détacher":11082,"Fils":11083,"Bâton":11084,"multiplier":11085,"Atteint":11086,"identiques":11087,"soudainement":11088,"meilleure":11089,"fondamental":11090,"fondamentale":11091,"silice":11092,"taxes":11093,"brebis":11094,"fantaisie":11095,"prolongée":11096,"inflammation":11097,"inflammable":11098,"participation":11099,"équilib":11100,"taureau":11101,"Remède":11102,"accepte":11103,"décomposition":11104,"enfermer":11105,"magasins":11106,"logiciels":11107,"criminel":11108,"magistrat":11109,"célestes":11110,"punir":11111,"exceptionnel":11112,"accumulation":11113,"substantif":11114,"Champagne":11115,"insuff":11116,"laid":11117,"##landais":11118,"vibrations":11119,"perpét":11120,"calculs":11121,"réfléchit":11122,"Dominer":11123,"dogme":11124,"satin":11125,"transition":11126,"sépare":11127,"Examen":11128,"précautions":11129,"Téléphonie":11130,"suffisamment":11131,"Communauté":11132,"Opposé":11133,"Poursuivre":11134,"orifice":11135,"inquiétude":11136,"progressive":11137,"tuberculose":11138,"Haute":11139,"##feuille":11140,"plaisante":11141,"accessoires":11142,"##lancolie":11143,"Excès":11144,"Modifier":11145,"Volonté":11146,"idéologie":11147,"jouit":11148,"luxe":11149,"raffine":11150,"déclare":11151,"tropicales":11152,"puissances":11153,"Fabri":11154,"Fonds":11155,"Arrêter":11156,"matérielle":11157,"importuner":11158,"stimul":11159,"simultanément":11160,"Princip":11161,"bulles":11162,"facteurs":11163,"hôtel":11164,"suspendue":11165,"Presque":11166,"gendarmerie":11167,"Religieux":11168,"1835":11169,"hallu":11170,"dirigé":11171,"respiratoire":11172,"heurter":11173,"forcément":11174,"victime":11175,"efficacité":11176,"bouteilles":11177,"embryon":11178,"indéterminée":11179,"honorifique":11180,"germanique":11181,"sagesse":11182,"Échecs":11183,"moelleux":11184,"poussière":11185,"Introduire":11186,"Exécuter":11187,"1990":11188,"Éloigner":11189,"ajoutant":11190,"lourde":11191,"remonte":11192,"Inscription":11193,"Orthographe":11194,"Demander":11195,"croisent":11196,"équivalente":11197,"véritable":11198,"remplacé":11199,"ascend":11200,"frivole":11201,"destruction":11202,"Cérémonie":11203,"anthrop":11204,"odoriférante":11205,"architectural":11206,"Puissance":11207,"humeurs":11208,"soluble":11209,"##cellulaire":11210,"promeut":11211,"dicotylédones":11212,"Extraordinaire":11213,"Raisonnement":11214,"relâche":11215,"Marchand":11216,"Amérindiens":11217,"cravate":11218,"soviétique":11219,"universitaire":11220,"broussailles":11221,"Population":11222,"asiatique":11223,"curiosité":11224,"moléculaire":11225,"caduques":11226,"détriment":11227,"intentionne":11228,"Roussillon":11229,"Bouteille":11230,"Ophtalmologie":11231,"Rupture":11232,"Vierge":11233,"fâcheuses":11234,"tonnerre":11235,"zinc":11236,"authenti":11237,"écozone":11238,"statistique":11239,"arbrisseaux":11240,"28":11241,"Aj":11242,"Aussi":11243,"Bor":11244,"Bav":11245,"Cy":11246,"Cant":11247,"Cra":11248,"Cla":11249,"Ceux":11250,"Cyc":11251,"Cycle":11252,"Céramique":11253,"Don":11254,"Feu":11255,"Garde":11256,"Har":11257,"Haut":11258,"Haï":11259,"Imm":11260,"Joindre":11261,"Mil":11262,"Mul":11263,"Mac":11264,"Mong":11265,"Mand":11266,"Ni":11267,"Nil":11268,"Nic":11269,"Nap":11270,"Pat":11271,"Pomme":11272,"Peut":11273,"Psychiatrie":11274,"Rig":11275,"Rab":11276,"Rugby":11277,"Sor":11278,"Sim":11279,"Soli":11280,"Satisf":11281,"Ton":11282,"Tor":11283,"Tit":11284,"Testament":11285,"Vain":11286,"Vend":11287,"Vendre":11288,"Ville":11289,"ame":11290,"ari":11291,"bur":11292,"ben":11293,"bic":11294,"boue":11295,"belle":11296,"bosse":11297,"cle":11298,"cig":11299,"cend":11300,"crée":11301,"cigare":11302,"craindre":11303,"dai":11304,"dal":11305,"dors":11306,"fumer":11307,"gru":11308,"gomme":11309,"gérer":11310,"gagn":11311,"guide":11312,"grég":11313,"haine":11314,"houille":11315,"hockey":11316,"ib":11317,"lancé":11318,"lymph":11319,"mers":11320,"mait":11321,"nue":11322,"née":11323,"nations":11324,"ps":11325,"pom":11326,"pèse":11327,"pôle":11328,"prudence":11329,"rol":11330,"ros":11331,"roses":11332,"rail":11333,"sat":11334,"soc":11335,"sper":11336,"sotte":11337,"tue":11338,"tas":11339,"tac":11340,"tum":11341,"tôle":11342,"vaine":11343,"vins":11344,"vécu":11345,"Élé":11346,"émet":11347,"##amp":11348,"##adre":11349,"##rante":11350,"##raille":11351,"##iré":11352,"##iose":11353,"##idement":11354,"##ng":11355,"##nam":11356,"##ula":11357,"##utique":11358,"##uées":11359,"##cat":11360,"##cose":11361,"##cieuse":11362,"##cisse":11363,"##ham":11364,"##far":11365,"##mo":11366,"##mén":11367,"##mètre":11368,"##lux":11369,"##langer":11370,"##lorer":11371,"##bit":11372,"##dir":11373,"##dam":11374,"##dieuse":11375,"##gir":11376,"##gule":11377,"##âtres":11378,"##vures":11379,"##èches":11380,"##BT":11381,"##ondi":11382,"##onorer":11383,"##era":11384,"##ermer":11385,"##renti":11386,"deviner":11387,"##tiser":11388,"##tilement":11389,"##uisé":11390,"##uisement":11391,"##aris":11392,"##arrh":11393,"##urgique":11394,"##ueuses":11395,"##ueusement":11396,"##tex":11397,"##tente":11398,"##lici":11399,"##queux":11400,"##quette":11401,"##seil":11402,"##oun":11403,"##sitant":11404,"enduit":11405,"##ceur":11406,"aug":11407,"audio":11408,"leu":11409,"##ource":11410,"##chier":11411,"chou":11412,"chas":11413,"##roce":11414,"##roch":11415,"##robation":11416,"##alé":11417,"##alogue":11418,"##ensif":11419,"##geance":11420,"##igé":11421,"##iguration":11422,"##ols":11423,"##cile":11424,"##ciées":11425,"##ciaires":11426,"##laient":11427,"secou":11428,"##atologie":11429,"##atoriale":11430,"dédi":11431,"dévi":11432,"déranger":11433,"Parer":11434,"plans":11435,"plane":11436,"plaies":11437,"reine":11438,"revers":11439,"retient":11440,"redire":11441,"##osa":11442,"##osomes":11443,"##oscop":11444,"##ilie":11445,"proven":11446,"provision":11447,"produisent":11448,"iner":11449,"inac":11450,"injur":11451,"##onneux":11452,"##eutique":11453,"##ffic":11454,"##ranchement":11455,"surveillance":11456,"réac":11457,"récon":11458,"##ctures":11459,"##iron":11460,"##irant":11461,"##aises":11462,"Retenir":11463,"Retirer":11464,"##dilection":11465,"##dimension":11466,"partition":11467,"##onnage":11468,"##onnés":11469,"##ultes":11470,"dim":11471,"diable":11472,"arranger":11473,"anat":11474,"##phy":11475,"##phal":11476,"Ench":11477,"Enreg":11478,"Enceinte":11479,"##acch":11480,"##acologie":11481,"##étant":11482,"##étologie":11483,"##chev":11484,"##vion":11485,"##visions":11486,"ornée":11487,"soumise":11488,"##éni":11489,"##éner":11490,"##énique":11491,"##létisme":11492,"##aria":11493,"Arrangement":11494,"rav":11495,"raj":11496,"rase":11497,"radar":11498,"Chi":11499,"prédilection":11500,"##lanter":11501,"##èses":11502,"victoire":11503,"##loïde":11504,"couler":11505,"##atience":11506,"##olit":11507,"##olition":11508,"##istres":11509,"##riture":11510,"##dulation":11511,"pentes":11512,"intransitif":11513,"tenter":11514,"mobi":11515,"entretient":11516,"prises":11517,"perfi":11518,"percée":11519,"litre":11520,"livrer":11521,"##ombrer":11522,"métiers":11523,"##iliers":11524,"impéra":11525,"##psoïde":11526,"dites":11527,"marge":11528,"##tesque":11529,"adh":11530,"adonner":11531,"addition":11532,"adresser":11533,"adoucissement":11534,"courante":11535,"trame":11536,"faveurs":11537,"replier":11538,"##ntive":11539,"##ntiers":11540,"plaie":11541,"métaph":11542,"expan":11543,"explor":11544,"expériment":11545,"##anda":11546,"##andis":11547,"Auver":11548,"Peine":11549,"rester":11550,"restent":11551,"éping":11552,"Proche":11553,"mallé":11554,"commandé":11555,"##querie":11556,"##oyage":11557,"##lanir":11558,"partielle":11559,"affer":11560,"affliction":11561,"affinité":11562,"##uisme":11563,"max":11564,"maîtres":11565,"poussant":11566,"##reries":11567,"fibre":11568,"subli":11569,"caté":11570,"cachée":11571,"caoutch":11572,"consoli":11573,"moralement":11574,"analogues":11575,"Résine":11576,"##ification":11577,"##onymes":11578,"version":11579,"celte":11580,"interrogation":11581,"élection":11582,"élevées":11583,"élections":11584,"réglée":11585,"##alisations":11586,"sémi":11587,"sécher":11588,"séquence":11589,"##obiles":11590,"apparat":11591,"Contenu":11592,"##pille":11593,"ordonnée":11594,"monastique":11595,"inférieurs":11596,"frères":11597,"attrait":11598,"défunt":11599,"routier":11600,"##lète":11601,"ouvriers":11602,"profes":11603,"fini":11604,"finances":11605,"grammes":11606,"gravure":11607,"grappes":11608,"bouquet":11609,"##fiée":11610,"amoureuse":11611,"légale":11612,"destinataire":11613,"portefeuille":11614,"##ommée":11615,"verser":11616,"opaque":11617,"##llipsoïde":11618,"attitudes":11619,"nouvel":11620,"spéciaux":11621,"Aband":11622,"décol":11623,"déclin":11624,"décorer":11625,"ride":11626,"portug":11627,"solaire":11628,"causant":11629,"minerai":11630,"attelage":11631,"cible":11632,"conta":11633,"contribu":11634,"canot":11635,"canard":11636,"scal":11637,"répu":11638,"répéter":11639,"cuisse":11640,"cuirasse":11641,"nive":11642,"veines":11643,"aider":11644,"Alco":11645,"Distin":11646,"clou":11647,"close":11648,"jud":11649,"supérieurs":11650,"capitu":11651,"domicile":11652,"volant":11653,"recons":11654,"recours":11655,"Écrire":11656,"grotesque":11657,"encadre":11658,"précieuses":11659,"liturgique":11660,"pilier":11661,"équip":11662,"sucres":11663,"longueurs":11664,"circule":11665,"notaire":11666,"fragment":11667,"créant":11668,"détach":11669,"violents":11670,"violentes":11671,"violemment":11672,"physiquement":11673,"buts":11674,"placent":11675,"larves":11676,"contraires":11677,"extraite":11678,"plancher":11679,"Comprendre":11680,"prescription":11681,"distinctif":11682,"tourné":11683,"tourmenter":11684,"regret":11685,"accomplit":11686,"électro":11687,"caractérisées":11688,"Transformer":11689,"hautes":11690,"Traverser":11691,"Trafic":11692,"mouvant":11693,"moulin":11694,"insulte":11695,"Liaison":11696,"engend":11697,"engagement":11698,"196":11699,"concrète":11700,"concave":11701,"aiguilles":11702,"féminins":11703,"trancher":11704,"tranches":11705,"remuer":11706,"remonter":11707,"agiter":11708,"délié":11709,"délimi":11710,"loint":11711,"reçue":11712,"mises":11713,"boutons":11714,"ancienneté":11715,"professionnels":11716,"##éroï":11717,"protégeant":11718,"sacré":11719,"sacrée":11720,"##crite":11721,"retrouver":11722,"ciném":11723,"cinquante":11724,"marier":11725,"notions":11726,"##armace":11727,"négoci":11728,"négociation":11729,"démê":11730,"batterie":11731,"polyn":11732,"##rins":11733,"fontaine":11734,"environne":11735,"isom":11736,"isoler":11737,"programmation":11738,"difficiles":11739,"ouvertures":11740,"sauter":11741,"tenant":11742,"manifest":11743,"Motif":11744,"harnais":11745,"résiste":11746,"céréb":11747,"tombée":11748,"gril":11749,"grivois":11750,"##astère":11751,"##astrophe":11752,"automobiles":11753,"Cost":11754,"positions":11755,"therm":11756,"Dépendance":11757,"continuité":11758,"trompette":11759,"rangée":11760,"préposé":11761,"psycho":11762,"Texte":11763,"refuse":11764,"reflets":11765,"XVe":11766,"popu":11767,"Télévision":11768,"définitif":11769,"définitive":11770,"Opinion":11771,"location":11772,"médicale":11773,"##oléon":11774,"Attirer":11775,"galeries":11776,"Réunir":11777,"médias":11778,"règlements":11779,"oxyde":11780,"##tinente":11781,"parfait":11782,"cray":11783,"crasse":11784,"péchés":11785,"aisé":11786,"revenu":11787,"Assurer":11788,"Assurance":11789,"postérieure":11790,"nerve":11791,"##chargé":11792,"probité":11793,"approxim":11794,"approbation":11795,"opposant":11796,"physiologique":11797,"Attaque":11798,"Attacher":11799,"Attraper":11800,"boîte":11801,"Preuve":11802,"Phytos":11803,"Phytop":11804,"cellulose":11805,"entourer":11806,"entourage":11807,"réguliers":11808,"décoration":11809,"projeter":11810,"Bouddhisme":11811,"##quitter":11812,"abondamment":11813,"contracte":11814,"cloches":11815,"dévot":11816,"possessif":11817,"renferm":11818,"Logiciel":11819,"Logistique":11820,"pinceau":11821,"Dégarnir":11822,"catastrophe":11823,"dense":11824,"signifiant":11825,"capital":11826,"chaussures":11827,"Peup":11828,"journal":11829,"attribuer":11830,"aimer":11831,"aimant":11832,"divertissement":11833,"Constitu":11834,"##oderme":11835,"virgule":11836,"disparates":11837,"condamnée":11838,"folle":11839,"conformes":11840,"abriter":11841,"alphabétique":11842,"Circons":11843,"glaces":11844,"acquiert":11845,"consacrée":11846,"institutions":11847,"##communication":11848,"persé":11849,"ennemis":11850,"provinces":11851,"heureuse":11852,"Combat":11853,"sérieux":11854,"devoirs":11855,"étudiants":11856,"Croire":11857,"rythmique":11858,"industrielle":11859,"doré":11860,"chapitre":11861,"désirer":11862,"épices":11863,"sixième":11864,"embarra":11865,"Horticulture":11866,"hachée":11867,"industries":11868,"Double":11869,"retiré":11870,"Électrotechnique":11871,"multiples":11872,"écouler":11873,"tuyaux":11874,"germes":11875,"imitation":11876,"identifier":11877,"charpentiers":11878,"douteuse":11879,"raisins":11880,"ulc":11881,"##straction":11882,"instructions":11883,"soupç":11884,"Topologie":11885,"sévérité":11886,"câbles":11887,"cuits":11888,"immeubles":11889,"moutons":11890,"absorption":11891,"volet":11892,"manœuvres":11893,"aéronef":11894,"Remplacer":11895,"autoritaire":11896,"Liby":11897,"salive":11898,"sculpture":11899,"Ventre":11900,"punition":11901,"Manifestation":11902,"penche":11903,"arguments":11904,"prétentions":11905,"stockage":11906,"exclusivement":11907,"maintenu":11908,"maintenant":11909,"Fémin":11910,"fossiles":11911,"législatif":11912,"vocabulaire":11913,"Téléphone":11914,"François":11915,"billet":11916,"cube":11917,"Fourrure":11918,"élancer":11919,"Modification":11920,"modestie":11921,"calice":11922,"royale":11923,"agglom":11924,"matérielles":11925,"enregistrer":11926,"Principe":11927,"urbain":11928,"réagir":11929,"déplaçant":11930,"poignée":11931,"vertébrale":11932,"vertébrés":11933,"célébrer":11934,"bleue":11935,"Religieuse":11936,"primitive":11937,"pharmacie":11938,"métropole":11939,"métropolit":11940,"Interpré":11941,"délivré":11942,"Attachement":11943,"sérum":11944,"oublié":11945,"Protéine":11946,"majorité":11947,"incorre":11948,"corporelle":11949,"Mollusque":11950,"cosmétique":11951,"gardien":11952,"Conjug":11953,"inconnu":11954,"pressante":11955,"faiblesse":11956,"crustacés":11957,"Brassicacées":11958,"Imitation":11959,"moines":11960,"plasma":11961,"exploite":11962,"renvoyer":11963,"répugnance":11964,"indéfini":11965,"développée":11966,"persistantes":11967,"Connaissance":11968,"pneum":11969,"économiques":11970,"Rapidement":11971,"liqueurs":11972,"monnaies":11973,"concepts":11974,"Revêtir":11975,"Ardennes":11976,"commençant":11977,"incapable":11978,"dominante":11979,"calomn":11980,"absurde":11981,"célébrité":11982,"convaincre":11983,"arrogance":11984,"déplaisir":11985,"abbaye":11986,"Amaz":11987,"Grecs":11988,"Sabre":11989,"drôle":11990,"orchestre":11991,"apprentissage":11992,"serpents":11993,"cryptog":11994,"pivot":11995,"indigène":11996,"dénigrement":11997,"Simplement":11998,"Pantalon":11999,"losange":12000,"limon":12001,"pendule":12002,"convexe":12003,"semaine":12004,"manuscrit":12005,"corniche":12006,"Hypoc":12007,"érudition":12008,"Philippe":12009,"publicitaire":12010,"centimètres":12011,"articulée":12012,"diacritique":12013,"arthropodes":12014,"Bolivie":12015,"Pérou":12016,"Savoie":12017,"lubri":12018,"Œuvre":12019,"dissolution":12020,"incluant":12021,"Vendée":12022,"mobilier":12023,"Phytosociologie":12024,"Phytopathologie":12025,"40":12026,"Ami":12027,"Aim":12028,"Bé":12029,"Bes":12030,"Ben":12031,"Beaux":12032,"Blanc":12033,"Bureau":12034,"Burk":12035,"Coc":12036,"Coiffe":12037,"Escri":12038,"Fré":12039,"Fati":12040,"Fine":12041,"Gl":12042,"Gla":12043,"Gam":12044,"Grain":12045,"Gaz":12046,"Graphie":12047,"Gymnastique":12048,"Hol":12049,"Has":12050,"Hab":12051,"Hong":12052,"Heure":12053,"Ier":12054,"Jac":12055,"Jouer":12056,"Lique":12057,"Loire":12058,"Meu":12059,"Nation":12060,"Os":12061,"OH":12062,"Oxy":12063,"Py":12064,"Pil":12065,"Pain":12066,"Pseud":12067,"Ras":12068,"Rag":12069,"Roue":12070,"Sen":12071,"Sale":12072,"Sali":12073,"Saisir":12074,"Stéré":12075,"Saillie":12076,"Tonne":12077,"Tran":12078,"Taux":12079,"Train":12080,"Val":12081,"Ven":12082,"Voix":12083,"Web":12084,"aient":12085,"ath":12086,"bui":12087,"big":12088,"bob":12089,"brise":12090,"bureau":12091,"bottes":12092,"cari":12093,"cail":12094,"cath":12095,"couture":12096,"dès":12097,"drog":12098,"dresse":12099,"douter":12100,"fol":12101,"fers":12102,"fric":12103,"fêtes":12104,"fisc":12105,"fumier":12106,"gig":12107,"guit":12108,"graph":12109,"glor":12110,"gestation":12111,"hur":12112,"hale":12113,"hame":12114,"itin":12115,"jal":12116,"jas":12117,"jargon":12118,"juillet":12119,"lun":12120,"ling":12121,"lève":12122,"mm":12123,"muet":12124,"nig":12125,"nés":12126,"normes":12127,"orage":12128,"ombre":12129,"oignon":12130,"plier":12131,"pail":12132,"peste":12133,"pompe":12134,"psychiat":12135,"poison":12136,"piliers":12137,"rag":12138,"ring":12139,"rudi":12140,"ronf":12141,"rares":12142,"rogn":12143,"spé":12144,"sonner":12145,"sables":12146,"silh":12147,"slaves":12148,"tén":12149,"tué":12150,"têtes":12151,"vues":12152,"vignes":12153,"vœu":12154,"vass":12155,"vêtir":12156,"varie":12157,"zig":12158,"Émettre":12159,"âgé":12160,"çà":12161,"étin":12162,"édition":12163,"##avi":12164,"##aves":12165,"##açant":12166,"##rien":12167,"##roire":12168,"##rures":12169,"##rienne":12170,"##railles":12171,"##tour":12172,"##turer":12173,"##talique":12174,"##ices":12175,"##nob":12176,"##ngue":12177,"##niser":12178,"##uli":12179,"##uaire":12180,"##ulière":12181,"##ulateur":12182,"##can":12183,"##cro":12184,"##cable":12185,"##cissement":12186,"##hy":12187,"##fè":12188,"##fle":12189,"##fère":12190,"##faste":12191,"##ébé":12192,"##échal":12193,"##écile":12194,"##male":12195,"##mage":12196,"##monter":12197,"##bili":12198,"##dou":12199,"##dot":12200,"##dale":12201,"##dien":12202,"##pan":12203,"##pède":12204,"##point":12205,"##ptième":12206,"##pétologie":12207,"##gments":12208,"##jol":12209,"##jure":12210,"##zar":12211,"##èges":12212,"##O4":12213,"##66":12214,"##ondent":12215,"##onctif":12216,"##rets":12217,"##uile":12218,"union":12219,"##aré":12220,"##arrer":12221,"##arith":12222,"##analyse":12223,"##ieur":12224,"##aillement":12225,"##aintes":12226,"##lip":12227,"##lition":12228,"##lice":12229,"##oro":12230,"##orti":12231,"##orant":12232,"##orien":12233,"##ortées":12234,"##seaux":12235,"lacs":12236,"##ouler":12237,"##sit":12238,"##sibili":12239,"##oite":12240,"##omorph":12241,"##rié":12242,"desquels":12243,"paran":12244,"paris":12245,"parach":12246,"encen":12247,"encontre":12248,"##rateur":12249,"##rager":12250,"##rables":12251,"##rasement":12252,"##vente":12253,"##cho":12254,"##chers":12255,"chroniques":12256,"##endement":12257,"##geois":12258,"##uscules":12259,"duvet":12260,"##ola":12261,"##olo":12262,"##cider":12263,"##réer":12264,"congé":12265,"contenue":12266,"danser":12267,"excent":12268,"excitation":12269,"externes":12270,"secte":12271,"semen":12272,"semelle":12273,"##atoires":12274,"dél":12275,"déser":12276,"désin":12277,"délin":12278,"##pportable":12279,"##culé":12280,"##ases":12281,"##ureuse":12282,"plaire":12283,"plonge":12284,"commentaire":12285,"rej":12286,"rez":12287,"relever":12288,"onct":12289,"promenade":12290,"inop":12291,"inint":12292,"inhi":12293,"informe":12294,"incite":12295,"##urées":12296,"##ffé":12297,"##ffle":12298,"suran":12299,"réin":12300,"récep":12301,"réfé":12302,"récent":12303,"##ctor":12304,"##difier":12305,"##alet":12306,"##ulser":12307,"##ulées":12308,"##ullition":12309,"##eterie":12310,"##alistes":12311,"archet":12312,"arrangement":12313,"anus":12314,"anxi":12315,"##phrase":12316,"trains":12317,"Enc":12318,"Enduire":12319,"##agin":12320,"##agas":12321,"##acre":12322,"orne":12323,"##eller":12324,"souche":12325,"étain":12326,"passée":12327,"##érations":12328,"manie":12329,"manier":12330,"entrailles":12331,"entendement":12332,"##aricot":12333,"Armée":12334,"compare":12335,"compact":12336,"comporter":12337,"apprendre":12338,"appuy":12339,"apparition":12340,"prétendre":12341,"prévaloir":12342,"particul":12343,"particule":12344,"##ssements":12345,"##verie":12346,"##vertéb":12347,"cori":12348,"cornée":12349,"sonores":12350,"Quar":12351,"##ensée":12352,"objec":12353,"coureur":12354,"acari":12355,"accoup":12356,"acadé":12357,"##istan":12358,"Sent":12359,"Septième":12360,"##ronté":12361,"##ssons":12362,"pent":12363,"peinte":12364,"inti":12365,"intrigue":12366,"intuition":12367,"Métier":12368,"commettre":12369,"##érités":12370,"##opes":12371,"Inv":12372,"Indique":12373,"Instruction":12374,"Information":12375,"Incertitude":12376,"Inspirer":12377,"carrés":12378,"carreaux":12379,"sax":12380,"sapin":12381,"espérer":12382,"discip":12383,"privés":12384,"perles":12385,"perfor":12386,"terri":12387,"terminée":12388,"##tiner":12389,"##tination":12390,"lisi":12391,"licence":12392,"liaisons":12393,"serveur":12394,"empi":12395,"empê":12396,"emporter":12397,"##ondant":12398,"dits":12399,"marti":12400,"alt":12401,"adjec":12402,"courts":12403,"courber":12404,"traver":12405,"traum":12406,"trajet":12407,"tracer":12408,"façons":12409,"pharmace":12410,"reprendre":12411,"reprise":12412,"##ocie":12413,"plaques":12414,"plateau":12415,"placées":12416,"##andin":12417,"Aug":12418,"Austra":12419,"fentes":12420,"dépré":12421,"déposer":12422,"##versaire":12423,"Décharge":12424,"épig":12425,"épic":12426,"épile":12427,"éponge":12428,"épanoui":12429,"animale":12430,"sensations":12431,"Projet":12432,"diffusé":12433,"malv":12434,"Phén":12435,"maît":12436,"coq":12437,"coté":12438,"pouce":12439,"longitu":12440,"tempérées":12441,"fichi":12442,"fertili":12443,"##chimique":12444,"conscient":12445,"Bibli":12446,"Billet":12447,"moraux":12448,"Récit":12449,"efforce":12450,"Divers":12451,"verdure":12452,"accus":12453,"accusé":12454,"accroire":12455,"réglement":12456,"régularité":12457,"##alisable":12458,"emploient":12459,"séduction":12460,"##pium":12461,"monuments":12462,"monastère":12463,"infection":12464,"inférieures":12465,"transg":12466,"attes":12467,"défendu":12468,"apôtres":12469,"colorer":12470,"habitations":12471,"lieutenant":12472,"##persion":12473,"organise":12474,"avare":12475,"jusque":12476,"boutique":12477,"bouger":12478,"bougies":12479,"##fiance":12480,"amande":12481,"amorce":12482,"légende":12483,"motoc":12484,"différend":12485,"différences":12486,"##oreux":12487,"formés":12488,"##ophage":12489,"##ophones":12490,"indiqué":12491,"versé":12492,"option":12493,"##lucide":12494,"preuves":12495,"##ologiste":12496,"disponible":12497,"grandeurs":12498,"franche":12499,"enfoncer":12500,"##issure":12501,"##issance":12502,"offert":12503,"offrir":12504,"solde":12505,"connotation":12506,"garg":12507,"assurant":12508,"situés":12509,"##oiement":12510,"droites":12511,"attachées":12512,"fondation":12513,"Lever":12514,"confond":12515,"##odement":12516,"Alb":12517,"Discussion":12518,"clous":12519,"juges":12520,"caps":12521,"##menc":12522,"cônes":12523,"évang":12524,"évap":12525,"arbit":12526,"poètes":12527,"Écosse":12528,"armure":12529,"débauche":12530,"Marie":12531,"airs":12532,"##udisme":12533,"Coupe":12534,"Couverture":12535,"appeler":12536,"piét":12537,"alién":12538,"bâtir":12539,"anglo":12540,"anglophone":12541,"importune":12542,"filles":12543,"notable":12544,"frater":12545,"fraude":12546,"embrouil":12547,"embrasse":12548,"emboî":12549,"hybri":12550,"hymén":12551,"violences":12552,"antérieures":12553,"fauve":12554,"désignait":12555,"théorique":12556,"employées":12557,"taxe":12558,"pérille":12559,"contraintes":12560,"exercé":12561,"Maur":12562,"calf":12563,"variétés":12564,"cases":12565,"vési":12566,"Suivi":12567,"musculaires":12568,"millén":12569,"tourb":12570,"##tiller":12571,"électroniques":12572,"balles":12573,"balancer":12574,"Transp":12575,"Transférer":12576,"flor":12577,"flét":12578,"##estable":12579,"hautement":12580,"huitième":12581,"huissier":12582,"déterminant":12583,"Liber":12584,"piège":12585,"Malacologie":12586,"tric":12587,"quelconques":12588,"afro":12589,"muc":12590,"rougeâtre":12591,"tranchants":12592,"transports":12593,"spong":12594,"bonté":12595,"brins":12596,"##ugle":12597,"Astéracées":12598,"Chev":12599,"reçoivent":12600,"télécommunication":12601,"exécuté":12602,"##cope":12603,"misère":12604,"phylog":12605,"Vivre":12606,"Post":12607,"salari":12608,"préparatoire":12609,"Toutes":12610,"fourré":12611,"fourrag":12612,"palmées":12613,"Percer":12614,"ustensile":12615,"##ambie":12616,"allait":12617,"considérés":12618,"négatif":12619,"séparant":12620,"nationaux":12621,"vendeur":12622,"venime":12623,"individuels":12624,"voyager":12625,"Access":12626,"Acquérir":12627,"Exprimer":12628,"valait":12629,"fermement":12630,"numériques":12631,"dérive":12632,"Descen":12633,"##adier":12634,"construire":12635,"construite":12636,"immobilier":12637,"correspondante":12638,"psychologiques":12639,"raisonnements":12640,"##oxique":12641,"champignon":12642,"refroid":12643,"énergé":12644,"##ynamique":12645,"superlatif":12646,"Séduire":12647,"Sécurité":12648,"locom":12649,"localité":12650,"décider":12651,"##aigri":12652,"comparaître":12653,"brosse":12654,"développent":12655,"ajuste":12656,"Personnes":12657,"déjections":12658,"figurément":12659,"##ruptive":12660,"oxygén":12661,"Génie":12662,"##rairie":12663,"demeurer":12664,"parfaitement":12665,"raideur":12666,"possédé":12667,"Mener":12668,"Assujet":12669,"antiphrase":12670,"tubes":12671,"##cussions":12672,"postérieures":12673,"suites":12674,"##charis":12675,"probable":12676,"approfond":12677,"boî":12678,"bovin":12679,"spectateurs":12680,"treuil":12681,"trempe":12682,"distribue":12683,"reconnue":12684,"reconnaît":12685,"successives":12686,"rayonnement":12687,"éblo":12688,"ébullition":12689,"mental":12690,"Mess":12691,"Message":12692,"Passion":12693,"moineau":12694,"Garant":12695,"paraly":12696,"Programme":12697,"associés":12698,"tendresse":12699,"entourée":12700,"témoin":12701,"Extraire":12702,"braver":12703,"rétabli":12704,"travailleurs":12705,"semblent":12706,"avions":12707,"avidement":12708,"pince":12709,"divisions":12710,"blasonné":12711,"promotion":12712,"desseins":12713,"Reconn":12714,"##tyr":12715,"##ciente":12716,"##llerie":12717,"capitaux":12718,"fusi":12719,"alternes":12720,"vertical":12721,"protectrice":12722,"injure":12723,"Autrefois":12724,"Privation":12725,"passagers":12726,"bénéfi":12727,"cylindres":12728,"Différe":12729,"Difficile":12730,"polyg":12731,"Colomb":12732,"Occident":12733,"berger":12734,"foot":12735,"jugements":12736,"potagère":12737,"croisés":12738,"voisins":12739,"intentions":12740,"mineur":12741,"traitent":12742,"restri":12743,"Algèbre":12744,"Fausse":12745,"osseuse":12746,"raser":12747,"rabat":12748,"##anciers":12749,"installé":12750,"peintres":12751,"mécan":12752,"provoqué":12753,"frotter":12754,"surprenant":12755,"altéré":12756,"brûlant":12757,"brûler":12758,"Détruire":12759,"fumé":12760,"haché":12761,"vraiment":12762,"##régation":12763,"syntaxe":12764,"partageant":12765,"Employer":12766,"Propriétaire":12767,"turque":12768,"##ozo":12769,"carburant":12770,"clientèle":12771,"multiplication":12772,"avertissement":12773,"ignore":12774,"promptitude":12775,"perçu":12776,"verbale":12777,"témoigne":12778,"Créer":12779,"Ress":12780,"Paysan":12781,"gerbes":12782,"dépourvue":12783,"meilleurs":12784,"fondamentaux":12785,"solennelle":12786,"Céder":12787,"Commencement":12788,"fasci":12789,"gâter":12790,"##odiques":12791,"désirs":12792,"démonstration":12793,"présumer":12794,"savon":12795,"dissous":12796,"cuites":12797,"attendant":12798,"vanité":12799,"isolant":12800,"Planche":12801,"Planchette":12802,"mortelle":12803,"similaires":12804,"décomposer":12805,"constitutionnel":12806,"réussit":12807,"Affection":12808,"Imag":12809,"2000":12810,"inébran":12811,"imprévu":12812,"poteau":12813,"robuste":12814,"contenus":12815,"contenance":12816,"préside":12817,"épreuves":12818,"inclinaison":12819,"exclusif":12820,"brutalement":12821,"obéissance":12822,"commandement":12823,"globules":12824,"Avancer":12825,"enchaînement":12826,"répartition":12827,"fidèle":12828,"Boîte":12829,"reliés":12830,"visite":12831,"Distance":12832,"caméra":12833,"vomissements":12834,"détecter":12835,"ministres":12836,"ministère":12837,"patriotisme":12838,"Cercle":12839,"Équipe":12840,"##yrrh":12841,"##érapie":12842,"impétuosité":12843,"subsiste":12844,"scrupule":12845,"observations":12846,"titres":12847,"surmontée":12848,"Arrêt":12849,"honteuse":12850,"enregistré":12851,"industriels":12852,"Condam":12853,"Tennis":12854,"canton":12855,"équatoriale":12856,"chromosomes":12857,"réagit":12858,"frappant":12859,"protestants":12860,"hémor":12861,"mutuellement":12862,"chicane":12863,"inscription":12864,"alcalin":12865,"mâchoires":12866,"Turquie":12867,"blocs":12868,"furtivement":12869,"sarment":12870,"sérieuse":12871,"mélanger":12872,"répétitive":12873,"attributs":12874,"respiratoires":12875,"tyran":12876,"Réflé":12877,"bienséance":12878,"bienséances":12879,"indirect":12880,"confectionner":12881,"nécessité":12882,"Superlatif":12883,"crustacé":12884,"aveugle":12885,"éloquence":12886,"latérales":12887,"comédie":12888,"médiévale":12889,"ADN":12890,"Lésion":12891,"performances":12892,"égyptienne":12893,"incompréhensible":12894,"domestiqué":12895,"instinct":12896,"bancaires":12897,"##carbure":12898,"systématiquement":12899,"Athlétisme":12900,"Midi":12901,"Origine":12902,"##abolisme":12903,"consommé":12904,"aperç":12905,"avocat":12906,"pigeons":12907,"inconsidérée":12908,"Filet":12909,"stérile":12910,"Évaluation":12911,"Ennuy":12912,"compositeur":12913,"écuries":12914,"scandale":12915,"inconscient":12916,"Facilité":12917,"Affectation":12918,"fief":12919,"##rosserie":12920,"insinuer":12921,"diurne":12922,"Chrétien":12923,"infinitif":12924,"rencont":12925,"pulvéri":12926,"Inclination":12927,"Jeter":12928,"Latinisme":12929,"bestiaux":12930,"bouillir":12931,"gaieté":12932,"tsar":12933,"##latéral":12934,"cependant":12935,"propulsé":12936,"abrégé":12937,"coléoptères":12938,"Matériau":12939,"universelle":12940,"##lorescence":12941,"prônant":12942,"diagnostic":12943,"XXIe":12944,"##ufact":12945,"condiment":12946,"Arbuste":12947,"Démonstration":12948,"arbalète":12949,"volontés":12950,"piqûre":12951,"sacerdot":12952,"1789":12953,"Prononcer":12954,"Énergie":12955,"Parfum":12956,"porcelaine":12957,"hallucin":12958,"Haïti":12959,"daim":12960,"malléable":12961,"caoutchouc":12962,"scalène":12963,"populace":12964,"Escrime":12965,"Jacques":12966,"Liqueur":12967,"silhouette":12968,"##ébéc":12969,"anxiété":12970,"épilepsie":12971,"fichiers":12972,"Différentes":12973,"inébranlable":12974,"45":12975,"Ayant":12976,"Actes":12977,"Acheter":12978,"Avion":12979,"Be":12980,"Bles":12981,"Bru":12982,"Bière":12983,"Béné":12984,"Battre":12985,"Billard":12986,"Banque":12987,"Cat":12988,"Dur":12989,"Déri":12990,"Diss":12991,"Fort":12992,"Face":12993,"Gout":12994,"Garder":12995,"Hin":12996,"Humeur":12997,"III":12998,"Kins":12999,"Lig":13000,"Lors":13001,"Loisir":13002,"Luth":13003,"May":13004,"Milit":13005,"Mille":13006,"Maître":13007,"Mêler":13008,"Nutrition":13009,"Nett":13010,"Pin":13011,"Paire":13012,"Pist":13013,"Piste":13014,"Poser":13015,"Pied":13016,"Prière":13017,"Raison":13018,"Rame":13019,"Spi":13020,"Spect":13021,"Sax":13022,"Tas":13023,"Trop":13024,"Trib":13025,"Tém":13026,"Tumeur":13027,"Tube":13028,"UR":13029,"Vén":13030,"Véri":13031,"Voy":13032,"Voie":13033,"Voler":13034,"arithmétique":13035,"bû":13036,"bure":13037,"boit":13038,"brig":13039,"binaire":13040,"bourd":13041,"bret":13042,"brésil":13043,"budget":13044,"cise":13045,"cigarette":13046,"dʼ":13047,"doci":13048,"dieux":13049,"domm":13050,"dys":13051,"dauph":13052,"ellipsoïde":13053,"fus":13054,"fic":13055,"gare":13056,"gènes":13057,"hect":13058,"haricot":13059,"ions":13060,"italique":13061,"joy":13062,"jonction":13063,"luis":13064,"loyer":13065,"lâcher":13066,"mec":13067,"meut":13068,"noue":13069,"nick":13070,"ol":13071,"oignons":13072,"pans":13073,"pois":13074,"pac":13075,"posi":13076,"pareil":13077,"piller":13078,"prouver":13079,"paci":13080,"rendant":13081,"rugby":13082,"rhiz":13083,"suré":13084,"sage":13085,"soir":13086,"soph":13087,"sarc":13088,"saisons":13089,"slave":13090,"stéré":13091,"squelette":13092,"séries":13093,"sèches":13094,"tég":13095,"tons":13096,"tasse":13097,"tressée":13098,"triste":13099,"vec":13100,"veau":13101,"veste":13102,"vrais":13103,"Élève":13104,"étique":13105,"émettre":13106,"édit":13107,"##auré":13108,"##asions":13109,"##auration":13110,"##rême":13111,"##tus":13112,"##tap":13113,"##ich":13114,"##ios":13115,"##idité":13116,"##oce":13117,"##oxe":13118,"##uat":13119,"##ués":13120,"##effic":13121,"##ck":13122,"##cales":13123,"##har":13124,"##étion":13125,"##étiques":13126,"##sor":13127,"##sace":13128,"##los":13129,"##larde":13130,"##bal":13131,"##bourg":13132,"##daire":13133,"##dait":13134,"##pti":13135,"##pres":13136,"##gnes":13137,"##game":13138,"##âtr":13139,"##yotes":13140,"##vère":13141,"##jétion":13142,"##za":13143,"##zig":13144,"##zag":13145,"##èdre":13146,"##èler":13147,"##wn":13148,"##ky":13149,"##ïence":13150,"##êter":13151,"##êtise":13152,"##4O":13153,"##çants":13154,"##10":13155,"##oner":13156,"##onienne":13157,"##ermes":13158,"##rene":13159,"dettes":13160,"##tille":13161,"##tige":13162,"unies":13163,"##arche":13164,"##ura":13165,"##urie":13166,"##aner":13167,"##lectif":13168,"##ielles":13169,"##lid":13170,"##orcer":13171,"##oriser":13172,"##orisé":13173,"##quen":13174,"##quent":13175,"lave":13176,"lamb":13177,"##sint":13178,"##site":13179,"##sius":13180,"##siter":13181,"##omatique":13182,"##omiale":13183,"##omatie":13184,"##ridés":13185,"##ridae":13186,"desser":13187,"paresse":13188,"partant":13189,"parcour":13190,"pardonner":13191,"##stur":13192,"enlève":13193,"enverg":13194,"##cents":13195,"##rati":13196,"##rami":13197,"##racien":13198,"audition":13199,"auteurs":13200,"leçon":13201,"levée":13202,"levain":13203,"##chie":13204,"##aume":13205,"##auque":13206,"chim":13207,"chaise":13208,"chande":13209,"chronique":13210,"chats":13211,"charité":13212,"chlore":13213,"choisir":13214,"chariot":13215,"##deurs":13216,"##isance":13217,"##usques":13218,"##igment":13219,"##olas":13220,"##cise":13221,"##cilier":13222,"##cidés":13223,"conne":13224,"constance":13225,"contiennent":13226,"connex":13227,"conquête":13228,"##lager":13229,"excité":13230,"##mitte":13231,"##ersti":13232,"dépe":13233,"déformer":13234,"##culier":13235,"##assé":13236,"##ctionnaire":13237,"Parvenir":13238,"remet":13239,"reins":13240,"retenu":13241,"##tifié":13242,"##osées":13243,"##ilé":13244,"##iler":13245,"##illé":13246,"pros":13247,"procu":13248,"promener":13249,"inorgan":13250,"quator":13251,"québéc":13252,"##onneurs":13253,"résig":13254,"réalise":13255,"Reb":13256,"Rela":13257,"Redonner":13258,"##dicité":13259,"##onnoir":13260,"##onnade":13261,"##ular":13262,"##uxtap":13263,"div":13264,"distant":13265,"diagon":13266,"dioxyde":13267,"anne":13268,"anime":13269,"anarch":13270,"##ésienne":13271,"##phor":13272,"##phro":13273,"Enduit":13274,"##étaires":13275,"##vial":13276,"##viale":13277,"##vième":13278,"##ellir":13279,"##elligible":13280,"soulig":13281,"soutenant":13282,"soutenue":13283,"##cesseurs":13284,"mandi":13285,"mangent":13286,"manquant":13287,"manufact":13288,"##arium":13289,"##mbler":13290,"compren":13291,"comptant":13292,"composer":13293,"complex":13294,"ramener":13295,"apport":13296,"Chaî":13297,"Chute":13298,"Chanter":13299,"précon":13300,"prénom":13301,"prédire":13302,"##érienne":13303,"##érieuse":13304,"vider":13305,"viril":13306,"corsage":13307,"corrige":13308,"corolle":13309,"Question":13310,"Vieille":13311,"##loge":13312,"autocra":13313,"coude":13314,"couvent":13315,"coussi":13316,"coucou":13317,"accéder":13318,"acquitter":13319,"##ligé":13320,"##isterie":13321,"##umée":13322,"##reng":13323,"Sein":13324,"##ritant":13325,"##ductif":13326,"##quille":13327,"##ronologie":13328,"##ssesse":13329,"intra":13330,"intrins":13331,"Mép":13332,"##ièvres":13333,"écoute":13334,"écouter":13335,"Institu":13336,"Injure":13337,"carn":13338,"cardi":13339,"##icieux":13340,"##tto":13341,"sap":13342,"saur":13343,"espaces":13344,"disg":13345,"discrétion":13346,"priori":13347,"##meroun":13348,"##apax":13349,"percer":13350,"terr":13351,"##olence":13352,"liqué":13353,"emplacement":13354,"emparer":13355,"météor":13356,"mélancolie":13357,"impli":13358,"impro":13359,"impure":13360,"impatience":13361,"##péré":13362,"marm":13363,"martyr":13364,"adres":13365,"adultes":13366,"courbé":13367,"trap":13368,"traces":13369,"traduit":13370,"faïence":13371,"Celsius":13372,"reprend":13373,"##otechnie":13374,"##ositions":13375,"##délité":13376,"##ntille":13377,"Cela":13378,"métamorph":13379,"actionné":13380,"##amètre":13381,"Auquel":13382,"donnés":13383,"Peur":13384,"restes":13385,"déposé":13386,"dépossé":13387,"épar":13388,"animée":13389,"Procé":13390,"touches":13391,"diffuser":13392,"##trer":13393,"##traiter":13394,"consignes":13395,"chargées":13396,"chargés":13397,"agru":13398,"coff":13399,"poussé":13400,"temple":13401,"tempête":13402,"temporel":13403,"ficelle":13404,"fichier":13405,"ferrée":13406,"subt":13407,"subie":13408,"subdi":13409,"subtilité":13410,"cachet":13411,"mortif":13412,"Répar":13413,"Réduction":13414,"Répétition":13415,"Réseaux":13416,"##ifère":13417,"##ifrag":13418,"Diver":13419,"Diviser":13420,"vergues":13421,"intervenir":13422,"interrompu":13423,"réguler":13424,"sélectif":13425,"apparaître":13426,"Contenant":13427,"Conseil":13428,"inflig":13429,"infections":13430,"frère":13431,"défect":13432,"déférence":13433,"aplanir":13434,"##ulence":13435,"coller":13436,"collég":13437,"Orner":13438,"culotte":13439,"ouvrant":13440,"ouvrière":13441,"justifier":13442,"siff":13443,"sirop":13444,"##intes":13445,"finir":13446,"finale":13447,"grad":13448,"boulot":13449,"Dent":13450,"douces":13451,"amère":13452,"amusant":13453,"légalement":13454,"##ling":13455,"##linacés":13456,"utilisateurs":13457,"Carrière":13458,"format":13459,"reng":13460,"renard":13461,"rendent":13462,"renverser":13463,"##ophilie":13464,"indice":13465,"opti":13466,"opérer":13467,"tirage":13468,"fonctionner":13469,"mention":13470,"Petites":13471,"atter":13472,"attir":13473,"Unir":13474,"représentations":13475,"crai":13476,"disparition":13477,"terreur":13478,"Ablation":13479,"francs":13480,"décroiss":13481,"rite":13482,"Appartement":13483,"Appuyer":13484,"Appliquer":13485,"minorité":13486,"assurée":13487,"paysan":13488,"basé":13489,"contras":13490,"contref":13491,"attachés":13492,"attachait":13493,"canons":13494,"scie":13495,"##èglement":13496,"configuration":13497,"désu":13498,"désac":13499,"##scope":13500,"Spécialité":13501,"nid":13502,"Espagn":13503,"vents":13504,"veille":13505,"Alpin":13506,"Alsace":13507,"Disque":13508,"clois":13509,"clairement":13510,"féti":13511,"incont":13512,"supplé":13513,"##aissable":13514,"capu":13515,"Canal":13516,"polle":13517,"poèmes":13518,"anni":13519,"annuel":13520,"##encement":13521,"grossesse":13522,"encad":13523,"litt":13524,"liturgie":13525,"mercen":13526,"piquante":13527,"équidés":13528,"classer":13529,"##athlon":13530,"bâti":13531,"importantes":13532,"bib":13533,"bival":13534,"filer":13535,"filtre":13536,"circuler":13537,"régionale":13538,"vamp":13539,"Forêt":13540,"durcir":13541,"secrètes":13542,"faucon":13543,"faussement":13544,"fausses":13545,"fauconnerie":13546,"désigné":13547,"théât":13548,"chaudes":13549,"taur":13550,"périr":13551,"contraint":13552,"contraindre":13553,"collecter":13554,"échau":13555,"Meurt":13556,"Suivre":13557,"massive":13558,"prescrit":13559,"##latter":13560,"##latoire":13561,"distinctes":13562,"Grandes":13563,"tourteau":13564,"combler":13565,"Court":13566,"Courte":13567,"Courber":13568,"artères":13569,"flûte":13570,"Impersonne":13571,"vertes":13572,"huiles":13573,"Plusieurs":13574,"Anciens":13575,"sexualité":13576,"barque":13577,"baroque":13578,"barrières":13579,"indien":13580,"indisc":13581,"remplie":13582,"remporté":13583,"brutal":13584,"déguiser":13585,"dégorger":13586,"romane":13587,"entreprendre":13588,"entreprene":13589,"##odalité":13590,"engins":13591,"engrais":13592,"qualificatif":13593,"singulière":13594,"##lasser":13595,"marchande":13596,"Adjectif":13597,"Malchance":13598,"tricot":13599,"1920":13600,"aiguil":13601,"brille":13602,"délire":13603,"déliée":13604,"délimité":13605,"loisir":13606,"misérable":13607,"magiques":13608,"creuser":13609,"bouton":13610,"##uster":13611,"Poacées":13612,"brève":13613,"brèves":13614,"salé":13615,"salée":13616,"salles":13617,"salés":13618,"puiser":13619,"Proposer":13620,"nécessairement":13621,"enseigner":13622,"fourche":13623,"logis":13624,"logarith":13625,"Coran":13626,"Corriger":13627,"usant":13628,"usure":13629,"retourner":13630,"mariés":13631,"##ambe":13632,"négligence":13633,"néglige":13634,"vérifiant":13635,"assise":13636,"assistance":13637,"rendait":13638,"étendant":13639,"correspondent":13640,"gouvern":13641,"gouverne":13642,"tennis":13643,"##avie":13644,"tableaux":13645,"françaises":13646,"résistant":13647,"gazeux":13648,"gazeuse":13649,"normales":13650,"vallée":13651,"méprise":13652,"instrumentale":13653,"courtois":13654,"Dépour":13655,"Dépouiller":13656,"rechercher":13657,"##mblable":13658,"succèdent":13659,"188":13660,"186":13661,"raisonner":13662,"##oxes":13663,"cultiver":13664,"Contrainte":13665,"Café":13666,"Cameroun":13667,"##ynx":13668,"affectés":13669,"affective":13670,"photograph":13671,"Eurasie":13672,"commerçants":13673,"décisions":13674,"médical":13675,"Indication":13676,"compartiments":13677,"##aillerie":13678,"accordée":13679,"broyer":13680,"prêter":13681,"prêcher":13682,"galère":13683,"galop":13684,"gallinacés":13685,"prononcé":13686,"territoires":13687,"territoriale":13688,"asseoir":13689,"révèle":13690,"escam":13691,"conjoi":13692,"Désigner":13693,"faiblement":13694,"bruits":13695,"réservée":13696,"feuillet":13697,"feuillets":13698,"oxydation":13699,"sources":13700,"volumine":13701,"irrésolu":13702,"irréalisable":13703,"multi":13704,"occasions":13705,"cramp":13706,"péché":13707,"revendre":13708,"circonférence":13709,"antiquité":13710,"draps":13711,"Résoudre":13712,"approvision":13713,"spectacles":13714,"peuplé":13715,"peuplades":13716,"modifications":13717,"##udesse":13718,"torse":13719,"énig":13720,"rayon":13721,"chairs":13722,"loups":13723,"conditionnel":13724,"Capit":13725,"juridiques":13726,"souverains":13727,"secondaires":13728,"tournure":13729,"passionné":13730,"décoré":13731,"##douisme":13732,"avancement":13733,"Calais":13734,"Renoncer":13735,"sinon":13736,"éventail":13737,"rétra":13738,"ordinaires":13739,"profits":13740,"disposant":13741,"disposée":13742,"demeurent":13743,"faisceau":13744,"dévan":13745,"attachent":13746,"Utiliser":13747,"hasarde":13748,"##rainement":13749,"occupations":13750,"Commander":13751,"tapage":13752,"##ptembre":13753,"Recueillir":13754,"garantie":13755,
[...]
