{"version":"1.0","truncation":null,"padding":null,"added_tokens":[{"id":0,"special":true,"content":"<pad/>","single_word":false,"lstrip":false,"rstrip":false,"normalized":false},{"id":1,"special":true,"content":"</seq>","single_word":false,"lstrip":false,"rstrip":false,"normalized":false},{"id":2,"special":true,"content":"<seq>","single_word":false,"lstrip":false,"rstrip":false,"normalized":false},{"id":3,"special":true,"content":"<unk/>","single_word":false,"lstrip":false,"rstrip":false,"normalized":false},{"id":4,"special":true,"content":"<en>","single_word":false,"lstrip":false,"rstrip":false,"normalized":false},{"id":5,"special":true,"content":"<es>","single_word":false,"lstrip":false,"rstrip":false,"normalized":false},{"id":6,"special":true,"content":"<fr>","single_word":false,"lstrip":false,"rstrip":false,"normalized":false},{"id":7,"special":true,"content":"<it>","single_word":false,"lstrip":false,"rstrip":false,"normalized":false},{"id":8,"special":true,"content":"<ru>","single_word":false,"lstrip":false,"rstrip":false,"normalized":false}],"normalizer":null,"pre_tokenizer":{"type":"Whitespace"},"post_processor":null,"decoder":null,"model":{"type":"WordPiece","unk_token":"<unk/>","continuing_subword_prefix":"##","max_input_chars_per_word":100,"vocab":{"<pad/>":0,"</seq>":1,"<seq>":2,"<unk/>":3,"<en>":4,"<es>":5,"<fr>":6,"<it>":7,"<ru>":8,"!":9,"#":10,"%":11,"&":12,"'":13,"(":14,")":15,"*":16,"+":17,",":18,"-":19,".":20,"/":21,"0":22,"1":23,"2":24,"3":25,"4":26,"5":27,"6":28,"7":29,"8":30,"9":31,":":32,";":33,"=":34,"?":35,"A":36,"B":37,"C":38,"D":39,"E":40,"F":41,"G":42,"H":43,"I":44,"J":45,"K":46,"L":47,"M":48,"N":49,"O":50,"P":51,"Q":52,"R":53,"S":54,"T":55,"U":56,"V":57,"W":58,"X":59,"Z":60,"[":61,"\\":62,"]":63,"^":64,"`":65,"a":66,"b":67,"c":68,"d":69,"e":70,"f":71,"g":72,"h":73,"i":74,"j":75,"k":76,"l":77,"m":78,"n":79,"o":80,"p":81,"q":82,"r":83,"s":84,"t":85,"u":86,"v":87,"w":88,"x":89,"y":90,"z":91,"{":92,"|":93,"}":94,"­":95,"°":96,"²":97,"³":98,"·":99,"½":100,"¾":101,"×":102,"á":103,"æ":104,"é":105,"ë":106,"í":107,"ö":108,"ú":109,"ý":110,"ą":111,"ę":112,"ō":113,"ŕ":114,"́":115,"̉":116,"Η":117,"έ":118,"ή":119,"α":120,"β":121,"γ":122,"η":123,"θ":124,"λ":125,"μ":126,"ν":127,"ο":128,"ρ":129,"ς":130,"σ":131,"τ":132,"υ":133,"χ":134,"ό":135,"А":136,"Б":137,"В":138,"Г":139,"Д":140,"Е":141,"Ж":142,"З":143,"И":144,"Й":145,"К":146,"Л":147,"М":148,"Н":149,"О":150,"П":151,"Р":152,"С":153,"Т":154,"У":155,"Ф":156,"Х":157,"Ц":158,"Ч":159,"Ш":160,"Щ":161,"Ъ":162,"Ь":163,"Э":164,"Ю":165,"Я":166,"а":167,"б":168,"в":169,"г":170,"д":171,"е":172,"ж":173,"з":174,"и":175,"й":176,"к":177,"л":178,"м":179,"н":180,"о":181,"п":182,"р":183,"с":184,"т":185,"у":186,"ф":187,"х":188,"ц":189,"ч":190,"ш":191,"щ":192,"ъ":193,"ы":194,"ь":195,"э":196,"ю":197,"я":198,"ё":199,"і":200,"ѣ":201,"Ѧ":202,"ѧ":203,"Ѫ":204,"ѫ":205,"ѵ":206,"—":207,"―":208,"‘":209,"•":210,"…":211,"⁄":212,"₂":213,"₅":214,"₆":215,"⅙":216,"→":217,"−":218,"≠":219,"≡":220,"◆":221,"☐":222,"☑":223,"Ⱇ":224,"##л":225,"##е":226,"##с":227,"##а":228,"##р":229,"##н":230,"##о":231,"##б":232,"##ы":233,"##т":234,"##в":235,"##к":236,"##и":237,"##у":238,"##й":239,"##з":240,"##м":241,"##щ":242,"##ю":243,"##я":244,"##ж":245,"##ц":246,"##х":247,"##ш":248,"##г":249,"##д":250,"##п":251,"##ь":252,"##ч":253,"##ё":254,"##э":255,"##6":256,"##ф":257,"##y":258,"##m":259,"##n":260,"##o":261,"##c":262,"##e":263,"##p":264,"##h":265,"##a":266,"##l":267,"##u":268,"##s":269,"##́":270,"##ъ":271,"##d":272,"##i":273,"##0":274,"##8":275,"##9":276,"##3":277,"##В":278,"##С":279,"##r":280,"##t":281,"##C":282,"##1":283,"##2":284,"##і":285,"##b":286,"##F":287,"##O":288,"##4":289,"##v":290,"##ѫ":291,"##7":292,"##X":293,"##Р":294,"##H":295,"##x":296,"##V":297,"##5":298,"##g":299,"##D":300,"##Л":301,"##А":302,"##И":303,"##I":304,"##\\":305,"##О":306,"##П":307,"##f":308,"##Г":309,"##З":310,"##E":311,"##R":312,"##A":313,"##ō":314,"##é":315,"##М":316,"##M":317,"##W":318,"##Т":319,"##Ф":320,"##Ч":321,"##á":322,"##æ":323,"##ö":324,"##Н":325,"##N":326,"##Д":327,"##k":328,"##S":329,"##ë":330,"##q":331,"##ŕ":332,"##ý":333,"##T":334,"##`":335,"##У":336,"##j":337,"##К":338,"##Б":339,"##Ш":340,"##Х":341,"##ѣ":342,"##ѧ":343,"##ú":344,"##z":345,"##Ц":346,"##G":347,"##.":348,"##w":349,"##í":350,"##/":351,"##υ":352,"##μ":353,"##έ":354,"##λ":355,"##η":356,"##=":357,"##−":358,"##P":359,"##'":360,"##Z":361,"##|":362,"##B":363,"##Я":364,"##ο":365,"##ρ":366,"##γ":367,"##ό":368,"##ς":369,"##^":370,"##̉":371,"##χ":372,"##ή":373,"##σ":374,"##τ":375,"##α":376,"##-":377,"##L":378,"##·":379,"##ст":380,"##ен":381,"##но":382,"##ны":383,"##ро":384,"##ер":385,"##ени":386,"##ан":387,"по":388,"##ат":389,"##го":390,"##ел":391,"##ко":392,"##ли":393,"##ств":394,"##бо":395,"##ра":396,"##ре":397,"##ит":398,"##ов":399,"##на":400,"##ий":401,"на":402,"ра":403,"ли":404,"##ный":405,"##ся":406,"##ри":407,"##ол":408,"##ем":409,"##то":410,"либо":411,"##ка":412,"##ать":413,"не":414,"##во":415,"##ет":416,"##ни":417,"со":418,"##ющ":419,"##ель":420,"##ани":421,"ко":422,"раз":423,"или":424,"об":425,"##ру":426,"про":427,"##ля":428,"##ей":429,"##ль":430,"##ес":431,"##ми":432,"##ки":433,"##ар":434,"при":435,"##ла":436,"от":437,"пер":438,"##ение":439,"##ло":440,"##ор":441,"##ения":442,"##сти":443,"из":444,"##да":445,"за":446,"##ить":447,"##ред":448,"##сть":449,"##ед":450,"во":451,"##ное":452,"##еств":453,"##ти":454,"разг":455,"##ного":456,"ка":457,"##сто":458,"вы":459,"##ных":460,"##ва":461,"##нач":462,"##ной":463,"##ющий":464,"##от":465,"##ци":466,"##од":467,"перен":468,"##ско":469,"##об":470,"##сп":471,"##ый":472,"##чес":473,"ст":474,"##его":475,"##ек":476,"##итель":477,"##ви":478,"##ая":479,"для":480,"##ная":481,"##щий":482,"уст":483,"##ть":484,"##ом":485,"##ению":486,"знач":487,"##ие":488,"##ме":489,"##ос":490,"##вать":491,"##ин":492,"##ез":493,"##ным":494,"су":495,"##ск":496,"##им":497,"##ейств":498,"##ав":499,"пред":500,"##ществ":501,"##лу":502,"##из":503,"##ее":504,"св":505,"сп":506,"значению":507,"##ги":508,"##мен":509,"##ры":510,"##ность":511,"устар":512,"та":513,"##кой":514,"что":515,"##яз":516,"##ма":517,"##оль":518,"##ле":519,"##ну":520,"##де":521,"под":522,"##чи":523,"##анный":524,"чего":525,"##ания":526,"до":527,"##енный":528,"##ку":529,"ме":530,"##му":531,"##ён":532,"##та":533,"ча":534,"сво":535,"действ":536,"##ание":537,"##жд":538,"##ча":539,"##лов":540,"##щийся":541,"##ис":542,"##ран":543,"##чно":544,"##нов":545,"##атель":546,"##их":547,"ос":548,"##став":549,"связ":550,"##нося":551,"##уд":552,"##ство":553,"ре":554,"##ой":555,"##торо":556,"##рав":557,"##ход":558,"##ров":559,"##ности":560,"##ев":561,"##носящийся":562,"##елов":563,"##стоя":564,"##зы":565,"од":566,"##жа":567,"##ня":568,"оп":569,"##аль":570,"##ких":571,"##ные":572,"челов":573,"##раз":574,"##мо":575,"##ых":576,"##он":577,"##ели":578,"си":579,"##ди":580,"обы":581,"пре":582,"##ря":583,"##кт":584,"ви":585,"му":586,"существ":587,"##вер":588,"##ца":589,"##оло":590,"##га":591,"##ков":592,"ку":593,"##па":594,"##кого":595,"соот":596,"##ал":597,"связанный":598,"жи":599,"##ном":600,"дру":601,"##кий":602,"##си":603,"##мя":604,"##еб":605,"##не":606,"обычно":607,"##за":608,"жен":609,"##род":610,"чем":611,"##дел":612,"то":613,"##жи":614,"##со":615,"исп":616,"воз":617,"прост":618,"##до":619,"свой":620,"##жн":621,"##ении":622,"##ком":623,"##ём":624,"##ут":625,"##ции":626,"ин":627,"##ят":628,"##кая":629,"##ства":630,"##лен":631,"ист":632,"##кое":633,"##вод":634,"действие":635,"##мер":636,"нап":637,"##же":638,"##ду":639,"##тов":640,"##са":641,"##ара":642,"##вет":643,"ор":644,"кни":645,"##ке":646,"истор":647,"##ех":648,"сов":649,"##ление":650,"кого":651,"состоя":652,"существитель":653,"соотносящийся":654,"человек":655,"##ющее":656,"име":657,"##честв":658,"##ления":659,"гл":660,"без":661,"##мы":662,"##ствен":663,"##ия":664,"##лю":665,"которо":666,"ру":667,"##аться":668,"##ень":669,"##еч":670,"неп":671,"##ву":672,"спе":673,"мо":674,"существительным":675,"ма":676,"книжн":677,"##сту":678,"##жение":679,"расп":680,"##ющая":681,"го":682,"##ичес":683,"так":684,"как":685,"##ское":686,"уп":687,"##ое":688,"##ве":689,"пос":690,"соб":691,"##ник":692,"са":693,"##ением":694,"##иться":695,"ком":696,"гру":697,"##ской":698,"фор":699,"ве":700,"##вед":701,"##ющийся":702,"##знач":703,"##ений":704,"кон":705,"##ется":706,"##ты":707,"рас":708,"##мет":709,"##вш":710,"##еп":711,"##ста":712,"##ир":713,"##ными":714,"##щи":715,"лю":716,"##ого":717,"произ":718,"вс":719,"##рен":720,"##том":721,"##редел":722,"ни":723,"##ктер":724,"##стро":725,"##жения":726,"орг":727,"жар":728,"##рат":729,"##вание":730,"##лять":731,"##вы":732,"вре":733,"##дер":734,"##арактер":735,"##лед":736,"па":737,"также":738,"характер":739,"мед":740,"##особ":741,"##зу":742,"##кры":743,"боль":744,"##рев":745,"кто":746,"##емый":747,"пло":748,"##дов":749,"жарг":750,"бы":751,"имеющий":752,"ми":753,"##ши":754,".-":755,"пра":756,"##ким":757,"образ":758,"##ок":759,"##ды":760,"живо":761,"определ":762,"муж":763,"сред":764,"##уль":765,"кра":766,"раст":767,"##лин":768,"тот":769,"кото":770,"имя":771,"##ери":772,"обла":773,"ла":774,"рез":775,"##ус":776,"слу":777,"##гра":778,"##ского":779,"##ступ":780,"мат":781,"состояни":782,"##лаг":783,"##реб":784,"часть":785,"##ращ":786,"полу":787,"сем":788,"исполь":789,"##ять":790,"дел":791,"##ур":792,"обо":793,"##вая":794,"##хо":795,"воен":796,"представ":797,"виде":798,"вер":799,"##ека":800,"##ами":801,"##лич":802,"##зов":803,"##олн":804,"##ром":805,"дви":806,"##мень":807,"##ёр":808,"объ":809,"##по":810,"основ":811,"##ют":812,"выра":813,"##ательного":814,"##гу":815,"##фи":816,"##ент":817,"относящийся":818,"поло":819,"##ённый":820,"##зи":821,"##ную":822,"##жен":823,"##ящ":824,"рабо":825,"##реч":826,"пу":827,"##бы":828,"бес":829,"кру":830,"больш":831,"##ании":832,"пере":833,"##меньш":834,"живот":835,"чу":836,"органи":837,"##ере":838,"уменьш":839,"слов":840,"##сь":841,"##ней":842,"чему":843,"##ба":844,"рели":845,"прилаг":846,"##ера":847,"##тив":848,"##нут":849,"пол":850,"##каз":851,"свойство":852,"##лек":853,"##вания":854,"##ша":855,"яв":856,"поли":857,"бо":858,"##ственный":859,"##гр":860,"##яв":861,"##пу":862,"отно":863,"##един":864,"фи":865,"прилагательного":866,"##вой":867,"тех":868,"бол":869,"женск":870,"гла":871,"себ":872,"##сов":873,"##кие":874,"высо":875,"тел":876,"какой":877,"небо":878,"##мени":879,"##ту":880,"##ющих":881,"место":882,"древ":883,"##енно":884,"его":885,"##ним":886,"де":887,"##льш":888,"##лет":889,"##жду":890,"кол":891,"##ками":892,"##осуд":893,"кому":894,"ск":895,"##ваться":896,"##ция":897,"##готов":898,"##али":899,"##ологи":900,"##ству":901,"специ":902,"мет":903,"но":904,"неко":905,"способ":906,"##сы":907,"##ах":908,"нареч":909,"##ые":910,"##ым":911,"лиц":912,"##рит":913,"небольш":914,"ди":915,"уч":916,"содер":917,"ду":918,"##ника":919,"##рой":920,"##ян":921,"##чный":922,"части":923,"##льный":924,"комп":925,"сторо":926,"чём":927,"предна":928,"предмет":929,"##осудар":930,"совер":931,"семейств":932,"наз":933,"государ":934,"##су":935,"##тат":936,"стра":937,"##ностью":938,"матери":939,"ан":940,"иск":941,"``":942,"##ще":943,"предназнач":944,"бу":945,"##ях":946,"такой":947,"спец":948,"физ":949,"##ита":950,"##вор":951,"использу":952,"ав":953,"##стем":954,"друго":955,"семейства":956,"состояние":957,"##лем":958,"оч":959,"''":960,"##оз":961,"##жащий":962,"##верх":963,"между":964,"пи":965,"##ха":966,"ста":967,"##енное":968,"город":969,"##уществ":970,"зву":971,"##она":972,"систем":973,"##тер":974,"##ских":975,"##стан":976,"сдел":977,"##те":978,"##ив":979,"##пп":980,"##ствие":981,"Рос":982,"би":983,"##ший":984,"проц":985,"отнош":986,"ар":987,"гор":988,"выс":989,"язы":990,"##кра":991,"направ":992,"чув":993,"вз":994,"цвет":995,"соз":996,"##уч":997,"состав":998,"##ческий":999,"ласк":1000,"##чин":1001,"тру":1002,"##стей":1003,"действия":1004,"рег":1005,"гол":1006,"##ному":1007,"##ский":1008,"производ":1009,"упот":1010,"жиз":1011,"##щение":1012,"##кон":1013,"##рых":1014,"человека":1015,"##ато":1016,"качеств":1017,"##ница":1018,"вид":1019,"##жеств":1020,"нас":1021,"##вающий":1022,"ге":1023,"##ями":1024,"##рый":1025,"ус":1026,"зани":1027,"уча":1028,"##кру":1029,"##гих":1030,"##сии":1031,"мор":1032,"сло":1033,"##бор":1034,"свойственный":1035,"##ческой":1036,"ро":1037,"##ультат":1038,"результат":1039,"##ью":1040,"##ская":1041,"время":1042,"##реп":1043,"религ":1044,"##жно":1045,"кем":1046,"##рот":1047,"##лад":1048,"##орт":1049,"##кан":1050,"##ходя":1051,"поверх":1052,"часто":1053,"процес":1054,"цер":1055,"##вый":1056,"##анием":1057,"##ёт":1058,"чер":1059,"##би":1060,"##рон":1061,"мн":1062,"##ец":1063,"##гла":1064,"##образ":1065,"внут":1066,"жел":1067,"ле":1068,"##про":1069,"##личеств":1070,"##бой":1071,"##ческое":1072,"употреб":1073,"название":1074,"определён":1075,"ис":1076,"род":1077,"##стру":1078,"количеств":1079,"##лы":1080,"##роп":1081,"дву":1082,"##фор":1083,"##ваем":1084,"поэ":1085,"вып":1086,"одно":1087,"веществ":1088,"их":1089,"##цы":1090,"мужское":1091,"мы":1092,"цель":1093,"тер":1094,"##нос":1095,"##ческих":1096,"##вид":1097,"##ща":1098,"##казы":1099,"какого":1100,"собир":1101,"##вший":1102,"##жда":1103,"очень":1104,"##нг":1105,"##ятель":1106,"##ими":1107,"зем":1108,"неод":1109,"друг":1110,"непри":1111,"кар":1112,"##руж":1113,"соверш":1114,"##той":1115,"##тель":1116,"перед":1117,"жид":1118,"прави":1119,"ло":1120,"##лав":1121,"##ждения":1122,"##иро":1123,"##ительный":1124,"много":1125,"##клю":1126,"бот":1127,"дет":1128,"##рост":1129,"##буд":1130,"поме":1131,"сам":1132,"##рода":1133,"над":1134,"зап":1135,"располо":1136,"ва":1137,"пс":1138,"##ата":1139,"отд":1140,"мя":1141,"##дей":1142,"помо":1143,"##воз":1144,"##цион":1145,"##нуть":1146,"еди":1147,"обществ":1148,"суб":1149,"прояв":1150,"такого":1151,"##щее":1152,"техн":1153,"дол":1154,"полов":1155,"##ительно":1156,"##нять":1157,"некото":1158,"пов":1159,"##обр":1160,"объек":1161,"##зма":1162,"##чать":1163,"##енная":1164,"##рез":1165,"ботан":1166,"##бе":1167,"доб":1168,"же":1169,"##няя":1170,"разв":1171,"явля":1172,"поэт":1173,"##ленный":1174,"##ждение":1175,"других":1176,"##ках":1177,"##кими":1178,"##куп":1179,"России":1180,"##ват":1181,"##овать":1182,"псих":1183,"прен":1184,"##ском":1185,"занима":1186,"пренеб":1187,"стро":1188,"##чения":1189,"##анное":1190,"ры":1191,"ту":1192,"силь":1193,"га":1194,"##стой":1195,"##оро":1196,"метал":1197,"оде":1198,"##ии":1199,"характерный":1200,"##ату":1201,"линг":1202,"##вое":1203,"соедин":1204,"ги":1205,"искус":1206,"где":1207,"уда":1208,"##жать":1209,"##лон":1210,"устрой":1211,"##чь":1212,"ба":1213,"##ета":1214,"##лом":1215,"делать":1216,"дер":1217,"##ющие":1218,"##яти":1219,"##ана":1220,"мел":1221,"себя":1222,"целью":1223,"##хов":1224,"соответ":1225,"##дар":1226,"исто":1227,"уз":1228,"представитель":1229,"деятель":1230,"##при":1231,"##еля":1232,"отс":1233,"нибуд":1234,"нибудь":1235,"пут":1236,"##стве":1237,"тя":1238,"который":1239,"##мыс":1240,"##ведения":1241,"цел":1242,"##бли":1243,"##аний":1244,"миф":1245,"##ством":1246,"вызы":1247,"##имо":1248,"лингв":1249,"проис":1250,"##ледов":1251,"ско":1252,"элем":1253,"##бу":1254,"мест":1255,"женщи":1256,"мол":1257,"19":1258,"пл":1259,"##рии":1260,"мас":1261,"некоторых":1262,"ря":1263,"##нее":1264,"##ющего":1265,"котором":1266,"глу":1267,"##ческого":1268,"один":1269,"##щая":1270,"##гре":1271,"восп":1272,"##ую":1273,"##стра":1274,"##ись":1275,"##жный":1276,"приз":1277,"музы":1278,"неодобр":1279,"которого":1280,"##вол":1281,"##гать":1282,"него":1283,"фа":1284,"##лый":1285,"##что":1286,"##ряд":1287,"##пер":1288,"##сколь":1289,"животных":1290,"различ":1291,"осуществ":1292,"которой":1293,"расс":1294,"им":1295,"##чет":1296,"кри":1297,"##ний":1298,"вол":1299,"длин":1300,"уг":1301,"чис":1302,"##мент":1303,"##ест":1304,"##пад":1305,"сер":1306,"##чной":1307,"покры":1308,"лиш":1309,"##ющееся":1310,"сделать":1311,"##того":1312,"несколь":1313,"рус":1314,"групп":1315,"##яни":1316,"ув":1317,"##ун":1318,"инстру":1319,"##лект":1320,"обращ":1321,"гра":1322,"кре":1323,"тра":1324,"церк":1325,"ост":1326,"##ему":1327,"лицо":1328,"само":1329,"##зм":1330,"##чная":1331,"поз":1332,"##способ":1333,"пря":1334,"##ина":1335,"автом":1336,"употребля":1337,"вла":1338,"низ":1339,"##ман":1340,"рав":1341,"мех":1342,"сто":1343,"##вести":1344,"пренебр":1345,"зна":1346,"##вого":1347,"отдель":1348,"широ":1349,"##обра":1350,"да":1351,"##ья":1352,"##емая":1353,"предназначенный":1354,"||":1355,"ох":1356,"пла":1357,"особ":1358,"образов":1359,"круп":1360,"специаль":1361,"тор":1362,"##бот":1363,"##над":1364,"##руш":1365,"доп":1366,"##ующий":1367,"##щения":1368,"верх":1369,"более":1370,"пар":1371,"##ющаяся":1372,"пти":1373,"перем":1374,"процесс":1375,"##чных":1376,"##лой":1377,"каких":1378,"##олько":1379,"жизни":1380,"вне":1381,"тол":1382,"сос":1383,"##циаль":1384,"степ":1385,"распрост":1386,"элект":1387,"##окуп":1388,"##жу":1389,"поч":1390,"##ческая":1391,"интер":1392,"времени":1393,"край":1394,"женщина":1395,"эк":1396,"необ":1397,"кор":1398,"совокуп":1399,"голов":1400,"отсут":1401,"только":1402,"##лении":1403,"##щу":1404,"##гда":1405,"##ведение":1406,"##енных":1407,"##кую":1408,"одного":1409,"себе":1410,"вод":1411,"##ологии":1412,"её":1413,"зо":1414,"ки":1415,"##ывать":1416,"проти":1417,"тре":1418,"##лаго":1419,"вой":1420,"уста":1421,"тран":1422,"уни":1423,"##вёр":1424,"ак":1425,"##циона":1426,"##тиви":1427,"##ене":1428,"##льной":1429,"спорт":1430,"##ена":1431,"##дающий":1432,"распростран":1433,"тек":1434,"возду":1435,"сти":1436,"хим":1437,"##давать":1438,"стран":1439,"##лей":1440,"##ыт":1441,"##жность":1442,"##еть":1443,"##коп":1444,"##тор":1445,"изготов":1446,"услов":1447,"##це":1448,"народ":1449,"людей":1450,"области":1451,"##уш":1452,"состоящий":1453,"быть":1454,"субстан":1455,"##мат":1456,"простран":1457,"зоол":1458,"дом":1459,"##креп":1460,"фило":1461,"дерев":1462,"офи":1463,"кулин":1464,"специали":1465,"внутрен":1466,"окру":1467,"сок":1468,"содерж":1469,"жидко":1470,"кла":1471,"шут":1472,"##тен":1473,"##ремен":1474,"##емое":1475,"##ум":1476,"##ющей":1477,"куда":1478,"обознач":1479,"прав":1480,"##чка":1481,"##ников":1482,"принад":1483,"инфор":1484,"форма":1485,"страд":1486,"двух":1487,"устройство":1488,"принадле":1489,"ти":1490,"##нер":1491,"##чение":1492,"##енного":1493,"механи":1494,"бел":1495,"тем":1496,"измен":1497,"##ье":1498,"женское":1499,"противо":1500,"##ору":1501,"##ровать":1502,"неол":1503,"##чное":1504,"использов":1505,"пери":1506,"какое":1507,"быстро":1508,"##чить":1509,"##мест":1510,"развит":1511,"бран":1512,"##енной":1513,"разно":1514,"свет":1515,"поверхности":1516,"##вос":1517,"ед":1518,"зат":1519,"##жении":1520,"поступ":1521,"##ток":1522,"отли":1523,"правило":1524,"##рет":1525,"##ются":1526,"##ге":1527,"##чного":1528,"##иту":1529,"общ":1530,"##стью":1531,"анат":1532,"качестве":1533,"автомоб":1534,"совокупность":1535,"иг":1536,"##рос":1537,"проду":1538,"##оря":1539,"после":1540,"##тивир":1541,"субстантивир":1542,"вели":1543,"те":1544,"наход":1545,"люб":1546,"растение":1547,"выража":1548,"гу":1549,"##дно":1550,"##кому":1551,"служ":1552,"внеш":1553,"вес":1554,"гов":1555,"примен":1556,"ут":1557,"нео":1558,"куль":1559,"формы":1560,"крас":1561,"мно":1562,"##оми":1563,"##анию":1564,"приспособ":1565,"##цию":1566,"управ":1567,"##чат":1568,"##ыми":1569,"##пи":1570,"##них":1571,"##имый":1572,"мал":1573,"##бов":1574,"биол":1575,"цент":1576,"##стоян":1577,"преим":1578,"помощ":1579,"след":1580,"твёр":1581,"##стр":1582,"##анных":1583,"сы":1584,"##рем":1585,"музыка":1586,"трансп":1587,"ору":1588,"##ливо":1589,"кро":1590,"##еро":1591,"##тно":1592,"##тый":1593,"возмо":1594,"призна":1595,"##стов":1596,"##ительное":1597,"мыс":1598,"##ше":1599,"отвер":1600,"обс":1601,"заклю":1602,"путём":1603,"##лить":1604,"ран":1605,"фун":1606,"##рё":1607,"##шего":1608,"##анная":1609,"трав":1610,"сочет":1611,"##ине":1612,"растений":1613,"бесп":1614,"через":1615,"хими":1616,"постоян":1617,"##льного":1618,"изобра":1619,"запа":1620,"болез":1621,"высок":1622,"соответству":1623,"отсутствие":1624,"недо":1625,"лё":1626,"##ати":1627,"прод":1628,"всех":1629,"ино":1630,"##щих":1631,"##ола":1632,"арх":1633,"ал":1634,"##чки":1635,"##изу":1636,"тон":1637,"##кани":1638,"пок":1639,"##ител":1640,"полит":1641,"неприят":1642,"##женный":1643,"нес":1644,"##ние":1645,"##вает":1646,"стру":1647,"вет":1648,"см":1649,"##рь":1650,"##цу":1651,"##действ":1652,"##II":1653,"##нист":1654,"собой":1655,"против":1656,"сна":1657,"##лён":1658,"##него":1659,"##зии":1660,"тела":1661,"установ":1662,"мин":1663,"поль":1664,"приготов":1665,"полити":1666,"укра":1667,"##рин":1668,"##ляющий":1669,"нов":1670,"сни":1671,"##шения":1672,"##дать":1673,"восто":1674,"каком":1675,"##ательный":1676,"собствен":1677,"организа":1678,"##нев":1679,"материа":1680,"##ходящий":1681,"переме":1682,"информа":1683,"ткан":1684,"чь":1685,"##лением":1686,"##рани":1687,"##нь":1688,"##рок":1689,"нача":1690,"##водить":1691,"##грани":1692,"лит":1693,"ог":1694,"##дный":1695,"##лиз":1696,"согла":1697,"человеке":1698,"растения":1699,"большой":1700,"религи":1701,"##есп":1702,"отдел":1703,"функ":1704,"благо":1705,"вза":1706,"##сты":1707,"раздел":1708,"дене":1709,"ход":1710,"находя":1711,"застав":1712,"##ечение":1713,"тяж":1714,"сме":1715,"том":1716,"физичес":1717,"отлича":1718,"сч":1719,"ткани":1720,"этого":1721,"##ото":1722,"##уп":1723,"##шение":1724,"нар":1725,"лег":1726,"группы":1727,"хол":1728,"##кла":1729,"##жная":1730,"##ций":1731,"пот":1732,"##льных":1733,"муз":1734,"террит":1735,"элемен":1736,"вуль":1737,"лат":1738,"сек":1739,"##ящий":1740,"свобо":1741,"деятельности":1742,"##вроп":1743,"##us":1744,"нос":1745,"хоро":1746,"##бить":1747,"##хран":1748,"неза":1749,"период":1750,"игра":1751,"срав":1752,"##гат":1753,"##дь":1754,"##нок":1755,"##авли":1756,"которы":1757,"лёг":1758,"вульг":1759,"##ием":1760,"##щать":1761,"выдел":1762,"буд":1763,"сла":1764,"##сса":1765,"##вар":1766,"##ям":1767,"##ших":1768,"##ёл":1769,"##ится":1770,"места":1771,"груп":1772,"образом":1773,"##грам":1774,"движения":1775,"автомоби":1776,"сев":1777,"##еры":1778,"корот":1779,"свер":1780,"гео":1781,"член":1782,"##яй":1783,"##цен":1784,"неб":1785,"одной":1786,"##ратив":1787,"вним":1788,"имени":1789,"##ант":1790,"участ":1791,"ад":1792,"##шая":1793,"##олня":1794,"##льное":1795,"характеризу":1796,"специалист":1797,"преимуществ":1798,"ну":1799,"##роб":1800,"##ливый":1801,"##ваемый":1802,"дости":1803,"насел":1804,"дов":1805,"хран":1806,"##лё":1807,"##зр":1808,"##дания":1809,"##работ":1810,"##льно":1811,"забо":1812,"последов":1813,"глав":1814,"говор":1815,"##че":1816,"зако":1817,"доро":1818,"##ённых":1819,"част":1820,"пись":1821,"уго":1822,"ци":1823,"обесп":1824,"##ляр":1825,"##чай":1826,"находящийся":1827,"зан":1828,"##жением":1829,"##фичес":1830,"вос":1831,"##стоятель":1832,"организма":1833,"содержащий":1834,"иде":1835,"##нии":1836,"помещение":1837,"террито":1838,"##ющим":1839,"##чина":1840,"##ляться":1841,"увели":1842,"смыс":1843,"фин":1844,"неу":1845,"спор":1846,"нор":1847,"орган":1848,"помощью":1849,"удар":1850,"##нем":1851,"##вис":1852,"форме":1853,"движение":1854,"вед":1855,"нем":1856,"##тя":1857,"отверсти":1858,"уси":1859,"чи":1860,"сопро":1861,"##дав":1862,"##ённое":1863,"напоми":1864,"бук":1865,"вп":1866,"кис":1867,"чрез":1868,"##шее":1869,"##стое":1870,"##еза":1871,"предо":1872,"##альный":1873,"иногда":1874,"##рать":1875,"##гаться":1876,"##дом":1877,"нау":1878,"##еты":1879,"##ательно":1880,"##нерги":1881,"дере":1882,"ирон":1883,"##ам":1884,"##енным":1885,"речи":1886,"цвета":1887,"удов":1888,"издел":1889,"воды":1890,"исполн":1891,"небольшой":1892,"государства":1893,"сооб":1894,"отлич":1895,"подвер":1896,"действий":1897,"руко":1898,"отношение":1899,"результате":1900,"группа":1901,"лет":1902,"хоз":1903,"##жности":1904,"##лит":1905,"##лия":1906,"наб":1907,"обяз":1908,"##мента":1909,"##ственное":1910,"все":1911,"работ":1912,"бума":1913,"количество":1914,"вещество":1915,"ощу":1916,"##сси":1917,"##жной":1918,"##арат":1919,"##логи":1920,"##ческим":1921,"##чу":1922,"##лое":1923,"##станов":1924,"положение":1925,"другим":1926,"различных":1927,"шутл":1928,"пара":1929,"тов":1930,"ша":1931,"##сий":1932,"##вом":1933,"##ину":1934,"обладающий":1935,"металли":1936,"прит":1937,"##ак":1938,"##вых":1939,"##енные":1940,"##дах":1941,"зад":1942,"орга":1943,"##ственно":1944,"##вест":1945,"сравн":1946,"##пис":1947,"##поло":1948,"каким":1949,"старин":1950,"чувства":1951,"син":1952,"смер":1953,"##ковой":1954,"##ждать":1955,"##ходящ":1956,"##ечат":1957,"средство":1958,"физи":1959,"морск":1960,"пр":1961,"лоша":1962,"мифол":1963,"литер":1964,"##ыты":1965,"прив":1966,"интерес":1967,"филос":1968,"малень":1969,"##рёх":1970,"##се":1971,"##нит":1972,"##йти":1973,"##лии":1974,"##раб":1975,"ради":1976,"##емого":1977,"##строй":1978,"склон":1979,"духов":1980,"другого":1981,"##вшийся":1982,"приспособление":1983,"стол":1984,"предпри":1985,"##удо":1986,"работы":1987,"стороны":1988,"расположен":1989,"разновид":1990,"ограни":1991,"сим":1992,"##еш":1993,"##ог":1994,"нечто":1995,"выполн":1996,"истори":1997,"обсц":1998,"напомина":1999,"день":2000,"экон":2001,"энерги":2002,"##хи":2003,"##шей":2004,"##лина":2005,"##вин":2006,"круг":2007,"единица":2008,"волос":2009,"##атичес":2010,"выз":2011,"##яться":2012,"являющийся":2013,"XV":2014,"##вращ":2015,"##жде":2016,"##гля":2017,"наруш":2018,"откры":2019,"стрем":2020,"##ходить":2021,"##ряда":2022,"испыты":2023,"образу":2024,"системы":2025,"употребляется":2026,"##кти":2027,"##мой":2028,"##стить":2029,"##нима":2030,"разд":2031,"##док":2032,"переда":2033,"продукт":2034,"апп":2035,"фами":2036,"##дить":2037,"ней":2038,"область":2039,"получа":2040,"знак":2041,"птица":2042,"близ":2043,"скры":2044,"##жить":2045,"лица":2046,"програм":2047,"##сток":2048,"стар":2049,"##авший":2050,"##чивать":2051,"##вшее":2052,"всего":2053,"времен":2054,"меди":2055,"служащий":2056,"##нутый":2057,"сокр":2058,"жа":2059,"кат":2060,"кры":2061,"лес":2062,"ман":2063,"яр":2064,"##слу":2065,"##жных":2066,"##цев":2067,"##ента":2068,"##ристи":2069,"древне":2070,"материал":2071,"инструмент":2072,"травяни":2073,"кисло":2074,"есть":2075,"##нет":2076,"##цвет":2077,"народа":2078,"размер":2079,"преп":2080,"форму":2081,"матем":2082,"состоянии":2083,"##круг":2084,"взаим":2085,"юр":2086,"##мот":2087,"##ковых":2088,"##жное":2089,"пор":2090,"##кор":2091,"##стин":2092,"измер":2093,"##тия":2094,"##ительности":2095,"одна":2096,"учре":2097,"нескольких":2098,"применя":2099,"говорить":2100,"житель":2101,"умер":2102,"##лений":2103,"##жим":2104,"##ченный":2105,"##анного":2106,"##говор":2107,"социаль":2108,"разме":2109,"река":2110,"##кту":2111,"##живать":2112,"расстоя":2113,"теле":2114,"другой":2115,"рода":2116,"условия":2117,"архит":2118,"год":2119,"нер":2120,"сол":2121,"##фек":2122,"##енность":2123,"##рус":2124,"воздейств":2125,"животного":2126,"офиц":2127,"адми":2128,"разновидность":2129,"воло":2130,"уро":2131,"##ик":2132,"##ины":2133,"##чая":2134,"##лиш":2135,"мона":2136,"средства":2137,"некоторо":2138,"происхо":2139,"множеств":2140,"ген":2141,"##обо":2142,"поп":2143,"своей":2144,"##чности":2145,"конт":2146,"религиоз":2147,"геогр":2148,"вн":2149,"пы":2150,"##рас":2151,"защ":2152,"доку":2153,"челове":2154,"презр":2155,"существов":2156,"преимущественно":2157,"ска":2158,"##лан":2159,"##ести":2160,"##уча":2161,"##анные":2162,"##ствовать":2163,"##рей":2164,"соору":2165,"##вается":2166,"свойства":2167,"используемый":2168,"заболе":2169,"тан":2170,"##лению":2171,"##ска":2172,"##ху":2173,"##чит":2174,"пог":2175,"##ело":2176,"коне":2177,"напит":2178,"сильно":2179,"ана":2180,"##дание":2181,"##пов":2182,"проф":2183,"##ческие":2184,"преступ":2185,"объедин":2186,"##ющихся":2187,"высказы":2188,"транспорт":2189,"вра":2190,"зр":2191,"##яс":2192,"##рая":2193,"##ально":2194,"относ":2195,"занимающийся":2196,"мифологии":2197,"элемент":2198,"холод":2199,"гре":2200,"##ид":2201,"##стый":2202,"##ником":2203,"##тие":2204,"##отов":2205,"##тами":2206,"##ленное":2207,"слова":2208,"сторон":2209,"предметов":2210,"сделанный":2211,"чувство":2212,"оз":2213,"ред":2214,"##риз":2215,"##риц":2216,"##рования":2217,"##люд":2218,"сосуд":2219,"древнегре":2220,"дли":2221,"##льная":2222,"##вающее":2223,"##меть":2224,"##нимать":2225,"учеб":2226,"языка":2227,"мяг":2228,"необход":2229,"продол":2230,"грани":2231,"хи":2232,"##атр":2233,"##ющими":2234,"торго":2235,"текст":2236,"последователь":2237,"админист":2238,"зн":2239,"мом":2240,"съ":2241,"##оруж":2242,"##яющий":2243,"##жений":2244,"##хват":2245,"##стато":2246,"наи":2247,"##емых":2248,"обработ":2249,"##чис":2250,"##жды":2251,"##онта":2252,"дела":2253,"одежда":2254,"хранения":2255,"сопрово":2256,"##ора":2257,"##ерт":2258,"##нят":2259,"кур":2260,"мало":2261,"груб":2262,"месте":2263,"воспри":2264,"Европ":2265,"бор":2266,"бере":2267,"пе":2268,"худо":2269,"##енти":2270,"##ност":2271,"прос":2272,"##ённая":2273,"##ставля":2274,"##чество":2275,"которое":2276,"##вшая":2277,"диал":2278,"передви":2279,"молод":2280,"минер":2281,"тяжё":2282,"ним":2283,"ум":2284,"##кро":2285,"##пит":2286,"##аты":2287,"##нами":2288,"науч":2289,"кос":2290,"прода":2291,"частей":2292,"прек":2293,"##мыш":2294,"служа":2295,"способность":2296,"созн":2297,"половой":2298,"культу":2299,"##бра":2300,"##жел":2301,"##ёма":2302,"##ностей":2303,"похо":2304,"начать":2305,"##лок":2306,"закры":2307,"предел":2308,"система":2309,"голос":2310,"##носить":2311,"совершить":2312,"степени":2313,"выражающий":2314,"мод":2315,"рек":2316,"три":2317,"##ствия":2318,"рай":2319,"##вающая":2320,"##луб":2321,"маши":2322,"##строн":2323,"оружи":2324,"кан":2325,"##они":2326,"поряд":2327,"природ":2328,"основанный":2329,"##ваемое":2330,"осуществля":2331,"христи":2332,"этно":2333,"##хой":2334,"##стар":2335,"поро":2336,"##бол":2337,"##аря":2338,"##лами":2339,"ответ":2340,"##ваемая":2341,"несколько":2342,"хозяй":2343,"акт":2344,"лу":2345,"хле":2346,"появ":2347,"какую":2348,"стр":2349,"техни":2350,"сторону":2351,"составля":2352,"едини":2353,"обращение":2354,"дома":2355,"обознача":2356,"административ":2357,"мле":2358,"них":2359,"##жей":2360,"##шать":2361,"##рия":2362,"какому":2363,"небольшая":2364,"желез":2365,"вли":2366,"зв":2367,"креп":2368,"мар":2369,"##ода":2370,"##чий":2371,"поб":2372,"##ому":2373,"посред":2374,"послед":2375,"века":2376,"дев":2377,"кле":2378,"##ски":2379,"##нать":2380,"##анной":2381,"пото":2382,"наде":2383,"национа":2384,"сохран":2385,"сум":2386,"опу":2387,"кусо":2388,"того":2389,"слово":2390,"глаза":2391,"Россий":2392,"степень":2393,"окружа":2394,"чрезмер":2395,"вращ":2396,"вмест":2397,"мон":2398,"фото":2399,"чёр":2400,"##шки":2401,"##скать":2402,"мето":2403,"##ательное":2404,"расположенный":2405,"жидкости":2406,"христиан":2407,"гри":2408,"готов":2409,"пес":2410,"##тур":2411,"##кам":2412,"##ети":2413,"проме":2414,"отку":2415,"##лот":2416,"##ительного":2417,"предло":2418,"опис":2419,"совет":2420,"##ственных":2421,"##ступа":2422,"церков":2423,"принадлежащий":2424,"##клады":2425,"сопровожда":2426,"окра":2427,"эти":2428,"##рю":2429,"##руд":2430,"##цип":2431,"##гип":2432,"своих":2433,"которых":2434,"небольшое":2435,"направление":2436,"источ":2437,"191":2438,"уничи":2439,"бед":2440,"нера":2441,"##шо":2442,"обна":2443,"возник":2444,"##выш":2445,"психи":2446,"органов":2447,"клет":2448,"##хе":2449,"##чек":2450,"##енности":2451,"листь":2452,"##етичес":2453,"##ния":2454,"сор":2455,"переп":2456,"какие":2457,"##ленная":2458,"правос":2459,"предназначенное":2460,"звуки":2461,"вещества":2462,"буду":2463,"уничиж":2464,"оцен":2465,"цели":2466,"##ским":2467,"##ено":2468,"##анным":2469,"прият":2470,"извест":2471,"##аясь":2472,"женщ":2473,"гориз":2474,"##ратить":2475,"##лавян":2476,"##имости":2477,"##копита":2478,"млекопита":2479,"Азии":2480,"ль":2481,"лов":2482,"##бав":2483,"##зра":2484,"наруж":2485,"##тое":2486,"##лоп":2487,"##тика":2488,"реш":2489,"любо":2490,"земли":2491,"деревян":2492,"вст":2493,"нрав":2494,"уд":2495,"##ас":2496,"##щего":2497,"##дели":2498,"##прав":2499,"##ьев":2500,"##ёта":2501,"##ример":2502,"кам":2503,"##обще":2504,"##ительных":2505,"осво":2506,"реки":2507,"сильный":2508,"##жид":2509,"например":2510,"гражд":2511,"эксп":2512,"вместе":2513,"бан":2514,"вклю":2515,"моло":2516,"течение":2517,"усп":2518,"эмо":2519,"##щие":2520,"##ясь":2521,"##номи":2522,"вообще":2523,"тай":2524,"кустар":2525,"##доро":2526,"можно":2527,"содержа":2528,"производить":2529,"исс":2530,"мыш":2531,"электри":2532,"материала":2533,"отличающийся":2534,"Сев":2535,"рес":2536,"##лол":2537,"##клон":2538,"##ёз":2539,"неё":2540,"существительными":2541,"конца":2542,"средств":2543,"##казать":2544,"соверша":2545,"геол":2546,"ряда":2547,"дополн":2548,"пространство":2549,"##ителей":2550,"информации":2551,"откуда":2552,"гром":2553,"леч":2554,"ок":2555,"рем":2556,"##ван":2557,"##жного":2558,"##ri":2559,"коп":2560,"прибор":2561,"##ениях":2562,"непос":2563,"взгля":2564,"охот":2565,"народов":2566,"обеспе":2567,"медици":2568,"##ох":2569,"##вяз":2570,"##исти":2571,"##уго":2572,"##фа":2573,"вокруг":2574,"чаще":2575,"##ленно":2576,"##мери":2577,"коман":2578,"конц":2579,"##держи":2580,"способный":2581,"горя":2582,"защит":2583,"вме":2584,"вку":2585,"крат":2586,"праз":2587,"тём":2588,"убор":2589,"##кта":2590,"##жий":2591,"##шеств":2592,"пора":2593,"##етель":2594,"водо":2595,"современ":2596,"года":2597,"нич":2598,"количестве":2599,"##ятие":2600,"тради":2601,"развития":2602,"лека":2603,"мен":2604,"##стный":2605,"пород":2606,"##ителя":2607,"приоб":2608,"причин":2609,"##еку":2610,"##ительной":2611,"свед":2612,"свящ":2613,"возра":2614,"произведения":2615,"право":2616,"авто":2617,"жизн":2618,"##образов":2619,"##атуры":2620,"верхняя":2621,"организации":2622,"норма":2623,"горизонта":2624,"дос":2625,"иметь":2626,"рит":2627,"четы":2628,"##сом":2629,"##ьют":2630,"изуча":2631,"вопро":2632,"предик":2633,"подоб":2634,"##дии":2635,"прес":2636,"полностью":2637,"вызывающий":2638,"отверстие":2639,"травянистое":2640,"урожен":2641,"зло":2642,"##исп":2643,"##ствии":2644,"намер":2645,"перес":2646,"##цией":2647,"суд":2648,"##чиво":2649,"силы":2650,"превос":2651,"##ленг":2652,"города":2653,"животное":2654,"анти":2655,"внутри":2656,"одежды":2657,"##ятия":2658,"крим":2659,"кино":2660,"пользов":2661,"которые":2662,"некоторое":2663,"сооружение":2664,"остро":2665,"пат":2666,"##шный":2667,"##шев":2668,"##ерж":2669,"##емые":2670,"##дает":2671,"##стом":2672,"##чески":2673,"##ментов":2674,"##лег":2675,"##сона":2676,"##держ":2677,"##графичес":2678,"филол":2679,"исклю":2680,"арти":2681,"объект":2682,"гид":2683,"центра":2684,"структу":2685,"спортив":2686,"##бир":2687,"поведения":2688,"##ходит":2689,"напря":2690,"##тым":2691,"любов":2692,"произведение":2693,"нижн":2694,"организм":2695,"словами":2696,"отношению":2697,"двумя":2698,"является":2699,"воздуха":2700,"дерева":2701,"художеств":2702,"ест":2703,"очи":2704,"ожи":2705,"печ":2706,"сленг":2707,"##ские":2708,"##щаться":2709,"##шка":2710,"##атур":2711,"назнач":2712,"оттен":2713,"##альных":2714,"государствен":2715,"поверхность":2716,"занимается":2717,"деятельность":2718,"естеств":2719,"бе":2720,"дра":2721,"##мов":2722,"##жая":2723,"##чным":2724,"пост":2725,"пола":2726,"##бора":2727,"прил":2728,"досто":2729,"##лови":2730,"##ерии":2731,"компьют":2732,"насе":2733,"заним":2734,"##имость":2735,"электро":2736,"филосо":2737,"официаль":2738,"постоянно":2739,"момент":2740,"зер":2741,"##фер":2742,"##лица":2743,"разруш":2744,"приём":2745,"отриц":2746,"сущ":2747,"такое":2748,"##чивый":2749,"##исч":2750,"возбу":2751,"собы":2752,"чувств":2753,"выполня":2754,"однород":2755,"карт":2756,"имп":2757,"уничто":2758,"актив":2759,"противополо":2760,"##итуа":2761,"беспоря":2762,"сниж":2763,"фамилия":2764,"лекар":2765,"бого":2766,"пит":2767,"##ует":2768,"##щей":2769,"##хом":2770,"##шие":2771,"проник":2772,"##дами":2773,"подви":2774,"##чины":2775,"опера":2776,"##оне":2777,"непер":2778,"##щик":2779,"представля":2780,"помощи":2781,"объектов":2782,"соединение":2783,"глубо":2784,"руковод":2785,"кли":2786,"##нение":2787,"неисч":2788,"##лого":2789,"##ениями":2790,"закреп":2791,"воде":2792,"перенос":2793,"##чик":2794,"своего":2795,"плот":2796,"перевоз":2797,"станов":2798,"ткань":2799,"раздра":2800,"непосред":2801,"Во":2802,"жёл":2803,"рис":2804,"приня":2805,"воин":2806,"реб":2807,"реги":2808,"пищу":2809,"##чине":2810,"сочетании":2811,"заставлять":2812,"территории":2813,"достоин":2814,"Древ":2815,"кров":2816,"срок":2817,"трёх":2818,"эко":2819,"##есть":2820,"##сс":2821,"##бер":2822,"##вле":2823,"##жные":2824,"разных":2825,"##рующий":2826,"##лам":2827,"отряда":2828,"выда":2829,"спир":2830,"вслед":2831,"##ваясь":2832,"власти":2833,"физиол":2834,"XVII":2835,"аппарат":2836,"освобо":2837,"празд":2838,"дво":2839,"ото":2840,"##бит":2841,"##ган":2842,"##00":2843,"несо":2844,"обстоятель":2845,"провести":2846,"прин":2847,"##ительность":2848,"##ться":2849,"связи":2850,"##гами":2851,"##ковый":2852,"площа":2853,"выражение":2854,"работа":2855,"психол":2856,"план":2857,"странах":2858,"возможность":2859,"заключа":2860,"соглас":2861,"элементов":2862,"символ":2863,"неперех":2864,"гер":2865,"дис":2866,"зу":2867,"оказы":2868,"ситуа":2869,"тж":2870,"это":2871,"##кле":2872,"##жет":2873,"##аран":2874,"перво":2875,"подчин":2876,"реже":2877,"непо":2878,"характеристи":2879,"оболо":2880,"звук":2881,"деталь":2882,"кресть":2883,"торжеств":2884,"крови":2885,"обязан":2886,"происхождения":2887,"профес":2888,"уров":2889,"шер":2890,"эта":2891,"##кать":2892,"поведение":2893,"##гом":2894,"##гово":2895,"прис":2896,"##виа":2897,"регу":2898,"одина":2899,"##ального":2900,"##ленных":2901,"напис":2902,"мора":2903,"которая":2904,"##женное":2905,"пун":2906,"анг":2907,"прямо":2908,"находиться":2909,"смерти":2910,"наибол":2911,"наиболее":2912,"XI":2913,"др":2914,"остав":2915,"пис":2916,"свид":2917,"##ивать":2918,"##стат":2919,"##рак":2920,"##ование":2921,"наступ":2922,"нев":2923,"отра":2924,"персона":2925,"##куль":2926,"##рованный":2927,"сил":2928,"##номер":2929,"состояния":2930,"вертика":2931,"пути":2932,"государстве":2933,"отношении":2934,"язык":2935,"фам":2936,"позво":2937,"содержания":2938,"класса":2939,"центр":2940,"изделие":2941,"дем":2942,"ном":2943,"оши":2944,"##ённым":2945,"арми":2946,"направлении":2947,"участок":2948,"моря":2949,"происходящий":2950,"лишённый":2951,"потреб":2952,"хорошо":2953,"письмен":2954,"обеспечи":2955,"За":2956,"вред":2957,"вяз":2958,"окон":2959,"твор":2960,"эф":2961,"##ню":2962,"##яя":2963,"##фо":2964,"##ены":2965,"##атый":2966,"наси":2967,"##еди":2968,"кап":2969,"выпу":2970,"##ота":2971,"света":2972,"##ательных":2973,"##гах":2974,"другу":2975,"микро":2976,"##хода":2977,"основе":2978,"душев":2979,"трудно":2980,"##нослу":2981,"общества":2982,"востоке":2983,"заставить":2984,"северо":2985,"удоволь":2986,"исследов":2987,"Восто":2988,"авиа":2989,"яс":2990,"##чность":2991,"##ноп":2992,"##лий":2993,"##рую":2994,"прот":2995,"закон":2996,"стан":2997,"пребы":2998,"##сами":2999,"древес":3000,"коллек":3001,"созд":3002,"жизнь":3003,"добав":3004,"сильное":3005,"сокращ":3006,"типа":3007,"##неве":3008,"энергии":3009,"ярко":3010,"расстояние":3011,"психиатр":3012,"православ":3013,"Север":3014,"Ин":3015,"Укра":3016,"вле":3017,"ды":3018,"дых":3019,"ты":3020,"тю":3021,"этой":3022,"##ост":3023,"##ию":3024,"##ира":3025,"##жным":3026,"##енном":3027,"##рами":3028,"наг":3029,"##олю":3030,"заме":3031,"##вающийся":3032,"##ительная":3033,"##вым":3034,"##фии":3035,"большое":3036,"объекта":3037,"гиб":3038,"процессе":3039,"войск":3040,"вследствие":3041,"Кав":3042,"дав":3043,"луч":3044,"##гна":3045,"##дка":3046,"##ател":3047,"нед":3048,"##вают":3049,"##имое":3050,"##чих":3051,"точки":3052,"имеющее":3053,"##ведении":3054,"определя":3055,"частью":3056,"явления":3057,"предмета":3058,"остров":3059,"особенно":3060,"твёрдо":3061,"измерения":3062,"контро":3063,"граждан":3064,"становиться":3065,"укреп":3066,"хлоп":3067,"##лл":3068,"##лат":3069,"##ип":3070,"##цов":3071,"##чей":3072,"##чные":3073,"попу":3074,"потер":3075,"изуч":3076,"издели":3077,"выго":3078,"выход":3079,"##омет":3080,"##гими":3081,"##альной":3082,"куп":3083,"безл":3084,"плохо":3085,"практи":3086,"##фика":3087,"тело":3088,"диа":3089,"составе":3090,"карто":3091,"совершать":3092,"повто":3093,"вызывать":3094,"темпер":3095,"игры":3096,"музыкальный":3097,"удовлет":3098,"влияни":3099,"1917":3100,"Сред":3101,"дать":3102,"цар":3103,"##рб":3104,"##дий":3105,"##la":3106,"##стая":3107,"##ателя":3108,"##кис":3109,"привод":3110,"зам":3111,"##язы":3112,"человеку":3113,"грузов":3114,"резко":3115,"получения":3116,"другое":3117,"##ционной":3118,"психичес":3119,"верхней":3120,"крайне":3121,"алкого":3122,"##езап":3123,"условиях":3124,"заболевание":3125,"прекращ":3126,"Гер":3127,"сне":3128,"славян":3129,"теп":3130,"яго":3131,"##суль":3132,"##нес":3133,"##жению":3134,"##анно":3135,"##анавли":3136,"##гой":3137,"##кос":3138,"##овой":3139,"##ляя":3140,"запад":3141,"завис":3142,"ворот":3143,"##тии":3144,"##ческом":3145,"устанавли":3146,"таких":3147,"подраз":3148,"действием":3149,"##новремен":3150,"возника":3151,"орнит":3152,"##вших":3153,"плоско":3154,"мужчина":3155,"услу":3156,"участи":3157,"запис":3158,"##ющиеся":3159,"самостоятель":3160,"охват":3161,"требо":3162,"жидкость":3163,"развитие":3164,"неожид":3165,"легко":3166,"изделий":3167,"нерв":3168,"внезап":3169,"документ":3170,"промежу":3171,"свидетель":3172,"блю":3173,"ков":3174,"нан":3175,"тро":3176,"указ":3177,"##ером":3178,"##жка":3179,"##чё":3180,"##лище":3181,"##олнять":3182,"незнач":3183,"невы":3184,"корен":3185,"##сков":3186,"све":3187,"##рым":3188,"##чном":3189,"одновремен":3190,"куш":3191,"##зации":3192,"##чества":3193,"конце":3194,"чуж":3195,"другом":3196,"газ":3197,"угле":3198,"отдельных":3199,"необы":3200,"твёрд":3201,"девуш":3202,"повторя":3203,"СШ":3204,"аб":3205,"фран":3206,"шум":3207,"##кли":3208,"##кло":3209,"##гнуть":3210,"##ёв":3211,"##роиз":3212,"раск":3213,"##руз":3214,"##льным":3215,"издавать":3216,"##рыв":3217,"осла":3218,"топ":3219,"руб":3220,"распола":3221,"любой":3222,"##вые":3223,"определённый":3224,"##уска":3225,"божеств":3226,"комплек":3227,"молеку":3228,"плат":3229,"сереб":3230,"покров":3231,"маленький":3232,"кусок":3233,"орнитол":3234,"США":3235,"бал":3236,"сель":3237,"титу":3238,"##чёт":3239,"##анта":3240,"пору":3241,"##гот":3242,"нежел":3243,"##ники":3244,"кожи":3245,"оби":3246,"##лях":3247,"приводить":3248,"излиш":3249,"##одви":3250,"сид":3251,"имеет":3252,"права":3253,"военнослу":3254,"богат":3255,"колеб":3256,"внутрь":3257,"##струк":3258,"проявление":3259,"повре":3260,"##матри":3261,"соответствующий":3262,"независ":3263,"внимание":3264,"хищ":3265,"оружия":3266,"домаш":3267,"оско":3268,"цве":3269,"юго":3270,"##зн":3271,"##щем":3272,"##жит":3273,"##ъек":3274,"##рудов":3275,"##льном":3276,"прикреп":3277,"стать":3278,"значение":3279,"достато":3280,"##альное":3281,"##соедин":3282,"может":3283,"люд":3284,"которую":3285,"оборудов":3286,"##ящее":3287,"бесс":3288,"государство":3289,"производства":3290,"вари":3291,"лошади":3292,"огранич":3293,"испытывать":3294,"посредством":3295,"18":3296,"Бо":3297,"два":3298,"мир":3299,"нел":3300,"нит":3301,"уб":3302,"шко":3303,"##оп":3304,"##фе":3305,"##ae":3306,"##стал":3307,"##рави":3308,"отчество":3309,"перех":3310,"##вали":3311,"предшеств":3312,"подготов":3313,"всем":3314,"##доволь":3315,"положения":3316,"исч":3317,"искусства":3318,"глуп":3319,"позвол":3320,"изображение":3321,"Герм":3322,"Ка":3323,"ему":3324,"ид":3325,"мера":3326,"эн":3327,"##бка":3328,"##хот":3329,"##дие":3330,"##пы":3331,"##er":3332,"попер":3333,"##елё":3334,"##нах":3335,"неиз":3336,"соста":3337,"прош":3338,"силой":3339,"##дина":3340,"вино":3341,"инди":3342,"которому":3343,"органа":3344,"представления":3345,"##ящая":3346,"страны":3347,"числа":3348,"образование":3349,"болезни":3350,"недостат":3351,"напоминающий":3352,"кушан":3353,"ат":3354,"сход":3355,"##клад":3356,"##стер":3357,"##ерб":3358,"##атив":3359,"сом":3360,"провод":3361,"привести":3362,"##лая":3363,"##еду":3364,"выб":3365,"##мена":3366,"##рование":3367,"сигна":3368,"мусуль":3369,"существо":3370,"памя":3371,"дело":3372,"явление":3373,"фигу":3374,"##летнее":3375,"пространстве":3376,"механизма":3377,"пользу":3378,"огне":3379,"отличие":3380,"редк":3381,"будучи":3382,"XIX":3383,"Фран":3384,"аль":3385,"вв":3386,"вступ":3387,"влад":3388,"##лка":3389,"##кс":3390,"##мол":3391,"##шим":3392,"##стым":3393,"##нологи":3394,"##атор":3395,"насы":3396,"нет":3397,"неот":3398,"прим":3399,"вооруж":3400,"##ённого":3401,"своим":3402,"особо":3403,"видов":3404,"друга":3405,"распредел":3406,"средневе":3407,"большом":3408,"пережи":3409,"используется":3410,"другие":3411,"искусств":3412,"тканей":3413,"которым":3414,"##ерыв":3415,"население":3416,"напиток":3417,"длитель":3418,"экономи":3419,"ам":3420,"бро":3421,"пят":3422,"##лённый":3423,"##вей":3424,"##ваний":3425,"##жаться":3426,"##шить":3427,"##дри":3428,"##ерь":3429,"##кость":3430,"##итов":3431,"##итая":3432,"настро":3433,"неве":3434,"несу":3435,"разви":3436,"прину":3437,"заг":3438,"замет":3439,"кажд":3440,"таким":3441,"молит":3442,"конструк":3443,"облада":3444,"случай":3445,"глаз":3446,"древнее":3447,"предназначенная":3448,"биох":3449,"отношения":3450,"массов":3451,"наблюд":3452,"литератур":3453,"волок":3454,"относительно":3455,"позвоно":3456,"аз":3457,"вд":3458,"вни":3459,"убе":3460,"##лес":3461,"##нный":3462,"##зин":3463,"##стя":3464,"##стых":3465,"показ":3466,"##кового":3467,"##овых":3468,"##лями":3469,"перек":3470,"##дая":3471,"заст":3472,"##скому":3473,"##деб":3474,"действительности":3475,"##дия":3476,"другими":3477,"##мым":3478,"всё":3479,"определённой":3480,"местности":3481,"крепо":3482,"водой":3483,"использования":3484,"транспор":3485,"смес":3486,"бумаги":3487,"деньги":3488,"медицин":3489,"Аф":3490,"ез":3491,"иной":3492,"устой":3493,"##мый":3494,"##яр":3495,"##чками":3496,"##гор":3497,"##каза":3498,"сот":3499,"общее":3500,"провер":3501,"протя":3502,"заб":3503,"стен":3504,"став":3505,"подс":3506,"подъ":3507,"##жающий":3508,"##альная":3509,"##сия":3510,"##доров":3511,"состоящая":3512,"работе":3513,"беспо":3514,"глаго":3515,"##итай":3516,"использующий":3517,"пищи":3518,"насме":3519,"геомет":3520,"самол":3521,"мяса":3522,"субъек":3523,"птиц":3524,"болезн":3525,"материалов":3526,"слабо":3527,"небес":3528,"препят":3529,"клеток":3530,"индиви":3531,"Франции":3532,"Зем":3533,"Ма":3534,"атом":3535,"астрон":3536,"иму":3537,"око":3538,"паль":3539,"##сер":3540,"##врат":3541,"##мос":3542,"##яющая":3543,"##пон":3544,"##СР":3545,"поря":3546,"##ковое":3547,"##реть":3548,"провин":3549,"прибли":3550,"выступ":3551,"##вами":3552,"##одоб":3553,"##ску":3554,"достав":3555,"сила":3556,"##цам":3557,"ничто":3558,"##шими":3559,"краси":3560,"##услов":3561,"получ":3562,"двигаться":3563,"работу":3564,"высокой":3565,"должность":3566,"рыба":3567,"ряд":3568,"нарко":3569,"внимания":3570,"характеризующийся":3571,"довер":3572,"занят":3573,"немного":3574,"передачи":3575,"зрения":3576,"борь":3577,"этногр":3578,"ува":3579,"ши":3580,"##ув":3581,"##роз":3582,"присоедин":3583,"##орг":3584,"излу":3585,"##циони":3586,"##ческими":3587,"устра":3588,"##ровки":3589,"опас":3590,"##ечения":3591,"публи":3592,"##публи":3593,"древних":3594,"звуков":3595,"тулови":3596,"металла":3597,"скоро":3598,"инструмента":3599,"церкви":3600,"пласти":3601,"##матичес":3602,"изменение":3603,"поступок":3604,"Российском":3605,"компьютер":3606,"армии":3607,"удовольствие":3608,"свидетельству":3609,"блюдо":3610,"сф":3611,"##нения":3612,"##стное":3613,"##анность":3614,"поко":3615,"пово":3616,"поле":3617,"##гов":3618,"разре":3619,"##мин":3620,"##ждении":3621,"##мок":3622,"маг":3623,"распоря":3624,"форм":3625,"вести":3626,"расстрой":3627,"основной":3628,"полный":3629,"бога":3630,"металл":3631,"гипо":3632,"давать":3633,"интернет":3634,"##ющейся":3635,"управления":3636,"мысли":3637,"##цуз":3638,"сверх":3639,"необходим":3640,"четырёх":3641,"гидро":3642,"крестьян":3643,"професси":3644,"биохим":3645,"имуществ":3646,"Ру":3647,"бар":3648,"бое":3649,"звание":3650,"ри":3651,"сед":3652,"фар":3653,"хит":3654,"хво":3655,"эв":3656,"##лки":3657,"##вании":3658,"##ванием":3659,"##зем":3660,"##щенный":3661,"##шенный":3662,"##гая":3663,"##дное":3664,"##is":3665,"##стые":3666,"##комо":3667,"##реча":3668,"##ийти":3669,"начин":3670,"##вода":3671,"##елье":3672,"коро":3673,"обита":3674,"прибы":3675,"##тин":3676,"##стого":3677,"оса":3678,"##ктов":3679,"##пасть":3680,"##ственного":3681,"конф":3682,"##вшего":3683,"системе":3684,"определённом":3685,"обществе":3686,"углуб":3687,"образования":3688,"западе":3689,"счёт":3690,"автомобиль":3691,"дерево":3692,"прийти":3693,"кислоты":3694,"исключ":3695,"непосредственно":3696,"подраздел":3697,"титул":3698,"всп":3699,"вин":3700,"ев":3701,"нат":3702,"оруж":3703,"плем":3704,"##нить":3705,"##вящ":3706,"##уда":3707,"##дви":3708,"##ьи":3709,"##um":3710,"##стать":3711,"пого":3712,"##личи":3713,"##итый":3714,"завер":3715,"какими":3716,"стеб":3717,"судно":3718,"##изма":3719,"свою":3720,"живу":3721,"##ленного":3722,"##ленности":3723,"море":3724,"форми":3725,"люди":3726,"плохой":3727,"получить":3728,"видео":3729,"движу":3730,"ноги":3731,"другому":3732,"##атура":3733,"широко":3734,"специально":3735,"деревьев":3736,"культур":3737,"заключ":3738,"##чув":3739,"вызвать":3740,"женщине":3741,"перевозки":3742,"удовлетвор":3743,"Германии":3744,"мусульман":3745,"эвф":3746,"оружие":3747,"бур":3748,"звер":3749,"истин":3750,"ово":3751,"пять":3752,"слиш":3753,"треб":3754,"цир":3755,"##оли":3756,"##шной":3757,"##гры":3758,"##дного":3759,"поня":3760,"##етов":3761,"##ющем":3762,"##оты":3763,"##ольный":3764,"своём":3765,"##цами":3766,"книга":3767,"совмест":3768,"расход":3769,"случа":3770,"##граф":3771,"##зиров":3772,"полн":3773,"равная":3774,"затруд":3775,"игро":3776,"##ссажи":3777,"впечат":3778,"##ссив":3779,"вызв":3780,"монета":3781,"##гипет":3782,"порядок":3783,"слишком":3784,"жё":3785,"указы":3786,"яй":3787,"##вес":3788,"##кнов":3789,"##кси":3790,"##ущий":3791,"##шед":3792,"##ген":3793,"##дки":3794,"##in":3795,"пример":3796,"принимать":3797,"##вари":3798,"##начально":3799,"ствол":3800,"судеб":3801,"##ольно":3802,"свои":3803,"своё":3804,"##евых":3805,"##ственные":3806,"упря":3807,"##ратно":3808,"пассажи":3809,"выражения":3810,"древней":3811,"слой":3812,"земле":3813,"ряде":3814,"##ющегося":3815,"##стрел":3816,"##вропей":3817,"цилин":3818,"выполнения":3819,"стремление":3820,"##мотр":3821,"множество":3822,"ничем":3823,"традицион":3824,"оскорб":3825,"состава":3826,"СС":3827,"гли":3828,"золо":3829,"ов":3830,"ори":3831,"ров":3832,"сан":3833,"тес":3834,"ше":3835,"##аки":3836,"##рить":3837,"##кат":3838,"##цени":3839,"##пло":3840,"##стной":3841,"поля":3842,"##реции":3843,"радо":3844,"невоз":3845,"коры":3846,"обман":3847,"прожи":3848,"промыш":3849,"##дачи":3850,"сух":3851,"##лужи":3852,"вида":3853,"жена":3854,"женского":3855,"исполня":3856,"рука":3857,"плод":3858,"полож":3859,"глад":3860,"частиц":3861,"используемая":3862,"языков":3863,"направления":3864,"##бивать":3865,"##образных":3866,"определённым":3867,"самый":3868,"отдых":3869,"повтор":3870,"жесто":3871,"пренебре":3872,"рыбы":3873,"числе":3874,"равно":3875,"столица":3876,"механизм":3877,"многих":3878,"това":3879,"сказу":3880,"нераз":3881,"судна":3882,"##готавли":3883,"кушанье":3884,"профессиона":3885,"бер":3886,"гар":3887,"жан":3888,"игр":3889,"квар":3890,"тщ":3891,"цеп":3892,"юри":3893,"##ывающий":3894,"##тая":3895,"##жённый":3896,"постро":3897,"##лив":3898,"настоя":3899,"кораб":3900,"обуч":3901,"стек":3902,"##ительные":3903,"предвар":3904,"связь":3905,"##разу":3906,"##мон":3907,"существующий":3908,"возвыш":3909,"свойств":3910,"моно":3911,"комн":3912,"совершая":3913,"должно":3914,"воспал":3915,"покрытый":3916,"сосред":3917,"текста":3918,"изготовления":3919,"правитель":3920,"неприятный":3921,"буквы":3922,"волосы":3923,"##брасы":3924,"похожий":3925,"успех":3926,"беспорядо":3927,"характеристика":3928,"авиац":3929,"одновременно":3930,"француз":3931,"Си":3932,"второ":3933,"волн":3934,"даль":3935,"клю":3936,"мер":3937,"пры":3938,"сно":3939,"уди":3940,"порода":3941,"##кости":3942,"когда":3943,"просто":3944,"стес":3945,"ступ":3946,"стерж":3947,"спос":3948,"чтобы":3949,"преисп":3950,"маш":3951,"событ":3952,"вещи":3953,"##вшись":3954,"##щими":3955,"мира":3956,"представляющий":3957,"переход":3958,"лице":3959,"##няться":3960,"##атуре":3961,"длинная":3962,"число":3963,"остат":3964,"сыпу":3965,"ранее":3966,"противника":3967,"сексу":3968,"нарушение":3969,"древнегреческое":3970,"приобрет":3971,"популяр":3972,"индивиду":3973,"СССР":3974,"сказуемого":3975,"событий":3976,"Ар":3977,"Амери":3978,"зла":3979,"зим":3980,"китай":3981,"пить":3982,"пал":3983,"се":3984,"##лли":3985,"##оре":3986,"##тра":3987,"##тный":3988,"##зме":3989,"##жки":3990,"##цей":3991,"##цеп":3992,"##шир":3993,"##гий":3994,"##стями":3995,"##енными":3996,"##анном":3997,"наказ":3998,"##ничать":3999,"##ляемый":4000,"##ложение":4001,"избав":4002,"выступа":4003,"##вал":4004,"##гиб":4005,"действовать":4006,"##ательная":4007,"преобразов":4008,"##нести":4009,"инт":4010,"##люб":4011,"непро":4012,"веро":4013,"мужской":4014,"##олненный":4015,"учё":4016,"помещ":4017,"##нуться":4018,"рыб":4019,"воспроиз":4020,"увле":4021,"округ":4022,"функции":4023,"смеш":4024,"север":4025,"неблаго":4026,"катего":4027,"Европе":4028,"гипокор":4029,"гро":4030,"гом":4031,"слег":4032,"фер":4033,"чин":4034,"##сол":4035,"##дор":4036,"##говат":4037,"разм":4038,"значении":4039,"##ательным":4040,"##ательства":4041,"одном":4042,"опер":4043,"друж":4044,"##родный":4045,"состоящее":4046,"сах":4047,"деле":4048,"##личие":4049,"большого":4050,"древнер":4051,"учение":4052,"пище":4053,"процесса":4054,"исход":4055,"проявлять":4056,"парт":4057,"небре":4058,"препарат":4059,"продолговат":4060,"Европы":4061,"хлеб":4062,"млекопитающее":4063,"однородных":4064,"принци":4065,"дисцип":4066,"зуб":4067,"сосредото":4068,"вен":4069,"гр":4070,"здание":4071,"пев":4072,"ром":4073,"##чок":4074,"##ентов":4075,"поки":4076,"##лива":4077,"##рам":4078,"##ражн":4079,"##лян":4080,"меся":4081,"##ённой":4082,"##ённость":4083,"##ательные":4084,"реак":4085,"кух":4086,"испыт":4087,"руки":4088,"##вшие":4089,"медленно":4090,"мужского":4091,"ласко":4092,"обос":4093,"##женная":4094,"##ящих":4095,"деко":4096,"способности":4097,"высшего":4098,"кристал":4099,"крупный":4100,"участник":4101,"населения":4102,"предохран":4103,"синт":4104,"##авшийся":4105,"##вшееся":4106,"жительница":4107,"свойствами":4108,"комплекс":4109,"наркоти":4110,"Руси":4111,"гряз":4112,"греб":4113,"имен":4114,"плав":4115,"солн":4116,"тр":4117,"##уз":4118,"##зя":4119,"##ic":4120,"##стор":4121,"##ливать":4122,"##створ":4123,"пропит":4124,"прип":4125,"##лады":4126,"отда":4127,"##стье":4128,"спек":4129,"действующий":4130,"##новых":4131,"опти":4132,"силу":4133,"##ленные":4134,"##дум":4135,"##ечь":4136,"конк":4137,"среды":4138,"верхов":4139,"выражая":4140,"##ологический":4141,"устройства":4142,"лишить":4143,"обращения":4144,"дающий":4145,"пластин":4146,"почти":4147,"##стрель":4148,"учреждение":4149,"административный":4150,"удоб":4151,"эмоциона":4152,"защиты":4153,"уроженец":4154,"насеком":4155,"огнестрель":4156,"слегка":4157,"веч":4158,"коль":4159,"като":4160,"слад":4161,"##ссии":4162,"##рерыв":4163,"##тать":4164,"##мом":4165,"##яги":4166,"##чее":4167,"##ac":4168,"повоз":4169,"##елый":4170,"##бою":4171,"##рах":4172,"неспособ":4173,"обуслов":4174,"проб":4175,"прису":4176,"студ":4177,"##изме":4178,"осве":4179,"##ставить":4180,"##удов":4181,"##ственная":4182,"мастер":4183,"произвед":4184,"##вычай":4185,"парус":4186,"характера":4187,"положении":4188,"полигр":4189,"бог":4190,"созда":4191,"качества":4192,"многолетнее":4193,"проявления":4194,"гастрон":4195,"мелких":4196,"мелкие":4197,"соответствии":4198,"призн":4199,"трад":4200,"электрон":4201,"голову":4202,"головной":4203,"внутренней":4204,"неоп":4205,"недостато":4206,"несча":4207,"снаб":4208,"денег":4209,"денежная":4210,"секрет":4211,"местах":4212,"циф":4213,"чрезвычай":4214,"сравнительно":4215,"##вшаяся":4216,"включа":4217,"эффек":4218,"изделия":4219,"требования":4220,"невозмо":4221,"Греции":4222,"бель":4223,"брать":4224,"брю":4225,"здоров":4226,"иду":4227,"сразу":4228,"чет":4229,"штат":4230,"эпо":4231,"юге":4232,"##жном":4233,"##дой":4234,"##ьян":4235,"##чание":4236,"##коне":4237,"##ковая":4238,"линии":4239,"неи":4240,"сою":4241,"сосу":4242,"значениях":4243,"##там":4244,"##ательство":4245,"осно":4246,"превращ":4247,"грубо":4248,"небольшого":4249,"языке":4250,"проявля":4251,"добы":4252,"##прият":4253,"рассчит":4254,"тип":4255,"един":4256,"теат":4257,"##литься":4258,"элементы":4259,"лёгкий":4260,"достижения":4261,"смысле":4262,"товара":4263,"##ходящее":4264,"склонный":4265,"генет":4266,"стрель":4267,"единиц":4268,"чрезмерно":4269,"ввод":4270,"зол":4271,"зво":4272,"иного":4273,"нена":4274,"пле":4275,"##сить":4276,"##око":4277,"##ущ":4278,"##дной":4279,"##ровой":4280,"##лизи":4281,"##ливое":4282,"##итать":4283,"нег":4284,"проз":4285,"прозра":4286,"##арата":4287,"принима":4288,"##лось":4289,"##ительным":4290,"##ённые":4291,"связанных":4292,"прежде":4293,"существу":4294,"##ятся":4295,"имеющая":4296,"##ическое":4297,"плотно":4298,"объём":4299,"##лекать":4300,"колон":4301,"сквоз":4302,"##станавли":4303,"труб":4304,"детали":4305,"расположение":4306,"мясо":4307,"масса":4308,"грам":4309,"изготовленный":4310,"выделя":4311,"работник":4312,"##писи":4313,"##цветных":4314,"солом":4315,"машина":4316,"враща":4317,"спирт":4318,"другую":4319,"промежуток":4320,"девушка":4321,"агре":4322,"бой":4323,"век":4324,"данных":4325,"заря":4326,"нен":4327,"он":4328,"оказ":4329,"сро":4330,"сви":4331,"тё":4332,"цит":4333,"##оти":4334,"##ыс":4335,"##шен":4336,"##пол":4337,"##читься":4338,"##чную":4339,"##анти":4340,"понят":4341,"##кови":4342,"##ити":4343,"наим":4344,"надо":4345,"##сят":4346,"##воря":4347,"##ницы":4348,"##анин":4349,"прид":4350,"прич":4351,"привер":4352,"привы":4353,"принять":4354,"отказ":4355,"отправ":4356,"зао":4357,"захват":4358,"выраз":4359,"спло":4360,"##менный":4361,"таба":4362,"допу":4363,"меб":4364,"##новение":4365,"живых":4366,"получи":4367,"явлений":4368,"высокий":4369,"скан":4370,"определённое":4371,"определённого":4372,"терп":4373,"логи":4374,"добро":4375,"целях":4376,"инструмен":4377,"войны":4378,"распространение":4379,"химический":4380,"сверху":4381,"характеризующееся":4382,"наука":4383,"товар":4384,"жало":4385,"существования":4386,"берегу":4387,"##ностями":4388,"молодой":4389,"служащая":4390,"составляющего":4391,"обнару":4392,"тёмно":4393,"философ":4394,"обязанности":4395,"нелеп":4396,"попереч":4397,"Афри":4398,"Земли":4399,"конкрет":4400,"Вели":4401,"ас":4402,"бло":4403,"здания":4404,"лек":4405,"ску":4406,"укры":4407,"уха":4408,"ценно":4409,"шах":4410,"##жь":4411,"##стных":4412,"##раво":4413,"##ования":4414,"##ового":4415,"##вок":4416,"собою":4417,"разгово":4418,"обе":4419,"обмен":4420,"отрас":4421,"изог":4422,"извле":4423,"##имая":4424,"опыт":4425,"##рян":4426,"##вец":4427,"##тыми":4428,"ниже":4429,"края":4430,"##хоз":4431,"большая":4432,"организов":4433,"##ереж":4434,"филь":4435,"высоко":4436,"компон":4437,"сторона":4438,"языку":4439,"процессов":4440,"определённых":4441,"##казывать":4442,"мяс":4443,"массы":4444,"длинный":4445,"утвер":4446,"управля":4447,"украшение":4448,"тому":4449,"привле":4450,"конец":4451,"культуры":4452,"пределы":4453,"побереж":4454,"богослу":4455,"присут":4456,"англий":4457,"протека":4458,"коренное":4459,"военнослужащий":4460,"##органи":4461,"цилиндри":4462,"декоратив":4463,"насекомых":4464,"заостр":4465,"аром":4466,"впа":4467,"впер":4468,"дро":4469,"зд":4470,"заран":4471,"иных":4472,"лод":4473,"сет":4474,"стой":4475,"##лых":4476,"##очная":4477,"##щё":4478,"##шему":4479,"##дон":4480,"повыш":4481,"##литель":4482,"наза":4483,"##олне":4484,"сооруж":4485,"##ющему":4486,"разные":4487,"##лочка":4488,"изда":4489,"##одейств":4490,"##вище":4491,"устран":4492,"##лега":4493,"##ёнными":4494,"##тах":4495,"##жащих":4496,"инфек":4497,"моз":4498,"ними":4499,"основных":4500,"полно":4501,"нож":4502,"старо":4503,"желание":4504,"землю":4505,"долго":4506,"длинной":4507,"угро":4508,"крупная":4509,"трево":4510,"изменения":4511,"возможности":4512,"обслужи":4513,"приготовления":4514,"перемещение":4515,"начало":4516,"ощущение":4517,"танец":4518,"транспортное":4519,"знаний":4520,"сознания":4521,"природы":4522,"советск":4523,"сорт":4524,"млекопитающих":4525,"священ":4526,"##чивость":4527,"превосход":4528,"империи":4529,"XVIII":4530,"ситуации":4531,"Запад":4532,"около":4533,"впечатление":4534,"католи":4535,"заранее":4536,"брат":4537,"вну":4538,"жерт":4539,"иско":4540,"оке":4541,"рот":4542,"схват":4543,"фут":4544,"##or":4545,"##НК":4546,"##рони":4547,"##ела":4548,"##ито":4549,"набор":4550,"напад":4551,"##емой":4552,"##качеств":4553,"несов":4554,"сочин":4555,"развед":4556,"##льные":4557,"##скохоз":4558,"##ческую":4559,"подт":4560,"##ровых":4561,"##жней":4562,"непрерыв":4563,"груз":4564,"##револю":4565,"быст":4566,"движении":4567,"технологи":4568,"склад":4569,"дух":4570,"автор":4571,"иска":4572,"земной":4573,"##ировать":4574,"##стойный":4575,"русская":4576,"пространства":4577,"##ителем":4578,"автомобиля":4579,"территори":4580,"исполнения":4581,"подвергать":4582,"приток":4583,"старинная":4584,"получаемый":4585,"##обом":4586,"хлеба":4587,"любое":4588,"лечеб":4589,"##мерикан":4590,"ритор":4591,"сельскохоз":4592,"атмос":4593,"юриди":4594,"способом":4595,"сельскохозяй":4596,"XX":4597,"Пет":4598,"бру":4599,"блес":4600,"две":4601,"оку":4602,"пет":4603,"япон":4604,"##лым":4605,"##кет":4606,"##мать":4607,"##цем":4608,"##an":4609,"##id":4610,"##лие":4611,"##лиру":4612,"наличие":4613,"##оле":4614,"##нику":4615,"##ельный":4616,"запу":4617,"каза":4618,"##сторон":4619,"значения":4620,"суп":4621,"судоро":4622,"спо":4623,"##мах":4624,"##леп":4625,"##таль":4626,"одуш":4627,"##сив":4628,"точ":4629,"##ехать":4630,"веж":4631,"плодов":4632,"обоб":4633,"##личный":4634,"##ентра":4635,"большим":4636,"полез":4637,"глава":4638,"мете":4639,"используемое":4640,"##ивный":4641,"создавать":4642,"лежать":4643,"мыть":4644,"строит":4645,"##мыслов":4646,"скоп":4647,"различные":4648,"самого":4649,"перемест":4650,"величина":4651,"величине":4652,"находится":4653,"следу":4654,"сочетание":4655,"химическим":4656,"начале":4657,"##ющимся":4658,"радио":4659,"манера":4660,"высказывания":4661,"минерал":4662,"осуществляемый":4663,"женщин":4664,"уроженка":4665,"постеп":4666,"заниматься":4667,"исследования":4668,"раскры":4669,"ослаб":4670,"насмеш":4671,"жёст":4672,"назад":4673,"Ни":4674,"Тур":4675,"дур":4676,"ква":4677,"лом":4678,"оста":4679,"сча":4680,"сбор":4681,"сети":4682,"упа":4683,"##сед":4684,"##рание":4685,"##очет":4686,"##блей":4687,"##щённый":4688,"##шем":4689,"##ёк":4690,"##ёнок":4691,"##стки":4692,"построй":4693,"##листи":4694,"##ствием":4695,"личности":4696,"##тора":4697,"##ющую":4698,"##еса":4699,"приго":4700,"привет":4701,"измени":4702,"##еде":4703,"##тива":4704,"каз":4705,"##ваются":4706,"##ексу":4707,"поддерж":4708,"доступ":4709,"часа":4710,"женская":4711,"##ленной":4712,"##ленным":4713,"мощ":4714,"госп":4715,"вещ":4716,"##ведом":4717,"произвести":4718,"живого":4719,"##ёрт":4720,"##шающий":4721,"частично":4722,"труд":4723,"##форм":4724,"##ционное":4725,"развле":4726,"гип":4727,"истории":4728,"импер":4729,"##естеств":4730,"покрывать":4731,"почт":4732,"ветер":4733,"организация":4734,"информацию":4735,"чьих":4736,"увелич":4737,"немец":4738,"наблю":4739,"ощущения":4740,"склонность":4741,"продуктов":4742,"продолж":4743,"обработки":4744,"камня":4745,"философии":4746,"питания":4747,"ошиб":4748,"Кавказа":4749,"зависимости":4750,"глупый":4751,"позвоночных":4752,"тёп":4753,"Бел":4754,"бле":4755,"вся":4756,"леп":4757,"оча":4758,"рим":4759,"релье":4760,"сб":4761,"##рги":4762,"##ость":4763,"##пре":4764,"##ёс":4765,"##фт":4766,"##on":4767,"##енную":4768,"покой":4769,"пози":4770,"покуп":4771,"##ливания":4772,"##ремя":4773,"найти":4774,"раствор":4775,"##рик":4776,"сост":4777,"##ляции":4778,"##мина":4779,"##арх":4780,"защи":4781,"вычис":4782,"##вающих":4783,"##вающие":4784,"##езд":4785,"таком":4786,"дореволю":4787,"##ждений":4788,"##новения":4789,"##ставлять":4790,"одну":4791,"##альным":4792,"груди":4793,"пале":4794,"##шивать":4795,"среде":4796,"полости":4797,"животном":4798,"фиг":4799,"лицу":4800,"государств":4801,"звука":4802,"горных":4803,"высшей":4804,"вздор":4805,"трудом":4806,"##ваемого":4807,"земля":4808,"соединения":4809,"плать":4810,"глуб":4811,"воспит":4812,"рассматри":4813,"русской":4814,"прямой":4815,"информ":4816,"служеб":4817,"физическое":4818,"хороший":4819,"письма":4820,"восстанов":4821,"чисто":4822,"букв":4823,"предоставля":4824,"предприятие":4825,"программ":4826,"монар":4827,"средствами":4828,"высказывание":4829,"районе":4830,"порядке":4831,"источник":4832,"встреча":4833,"ресур":4834,"насекомо":4835,"непонят":4836,"демон":4837,"номером":4838,"##нюю":4839,"виногра":4840,"вдоль":4841,"вниз":4842,"сотруд":4843,"привержен":4844,"бли":4845,"вар":4846,"дня":4847,"двер":4848,"жер":4849,"иное":4850,"натура":4851,"плу":4852,"роз":4853,"фон":4854,"##сный":4855,"##сор":4856,"##ори":4857,"##ино":4858,"##иваться":4859,"##ул":4860,"##ума":4861,"##щим":4862,"##шь":4863,"##дж":4864,"##дц":4865,"##чего":4866,"##ёд":4867,"подав":4868,"##рец":4869,"наклон":4870,"соци":4871,"придавать":4872,"отве":4873,"отступ":4874,"выну":4875,"##имого":4876,"##изи":4877,"##аниях":4878,"##ловой":4879,"одним":4880,"преод":4881,"исправ":4882,"неправи":4883,"мог":4884,"##ических":4885,"##ического":4886,"произносить":4887,"плоский":4888,"##шивания":4889,"среди":4890,"выраженное":4891,"##сып":4892,"небольших":4893,"создания":4894,"лежа":4895,"путем":4896,"длинным":4897,"крайняя":4898,"продук":4899,"любви":4900,"следует":4901,"тонкий":4902,"снаря":4903,"главным":4904,"смысл":4905,"работать":4906,"смерть":4907,"лошадь":4908,"солд":4909,"монасты":4910,"пыль":4911,"погреб":4912,"древнегреческой":4913,"съед":4914,"последу":4915,"Российской":4916,"##кладывать":4917,"клетки":4918,"листьями":4919,"приобре":4920,"организмов":4921,"пункт":4922,"Северной":4923,"невысо":4924,"бессмыс":4925,"устойчи":4926,"геометр":4927,"расстройство":4928,"комната":4929,"прозвище":4930,"мебели":4931,"дореволюционной":4932,"Сан":4933,"бра":4934,"вел":4935,"вор":4936,"идей":4937,"клад":4938,"пяти":4939,"рей":4940,"сю":4941,"сму":4942,"фра":4943,"ём":4944,"##сем":4945,"##баты":4946,"##чим":4947,"##ёлок":4948,"поя":4949,"##лик":4950,"##лиц":4951,"##рест":4952,"сорев":4953,"проте":4954,"##ложения":4955,"забот":4956,"кален":4957,"камень":4958,"##нутой":4959,"##нутым":4960,"подвод":4961,"ча́":4962,"действию":4963,"осо":4964,"##уды":4965,"##ственной":4966,"неподви":4967,"распа":4968,"мужская":4969,"матер":4970,"рабочий":4971,"круга":4972,"библей":4973,"производимый":4974,"употр":4975,"мнение":4976,"##ропри":4977,"земель":4978,"##ционный":4979,"строго":4980,"сколь":4981,"женщины":4982,"серд":4983,"птицы":4984,"спортс":4985,"воздуш":4986,"внутреннее":4987,"театр":4988,"орудие":4989,"неприятное":4990,"перемещаться":4991,"начала":4992,"слаб":4993,"закономер":4994,"хозя":4995,"литературы":4996,"историческая":4997,"взаимодейств":4998,"размеров":4999,"сторонник":5000,"района":5001,"машины":5002,"изучающая":5003,"артилл":5004,"ребён":5005,"несогла":5006,"первоначально":5007,"оконч":5008,"нанес":5009,"покровитель":5010,"убий":5011,"энтом":5012,"углубление":5013,"еврей":5014,"воспаление":5015,"небрежно":5016,"метеоро":5017,"игре":5018,"италь":5019,"ущ":5020,"уто":5021,"цен":5022,"##бан":5023,"##ыск":5024,"##ящийся":5025,"##жник":5026,"##пор":5027,"##чер":5028,"повер":5029,"##лизов":5030,"нез":5031,"негат":5032,"кот":5033,"обу":5034,"проводить":5035,"##арный":5036,"##орный":5037,"изъ":5038,"избы":5039,"заго":5040,"##вии":5041,"устро":5042,"судь":5043,"предп":5044,"предосуд":5045,"предполо":5046,"##луч":5047,"##гина":5048,"##ольное":5049,"##ждеств":5050,"связанное":5051,"##алей":5052,"испу":5053,"##уты":5054,"упражн":5055,"##щины":5056,"всей":5057,"пап":5058,"труда":5059,"неодуш":5060,"полового":5061,"искусственный":5062,"##чьих":5063,"позд":5064,"употребляемый":5065,"головы":5066,"воздухе":5067,"белого":5068,"поступки":5069,"любитель":5070,"губ":5071,"##ливости":5072,"признаков":5073,"##щихся":5074,"огня":5075,"свободы":5076,"короткий":5077,"сопротив":5078,"##вращение":5079,"аппарата":5080,"размера":5081,"порт":5082,"применяемый":5083,"офицер":5084,"объединение":5085,"тяжёлый":5086,"служащее":5087,"обнаруж":5088,"громкий":5089,"изучающий":5090,"Индии":5091,"##фикации":5092,"внезапно":5093,"твёрдый":5094,"Бога":5095,"древнеегипет":5096,"подразделение":5097,"удив":5098,"театра":5099,"звон":5100,"наимен":5101,"господ":5102,"состяз":5103,"календар":5104,"Тол":5105,"брак":5106,"вверх":5107,"европей":5108,"коло":5109,"мень":5110,"оре":5111,"огра":5112,"оформ":5113,"сл":5114,"сра":5115,"сказ":5116,"##ано":5117,"##ости":5118,"##тни":5119,"##вит":5120,"##вов":5121,"##уме":5122,"##чков":5123,"##чными":5124,"##al":5125,"##нодоро":5126,"##рово":5127,"##анности":5128,"##елей":5129,"##коб":5130,"##рава":5131,"##ийского":5132,"назы":5133,"нево":5134,"недоволь":5135,"обряд":5136,"облег":5137,"проек":5138,"проход":5139,"придать":5140,"придания":5141,"заслу":5142,"выстрел":5143,"##осексу":5144,"подда":5145,"##ждению":5146,"##ательной":5147,"##ательность":5148,"реали":5149,"опора":5150,"силе":5151,"точно":5152,"инду":5153,"##мыка":5154,"мага":5155,"упоми":5156,"посвящ":5157,"посёлок":5158,"комму":5159,"##ведением":5160,"##графии":5161,"##лагать":5162,"полученный":5163,"оборо":5164,"полное":5165,"женский":5166,"##менитель":5167,"склады":5168,"употребления":5169,"количества":5170,"деталей":5171,"##ционных":5172,"одежде":5173,"ударом":5174,"мелкий":5175,"целей":5176,"192":5177,"низко":5178,"крупных":5179,"страдания":5180,"использовать":5181,"использованием":5182,"утрат":5183,"##стовер":5184,"изображения":5185,"собственной":5186,"функциони":5187,"ходь":5188,"севере":5189,"финан":5190,"интересов":5191,"воздействия":5192,"стрел":5193,"железнодоро":5194,"звёз":5195,"целиком":5196,"наружу":5197,"громко":5198,"охотн":5199,"менее":5200,"Украины":5201,"вариант":5202,"исчез":5203,"памяти":5204,"жанр":5205,"гомосексу":5206,"подтвер":5207,"соревнов":5208,"итальян":5209,"20":5210,"Ита":5211,"гг":5212,"дроб":5213,"ещё":5214,"млад":5215,"нему":5216,"окис":5217,"печат":5218,"роль":5219,"рых":5220,"соль":5221,"уме":5222,"увер":5223,"уже":5224,"фо":5225,"##яющее":5226,"##жат":5227,"##шеч":5228,"##шок":5229,"##дная":5230,"##анд":5231,"покор":5232,"##гоц":5233,"##лиза":5234,"обстанов":5235,"пропу":5236,"заведение":5237,"выше":5238,"строй":5239,"##осочет":5240,"##ске":5241,"##чиной":5242,"##чиваться":5243,"меропри":5244,"##сора":5245,"##ленность":5246,"##ственности":5247,"##ической":5248,"посе":5249,"соба":5250,"расшир":5251,"всю":5252,"представление":5253,"объё":5254,"выращи":5255,"##зиру":5256,"путь":5257,"словосочет":5258,"##циях":5259,"видом":5260,"желуд":5261,"железа":5262,"выполнять":5263,"жидкое":5264,"должности":5265,"туп":5266,"газов":5267,"бактер":5268,"193":5269,"графичес":5270,"широкий":5271,"распространя":5272,"условий":5273,"клас":5274,"постоянный":5275,"##лённая":5276,"территория":5277,"спорта":5278,"подверг":5279,"старинный":5280,"предприятия":5281,"временное":5282,"архитек":5283,"множества":5284,"окружающей":5285,"оценочная":5286,"молока":5287,"современной":5288,"сведения":5289,"нижней":5290,"событие":5291,"Древней":5292,"влечение":5293,"потеря":5294,"##ербур":5295,"смесь":5296,"занятий":5297,"##шедший":5298,"пассажиров":5299,"тщательно":5300,"стержень":5301,"получивший":5302,"побережье":5303,"Петербур":5304,"Белору":5305,"особой":5306,"негатив":5307,"100":5308,"Кры":5309,"иер":5310,"кана":5311,"клуб":5312,"нель":5313,"слы":5314,"той":5315,"уми":5316,"удо":5317,"чёт":5318,"шест":5319,"##раться":5320,"##бри":5321,"##вказ":5322,"##игры":5323,"##жут":5324,"##ден":5325,"##пат":5326,"##стях":5327,"##ново":5328,"##атывать":5329,"##елю":5330,"##калы":5331,"недав":5332,"кош":5333,"кости":5334,"обраб":5335,"##руб":5336,"прото":5337,"отклон":5338,"перев":5339,"изоб":5340,"избе":5341,"изыск":5342,"заму":5343,"выт":5344,"стара":5345,"##осип":5346,"##гивать":5347,"##рыз":5348,"подроб":5349,"##чия":5350,"##чающий":5351,"оси":5352,"речь":5353,"##кование":5354,"##ечением":5355,"##ический":5356,"формой":5357,"ник":5358,"паде":5359,"определение":5360,"определения":5361,"полного":5362,"высоком":5363,"деся":5364,"##ологическое":5365,"ног":5366,"стороне":5367,"материи":5368,"участву":5369,"##ётся":5370,"##глая":5371,"детей":5372,"проявлении":5373,"жест":5374,"газа":5375,"одежду":5376,"мелкими":5377,"узкая":5378,"тяго":5379,"тяже":5380,"##волю":5381,"крупное":5382,"стиль":5383,"обозначение":5384,"общей":5385,"соответствующее":5386,"поклон":5387,"согласов":5388,"буква":5389,"круглый":5390,"манер":5391,"учреждения":5392,"относиться":5393,"воспринима":5394,"метод":5395,"содержащая":5396,"вместо":5397,"оттенком":5398,"обстоятельства":5399,"насиль":5400,"твёрдого":5401,"второй":5402,"произведений":5403,"Западной":5404,"спокой":5405,"фигур":5406,"Санкт":5407,"велосип":5408,"энтомол":5409,"Белоруссии":5410,"нельзя":5411,"Егип":5412,"Поль":5413,"бом":5414,"вов":5415,"крит":5416,"лы":5417,"оцени":5418,"утом":5419,"ху":5420,"шку":5421,"шести":5422,"##онов":5423,"##ил":5424,"##щеп":5425,"##жностью":5426,"##чник":5427,"##чённый":5428,"##en":5429,"##ar":5430,"##at":5431,"##стного":5432,"##роде":5433,"потом":5434,"поним":5435,"побе":5436,"##раж":5437,"нечи":5438,"разум":5439,"обез":5440,"##рурги":5441,"прогр":5442,"##льную":5443,"отры":5444,"отрез":5445,"##лог":5446,"##ложен":5447,"##стие":5448,"воли":5449,"##сторо":5450,"выбор":5451,"##оте":5452,"##осом":5453,"судов":5454,"такому":5455,"##нутое":5456,"##так":5457,"своему":5458,"##рованное":5459,"опы":5460,"##рять":5461,"вина":5462,"винов":5463,"точка":5464,"##сам":5465,"рук":5466,"##ставать":5467,"ниж":5468,"пас":5469,"мужчине":5470,"резкий":5471,"выражать":5472,"##ящего":5473,"##бай":5474,"##совых":5475,"##ологических":5476,"##стана":5477,"направленный":5478,"качествами":5479,"баш":5480,"узор":5481,"194":5482,"рядом":5483,"негод":5484,"осуществлять":5485,"рассе":5486,"лишь":5487,"инструментов":5488,"острым":5489,"власть":5490,"стоя":5491,"специальных":5492,"воздух":5493,"типо":5494,"продукта":5495,"велико":5496,"управлять":5497,"сыр":5498,"смот":5499,"снаряд":5500,"чьё":5501,"началь":5502,"рукоят":5503,"крыль":5504,"тяжёлое":5505,"обозначается":5506,"переплет":5507,"деревянный":5508,"мышц":5509,"республи":5510,"ничего":5511,"##бирать":5512,"рисун":5513,"достоинством":5514,"символом":5515,"регуляр":5516,"тыся":5517,"тюр":5518,"воротником":5519,"устанавливать":5520,"достаточно":5521,"туловища":5522,"случае":5523,"гармо":5524,"преисполненный":5525,"размно":5526,"сахар":5527,"партн":5528,"Италии":5529,"иерарх":5530,"D0":5531,"Гру":5532,"Кита":5533,"Ри":5534,"аг":5535,"арен":5536,"гал":5537,"лед":5538,"пш":5539,"пех":5540,"плет":5541,"сня":5542,"фру":5543,"фраз":5544,"фанта":5545,"хром":5546,"шел":5547,"шну":5548,"##скими":5549,"##остро":5550,"##ующее":5551,"##жар":5552,"##шно":5553,"##чие":5554,"##os":5555,"##анг":5556,"##анском":5557,"пока":5558,"##насти":5559,"надел":5560,"накоп":5561,"##рица":5562,"##нике":5563,"обрат":5564,"приходить":5565,"приёма":5566,"зарос":5567,"##вающего":5568,"##спек":5569,"##ческому":5570,"##ительном":5571,"##мец":5572,"##скую":5573,"предме":5574,"предус":5575,"##меня":5576,"подлый":5577,"чай":5578,"##ждением":5579,"##ждённый":5580,"##альные":5581,"жилище":5582,"наполн":5583,"рукой":5584,"руками":5585,"мото":5586,"было":5587,"лаг":5588,"оборот":5589,"военных":5590,"перевод":5591,"телом":5592,"древний":5593,"души":5594,"частица":5595,"бух":5596,"##шийся":5597,"однок":5598,"мяч":5599,"искусстве":5600,"целое":5601,"происходит":5602,"музыки":5603,"осуществить":5604,"русского":5605,"группе":5606,"крем":5607,"утра":5608,"##чатый":5609,"##ливость":5610,"политических":5611,"ходе":5612,"короткая":5613,"участников":5614,"частях":5615,"сравнению":5616,"напитков":5617,"границы":5618,"печа":5619,"пределах":5620,"порядка":5621,"потомок":5622,"готовность":5623,"встреч":5624,"##уголь":5625,"любовь":5626,"операция":5627,"этап":5628,"Кавказ":5629,"располага":5630,"##ерьёз":5631,"атомным":5632,"свидетельствуя":5633,"магнит":5634,"древнерим":5635,"невозможно":5636,"ценностей":5637,"блест":5638,"метеорол":5639,"предпола":5640,"Анг":5641,"Ба":5642,"Та":5643,"астро":5644,"бест":5645,"вход":5646,"вал":5647,"ввести":5648,"гран":5649,"зё":5650,"злой":5651,"зелё":5652,"мёрт":5653,"нём":5654,"останов":5655,"тря":5656,"твер":5657,"хва":5658,"яд":5659,"##сное":5660,"##слов":5661,"##бный":5662,"##щении":5663,"##ято":5664,"##жную":5665,"##шением":5666,"##чт":5667,"##стран":5668,"##стям":5669,"##енос":5670,"##енты":5671,"пода":5672,"побу":5673,"##елен":5674,"##лием":5675,"##ствов":5676,"##рес":5677,"наст":5678,"наличи":5679,"лист":5680,"неров":5681,"##ними":5682,"##юще":5683,"коми":5684,"проведения":5685,"перего":5686,"перера":5687,"##ложить":5688,"##стил":5689,"зави":5690,"вообра":5691,"вывод":5692,"устрем":5693,"предот":5694,"##лубо":5695,"свар":5696,"подлин":5697,"подзем":5698,"##ставление":5699,"##равед":5700,"опор":5701,"превы":5702,"преув":5703,"##сок":5704,"непре":5705,"моги":5706,"годах":5707,"собрание":5708,"сад":5709,"вечно":5710,"палочка":5711,"большими":5712,"определить":5713,"получать":5714,"семьи":5715,"веру":5716,"верши":5717,"##зид":5718,"##ящие":5719,"полной":5720,"очер":5721,"##стане":5722,"цветками":5723,"создать":5724,"голу":5725,"производящий":5726,"наслед":5727,"рост":5728,"ваго":5729,"половина":5730,"строение":5731,"целом":5732,"музыкан":5733,"осуществления":5734,"прямым":5735,"отдельное":5736,"партии":5737,"корпу":5738,"класси":5739,"службы":5740,"музыкального":5741,"мысль":5742,"заключения":5743,"болезнь":5744,"украин":5745,"благодар":5746,"закона":5747,"неуда":5748,"сообщение":5749,"продукты":5750,"хирурги":5751,"реке":5752,"оценка":5753,"любого":5754,"сущность":5755,"раздражение":5756,"ребёнок":5757,"Древнем":5758,"оболочки":5759,"сокращение":5760,"неожиданно":5761,"людям":5762,"идти":5763,"приблиз":5764,"ничтожный":5765,"отдыха":5766,"интел":5767,"дисциплина":5768,"вещь":5769,"рельеф":5770,"насекомое":5771,"обуви":5772,"Грузии":5773,"Риме":5774,"пшени":5775,"преувели":5776,"Хри":5777,"Южной":5778,"бить":5779,"буты":5780,"гон":5781,"дым":5782,"иным":5783,"иуда":5784,"рос":5785,"сказать":5786,"троп":5787,"уко":5788,"убить":5789,"улуч":5790,"фос":5791,"##кнуть":5792,"##яб":5793,"##шке":5794,"##дин":5795,"##чкой":5796,"##чке":5797,"##op":5798,"##стри":5799,"##роя":5800,"##ане":5801,"попад":5802,"##еле":5803,"##елем":5804,"расту":5805,"##нивать":5806,"сог":5807,"кори":5808,"##рует":5809,"##льными":5810,"прибо":5811,"пригла":5812,"##лах":5813,"отчёт":5814,"первый":5815,"изв":5816,"воду":5817,"вырез":5818,"##спеш":5819,"##авшее":5820,"##рывать":5821,"##десят":5822,"месту":5823,"##ённо":5824,"##ловых":5825,"##иска":5826,"решения":5827,"режим":5828,"одному":5829,"##жай":5830,"прежн":5831,"##пами":5832,"##сад":5833,"##мывать":5834,"руках":5835,"сами":5836,"конта":5837,"бытов":5838,"полуост":5839,"семян":5840,"основанная":5841,"##филь":5842,"полоса":5843,"большие":5844,"больших":5845,"##ерации":5846,"высоким":5847,"##ология":5848,"наречие":5849,"предметы":5850,"горю":5851,"взять":5852,"качество":5853,"насла":5854,"желания":5855,"##ваемых":5856,"##ваемые":5857,"термин":5858,"карти":5859,"совершенно":5860,"помещения":5861,"заполн":5862,"расположения":5863,"рыбо":5864,"вызывая":5865,"местность":5866,"русский":5867,"специальной":5868,"стих":5869,"принадлежа":5870,"весь":5871,"управление":5872,"помощь":5873,"следующий":5874,"приготовленный":5875,"перемещения":5876,"счита":5877,"увеличение":5878,"сообществ":5879,"органы":5880,"расположенных":5881,"умершего":5882,"существование":5883,"редко":5884,"мягкая":5885,"марки":5886,"источника":5887,"эксплу":5888,"лечения":5889,"вмести":5890,"породы":5891,"сведений":5892,"центральной":5893,"структуры":5894,"##клето":5895,"шерсти":5896,"персонаж":5897,"обеспечивающий":5898,"Восточной":5899,"температуры":5900,"Средней":5901,"участие":5902,"охваты":5903,"незначительный":5904,"независимо":5905,"людях":5906,"примес":5907,"устраи":5908,"овощ":5909,"романти":5910,"отрасль":5911,"могут":5912,"недавно":5913,"предметом":5914,"зёрен":5915,"корпуса":5916,"полуостров":5917,"Кана":5918,"На":5919,"ап":5920,"гим":5921,"жить":5922,"лев":5923,"пру":5924,"ха":5925,"чью":5926,"эки":5927,"ядов":5928,"##рания":5929,"##ором":5930,"##ообраз":5931,"##вен":5932,"##уса":5933,"##зер":5934,"##цом":5935,"##хва":5936,"##дит":5937,"##ьях":5938,"##el":5939,"##es":5940,"##it":5941,"##стно":5942,"##стре":5943,"показы":5944,"##ковать":5945,"##лись":5946,"##бом":5947,"##ресси":5948,"лини":5949,"##рив":5950,"##рину":5951,"##оля":5952,"соп":5953,"кофе":5954,"обит":5955,"обед":5956,"обсу":5957,"изнем":5958,"воро":5959,"##скоп":5960,"значительный":5961,"##меч":5962,"сухо":5963,"##лую":5964,"спер":5965,"подо":5966,"подп":5967,"##иха":5968,"##онт":5969,"##ряду":5970,"##жиг":5971,"интен":5972,"##ственным":5973,"##ственность":5974,"собак":5975,"сай":5976,"грун":5977,"определять":5978,"словес":5979,"скреп":5980,"диск":5981,"соверши":5982,"материальных":5983,"отношений":5984,"высших":5985,"розов":5986,"поверхностью":5987,"процессы":5988,"исла":5989,"родствен":5990,"некоторы":5991,"удара":5992,"соответствие":5993,"деятельностью":5994,"покрыть":5995,"обращении":5996,"автоматичес":5997,"отдельно":5998,"отдельный":5999,"охран":6000,"образованием":6001,"специальная":6002,"толстый":6003,"жидкостей":6004,"обозначения":6005,"темп":6006,"использование":6007,"тео":6008,"красный":6009,"твёрды":6010,"крово":6011,"возможно":6012,"установить":6013,"растениях":6014,"свободно":6015,"лёгкая":6016,"вполне":6017,"сообщ":6018,"подвергнуть":6019,"литературе":6020,"привяз":6021,"близкий":6022,"социальной":6023,"монах":6024,"внед":6025,"мягкий":6026,"берега":6027,"звез":6028,"гриб":6029,"промежут":6030,"приятный":6031,"камней":6032,"ритми":6033,"намеренно":6034,"ожив":6035,"ожида":6036,"государственной":6037,"драгоц":6038,"лекарственное":6039,"жёлтый":6040,"достоинства":6041,"площадка":6042,"созданный":6043,"Украине":6044,"недостаток":6045,"застё":6046,"кварти":6047,"дальней":6048,"машин":6049,"обособ":6050,"повозка":6051,"Великоб":6052,"скопление":6053,"слабый":6054,"артиллер":6055,"изнемо":6056,"Великобрит":6057,"10":6058,"Ан":6059,"Вол":6060,"Исп":6061,"По":6062,"Солн":6063,"американ":6064,"бла":6065,"вя":6066,"вто":6067,"еж":6068,"ого":6069,"означ":6070,"пч":6071,"сва":6072,"тих":6073,"фло":6074,"чуд":6075,"этом":6076,"##суд":6077,"##нания":6078,"##ванию":6079,"##кров":6080,"##йка":6081,"##чением":6082,"##фей":6083,"##фав":6084,"##ношения":6085,"##ношение":6086,"пони":6087,"повы":6088,"потен":6089,"поведении":6090,"##атом":6091,"##лист":6092,"##лины":6093,"##итив":6094,"##овая":6095,"##олов":6096,"##емым":6097,"##водо":6098,"состра":6099,"разговор":6100,"общий":6101,"обих":6102,"##льяр":6103,"прича":6104,"припа":6105,"прикры":6106,"забы":6107,"военный":6108,"##авших":6109,"свят":6110,"сплет":6111,"подло":6112,"##чика":6113,"##ённости":6114,"##тации":6115,"часов":6116,"преоб":6117,"виду":6118,"муки":6119,"возвы":6120,"простей":6121,"мошен":6122,"собран":6123,"характерно":6124,"##хождения":6125,"верёв":6126,"двиг":6127,"движений":6128,"объёма":6129,"##фици":6130,"полос":6131,"больше":6132,"словом":6133,"##шает":6134,"ногу":6135,"пиро":6136,"взят":6137,"жела":6138,"количеством":6139,"самом":6140,"добиться":6141,"занимающаяся":6142,"соединя":6143,"узнать":6144,"длинными":6145,"середин":6146,"русское":6147,"##змом":6148,"специализиров":6149,"клави":6150,"бранное":6151,"поступков":6152,"##орядо":6153,"служит":6154,"внешней":6155,"утол":6156,"##чатая":6157,"##чатой":6158,"кроме":6159,"признаку":6160,"алфав":6161,"несерьёз":6162,"украшения":6163,"чьи":6164,"огром":6165,"функций":6166,"считать":6167,"занятие":6168,"веду":6169,"науки":6170,"всеоб":6171,"металлический":6172,"металлическая":6173,"XVI":6174,"волокон":6175,"аналоги":6176,"транспортного":6177,"озеро":6178,"##ющимися":6179,"передвигаться":6180,"продажи":6181,"сознании":6182,"район":6183,"побед":6184,"вкус":6185,"бег":6186,"зерно":6187,"представляющее":6188,"работающий":6189,"ситуация":6190,"регули":6191,"углеводо":6192,"провинции":6193,"поворот":6194,"требующий":6195,"затрудн":6196,"синтетичес":6197,"трени":6198,"белья":6199,"неглубо":6200,"надоед":6201,"быстрый":6202,"ущерб":6203,"экипа":6204,"17":6205,"II":6206,"При":6207,"Рес":6208,"аф":6209,"брев":6210,"жени":6211,"мере":6212,"сбо":6213,"сеть":6214,"ценности":6215,"шар":6216,"шёл":6217,"яз":6218,"##ации":6219,"##рный":6220,"##ывания":6221,"##ываться":6222,"##иль":6223,"##зе":6224,"##мая":6225,"##житель":6226,"##цо":6227,"##гран":6228,"##пла":6229,"##ъестеств":6230,"##ra":6231,"постанов":6232,"поведением":6233,"##кол":6234,"##лицы":6235,"нам":6236,"навы":6237,"линия":6238,"##ривания":6239,"##ете":6240,"##ничный":6241,"кост":6242,"разработ":6243,"продоволь":6244,"прием":6245,"привед":6246,"отва":6247,"зас":6248,"зада":6249,"завед":6250,"заяв":6251,"воск":6252,"##тим":6253,"кас":6254,"капит":6255,"##одуш":6256,"стремя":6257,"##оск":6258,"##луждение":6259,"##изм":6260,"спа":6261,"##менная":6262,"подд":6263,"##чивания":6264,"доставля":6265,"##ённом":6266,"осу":6267,"обыд":6268,"##кты":6269,"##гающий":6270,"возлюб":6271,"##комыс":6272,"##ёмный":6273,"непов":6274,"масти":6275,"горе":6276,"##ически":6277,"##ическая":6278,"##ирать":6279,"##держивать":6280,"параз":6281,"плоды":6282,"семена":6283,"движением":6284,"вырабаты":6285,"полость":6286,"бесцвет":6287,"круго":6288,"круглая":6289,"органическое":6290,"организме":6291,"##циями":6292,"предметах":6293,"поверхност":6294,"определённому":6295,"количеству":6296,"##щающий":6297,"детск":6298,"общественного":6299,"добров":6300,"осуществляющий":6301,"лишать":6302,"несколькими":6303,"низкий":6304,"стоян":6305,"охла":6306,"специального":6307,"распространённый":6308,"периода":6309,"величин":6310,"служба":6311,"красно":6312,"красного":6313,"признак":6314,"функциона":6315,"незамет":6316,"главный":6317,"уголов":6318,"смысла":6319,"чинов":6320,"паралл":6321,"привлек":6322,"размещения":6323,"годов":6324,"воздействие":6325,"сооружения":6326,"заболеваний":6327,"знания":6328,"восприятия":6329,"космет":6330,"прекратить":6331,"голосе":6332,"оружием":6333,"льда":6334,"взглядов":6335,"вопрос":6336,"превосх":6337,"спортивная":6338,"назначения":6339,"оттенок":6340,"проникнутый":6341,"кровенос":6342,"этот":6343,"уровня":6344,"прямоуго":6345,"стандар":6346,"недоб":6347,"влиянием":6348,"прекращать":6349,"##вшихся":6350,"плоскости":6351,"нервной":6352,"##рузки":6353,"серебря":6354,"излишне":6355,"цветом":6356,"заблуждение":6357,"сверхъестеств":6358,"фарм":6359,"примерно":6360,"равноду":6361,"должностное":6362,"прыж":6363,"требованиям":6364,"сосуда":6365,"золот":6366,"нену":6367,"атмосфер":6368,"спортсмен":6369,"обнаружить":6370,"бестол":6371,"интенсив":6372,"Республи":6373,"Да":6374,"Китая":6375,"Рим":6376,"аре":6377,"брон":6378,"глаг":6379,"еды":6380,"иные":6381,"мра":6382,"ны":6383,"олен":6384,"сх":6385,"слав":6386,"сцен":6387,"убивать":6388,"эстра":6389,"эпит":6390,"##евид":6391,"##нём":6392,"##опа":6393,"##тро":6394,"##тной":6395,"##уть":6396,"##уха":6397,"##зелё":6398,"##юм":6399,"##жев":6400,"##цитов":6401,"##дных":6402,"##чёр":6403,"##ченное":6404,"##il":6405,"##нод":6406,"##рости":6407,"##роваться":6408,"поми":6409,"##елиться":6410,"##бок":6411,"##емер":6412,"сопо":6413,"кожу":6414,"##кивать":6415,"прист":6416,"прибора":6417,"##лаз":6418,"относя":6419,"переб":6420,"##лоб":6421,"##дак":6422,"заготов":6423,"заведения":6424,"кавал":6425,"сты":6426,"##ительную":6427,"##имых":6428,"поддержи":6429,"##чивая":6430,"часы":6431,"своими":6432,"рестор":6433,"##тором":6434,"##ктур":6435,"##роду":6436,"инф":6437,"безраз":6438,"маги":6439,"макс":6440,"расчё":6441,"живописи":6442,"мужчины":6443,"объяв":6444,"объяс":6445,"основании":6446,"пуши":6447,"##лета":6448,"систему":6449,"направлять":6450,"действиями":6451,"усер":6452,"сложный":6453,"##форма":6454,"неприяз":6455,"едино":6456,"повеств":6457,"узкое":6458,"представительница":6459,"путеш":6460,"вызывает":6461,"крик":6462,"особенности":6463,"крупней":6464,"верхом":6465,"устаре":6466,"акку":6467,"содержание":6468,"разнообраз":6469,"мыслях":6470,"архе":6471,"##лённое":6472,"перемещать":6473,"легкомыс":6474,"свободу":6475,"периоду":6476,"членов":6477,"довести":6478,"ведущий":6479,"притвор":6480,"задняя":6481,"травянистых":6482,"размерам":6483,"##говорить":6484,"учебное":6485,"торгов":6486,"опух":6487,"окружающих":6488,"описы":6489,"описание":6490,"этих":6491,"причинять":6492,"досок":6493,"острова":6494,"праздник":6495,"заключающаяся":6496,"согласно":6497,"выпук":6498,"пребывание":6499,"промежуто":6500,"нанести":6501,"##ящаяся":6502,"особого":6503,"волокна":6504,"транспорта":6505,"конфли":6506,"живущий":6507,"зверя":6508,"неблагоприят":6509,"проблем":6510,"понятий":6511,"вперёд":6512,"сооружений":6513,"приверженец":6514,"ча́са":6515,"поддающийся":6516,"Англии":6517,"вечнозелё":6518,"рыболов":6519,"Испании":6520,"параллель":6521,"максим":6522,"путешеств":6523,"Ав":6524,"Га":6525,"Мо":6526,"араб":6527,"двой":6528,"данным":6529,"еду":6530,"мани":6531,"останавли":6532,"ссы":6533,"фе":6534,"хру":6535,"##еж":6536,"##кл":6537,"##уя":6538,"##мель":6539,"##пли":6540,"##ari":6541,"пояс":6542,"##еление":6543,"##ствий":6544,"##овед":6545,"нагре":6546,"навяз":6547,"раство":6548,"раду":6549,"несп":6550,"развет":6551,"пройти":6552,"##мир":6553,"##мино":6554,"##арт":6555,"приви":6556,"придержи":6557,"##лаб":6558,"##лади":6559,"отп":6560,"отврат":6561,"откров":6562,"перви":6563,"изготавли":6564,"закруг":6565,"##тием":6566,"высу":6567,"выяс":6568,"##езжать":6569,"суток":6570,"##авшая":6571,"спря":6572,"спут":6573,"##гини":6574,"##мас":6575,"##леги":6576,"доход":6577,"дочь":6578,"##кут":6579,"##новением":6580,"##ставка":6581,"##зывать":6582,"опро":6583,"##цах":6584,"##зами":6585,"##родных":6586,"тороп":6587,"##живающий":6588,"испан":6589,"##лено":6590,"книг":6591,"##ечении":6592,"##стую":6593,"посет":6594,"самец":6595,"##щина":6596,"миро":6597,"представлять":6598,"основного":6599,"богини":6600,"высокого":6601,"телес":6602,"##туре":6603,"ногами":6604,"горн":6605,"высшее":6606,"цвету":6607,"создание":6608,"морской":6609,"##ваемой":6610,"##ждая":6611,"карты":6612,"##щееся":6613,"развяз":6614,"удалять":6615,"удалить":6616,"глуби":6617,"##страя":6618,"##естный":6619,"знаком":6620,"отдельная":6621,"крайней":6622,"текстов":6623,"изготовить":6624,"затем":6625,"выражает":6626,"музыкальное":6627,"запах":6628,"структур":6629,"восточной":6630,"религии":6631,"взаимо":6632,"физических":6633,"последовательно":6634,"отличный":6635,"парамет":6636,"##ходящая":6637,"ограниченный":6638,"испытывающий":6639,"программа":6640,"религиозно":6641,"##ланд":6642,"врач":6643,"длины":6644,"передвижения":6645,"косми":6646,"продажей":6647,"лука":6648,"единицы":6649,"крепкий":6650,"кустарник":6651,"авторит":6652,"занимать":6653,"уничтожить":6654,"принцип":6655,"этому":6656,"ясно":6657,"коллектив":6658,"божество":6659,"хищное":6660,"хищная":6661,"##хотвор":6662,"неизвест":6663,"##динав":6664,"перекры":6665,"беспокой":6666,"самолёта":6667,"провинция":6668,"имущества":6669,"имущество":6670,"исключительно":6671,"натя":6672,"рукавами":6673,"Америки":6674,"дружес":6675,"месяц":6676,"##ace":6677,"союз":6678,"основа":6679,"соломы":6680,"оказаться":6681,"лекси":6682,"цилиндрической":6683,"Турции":6684,"съедоб":6685,"Крыма":6686,"Кавказе":6687,"означа":6688,"разветв":6689,"XII":6690,"Зав":6691,"аэ":6692,"ата":6693,"бод":6694,"внов":6695,"входит":6696,"дв":6697,"дес":6698,"жу":6699,"кин":6700,"лос":6701,"маль":6702,"пь":6703,"пита":6704,"тво":6705,"тур":6706,"уш":6707,"уход":6708,"фоль":6709,"хват":6710,"яб":6711,"##оф":6712,"##ившийся":6713,"##зать":6714,"##яет":6715,"##шё":6716,"##шкой":6717,"##шаться":6718,"##гие":6719,"##дем":6720,"##nus":6721,"##́ть":6722,"##нош":6723,"##рова":6724,"##рожд":6725,"пош":6726,"пораз":6727,"##говари":6728,"##кола":6729,"##лища":6730,"##ители":6731,"##наком":6732,"настой":6733,"лим":6734,"##ничество":6735,"соцвет":6736,"коже":6737,"разъ":6738,"##льность":6739,"пристра":6740,"припис":6741,"##лась":6742,"оте":6743,"отчая":6744,"извер":6745,"заново":6746,"вось":6747,"воодуш":6748,"кара":6749,"##цикли":6750,"стат":6751,"##ительностью":6752,"##иня":6753,"спас":6754,"такую":6755,"подоз":6756,"договор":6757,"догово":6758,"##чает":6759,"##рованной":6760,"##жающийся":6761,"обыкнов":6762,"##пада":6763,"##родного":6764,"возбуд":6765,"индо":6766,"##ятий":6767,"неправ":6768,"посуда":6769,"посуды":6770,"компо":6771,"##держать":6772,"пару":6773,"был":6774,"##дывать":6775,"основы":6776,"основное":6777,"##женных":6778,"словах":6779,"колос":6780,"лицемер":6781,"частицы":6782,"предмете":6783,"используемые":6784,"горная":6785,"взрыв":6786,"трубо":6787,"##лыми":6788,"самка":6789,"важный":6790,"общественной":6791,"являющееся":6792,"узким":6793,"серед":6794,"русских":6795,"равномер":6796,"отдельные":6797,"особый":6798,"корм":6799,"требов":6800,"##копыт":6801,"доме":6802,"теста":6803,"веса":6804,"преимущ":6805,"признавать":6806,"химическое":6807,"соответствует":6808,"продоль":6809,"минера":6810,"снизу":6811,"чьей":6812,"свобод":6813,"достиг":6814,"законод":6815,"угол":6816,"угод":6817,"восхи":6818,"ведения":6819,"##ходящих":6820,"открытым":6821,"скрытый":6822,"расстоянии":6823,"человеком":6824,"погло":6825,"##идной":6826,"сосудов":6827,"административно":6828,"глазах":6829,"фотогр":6830,"этим":6831,"успоко":6832,"менять":6833,"напряж":6834,"представляющая":6835,"дворян":6836,"отобра":6837,"оказываться":6838,"обязанностей":6839,"писатель":6840,"душевное":6841,"##ателем":6842,"психических":6843,"сомн":6844,"фигура":6845,"вступать":6846,"настроение":6847,"каждый":6848,"наблюдения":6849,"ставить":6850,"яйца":6851,"ориенти":6852,"обучения":6853,"волнение":6854,"приобретать":6855,"наказание":6856,"кухни":6857,"##вшиеся":6858,"ласковое":6859,"солнца":6860,"спектак":6861,"чрезвычайно":6862,"рассчитанный":6863,"агрессив":6864,"инструменте":6865,"мозга":6866,"ископа":6867,"постепенно":6868,"солдат":6869,"тюрк":6870,"лагерь":6871,"Христа":6872,"середине":6873,"вновь":6874,"воодушев":6875,"12":6876,"Бал":6877,"Лу":6878,"Сов":6879,"Ста":6880,"Ха":6881,"ари":6882,"ауд":6883,"амино":6884,"венти":6885,"гус":6886,"дар":6887,"деп":6888,"дней":6889,"двор":6890,"зме":6891,"ими":6892,"крю":6893,"пья":6894,"следов":6895,"ух":6896,"ужа":6897,"фир":6898,"фант":6899,"швей":6900,"щё":6901,"##лся":6902,"##ощ":6903,"##орот":6904,"##вя":6905,"##кто":6906,"##уск":6907,"##жан":6908,"##жее":6909,"##гер":6910,"##дью":6911,"##ьями":6912,"##чур":6913,"##ol":6914,"##ch":6915,"##нокопыт":6916,"##ань":6917,"пой":6918,"поез":6919,"##ково":6920,"##ливая":6921,"##ствование":6922,"наро":6923,"нарез":6924,"лизин":6925,"##тон":6926,"неф":6927,"неум":6928,"##никами":6929,"сопри":6930,"сообра":6931,"сочув":6932,"короб":6933,"разряд":6934,"##арь":6935,"отец":6936,"отвле":6937,"##дали":6938,"заку":6939,"завяз":6940,"воору":6941,"##тию":6942,"камер":6943,"выйти":6944,"##визи":6945,"##инка":6946,"##интер":6947,"##имые":6948,"мещ":6949,"осна":6950,"одет":6951,"##ням":6952,"опьян":6953,"##альном":6954,"претен":6955,"##гает":6956,"##зах":6957,"##зади":6958,"##жив":6959,"индий":6960,"напы":6961,"##дующий":6962,"совсем":6963,"посы":6964,"вещей":6965,"консер":6966,"расши":6967,"расщеп":6968,"##вшей":6969,"##щика":6970,"плох":6971,"##довой":6972,"мисти":6973,"образец":6974,"живой":6975,"лам":6976,"##личка":6977,"пуб":6978,"##тивный":6979,"##нутая":6980,"##летних":6981,"скру":6982,"страдающий":6983,"городского":6984,"звуча":6985,"звуке":6986,"процеду":6987,"отношениях":6988,"составляющий":6989,"качеством":6990,"##форми":6991,"##носит":6992,"##ждающий":6993,"неприну":6994,"запря":6995,"запись":6996,"важных":6997,"общественных":6998,"повсед":6999,"металлов":7000,"узкий":7001,"узком":7002,"##яние":7003,"обращаться":7004,"властью":7005,"равный":7006,"знаков":7007,"широким":7008,"особым":7009,"крайний":7010,"войс":7011,"универ":7012,"стилисти":7013,"изготовлять":7014,"принадлежность":7015,"противореч":7016,"находить":7017,"говоря":7018,"музыкальном":7019,"иностран":7020,"##лённых":7021,"установлен":7022,"политическое":7023,"политическая":7024,"собственность":7025,"ходить":7026,"сексол":7027,"географичес":7028,"усиления":7029,"чистый":7030,"сообщать":7031,"металлических":7032,"леса":7033,"учреждении":7034,"воздействием":7035,"религиозной":7036,"##рассуд":7037,"погруж":7038,"вражде":7039,"съесть":7040,"просвет":7041,"составляющих":7042,"сохранять":7043,"христианской":7044,"предложения":7045,"сопровождающееся":7046,"листья":7047,"деревянная":7048,"государственного":7049,"официальное":7050,"зерна":7051,"обстоятельств":7052,"наступления":7053,"##культ":7054,"микроби":7055,"древесины":7056,"дыхания":7057,"возникающая":7058,"записи":7059,"охватывающий":7060,"чужой":7061,"школь":7062,"сомнения":7063,"развиваться":7064,"обладающее":7065,"компьютерной":7066,"свидетельствующий":7067,"обмануть":7068,"промышленности":7069,"стесня":7070,"покинуть":7071,"изменить":7072,"гипот":7073,"наблюда":7074,"##дцать":7075,"папиро":7076,"наименование":7077,"удостовер":7078,"Китае":7079,"хромосом":7080,"изнеможения":7081,"язв":7082,"недобро":7083,"##интерес":7084,"повседнев":7085,"15":7086,"Крас":7087,"Нов":7088,"Центра":7089,"Япо":7090,"блюд":7091,"введения":7092,"гн":7093,"кир":7094,"нере":7095,"огор":7096,"осторо":7097,"пеп":7098,"уши":7099,"фаль":7100,"хра":7101,"худ":7102,"ценность":7103,"чт":7104,"чей":7105,"шри":7106,"эп":7107,"##бар":7108,"##ивший":7109,"##ути":7110,"##ующая":7111,"##зия":7112,"##зву":7113,"##жур":7114,"##цент":7115,"##шу":7116,"##шит":7117,"##ёны":7118,"##od":7119,"##ia":7120,"##стыми":7121,"##новод":7122,"##роти":7123,"повод":7124,"пограни":7125,"##ливого":7126,"##лировать":7127,"##нам":7128,"ракови":7129,"личного":7130,"##рип":7131,"##рисов":7132,"##олу":7133,"##олет":7134,"##емом":7135,"неба":7136,"##вора":7137,"##нин":7138,"##нице":7139,"##рун":7140,"прог":7141,"простой":7142,"##ляемое":7143,"##ейской":7144,"##льности":7145,"##лоть":7146,"зау":7147,"зах":7148,"заим":7149,"заведении":7150,"камен":7151,"выем":7152,"вытя":7153,"предв":7154,"предуп":7155,"спин":7156,"дожд":7157,"дожде":7158,"связанные":7159,"##носящий":7160,"реп":7161,"режу":7162,"##ровка":7163,"##моро":7164,"##онной":7165,"видо":7166,"##роды":7167,"возвращ":7168,"##енью":7169,"моче":7170,"соблюд":7171,"собира":7172,"раска":7173,"расстав":7174,"рассу":7175,"всел":7176,"всём":7177,"пад":7178,"средством":7179,"полуостро":7180,"делу":7181,"##хорон":7182,"работой":7183,"беспри":7184,"крутой":7185,"колес":7186,"скел":7187,"##алисти":7188,"систематичес":7189,"высшая":7190,"роста":7191,"левой":7192,"собирать":7193,"передней":7194,"передняя":7195,"детёны":7196,"обществом":7197,"являющаяся":7198,"занимающий":7199,"##ятии":7200,"мелко":7201,"целост":7202,"числом":7203,"граф":7204,"##ботки":7205,"парнокопыт":7206,"войско":7207,"изготовлением":7208,"жидкостью":7209,"белков":7210,"развитии":7211,"игрок":7212,"величины":7213,"запас":7214,"болезней":7215,"ветра":7216,"новое":7217,"собственных":7218,"денежных":7219,"лёгкое":7220,"нукле":7221,"идеи":7222,"увеличения":7223,"исполнение":7224,"году":7225,"анализа":7226,"последовательность":7227,"грубый":7228,"передвижение":7229,"научн":7230,"хозяйства":7231,"технике":7232,"влиятель":7233,"листьев":7234,"льня":7235,"кустарни":7236,"кустарников":7237,"концами":7238,"возраст":7239,"жизнеде":7240,"художественной":7241,"официальный":7242,"выполняющий":7243,"операции":7244,"руководитель":7245,"жёлтого":7246,"##битый":7247,"обстоятельство":7248,"торжественный":7249,"микрооргани":7250,"Востока":7251,"##ателей":7252,"островов":7253,"замед":7254,"алкогольный":7255,"прекращение":7256,"снега":7257,"серебри":7258,"богатый":7259,"подъём":7260,"болезненное":7261,"скорости":7262,"покоя":7263,"хвостом":7264,"радость":7265,"товаров":7266,"злаков":7267,"избавиться":7268,"кристалли":7269,"предохранения":7270,"огнестрельного":7271,"неспособность":7272,"четвер":7273,"неиск":7274,"допустить":7275,"Африке":7276,"схватить":7277,"переместить":7278,"часа́":7279,"глубину":7280,"древнеегипетской":7281,"велосипед":7282,"нижняя":7283,"##байдж":7284,"корич":7285,"полуострове":7286,"Великобритании":7287,"углеводород":7288,"бестолковый":7289,"Японии":7290,"полуострова":7291,"жизнедеятель":7292,"Мар":7293,"Па":7294,"Смол":7295,"аск":7296,"брос":7297,"данной":7298,"жур":7299,"ке":7300,"пан":7301,"сена":7302,"урод":7303,"удержи":7304,"хо":7305,"храни":7306,"чеш":7307,"честь":7308,"шить":7309,"яи":7310,"##лые":7311,"##рий":7312,"##рение":7313,"##ранный":7314,"##нему":7315,"##оцветных":7316,"##тых":7317,"##воль":7318,"##ука":7319,"##зму":7320,"##жав":7321,"##шко":7322,"##шиться":7323,"##шенная":7324,"##гн":7325,"##гмент":7326,"##пка":7327,"##пус":7328,"##чку":7329,"##чках":7330,"##ph":7331,"##ur":7332,"##ium":7333,"##th":7334,"##анными":7335,"##атов":7336,"награ":7337,"##рической":7338,"##ема":7339,"##емь":7340,"##кающий":7341,"неудов":7342,"содейств":7343,"коноп":7344,"обре":7345,"прости":7346,"прось":7347,"прочих":7348,"##ляется":7349,"причиной":7350,"##лости":7351,"изум":7352,"##дал":7353,"зага":7354,"зароды":7355,"##тиол":7356,"##тировать":7357,"выхода":7358,"##отвор":7359,"##ома":7360,"##освяз":7361,"свит":7362,"спи":7363,"##маг":7364,"достойный":7365,"межд":7366,"свое":7367,"##иса":7368,"##иски":7369,"##новес":7370,"##торов":7371,"##рованных":7372,"##рованного":7373,"##жах":7374,"##мое":7375,"##ыхать":7376,"муч":7377,"##ковые":7378,"жир":7379,"жиль":7380,"##делец":7381,"рукоп":7382,"распоз":7383,"саха":7384,"коммер":7385,"##тые":7386,"##шив":7387,"мужчин":7388,"представителей":7389,"##ёрты":7390,"основная":7391,"большую":7392,"перестать":7393,"##бах":7394,"полная":7395,"техника":7396,"колен":7397,"сквер":7398,"мета":7399,"нося":7400,"##верху":7401,"пищ":7402,"пива":7403,"производством":7404,"##атоми":7405,"морское":7406,"##бира":7407,"лест":7408,"определённую":7409,"ислам":7410,"ихтиол":7411,"сильного":7412,"сильной":7413,"удаления":7414,"##чья":7415,"мелкая":7416,"##припа":7417,"скота":7418,"различного":7419,"имму":7420,"длинные":7421,"владелец":7422,"низким":7423,"почтов":7424,"голове":7425,"кишеч":7426,"распространения":7427,"стихотвор":7428,"класс":7429,"заты":7430,"любит":7431,"любящий":7432,"губер":7433,"внешнее":7434,"внешних":7435,"орудия":7436,"запахом":7437,"тонкая":7438,"политической":7439,"физические":7440,"играх":7441,"достижение":7442,"доволь":7443,"частности":7444,"письмо":7445,"восемь":7446,"##тяги":7447,"отверстием":7448,"науке":7449,"всегда":7450,"лошадей":7451,"расположенная":7452,"фамильяр":7453,"происхождение":7454,"##читать":7455,"преступления":7456,"холодное":7457,"делает":7458,"научной":7459,"научная":7460,"культуре":7461,"модели":7462,"появление":7463,"появления":7464,"обозначающий":7465,"клето":7466,"сумка":7467,"сумма":7468,"песен":7469,"ловкий":7470,"##зрачный":7471,"тайно":7472,"содержащее":7473,"совершает":7474,"концеп":7475,"традиции":7476,"пользование":7477,"спортивных":7478,"печати":7479,"##ферен":7480,"возбуждение":7481,"события":7482,"воинское":7483,"добавлением":7484,"дыма":7485,"хлопчат":7486,"изучения":7487,"самостоятельно":7488,"указания":7489,"твёрдых":7490,"божества":7491,"молекулы":7492,"предшествующий":7493,"переживание":7494,"внизу":7495,"убеждения":7496,"присоединя":7497,"сфере":7498,"боеприпа":7499,"удовлетворения":7500,"сыпучих":7501,"палка":7502,"округлой":7503,"пищевой":7504,"сквозь":7505,"скандинав":7506,"лодка":7507,"инфекционное":7508,"футбо":7509,"##idae":7510,"розоцветных":7511,"приобрести":7512,"появи":7513,"упражнений":7514,"магазин":7515,"финансов":7516,"гимнасти":7517,"Солнца":7518,"универс":7519,"кирпи":7520,"Смолен":7521,"журна":7522,".·":7523,"16":7524,"ДНК":7525,"бен":7526,"блок":7527,"виз":7528,"визу":7529,"вул":7530,"гаран":7531,"данного":7532,"ил":7533,"ката":7534,"лжи":7535,"мят":7536,"сма":7537,"серо":7538,"скуль":7539,"сдви":7540,"шу":7541,"шля":7542,"эл":7543,"эпи":7544,"ящик":7545,"##евой":7546,"##или":7547,"##ивания":7548,"##зд":7549,"##змы":7550,"##мана":7551,"##шная":7552,"##шта":7553,"##гли":7554,"##чем":7555,"##чком":7556,"##ченная":7557,"##le":7558,"##рость":7559,"##енить":7560,"##анному":7561,"поход":7562,"поставить":7563,"поспеш":7564,"##еления":7565,"##лию":7566,"##лизации":7567,"##итар":7568,"набора":7569,"навес":7570,"##олом":7571,"неск":7572,"недел":7573,"##нической":7574,"соус":7575,"пропор":7576,"прилега":7577,"отвед":7578,"##орий":7579,"зак":7580,"забав":7581,"вопло":7582,"##тип":7583,"кад":7584,"каба":7585,"##ответ":7586,"стё":7587,"значением":7588,"##имым":7589,"предлагать":7590,"сплав":7591,"такими":7592,"подчёр":7593,"##кус":7594,"##мут":7595,"##ательности":7596,"осоз":7597,"решение":7598,"револю":7599,"##рованием":7600,"##рованная":7601,"##альными":7602,"##рядов":7603,"существовать":7604,"##зация":7605,"тока":7606,"##живания":7607,"орна":7608,"книги":7609,"имеющих":7610,"##ечный":7611,"##вую":7612,"грудь":7613,"всему":7614,"##ренний":7615,"##выс":7616,"##выми":7617,"быту":7618,"мили":7619,"мире":7620,"милли":7621,"мужеств":7622,"средней":7623,"резер":7624,"военной":7625,"выражен":7626,"бесц":7627,"передавать":7628,"полимер":7629,"фикси":7630,"колба":7631,"##ствующий":7632,"способностью":7633,"##никам":7634,"государственный":7635,"страх":7636,"звуч":7637,"##терп":7638,"биологи":7639,"высоты":7640,"чувствовать":7641,"составу":7642,"составной":7643,"действиях":7644,"роли":7645,"черт":7646,"##бина":7647,"##образный":7648,"употребление":7649,"одноим":7650,"совершения":7651,"правила":7652,"правилам":7653,"самов":7654,"общественное":7655,"являются":7656,"строительный":7657,"соединённых":7658,"мелкое":7659,"моллю":7660,"глухой":7661,"фай":7662,"группи":7663,"##манской":7664,"равновес":7665,"широкое":7666,"крупными":7667,"сослов":7668,"корре":7669,"корня":7670,"корпус":7671,"головного":7672,"кири":7673,"транс":7674,"распространять":7675,"стир":7676,"стиле":7677,"внутренняя":7678,"внутренний":7679,"общности":7680,"любая":7681,"служитель":7682,"службе":7683,"изобража":7684,"продви":7685,"установки":7686,"установленный":7687,"приготовленное":7688,"чьего":7689,"благоприят":7690,"латин":7691,"носом":7692,"выделение":7693,"короткое":7694,"преимущество":7695,"##лёй":7696,"обеспеч":7697,"идеологии":7698,"усилит":7699,"усилием":7700,"бумаг":7701,"металлического":7702,"чувствах":7703,"##вращения":7704,"раздви":7705,"фамилии":7706,"птицах":7707,"старый":7708,"расстояния":7709,"свойствам":7710,"заболевания":7711,"преступление":7712,"холодного":7713,"озор":7714,"учебном":7715,"необходимости":7716,"наивыс":7717,"##ностях":7718,"сознание":7719,"марка":7720,"сохранить":7721,"электрического":7722,"окрест":7723,"возраста":7724,"доса":7725,"намерение":7726,"регион":7727,"заключающийся":7728,"уровень":7729,"отражающий":7730,"эфир":7731,"пребывать":7732,"православных":7733,"давление":7734,"замк":7735,"участия":7736,"требование":7737,"абсол":7738,"повреждения":7739,"цвето":7740,"насыщенный":7741,"вооружённых":7742,"конструкции":7743,"волокно":7744,"езде":7745,"подъёма":7746,"Малой":7747,"борьба":7748,"уважение":7749,"овощей":7750,"вызванное":7751,"радости":7752,"Америке":7753,"наказания":7754,"категори":7755,"фермент":7756,"певец":7757,"удобный":7758,"грамматичес":7759,"впадает":7760,"брусь":7761,"мытья":7762,"насмешку":7763,"преодол":7764,"сердца":7765,"астрономи":7766,"эксплуата":7767,"феода":7768,"фолькло":7769,"одетый":7770,"микробиол":7771,"скульп":7772,"абсолют":7773,"РНК":7774,"Чех":7775,"ато":7776,"иуд":7777,"кн":7778,"кло":7779,"клин":7780,"кличка":7781,"мё":7782,"рого":7783,"риту":7784,"сен":7785,"сре":7786,"слизи":7787,"тар":7788,"трост":7789,"ун":7790,"ума":7791,"уйти":7792,"хок":7793,"цене":7794,"чита":7795,"челю":7796,"шара":7797,"ще":7798,"##лать":7799,"##сход":7800,"##бин":7801,"##вратить":7802,"##унок":7803,"##зор":7804,"##мых":7805,"##жкой":7806,"##цар":7807,"##пись":7808,"##ьше":7809,"##чаться":7810,"##чёта":7811,"##фю":7812,"##ъяв":7813,"##рор":7814,"##росток":7815,"##еник":7816,"побо":7817,"##атар":7818,"##атери":7819,"##речи":7820,"##итут":7821,"наносить":7822,"расти":7823,"##рика":7824,"неос":7825,"неяс":7826,"##воить":7827,"##вость":7828,"##низма":7829,"##ельного":7830,"коор":7831,"коров":7832,"обще":7833,"обратить":7834,"промыслов":7835,"##ляющее":7836,"приготавли":7837,"примыка":7838,"##лага":7839,"отме":7840,"отзы":7841,"отпу":7842,"перел":7843,"переч":7844,"##лость":7845,"##дающее":7846,"запо":7847,"востор":7848,"капу":7849,"выбрасы":7850,"##вающей":7851,"##оту":7852,"##обума":7853,"##вив":7854,"##висти":7855,"сухой":7856,"##авшие":7857,"##луш":7858,"справед":7859,"##лового":7860,"##рана":7861,"##ровые":7862,"##рований":7863,"опло":7864,"сига":7865,"##олода":7866,"кулина":7867,"##номор":7868,"имея":7869,"безрассуд":7870,"##ственном":7871,"руба":7872,"непол":7873,"непред":7874,"гора":7875,"упро":7876,"упорядо":7877,"собаки":7878,"расчёт":7879,"##епри":7880,"произнес":7881,"пах":7882,"определяющий":7883,"двигат":7884,"основание":7885,"словаря":7886,"полиции":7887,"полицей":7888,"боли":7889,"глас":7890,"высокое":7891,"##тук":7892,"местоим":7893,"колот":7894,"колод":7895,"компании":7896,"предмету":7897,"очевид":7898,"звуках":7899,"взято":7900,"цветов":7901,"##атора":7902,"населя":7903,"морф":7904,"слоя":7905,"сложное":7906,"рождения":7907,"церем":7908,"##бири":7909,"##образной":7910,"##произ":7911,"жидких":7912,"многок":7913,"помочь":7914,"##ционная":7915,"половое":7916,"половине":7917,"добрый":7918,"сильные":7919,"искусство":7920,"бака":7921,"мелод":7922,"##мысла":7923,"масс":7924,"ряду":7925,"расслаб":7926,"воле":7927,"угнет":7928,"графи":7929,"позор":7930,"употребляемое":7931,"низкого":7932,"мехом":7933,"широком":7934,"внутренним":7935,"страдание":7936,"белый":7937,"противостоя":7938,"любимый":7939,"выражающееся":7940,"внешним":7941,"внешний":7942,"внешнего":7943,"весё":7944,"применением":7945,"краска":7946,"признаки":7947,"мыслей":7948,"мысленно":7949,"раньше":7950,"химических":7951,"неприятного":7952,"новому":7953,"организаций":7954,"ходу":7955,"смехе":7956,"физически":7957,"леген":7958,"незакон":7959,"лёгкого":7960,"выделять":7961,"группу":7962,"довод":7963,"довольно":7964,"главного":7965,"дороге":7966,"обеспечение":7967,"увеличивать":7968,"органах":7969,"ударить":7970,"отличаясь":7971,"шаро":7972,"духовного":7973,"исторический":7974,"круглой":7975,"волосами":7976,"##атический":7977,"программи":7978,"программы":7979,"временного":7980,"взаимосвяз":7981,"##мотреть":7982,"телефо":7983,"конечно":7984,"последовательности":7985,"момента":7986,"воспринимать":7987,"печи":7988,"голоса":7989,"железы":7990,"##ванг":7991,"горячий":7992,"водоёма":7993,"нормам":7994,"нормального":7995,"четыре":7996,"патологи":7997,"разрушить":7998,"уничтожения":7999,"беспорядок":8000,"богов":8001,"глубокий":8002,"плотной":8003,"рисунок":8004,"номер":8005,"вяза":8006,"тюрь":8007,"гибель":8008,"укрепление":8009,"##языковой":8010,"славянской":8011,"##коснов":8012,"услуги":8013,"рублей":8014,"колебаний":8015,"нитей":8016,"подготовки":8017,"выбрать":8018,"особое":8019,"амп":8020,"невежеств":8021,"несущий":8022,"литературного":8023,"медицинской":8024,"самолёт":8025,"повора":8026,"распоряжение":8027,"боевой":8028,"начинкой":8029,"вспы":8030,"племён":8031,"совместно":8032,"золоти":8033,"оригина":8034,"жестокий":8035,"настоящий":8036,"корабль":8037,"правительство":8038,"Сибири":8039,"преобразования":8040,"вероят":8041,"неопредел":8042,"неистов":8043,"ошибку":8044,"платье":8045,"монарха":8046,"ресурсов":8047,"ёмкость":8048,"хозяина":8049,"звёзд":8050,"выращивания":8051,"высокомер":8052,"Польше":8053,"мотоци":8054,"предполага":8055,"музыкант":8056,"извлекать":8057,"##авшееся":8058,"спереди":8059,"некоторые":8060,"твёрдым":8061,"артиллерий":8062,"##оловину":8063,"Республики":8064,"ухуд":8065,"нарочит":8066,"публич":8067,"хлопчатобума":8068,"княз":8069,"Лат":8070,"Ос":8071,"Ро":8072,"Фед":8073,"бок":8074,"вск":8075,"гнев":8076,"египет":8077,"инач":8078,"клей":8079,"лента":8080,"она":8081,"пли":8082,"смя":8083,"сено":8084,"тен":8085,"тос":8086,"урав":8087,"уходить":8088,"шт":8089,"щель":8090,"##латы":8091,"##тий":8092,"##воло":8093,"##мении":8094,"##жем":8095,"##жными":8096,"##жничать":8097,"##драт":8098,"##предел":8099,"##чений":8100,"##фаль":8101,"##ul":8102,"пои":8103,"поста":8104,"понять":8105,"попасть":8106,"порица":8107,"##город":8108,"##кона":8109,"##костью":8110,"##лити":8111,"##ливым":8112,"навод":8113,"наса":8114,"начина":8115,"рам":8116,"неуд":8117,"неоргани":8118,"##воев":8119,"сон":8120,"косто":8121,"разы":8122,"разрыв":8123,"обмена":8124,"общины":8125,"##рующее":8126,"прово":8127,"профи":8128,"призы":8129,"припад":8130,"причины":8131,"применитель":8132,"отб":8133,"отло":8134,"отдавать":8135,"откло":8136,"переза":8137,"##стила":8138,"изб":8139,"##дам":8140,"зака":8141,"замена":8142,"залив":8143,"##едии":8144,"вока":8145,"кажу":8146,"выд":8147,"##оби":8148,"стя":8149,"уступ":8150,"значительное":8151,"предс":8152,"табли":8153,"##лец":8154,"подбо":8155,"доказ":8156,"##ательную":8157,"реф":8158,"опо":8159,"опоро":8160,"опира":8161,"обыча":8162,"препо":8163,"курь":8164,"##мян":8165,"##неж":8166,"возгла":8167,"##дости":8168,"орбит":8169,"могу":8170,"##стам":8171,"паро":8172,"пасту":8173,"характерные":8174,"случая":8175,"верб":8176,"двигать":8177,"основания":8178,"основном":8179,"пузы":8180,"пусты":8181,"бесконе":8182,"большей":8183,"боев":8184,"высоких":8185,"колё":8186,"скре":8187,"##алист":8188,"специфичес":8189,"ногах":8190,"лицом":8191,"небольшую":8192,"##янный":8193,"компания":8194,"ант":8195,"предназначенные":8196,"междуна":8197,"пист":8198,"##хари":8199,"гормон":8200,"языках":8201,"взрос":8202,"труп":8203,"##образная":8204,"употреблять":8205,"родов":8206,"жидкая":8207,"правил":8208,"детская":8209,"помещать":8210,"самому":8211,"единое":8212,"разврат":8213,"строгий":8214,"туман":8215,"сильным":8216,"гад":8217,"ударами":8218,"удалиться":8219,"мело":8220,"##мысел":8221,"целого":8222,"скот":8223,"199":8224,"плён":8225,"рассказ":8226,"имити":8227,"кричать":8228,"серь":8229,"##янин":8230,"острый":8231,"широкая":8232,"широкими":8233,"специальное":8234,"парный":8235,"почвы":8236,"корне":8237,"треуголь":8238,"войска":8239,"стране":8240,"внутренних":8241,"##умный":8242,"изменя":8243,"противоп":8244,"противореча":8245,"поступать":8246,"любез":8247,"применения":8248,"##чатое":8249,"сын":8250,"постоянное":8251,"##ителями":8252,"ветв":8253,"смол":8254,"установление":8255,"политика":8256,"политического":8257,"украшенный":8258,"физической":8259,"отличается":8260,"носитель":8261,"лёгкой":8262,"выделения":8263,"будд":8264,"дорог":8265,"занятия":8266,"нормы":8267,"предопредел":8268,"сообща":8269,"сообщения":8270,"работница":8271,"маленькая":8272,"маленькое":8273,"радиус":8274,"выполнить":8275,"напоминающее":8276,"##атических":8277,"лицам":8278,"лицами":8279,"##стократ":8280,"социальных":8281,"условиям":8282,"некоторой":8283,"попере":8284,"документа":8285,"объединённых":8286,"ознаком":8287,"учебных":8288,"границ":8289,"тексте":8290,"обработка":8291,"обработке":8292,"просить":8293,"косм":8294,"голосов":8295,"голосом":8296,"этноязыковой":8297,"появляться":8298,"надеваемая":8299,"глазами":8300,"вращения":8301,"чёрный":8302,"клетка":8303,"правосла":8304,"удлин":8305,"гражданин":8306,"экспер":8307,"эмоций":8308,"совершаемый":8309,"ремес":8310,"взгляде":8311,"медицине":8312,"водоём":8313,"##ителям":8314,"возражений":8315,"автоном":8316,"нижний":8317,"очистки":8318,"зерка":8319,"раздражения":8320,"региона":8321,"площади":8322,"согласиться":8323,"писать":8324,"протек":8325,"нагрев":8326,"контроль":8327,"воротника":8328,"ослабить":8329,"перехода":8330,"всеми":8331,"вступить":8332,"заметным":8333,"массовой":8334,"смеси":8335,"протяж":8336,"скорость":8337,"сфера":8338,"обитающее":8339,"вспом":8340,"формирования":8341,"проживания":8342,"направлениях":8343,"профессионально":8344,"беспорядочно":8345,"популярный":8346,"древнерус":8347,"освещения":8348,"чрезвычайный":8349,"эффект":8350,"здоровья":8351,"идущий":8352,"колонны":8353,"##получ":8354,"Африки":8355,"фильма":8356,"мясной":8357,"аромат":8358,"переместиться":8359,"пригодный":8360,"развлечения":8361,"ребёнка":8362,"архитектуре":8363,"отрыви":8364,"сырья":8365,"размножения":8366,"иудаизме":8367,"россий":8368,"наслаждение":8369,"левый":8370,"флота":8371,"ресторан":8372,"Москов":8373,"##aceae":8374,"ябло":8375,"минералов":8376,"восхищение":8377,"Совет":8378,"аристократ":8379,"школьн":8380,"видоиз":8381,"скверный":8382,"иллю":8383,"Федерации":8384,"иначе":8385,"применительно":8386,"30":8387,"Вет":8388,"Иис":8389,"Изра":8390,"Чер":8391,"брод":8392,"брит":8393,"брё":8394,"брус":8395,"взы":8396,"гет":8397,"дал":8398,"зёр":8399,"ию":8400,"лоб":8401,"меры":8402,"нани":8403,"нелов":8404,"ного":8405,"пнев":8406,"сш":8407,"смен":8408,"смо":8409,"снего":8410,"село":8411,"сенти":8412,"сжат":8413,"сжиг":8414,"ук":8415,"убо":8416,"хло":8417,"хода":8418,"хох":8419,"шка":8420,"щеп":8421,"эту":8422,"этни":8423,"южно":8424,"##лез":8425,"##еек":8426,"##ненный":8427,"##нета":8428,"##тня":8429,"##диться":8430,"##ченно":8431,"##чато":8432,"##ченным":8433,"##́льш":8434,"##анную":8435,"пости":8436,"поса":8437,"##колё":8438,"##рета":8439,"##награ":8440,"##ийской":8441,"наки":8442,"настил":8443,"##олго":8444,"некра":8445,"##етра":8446,"коз":8447,"копи":8448,"разбор":8449,"обнов":8450,"обув":8451,"прой":8452,"прогре":8453,"проходит":8454,"проволо":8455,"приход":8456,"прислу":8457,"отбы":8458,"отцу":8459,"отвращение":8460,"первая":8461,"избир":8462,"изначально":8463,"изложение":8464,"засты":8465,"задерж":8466,"##ноевропей":8467,"кафт":8468,"кавказ":8469,"выяв":8470,"вымыш":8471,"##вающаяся":8472,"##циа":8473,"##цина":8474,"##скопа":8475,"##спор":8476,"стер":8477,"страт":8478,"сук":8479,"предпо":8480,"##измом":8481,"спис":8482,"спине":8483,"##гии":8484,"##менти":8485,"##нув":8486,"дог":8487,"меха":8488,"##талки":8489,"свод":8490,"##ательном":8491,"связей":8492,"реа":8493,"рече":8494,"##ходов":8495,"одобр":8496,"одино":8497,"оплат":8498,"##мора":8499,"##онный":8500,"виру":8501,"##гам":8502,"##гающийся":8503,"кузов":8504,"топо":8505,"вознагра":8506,"##комп":8507,"наполовину":8508,"##думы":8509,"##думан":8510,"##сахари":8511,"совме":8512,"безв":8513,"безопа":8514,"##енье":8515,"посев":8516,"сапо":8517,"самым":8518,"веков":8519,"концу":8520,"людь":8521,"произведении":8522,"больной":8523,"средой":8524,"среднего":8525,"##линей":8526,"##хождение":8527,"выражений":8528,"положению":8529,"##зиат":8530,"##ящим":8531,"пух":8532,"пустой":8533,"бесчув":8534,"кругу":8535,"уменьшать":8536,"##баров":8537,"##тивно":8538,"полным":8539,"бо́льш":8540,"дево":8541,"дефек":8542,"колеса":8543,"способное":8544,"дип":8545,"дистан":8546,"учит":8547,"душа":8548,"дурак":8549,"используя":8550,"##ивый":8551,"направлению":8552,"взры":8553,"морского":8554,"морских":8555,"слоем":8556,"сложно":8557,"##ротех":8558,"##образное":8559,"терми":8560,"непривы":8561,"жидкой":8562,"самая":8563,"общественно":8564,"проявить":8565,"проявляться":8566,"проявляя":8567,"доля":8568,"должен":8569,"половых":8570,"доби":8571,"##чься":8572,"бай":8573,"соответствия":8574,"происшеств":8575,"скор":8576,"198":8577,"##страции":8578,"чисел":8579,"серде":8580,"остальных":8581,"влаги":8582,"низкой":8583,"низшего":8584,"отдельными":8585,"широких":8586,"дале":8587,"специальный":8588,"##надц":8589,"экстра":8590,"водки":8591,"распространяться":8592,"деревня":8593,"внутреннего":8594,"содержанием":8595,"темно":8596,"светло":8597,"общего":8598,"находящаяся":8599,"густой":8600,"внешняя":8601,"неоправ":8602,"приспособления":8603,"малых":8604,"твёрдая":8605,"орудий":8606,"##ливом":8607,"бесплат":8608,"недоступ":8609,"тонкой":8610,"покроя":8611,"ветви":8612,"минут":8613,"приготовленная":8614,"отделять":8615,"счёта":8616,"потря":8617,"играющий":8618,"достичь":8619,"главных":8620,"дорогой":8621,"обеспечения":8622,"восстанавли":8623,"удары":8624,"ведом":8625,"отверстия":8626,"наук":8627,"летательный":8628,"интересами":8629,"интересах":8630,"духовой":8631,"##гляд":8632,"стремительно":8633,"образующих":8634,"близко":8635,"стараться":8636,"временно":8637,"кислот":8638,"социально":8639,"телевизи":8640,"генетичес":8641,"внес":8642,"пыл":8643,"документов":8644,"элементар":8645,"холодный":8646,"греков":8647,"учебного":8648,"границе":8649,"съём":8650,"съест":8651,"##численный":8652,"педа":8653,"пределами":8654,"канал":8655,"монеты":8656,"грибов":8657,"листьях":8658,"сортов":8659,"известным":8660,"решительно":8661,"нравственное":8662,"исслед":8663,"мышеч":8664,"копеек":8665,"обеспечивать":8666,"команды":8667,"концентра":8668,"вкуса":8669,"уборки":8670,"намерения":8671,"выполняющая":8672,"выдающийся":8673,"отоб":8674,"несоответ":8675,"гермет":8676,"оболочка":8677,"одинаков":8678,"пункта":8679,"##олюб":8680,"давления":8681,"твёрдое":8682,"хлопот":8683,"выходцев":8684,"западной":8685,"западноевропей":8686,"топлива":8687,"нежелательное":8688,"вариан":8689,"иденти":8690,"прошлом":8691,"пользующийся":8692,"примитив":8693,"распределять":8694,"переживания":8695,"длительного":8696,"принуд":8697,"каждого":8698,"молитвы":8699,"азарт":8700,"беспоко":8701,"занятый":8702,"излучения":8703,"риф":8704,"осадо":8705,"племени":8706,"##личия":8707,"понятие":8708,"вызванный":8709,"оскорбление":8710,"учёный":8711,"помещении":8712,"сахара":8713,"продолговатый":8714,"покидать":8715,"реакции":8716,"припод":8717,"недостаточно":8718,"эпоху":8719,"стрельбы":8720,"асфаль":8721,"укрыться":8722,"компонент":8723,"превосходный":8724,"обобщ":8725,"счаст":8726,"император":8727,"очаров":8728,"продукции":8729,"закономерности":8730,"Толкового":8731,"ходьбе":8732,"тяжести":8733,"типограф":8734,"партнё":8735,"иерархии":8736,"фантасти":8737,"очеред":8738,"благодаря":8739,"опухоль":8740,"опроки":8741,"мировоз":8742,"ушами":8743,"восьми":8744,"компози":8745,"Хабаров":8746,"##интересов":8747,"предупре":8748,"микроорганизм":8749,"жизнедеятельности":8750,"рукопис":8751,"порицающее":8752,"сентимента":8753,"некраси":8754,"людьми":8755,"неоправд":8756,"Бог":8757,"Кон":8758,"Ми":8759,"Пер":8760,"ада":8761,"бир":8762,"врожд":8763,"гни":8764,"глот":8765,"дель":8766,"данные":8767,"данном":8768,"дрян":8769,"еда":8770,"км":8771,"кверху":8772,"лез":8773,"мг":8774,"мель":8775,"муд":8776,"оно":8777,"пё":8778,"пени":8779,"пыт":8780,"пеш":8781,"рта":8782,"сбы":8783,"снять":8784,"сбора":8785,"сцени":8786,"ссора":8787,"уны":8788,"убы":8789,"улы":8790,"упад":8791,"уклон":8792,"фед":8793,"царя":8794,"чудов":8795,"щип":8796,"юно":8797,"ян":8798,"##ея":8799,"##рных":8800,"##нки":8801,"##нная":8802,"##тить":8803,"##вата":8804,"##кви":8805,"##ктор":8806,"##ист":8807,"##ида":8808,"##ище":8809,"##зо":8810,"##зой":8811,"##щением":8812,"##жительно":8813,"##хать":8814,"##шек":8815,"##шую":8816,"##чностью":8817,"##чест":8818,"##ченного":8819,"##ёй":8820,"##H2":8821,"##стреб":8822,"##енства":8823,"##енностью":8824,"##новой":8825,"##рого":8826,"##рови":8827,"постав":8828,"подачи":8829,"посторон":8830,"##гори":8831,"##навать":8832,"нав":8833,"нах":8834,"раско":8835,"лично":8836,"листов":8837,"невер":8838,"неисп":8839,"##нический":8840,"##ельная":8841,"кону":8842,"кожа":8843,"обвин":8844,"провоз":8845,"прорез":8846,"продав":8847,"проигры":8848,"##ляет":8849,"##мини":8850,"приказ":8851,"прицеп":8852,"##лай":8853,"##лада":8854,"отв":8855,"отре":8856,"отца":8857,"перерыв":8858,"изде":8859,"изобраз":8860,"замен":8861,"##редить":8862,"каль":8863,"какая":8864,"каса":8865,"##одерж":8866,"стри":8867,"страни":8868,"##оса":8869,"##инства":8870,"сует":8871,"судах":8872,"##изем":8873,"##лев":8874,"##нутого":8875,"меч":8876,"связанная":8877,"##ходное":8878,"##жам":8879,"##дир":8880,"вики":8881,"муль":8882,"курор":8883,"##живаться":8884,"свойственное":8885,"интим":8886,"истреб":8887,"##водейств":8888,"##честву":8889,"безуд":8890,"##мые":8891,"ругать":8892,"мач":8893,"расправ":8894,"упру":8895,"консп":8896,"##стами":8897,"ника":8898,"характерное":8899,"мировой":8900,"образующий":8901,"##ократ":8902,"резких":8903,"резкое":8904,"##уская":8905,"полужид":8906,"семи":8907,"##ёрз":8908,"выражении":8909,"пусто":8910,"пустя":8911,"бесх":8912,"боевых":8913,"главы":8914,"##летать":8915,"колёс":8916,"метров":8917,"анатоми":8918,"городов":8919,"гормо":8920,"высший":8921,"направленных":8922,"производное":8923,"геологи":8924,"слоёв":8925,"##бортный":8926,"рогат":8927,"результата":8928,"результатов":8929,"религий":8930,"##канчи":8931,"веществами":8932,"неоднок":8933,"карка":8934,"жидкого":8935,"правильно":8936,"надё":8937,"##ционного":8938,"половые":8939,"объектом":8940,"доброд":8941,"устройств":8942,"басс":8943,"вызывающее":8944,"плату":8945,"##щаяся":8946,"факульт":8947,"рассуд":8948,"обращать":8949,"широкой":8950,"образованный":8951,"парфю":8952,"экза":8953,"противодейств":8954,"войти":8955,"распространённое":8956,"содержимое":8957,"класть":8958,"шутку":8959,"##ременно":8960,"правления":8961,"белым":8962,"изменять":8963,"поступках":8964,"общим":8965,"служить":8966,"краски":8967,"управляющий":8968,"признакам":8969,"заключение":8970,"химической":8971,"алл":8972,"покло":8973,"нового":8974,"снисход":8975,"тканях":8976,"разделения":8977,"тяжел":8978,"потол":8979,"потери":8980,"свободный":8981,"сравни":8982,"коротко":8983,"нужно":8984,"нужда":8985,"главное":8986,"увеличить":8987,"смыслу":8988,"ведёт":8989,"усилия":8990,"летательного":8991,"##логии":8992,"прер":8993,"преры":8994,"радика":8995,"предприним":8996,"открытый":8997,"образующийся":8998,"крышкой":8999,"умерший":9000,"условиями":9001,"попыт":9002,"контек":9003,"защита":9004,"транспортных":9005,"грубая":9006,"молодые":9007,"служащих":9008,"культура":9009,"машинах":9010,"единицу":9011,"марш":9012,"методов":9013,"церковный":9014,"клетками":9015,"перепон":9016,"ловли":9017,"##щегося":9018,"поражение":9019,"поражения":9020,"современных":9021,"вопросов":9022,"пересека":9023,"пользователя":9024,"##графический":9025,"компьютера":9026,"разрушения":9027,"возбуждения":9028,"импресси":9029,"глубоко":9030,"руководство":9031,"закрепления":9032,"принятый":9033,"кровь":9034,"планеты":9035,"уровне":9036,"шерстя":9037,"одинаковых":9038,"оставить":9039,"ошибка":9040,"коллектива":9041,"Интер":9042,"определяемый":9043,"диапа":9044,"тепло":9045,"ягод":9046,"услугу":9047,"домашнего":9048,"оборудования":9049,"##ящееся":9050,"сигнал":9051,"насып":9052,"распределения":9053,"средневековой":9054,"конструкция":9055,"азбу":9056,"показатель":9057,"крепости":9058,"проверки":9059,"глагола":9060,"субъект":9061,"красивый":9062,"уважения":9063,"хитрый":9064,"евре":9065,"пятьдесят":9066,"игрока":9067,"глины":9068,"механизмов":9069,"товари":9070,"клювом":9071,"остаток":9072,"зимой":9073,"питья":9074,"принципов":9075,"обоснов":9076,"кольцо":9077,"четвёр":9078,"философское":9079,"шахмат":9080,"разговоры":9081,"устранить":9082,"окуты":9083,"упаков":9084,"упадок":9085,"постройки":9086,"тёплая":9087,"несогласов":9088,"устроить":9089,"испускать":9090,"невосп":9091,"дробления":9092,"обстановке":9093,"собака":9094,"объёме":9095,"объёму":9096,"словосочетание":9097,"обрабаты":9098,"обрабатывать":9099,"десять":9100,"Египте":9101,"крити":9102,"фруктов":9103,"предусматри":9104,"наличии":9105,"интеллек":9106,"приборов":9107,"Канады":9108,"теории":9109,"обиход":9110,"обыденный":9111,"отвратительный":9112,"спрят":9113,"опьянения":9114,"непринужд":9115,"войсках":9116,"говорящий":9117,"Центральной":9118,"фальши":9119,"##хоронения":9120,"щеко":9121,"опорой":9122,"британ":9123,"обувь":9124,"мировоззр":9125,"бассей":9126,"парфюмер":9127,"Ал":9128,"Дне":9129,"Моск":9130,"Со":9131,"Ст":9132,"Ура":9133,"Чёр":9134,"бю":9135,"бат":9136,"бит":9137,"бред":9138,"блу":9139,"вбли":9140,"входящий":9141,"вину":9142,"входить":9143,"входящее":9144,"дна":9145,"ей":9146,"зелен":9147,"ини":9148,"лей":9149,"мать":9150,"мерт":9151,"ова":9152,"остан":9153,"ср":9154,"сли":9155,"сез":9156,"слю":9157,"сбли":9158,"сжим":9159,"сечения":9160,"уско":9161,"улов":9162,"уса":9163,"фан":9164,"фрон":9165,"хал":9166,"хреб":9167,"хвой":9168,"хрони":9169,"ценных":9170,"чек":9171,"чере":9172,"шат":9173,"шесть":9174,"эм":9175,"ядер":9176,"ястреб":9177,"##лку":9178,"##лёт":9179,"##евого":9180,"##ыду":9181,"##твор":9182,"##вез":9183,"##уми":9184,"##жек":9185,"##шеб":9186,"##гар":9187,"##глуб":9188,"##данный":9189,"##даться":9190,"##пар":9191,"##ченной":9192,"##стным":9193,"##стник":9194,"##еный":9195,"##роди":9196,"##рождения":9197,"полю":9198,"поуч":9199,"##кообразных":9200,"##расы":9201,"настав":9202,"наряду":9203,"раб":9204,"ракет":9205,"лин":9206,"личность":9207,"##сями":9208,"##рие":9209,"##олос":9210,"##олез":9211,"##кавказ":9212,"необразов":9213,"##ворот":9214,"##ельное":9215,"##ельца":9216,"коша":9217,"разрез":9218,"обру":9219,"общения":9220,"обратно":9221,"приб":9222,"приц":9223,"причина":9224,"приносить":9225,"природе":9226,"отмен":9227,"первого":9228,"изоля":9229,"измель":9230,"замыслов":9231,"##стья":9232,"вороб":9233,"##тический":9234,"выбо":9235,"выдви":9236,"##ваивать":9237,"##спех":9238,"стене":9239,"##вицы":9240,"##омн":9241,"##омя":9242,"##мез":9243,"##има":9244,"предыду":9245,"##луа":9246,"свя":9247,"талии":9248,"##мано":9249,"подним":9250,"поднима":9251,"подстре":9252,"действу":9253,"действует":9254,"##ательств":9255,"осмотр":9256,"осведом":9257,"##европ":9258,"##жалу":9259,"опоз":9260,"##дид":9261,"обычного":9262,"преобраз":9263,"преврат":9264,"куча":9265,"жилое":9266,"тона":9267,"точек":9268,"свойственно":9269,"##ленными":9270,"напро":9271,"безд":9272,"бездейств":9273,"непроиз":9274,"грудной":9275,"вег":9276,"кондит":9277,"произнести":9278,"больных":9279,"мини":9280,"крае":9281,"растительного":9282,"резь":9283,"служи":9284,"веры":9285,"##зовой":9286,"основанные":9287,"##ящей":9288,"бессты":9289,"уменьшение":9290,"небом":9291,"колю":9292,"##ализма":9293,"##ствует":9294,"некоего":9295,"небольшом":9296,"диф":9297,"дуэ":9298,"предметами":9299,"назем":9300,"названий":9301,"страстный":9302,"искрив":9303,"старой":9304,"городу":9305,"системах":9306,"языком":9307,"чувстве":9308,"трубка":9309,"геро":9310,"учащихся":9311,"##провод":9312,"##видеть":9313,"##ждает":9314,"неодно":9315,"ложь":9316,"поместить":9317,"самод":9318,"ваку":9319,"повяз":9320,"туал":9321,"держать":9322,"путей":9323,"скорост":9324,"195":9325,"различной":9326,"различными":9327,"волшеб":9328,"углом":9329,"серый":9330,"покрывающий":9331,"русск":9332,"увес":9333,"трава":9334,"остаться":9335,"самоот":9336,"употребляемая":9337,"употребляемые":9338,"особыми":9339,"допуска":9340,"верхний":9341,"толков":9342,"толстая":9343,"толкование":9344,"необуз":9345,"кип":9346,"воздушной":9347,"стиму":9348,"окружности":9349,"белок":9350,"##росить":9351,"ранга":9352,"изображением":9353,"функция":9354,"отличающаяся":9355,"которыми":9356,"лёгких":9357,"автомобилей":9358,"члена":9359,"##чести":9360,"дороги":9361,"письме":9362,"ударяя":9363,"усилий":9364,"исполнитель":9365,"исполненный":9366,"##актив":9367,"столб":9368,"симмет":9369,"напоминает":9370,"нарушать":9371,"испытывая":9372,"получаемая":9373,"скрывать":9374,"катор":9375,"##служ":9376,"применяемое":9377,"множестве":9378,"религиозное":9379,"религиозного":9380,"существованию":9381,"конечности":9382,"холодным":9383,"греческой":9384,"древнегреческий":9385,"мягкой":9386,"обработкой":9387,"умно":9388,"служащие":9389,"реклам":9390,"оружии":9391,"канц":9392,"кандид":9393,"ответственность":9394,"актё":9395,"появиться":9396,"техническое":9397,"опуск":9398,"григори":9399,"песноп":9400,"приятно":9401,"молодая":9402,"эмоции":9403,"электрический":9404,"электрической":9405,"взглядах":9406,"охотни":9407,"современного":9408,"жизнью":9409,"горизонтальной":9410,"доска":9411,"подобных":9412,"преследов":9413,"##чивости":9414,"структуру":9415,"художественного":9416,"очищать":9417,"печь":9418,"назначенный":9419,"государственная":9420,"импуль":9421,"проникать":9422,"переноски":9423,"освобождение":9424,"освободить":9425,"праздника":9426,"отождеств":9427,"площадь":9428,"оказывать":9429,"оказывающий":9430,"крестьянин":9431,"моральное":9432,"персонажа":9433,"Востоке":9434,"выгоды":9435,"картоф":9436,"удовлетворя":9437,"влияние":9438,"влияния":9439,"ягоды":9440,"свето":9441,"необыкнов":9442,"располагать":9443,"оборудованное":9444,"ограничений":9445,"позволяющий":9446,"Казах":9447,"##era":9448,"фигуры":9449,"механизмах":9450,"владение":9451,"случайно":9452,"транспорти":9453,"борьбе":9454,"ширину":9455,"обитающий":9456,"прибыль":9457,"требу":9458,"золото":9459,"пренебрежение":9460,"неразбер":9461,"стеклян":9462,"серов":9463,"вероуч":9464,"пластинка":9465,"неспособный":9466,"эпохи":9467,"вводн":9468,"заряда":9469,"срока":9470,"придвор":9471,"товары":9472,"ухаживать":9473,"опытный":9474,"утверждение":9475,"богослужения":9476,"искаж":9477,"точку":9478,"квадрат":9479,"лепё":9480,"сотрудник":9481,"монастыря":9482,"распада":9483,"воздушного":9484,"убийство":9485,"Толкование":9486,"недовольство":9487,"недовольства":9488,"индуизме":9489,"упомин":9490,"1920":9491,"мероприятий":9492,"расширение":9493,"бактерий":9494,"Петербурга":9495,"шкур":9496,"великолеп":9497,"приблизительно":9498,"фосфор":9499,"стихий":9500,"пруть":9501,"линию":9502,"исламе":9503,"паразит":9504,"археол":9505,"##aria":9506,"авторитет":9507,"XIII":9508,"двена":9509,"кинем":9510,"подозр":9511,"индоевроп":9512,"середины":9513,"равномерно":9514,"ауди":9515,"аминокис":9516,"оснащённый":9517,"скелета":9518,"кустарниковое":9519,"чешу":9520,"пищев":9521,"эксплуатации":9522,"Чехии":9523,"тарел":9524,"курьер":9525,"серьёз":9526,"вспомог":9527,"происшествие":9528,"далеко":9529,"вблизи":9530,"кондитер":9531,"Ат":9532,"Азер":9533,"Би":9534,"Бого":9535,"Вен":9536,"Дон":9537,"бара":9538,"благ":9539,"вдов":9540,"вглуб":9541,"дни":9542,"длина":9543,"ес":9544,"егип":9545,"ико":9546,"кред":9547,"ля":9548,"они":9549,"оказать":9550,"олиц":9551,"пен":9552,"петь":9553,"скуп":9554,"ца":9555,"чван":9556,"шта":9557,"шлю":9558,"шпи":9559,"штра":9560,"эми":9561,"##ег":9562,"##еда":9563,"##ается":9564,"##нд":9565,"##очный":9566,"##ывание":9567,"##тся":9568,"##ванный":9569,"##кса":9570,"##ики":9571,"##иной":9572,"##йста":9573,"##мор":9574,"##мба":9575,"##щению":9576,"##щенное":9577,"##яют":9578,"##житься":9579,"##цек":9580,"##гим":9581,"##гант":9582,"##гаясь":9583,"##гментов":9584,"##гательства":9585,"##пать":9586,"##ёвых":9587,"##энерги":9588,"##om":9589,"##ct":9590,"##ъём":9591,"##еней":9592,"##роса":9593,"##ерных":9594,"##анской":9595,"пова":9596,"погу":9597,"поту":9598,"побуд":9599,"поток":9600,"##кота":9601,"##лизм":9602,"##раг":9603,"##раст":9604,"##ите":9605,"##нав":9606,"надав":9607,"рак":9608,"лихо":9609,"линей":9610,"##рина":9611,"##олни":9612,"##олетов":9613,"##кар":9614,"##воно":9615,"##ниц":9616,"##ничает":9617,"сока":9618,"сопер":9619,"##анина":9620,"обли":9621,"обид":9622,"##рующих":9623,"пропа":9624,"##ейти":9625,"##льному":9626,"##арий":9627,"приме":9628,"приступ":9629,"отказы":9630,"переры":9631,"первую":9632,"перейти":9633,"##орма":9634,"изнач":9635,"изви":9636,"изги":9637,"изгиб":9638,"##стьем":9639,"вон":9640,"каб":9641,"кафе":9642,"выти":9643,"выходящий":9644,"выводить":9645,"выдум":9646,"##вающееся":9647,"##спер":9648,"##споло":9649,"стены":9650,"значительной":9651,"##ослед":9652,"##ези":9653,"суда":9654,"суждение":9655,"##иза":9656,"спира":9657,"##менте":9658,"подве":9659,"подходящий":9660,"поджар":9661,"подросток":9662,"##чиками":9663,"донос":9664,"##мур":9665,"##лова":9666,"##ровании":9667,"##нях":9668,"опи":9669,"оправ":9670,"##елия":9671,"##алки":9672,"##сид":9673,"##защ":9674,"##делывать":9675,"##сох":9676,"##созн":9677,"проступ":9678,"инстин":9679,"напечат":9680,"##вета":9681,"совпа":9682,"имевшее":9683,"глю":9684,"безлич":9685,"безуча":9686,"##ственными":9687,"##ственную":9688,"моча":9689,"собрать":9690,"компа":9691,"груза":9692,"веках":9693,"раски":9694,"произношения":9695,"##ренных":9696,"медвед":9697,"##крылое":9698,"плодами":9699,"краю":9700,"слуга":9701,"состоянию":9702,"обога":9703,"оборон":9704,"военное":9705,"военного":9706,"основанное":9707,"##женного":9708,"пучок":9709,"бесстра":9710,"переставать":9711,"животные":9712,"чугу":9713,"бояз":9714,"древности":9715,"древнего":9716,"скло":9717,"##аха":9718,"динами":9719,"диван":9720,"духа":9721,"сторонами":9722,"назой":9723,"страха":9724,"высоту":9725,"языковой":9726,"направлений":9727,"цвете":9728,"составная":9729,"производя":9730,"производстве":9731,"видеть":9732,"сложи":9733,"черты":9734,"##бище":9735,"желанию":9736,"##ваемом":9737,"однолетнее":9738,"карбо":9739,"правильный":9740,"надоб":9741,"запут":9742,"запечат":9743,"общество":9744,"проявляющий":9745,"повел":9746,"объекты":9747,"туск":9748,"туча":9749,"соединяющий":9750,"удаление":9751,"признать":9752,"музыке":9753,"##волаки":9754,"рассказывать":9755,"крип":9756,"покрытие":9757,"кресто":9758,"прядей":9759,"торг":9760,"парла":9761,"интерфей":9762,"крайнее":9763,"женщинам":9764,"отсутствия":9765,"водной":9766,"##ционального":9767,"распространённая":9768,"##ытный":9769,"правый":9770,"механическое":9771,"изменением":9772,"противопо":9773,"культа":9774,"травы":9775,"бесполез":9776,"##атике":9777,"неприятные":9778,"##нистер":9779,"новых":9780,"собственного":9781,"организацию":9782,"соглашения":9783,"согласия":9784,"отделение":9785,"находясь":9786,"смеяться":9787,"легковой":9788,"территорий":9789,"элемента":9790,"носа":9791,"периодически":9792,"движениях":9793,"членом":9794,"участков":9795,"нужного":9796,"достигать":9797,"говорящего":9798,"законом":9799,"неумест":9800,"научно":9801,"подвергаться":9802,"обязательно":9803,"металлической":9804,"синд":9805,"склонностью":9806,"столкнов":9807,"расположенными":9808,"энергию":9809,"нарушением":9810,"образующая":9811,"программой":9812,"кислорода":9813,"применяемая":9814,"##русского":9815,"человеческого":9816,"презрение":9817,"существовавший":9818,"##ландии":9819,"##скад":9820,"необходимость":9821,"торговое":9822,"торговец":9823,"курс":9824,"просве":9825,"научных":9826,"моды":9827,"канат":9828,"порядку":9829,"порядком":9830,"появля":9831,"потока":9832,"национальное":9833,"суммы":9834,"сумато":9835,"опускать":9836,"чёрного":9837,"методом":9838,"песка":9839,"предлогом":9840,"церковью":9841,"окраски":9842,"возникновения":9843,"##етический":9844,"будущее":9845,"##лавянской":9846,"наружная":9847,"совершающийся":9848,"дополнительное":9849,"взгляд":9850,"медицины":9851,"священно":9852,"пользования":9853,"артисти":9854,"структуре":9855,"##бираться":9856,"противоположность":9857,"спиртов":9858,"освобождать":9859,"дворе":9860,"плане":9861,"первонач":9862,"шерстью":9863,"прямого":9864,"оставлять":9865,"письменности":9866,"насилие":9867,"православного":9868,"влечения":9869,"лучей":9870,"определяемая":9871,"диаг":9872,"##lan":9873,"славянских":9874,"тепла":9875,"ягоди":9876,"зависимость":9877,"повторять":9878,"шумом":9879,"повреждение":9880,"оборудованный":9881,"предшеству":9882,"выбран":9883,"память":9884,"переживаний":9885,"несуществ":9886,"езды":9887,"глаголом":9888,"небесного":9889,"атомов":9890,"доставляющий":9891,"излучение":9892,"устраивать":9893,"сферы":9894,"начинать":9895,"обитающая":9896,"##ющемся":9897,"расходовать":9898,"затруднение":9899,"яйцек":9900,"традиционный":9901,"шеей":9902,"цепи":9903,"стержня":9904,"выступающий":9905,"смешное":9906,"неблаговид":9907,"категории":9908,"оперением":9909,"партий":9910,"испытать":9911,"именем":9912,"приправа":9913,"огнестрельное":9914,"кольца":9915,"признание":9916,"включающая":9917,"проявляющийся":9918,"отказаться":9919,"табака":9920,"заострённый":9921,"зданий":9922,"непрерывно":9923,"атмосф":9924,"блеском":9925,"дурной":9926,"палеонт":9927,"служебное":9928,"отступление":9929,"вынужд":9930,"смуг":9931,"окончательно":9932,"судьба":9933,"позднее":9934,"сопротивление":9935,"господству":9936,"посещение":9937,"слыш":9938,"старая":9939,"стараясь":9940,"насильственно":9941,"Египта":9942,"великорусского":9943,"смотреть":9944,"рисунком":9945,"регулярно":9946,"пшеницы":9947,"прежнее":9948,"подош":9949,"сообщить":9950,"Пожалу":9951,"втори":9952,"##rag":9953,"костюм":9954,"восклиц":9955,"бесцветная":9956,"Даля":9957,"крупнейший":9958,"двойной":9959,"хруп":9960,"##авшаяся":9961,"пристрастие":9962,"требований":9963,"тюркских":9964,"Красно":9965,"зауряд":9966,"обременитель":9967,"кирилли":9968,"брусьев":9969,"атома":9970,"##производ":9971,"амплуа":9972,"хлопчатобумажная":9973,"ногой":9974,"улыб":9975,"факультет":9976,"усадь":9977,"кинемато":9978,"Библи":9979,"вглубь":9980,"если":9981,"олицет":9982,"Пожалуйста":9983,"22":9984,"200":9985,"Алек":9986,"Воро":9987,"Ку":9988,"Миха":9989,"Слов":9990,"алю":9991,"бего":9992,"боло":9993,"вр":9994,"впад":9995,"втор":9996,"вводить":9997,"вставля":9998,"гной":9999,"гну":10000,"дека":10001,"ею":10002,"жем":10003,"зато":10004,"лав":10005,"мм":10006,"мем":10007,"острая":10008,"пед":10009,"пуль":10010,"сар":10011,"сле":10012,"сфер":10013,"тут":10014,"теч":10015,"тром":10016,"трю":10017,"течением":10018,"улич":10019,"угла":10020,"уехать":10021,"хро":10022,"храб":10023,"хора":10024,"шоро":10025,"шоко":10026,"щего":10027,"##сная":10028,"##аны":10029,"##американ":10030,"##осп":10031,"##бное":10032,"##ывая":10033,"##тв":10034,"##тка":10035,"##тей":10036,"##влад":10037,"##зить":10038,"##зания":10039,"##миться":10040,"##яной":10041,"##яществ":10042,"##жие":10043,"##жному":10044,"##хма":10045,"##шенных":10046,"##дкой":10047,"##дотвор":10048,"##пут":10049,"##чении":10050,"##ченные":10051,"##ea":10052,"##10":10053,"##стий":10054,"##роят":10055,"##ропо":10056,"##анка":10057,"поступа":10058,"##овые":10059,"##наб":10060,"нака":10061,"наём":10062,"наряд":10063,"наконе":10064,"рама":10065,"личной":10066,"##рист":10067,"##тость":10068,"нежи":10069,"недов":10070,"##етии":10071,"соч":10072,"соли":10073,"сойти":10074,"костя":10075,"разры":10076,"разма":10077,"разному":10078,"размыш":10079,"обма":10080,"провед":10081,"прогу":10082,"проходить":10083,"пропов":10084,"##ляция":10085,"##мизм":10086,"##арной":10087,"приют":10088,"приносящий":10089,"##ласти":10090,"##лакти":10091,"отста":10092,"перели":10093,"перьев":10094,"##стившийся":10095,"израс":10096,"изяществ":10097,"загра":10098,"заинтересов":10099,"##едение":10100,"вода":10101,"##тиями":10102,"каш":10103,"##стороп":10104,"выговор":10105,"вычур":10106,"ставший":10107,"стяги":10108,"##екать":10109,"##ительному":10110,"значительно":10111,"суть":10112,"сумас":10113,"##скание":10114,"предъяв":10115,"спуска":10116,"таб":10117,"##нутыми":10118,"подня":10119,"подставка":10120,"##чивание":10121,"достой":10122,"##кур":10123,"меж":10124,"мешок":10125,"##ательному":10126,"##ательница":10127,"##жают":10128,"##няк":10129,"##альности":10130,"##размер":10131,"##мозд":10132,"жив":10133,"исполнять":10134,"##дох":10135,"инжен":10136,"##ленном":10137,"##меренно":10138,"напр":10139,"напо":10140,"орке":10141,"безнад":10142,"ручками":10143,"мотор":10144,"гости":10145,"упор":10146,"уплот":10147,"##веро":10148,"комит":10149,"##ратный":10150,"палу":10151,"пассив":10152,"##дования":10153,"краями":10154,"растер":10155,"растительных":10156,"облад":10157,"областях":10158,"лап":10159,"резким":10160,"резины":10161,"полуша":10162,"обож":10163,"основным":10164,"основные":10165,"положений":10166,"##женность":10167,"##ящем":10168,"##бые":10169,"##бым":10170,"чушь":10171,"полном":10172,"боя":10173,"дежур":10174,"способным":10175,"учитель":10176,"названия":10177,"страдает":10178,"используемых":10179,"стадии":10180,"звуко":10181,"взве":10182,"созвез":10183,"трудный":10184,"качествам":10185,"геод":10186,"участь":10187,"##ладить":10188,"частоты":10189,"родственных":10190,"поэзии":10191,"##щает":10192,"##ждающее":10193,"землёй":10194,"локомо":10195,"многолетних":10196,"запре":10197,"важней":10198,"общественный":10199,"общественная":10200,"психологи":10201,"строения":10202,"строитель":10203,"соединений":10204,"соединительной":10205,"соединяющая":10206,"искусственно":10207,"держаться":10208,"вызыва":10209,"##гревать":10210,"рассмотр":10211,"имён":10212,"волно":10213,"низших":10214,"равни":10215,"партия":10216,"внести":10217,"толще":10218,"экск":10219,"головой":10220,"водка":10221,"водитель":10222,"стиля":10223,"народных":10224,"##ушка":10225,"специализиру":10226,"содержит":10227,"содержимого":10228,"##ременный":10229,"принадлежит":10230,"использованию":10231,"разнородных":10232,"затра":10233,"затвер":10234,"затяги":10235,"внешности":10236,"весной":10237,"применении":10238,"неограни":10239,"музыкальных":10240,"отверстий":10241,"ранить":10242,"тонких":10243,"ветром":10244,"смело":10245,"противов":10246,"противник":10247,"##лённо":10248,"##лённым":10249,"восточном":10250,"перемещая":10251,"огнём":10252,"соглашение":10253,"тяжёл":10254,"тяжело":10255,"счит":10256,"нарком":10257,"холста":10258,"##грамма":10259,"вниманием":10260,"нумизм":10261,"населённый":10262,"главная":10263,"законов":10264,"частый":10265,"частям":10266,"циви":10267,"идеологи":10268,"норм":10269,"органами":10270,"вплот":10271,"ощущении":10272,"металлические":10273,"задней":10274,"чувствами":10275,"синий":10276,"##ходящие":10277,"интереса":10278,"выполненный":10279,"нарушения":10280,"образующаяся":10281,"нейро":10282,"скрытно":10283,"старший":10284,"яркий":10285,"измеря":10286,"социальное":10287,"годы":10288,"религиозных":10289,"пыли":10290,"человеческой":10291,"конечная":10292,"объединения":10293,"врага":10294,"торговая":10295,"умение":10296,"рекла":10297,"трикота":10298,"природный":10299,"странный":10300,"техники":10301,"крепления":10302,"последний":10303,"последствия":10304,"надевать":10305,"национальный":10306,"национальной":10307,"чрезмерный":10308,"фотос":10309,"##лотить":10310,"сопровождающийся":10311,"бедность":10312,"оценку":10313,"приятного":10314,"известный":10315,"нравственные":10316,"нравственности":10317,"успеш":10318,"мышления":10319,"ремень":10320,"##rid":10321,"краткий":10322,"преслед":10323,"##испуск":10324,"судне":10325,"патро":10326,"##графическое":10327,"структура":10328,"напряжения":10329,"нижнего":10330,"естественный":10331,"естественных":10332,"приёмов":10333,"возбуждать":10334,"противоположной":10335,"подвижный":10336,"подвижная":10337,"операций":10338,"##логов":10339,"плотный":10340,"регионе":10341,"аппаратов":10342,"подчиня":10343,"подчинить":10344,"одинаково":10345,"##культур":10346,"вертикальный":10347,"вертикального":10348,"ошибо":10349,"армиях":10350,"обеспечивающее":10351,"##фори":10352,"капю":10353,"##ирации":10354,"замеш":10355,"замеч":10356,"гибели":10357,"давлением":10358,"##ателю":10359,"гражданских":10360,"потерять":10361,"изделиях":10362,"выгода":10363,"температуре":10364,"Средизем":10365,"алкогольных":10366,"подразуме":10367,"услуг":10368,"неожиданный":10369,"нервных":10370,"чужие":10371,"необычный":10372,"молекула":10373,"поручения":10374,"военнослужащих":10375,"колебания":10376,"##кладка":10377,"сигнала":10378,"невероят":10379,"заглу":10380,"борьбы":10381,"туловищем":10382,"барх":10383,"прибыли":10384,"движущийся":10385,"мусульманских":10386,"понятия":10387,"##графия":10388,"указывает":10389,"примеры":10390,"ствола":10391,"проживающий":10392,"гладкий":10393,"комнат":10394,"французского":10395,"мерз":10396,"снова":10397,"стесн":10398,"##щимися":10399,"сыпучее":10400,"воспроизведения":10401,"северной":10402,"месяца":10403,"наркотиков":10404,"эмоционально":10405,"вечер":10406,"богиня":10407,"сплошной":10408,"допусти":10409,"скандал":10410,"ассо":10411,"блоки":10412,"изогнутый":10413,"извлечь":10414,"английское":10415,"издаваемый":10416,"полномо":10417,"казачьих":10418,"непонятное":10419,"отвеча":10420,"отвечающий":10421,"вынудить":10422,"взаимодействия":10423,"состязания":10424,"орехов":10425,"исчезнуть":10426,"умеющий":10427,"тупой":10428,"классу":10429,"подвергнутый":10430,"изоби":10431,"вовле":10432,"плетё":10433,"шнур":10434,"однокр":10435,"хваст":10436,"вершиной":10437,"контакт":10438,"вместилище":10439,"ядовитый":10440,"совершил":10441,"темпера":10442,"возможностей":10443,"звезда":10444,"звезды":10445,"сострадание":10446,"задач":10447,"неповорот":10448,"кровеносных":10449,"стандарт":10450,"сцены":10451,"манипу":10452,"взаимоот":10453,"космический":10454,"творо":10455,"хватать":10456,"статус":10457,"договора":10458,"соприкос":10459,"процедура":10460,"запряж":10461,"противоречие":10462,"пепла":10463,"поводу":10464,"мочеиспуск":10465,"отведённое":10466,"звучания":10467,"обеспечить":10468,"тростника":10469,"бакалав":10470,"православии":10471,"видоизмен":10472,"Ветх":10473,"Иисуса":10474,"шкаф":10475,"##ротехни":10476,"отобрать":10477,"микроорганизмов":10478,"дрянной":10479,"лезви":10480,"федер":10481,"отвеч":10482,"неоднократно":10483,"диапаз":10484,"интеллекту":10485,"воробьи":10486,"непроизв":10487,"григорианском":10488,"упоминании":10489,"Азербайдж":10490,"штраф":10491,"пропаган":10492,"безличн":10493,"Библии":10494,"вплотную":10495,"Бу":10496,"Ва":10497,"Влади":10498,"Даль":10499,"Ев":10500,"Лю":10501,"Спис":10502,"Тих":10503,"Швей":10504,"Юго":10505,"бри":10506,"бальный":10507,"веб":10508,"вносить":10509,"влюб":10510,"всад":10511,"гвар":10512,"данный":10513,"звания":10514,"зату":10515,"ирони":10516,"кер":10517,"кля":10518,"крот":10519,"кван":10520,"лени":10521,"лить":10522,"пани":10523,"пении":10524,"плен":10525,"пьян":10526,"сж":10527,"сд":10528,"ски":10529,"сзади":10530,"удел":10531,"умы":10532,"уклад":10533,"фу":10534,"флаг":10535,"хот":10536,"чеп":10537,"шур":10538,"эли":10539,"юли":10540,"южном":10541,"##нно":10542,"##нди":10543,"##бно":10544,"##тека":10545,"##вели":10546,"##иных":10547,"##мь":10548,"##манный":10549,"##щание":10550,"##щений":10551,"##юю":10552,"##юта":10553,"##жок":10554,"##цел":10555,"##шении":10556,"##шись":10557,"##гани":10558,"##дена":10559,"##подоб":10560,"##чо":10561,"##чёмный":10562,"##oc":10563,"##ula":10564,"##АЗ":10565,"##сте":10566,"##стная":10567,"##ститься":10568,"##стеро":10569,"##енство":10570,"##ровая":10571,"##росами":10572,"пом":10573,"пох":10574,"подавать":10575,"пориц":10576,"похва":10577,"##атым":10578,"##лирующий":10579,"##овый":10580,"нару":10581,"нажи":10582,"нанос":10583,"нажим":10584,"накладывать":10585,"##еми":10586,"##кации":10587,"неда":10588,"##нием":10589,"##ничества":10590,"кожей":10591,"раза":10592,"разб":10593,"разоб":10594,"разбить":10595,"обшир":10596,"облега":10597,"облик":10598,"##рующая":10599,"прок":10600,"прохо":10601,"пробить":10602,"##ляются":10603,"##лаживать":10604,"отмет":10605,"отбор":10606,"отряд":10607,"первой":10608,"##лоид":10609,"изд":10610,"изящ":10611,"издания":10612,"заде":10613,"завод":10614,"зажим":10615,"задачи":10616,"завоев":10617,"вожд":10618,"кажду":10619,"капри":10620,"выходить":10621,"выгляд":10622,"##вален":10623,"стали":10624,"длящийся":10625,"значений":10626,"значимости":10627,"значимость":10628,"##иев":10629,"суев":10630,"##аву":10631,"##авшего":10632,"##изму":10633,"свеч":10634,"спину":10635,"справо":10636,"##лежа":10637,"подра":10638,"подру":10639,"подар":10640,"подвес":10641,"##чивым":10642,"доспех":10643,"##мую":10644,"##такси":10645,"##ждённое":10646,"##ловая":10647,"##новые":10648,"##ательными":10649,"##ровке":10650,"##евший":10651,"опред":10652,"сили":10653,"##дист":10654,"преда":10655,"виды":10656,"вирус":10657,"муску":10658,"существует":10659,"##гал":10660,"куски":10661,"жилой":10662,"##нец":10663,"тождеств":10664,"испражн":10665,"инст":10666,"##сах":10667,"##честве":10668,"безза":10669,"руку":10670,"ручной":10671,"спешке":10672,"моч":10673,"мороз":10674,"упу":10675,"упомя":10676,"формен":10677,"формов":10678,"веки":10679,"конь":10680,"конфи":10681,"рассып":10682,"##епти":10683,"нику":10684,"##ратор":10685,"падать":10686,"больного":10687,"плоская":10688,"бывший":10689,"милый":10690,"министер":10691,"слух":10692,"слуш":10693,"получение":10694,"семей":10695,"делая":10696,"основу":10697,"полосы":10698,"##зированный":10699,"крупа":10700,"слове":10701,"высокая":10702,"##тун":10703,"колдов":10704,"##алитель":10705,"##ализации":10706,"способностями":10707,"небольшие":10708,"учения":10709,"учёта":10710,"дующий":10711,"стороной":10712,"семейство":10713,"страсти":10714,"антен":10715,"##ворить":10716,"использующийся":10717,"билет":10718,"направленное":10719,"цветами":10720,"труба":10721,"производится":10722,"усвоить":10723,"участвовать":10724,"морская":10725,"родах":10726,"##бирая":10727,"исступ":10728,"родителей":10729,"##щающийся":10730,"карта":10731,"совершении":10732,"##ироваться":10733,"многочис":10734,"запрет":10735,"вала":10736,"важничать":10737,"помогать":10738,"добиваться":10739,"занимающееся":10740,"рыбол":10741,"рыцар":10742,"турец":10743,"лингвисти":10744,"соединении":10745,"искусно":10746,"искусством":10747,"искусственное":10748,"узел":10749,"целый":10750,"целена":10751,"сково":10752,"масла":10753,"##страция":10754,"факты":10755,"осуществлению":10756,"русском":10757,"крест":10758,"##инами":10759,"автомат":10760,"влага":10761,"стон":10762,"стока":10763,"стоящий":10764,"знающий":10765,"широкого":10766,"даваемое":10767,"##ьям":10768,"пласт":10769,"особых":10770,"особенность":10771,"специальным":10772,"специальными":10773,"##рушка":10774,"допуская":10775,"толстым":10776,"##циальный":10777,"почит":10778,"крайнего":10779,"корень":10780,"совокупности":10781,"отсутствии":10782,"водных":10783,"треть":10784,"народной":10785,"внутренние":10786,"формах":10787,"страдать":10788,"принадлежности":10789,"типи":10790,"изменений":10791,"использовании":10792,"свете":10793,"теоре":10794,"выражающая":10795,"губы":10796,"густая":10797,"утеп":10798,"рану":10799,"сочетаниях":10800,"запаса":10801,"соответствующих":10802,"алка":10803,"тонкие":10804,"покере":10805,"##ителю":10806,"несомн":10807,"##лённого":10808,"снижение":10809,"восточных":10810,"собственными":10811,"отделить":10812,"раздела":10813,"разделить":10814,"денежный":10815,"денежные":10816,"физического":10817,"хорошее":10818,"незаму":10819,"играет":10820,"движениями":10821,"участке":10822,"хранение":10823,"угощение":10824,"цикли":10825,"##лярный":10826,"заняти":10827,"идеология":10828,"неувер":10829,"неустой":10830,"чистым":10831,"предоставление":10832,"подверженный":10833,"##стройка":10834,"духовных":10835,"столяр":10836,"симво":10837,"история":10838,"напоминающие":10839,"открытой":10840,"стремиться":10841,"жад":10842,"катали":10843,"кислород":10844,"формулой":10845,"##мотра":10846,"умерших":10847,"генер":10848,"пыш":10849,"человечества":10850,"анализ":10851,"преступной":10852,"зрели":10853,"грехов":10854,"озера":10855,"длину":10856,"учебный":10857,"делающий":10858,"курить":10859,"закрыть":10860,"закрывающий":10861,"модель":10862,"ответственности":10863,"хозяйство":10864,"потоков":10865,"кусочек":10866,"методы":10867,"христианского":10868,"готовности":10869,"песня":10870,"##турное":10871,"предлог":10872,"сопровождаемое":10873,"окраской":10874,"возникшее":10875,"известных":10876,"решёт":10877,"любом":10878,"деревянных":10879,"тайный":10880,"тайком":10881,"совершаемом":10882,"ремонта":10883,"##угольный":10884,"концерт":10885,"причину":10886,"вопросы":10887,"подобный":10888,"подобие":10889,"пользоваться":10890,"печать":10891,"электромаг":10892,"разрушение":10893,"уничтожение":10894,"активности":10895,"проникновение":10896,"принятии":10897,"достоинство":10898,"спирта":10899,"работает":10900,"##культу":10901,"потребность":10902,"потребностей":10903,"насилия":10904,"удовольствия":10905,"древесина":10906,"православной":10907,"дыхание":10908,"практика":10909,"##фикация":10910,"карточной":10911,"карточная":10912,"влиянию":10913,"царства":10914,"возникающий":10915,"указанного":10916,"светом":10917,"углерода":10918,"абс":10919,"нежелательного":10920,"независимый":10921,"прикреплять":10922,"Касп":10923,"сходного":10924,"памят":10925,"принудить":10926,"заметить":10927,"обладающая":10928,"наблюдателя":10929,"подсем":10930,"препятству":10931,"препятствие":10932,"пальто":10933,"доставить":10934,"доставлять":10935,"красиво":10936,"опасности":10937,"компьютерная":10938,"распоряд":10939,"необходимых":10940,"хитро":10941,"короля":10942,"прибыть":10943,"выражениях":10944,"шею":10945,"рукавов":10946,"гладкой":10947,"играть":10948,"правительства":10949,"беспорядочное":10950,"остатков":10951,"помещений":10952,"громозд":10953,"размель":10954,"солнце":10955,"эмоциональное":10956,"обусловленный":10957,"парусное":10958,"несчастье":10959,"основой":10960,"превращать":10961,"проявляющееся":10962,"золота":10963,"##лизировать":10964,"трубки":10965,"ненорма":10966,"цитата":10967,"выразить":10968,"конкретного":10969,"фильм":10970,"протекающий":10971,"протекающая":10972,"впада":10973,"угрозы":10974,"супру":10975,"счастье":10976,"постройка":10977,"покойник":10978,"ближай":10979,"жердей":10980,"##дцати":10981,"социол":10982,"преодоле":10983,"погребения":10984,"последующей":10985,"невысокая":10986,"библейск":10987,"сколько":10988,"еврейского":10989,"удивление":10990,"календарях":10991,"европейской":10992,"складывать":10993,"железнодорожных":10994,"соревнования":10995,"желудка":10996,"желудок":10997,"отклонение":10998,"изобрет":10999,"изысканный":11000,"замуж":11001,"вытес":11002,"никчёмный":11003,"поклонник":11004,"оценивать":11005,"##ражняться":11006,"негодяй":11007,"тысяч":11008,"фразе":11009,"самим":11010,"примесей":11011,"Национального":11012,"ожидаемого":11013,"драгоценный":11014,"тихо":11015,"припасы":11016,"забыть":11017,"преоблад":11018,"возвышение":11019,"несерьёзный":11020,"незаметно":11021,"серебряная":11022,"сверхъестественное":11023,"мрачный":11024,"эстрадной":11025,"кавалерии":11026,"инфра":11027,"##формации":11028,"легкомысленный":11029,"привилеги":11030,"отпечат":11031,"глубины":11032,"дружеское":11033,"отчаянный":11034,"достигший":11035,"сомнений":11036,"вооружения":11037,"расширя":11038,"недоброжел":11039,"детёныш":11040,"парнокопытное":11041,"неудоволь":11042,"конопли":11043,"орнамента":11044,"фольклоре":11045,"среда":11046,"оплодотвор":11047,"очевидный":11048,"телефону":11049,"египетской":11050,"неудоб":11051,"рефлек":11052,"случаях":11053,"сшитый":11054,"сжигания":11055,"предпочт":11056,"список":11057,"диплом":11058,"восстанавливать":11059,"вариантов":11060,"асфальта":11061,"Хабаровского":11062,"пытаться":11063,"курорт":11064,"конспирации":11065,"экзамен":11066,"маршру":11067,"неразбериха":11068,"аудио":11069,"погубить":11070,"лихора":11071,"компакт":11072,"Алекс":11073,"недовер":11074,"##сторопный":11075,"напоказ":11076,"затверде":11077,"отвечать":11078,"Список":11079,"Швейца":11080,"юлианском":11081,"каждую":11082,"целенаправ":11083,"13":11084,"50":11085,"Бли":11086,"Ко":11087,"Кар":11088,"Мек":11089,"Мон":11090,"Нового":11091,"Са":11092,"Эсто":11093,"ара":11094,"бд":11095,"брен":11096,"брез":11097,"воль":11098,"вью":11099,"гры":11100,"гвоз":11101,"гнет":11102,"дат":11103,"епи":11104,"ерун":11105,"зел":11106,"зона":11107,"нраво":11108,"оро":11109,"огла":11110,"пля":11111,"пень":11112,"ротов":11113,"смы":11114,"срез":11115,"сечение":11116,"снимать":11117,"сбрасы":11118,"сгиб":11119,"сечении":11120,"тка":11121,"тав":11122,"треп":11123,"умыш":11124,"упасть":11125,"хоре":11126,"холода":11127,"цы":11128,"шеро":11129,"эволю":11130,"юмо":11131,"южной":11132,"ям":11133,"##еров":11134,"##сон":11135,"##нных":11136,"##нцип":11137,"##бус":11138,"##бур":11139,"##ыш":11140,"##тки":11141,"##тная":11142,"##инов":11143,"##идов":11144,"##йма":11145,"##зна":11146,"##звоно":11147,"##мар":11148,"##щенных":11149,"##юма":11150,"##яд":11151,"##яющие":11152,"##жеб":11153,"##храни":11154,"##шни":11155,"##шению":11156,"##гей":11157,"##греб":11158,"##дской":11159,"##пен":11160,"##пан":11161,"##пти":11162,"##ьяв":11163,"##чеч":11164,"##чника":11165,"##ёте":11166,"##элект":11167,"##фора":11168,"##ob":11169,"##ap":11170,"##st":11171,"##ru":11172,"##стен":11173,"##ентом":11174,"##енок":11175,"##рогих":11176,"##ерем":11177,"##анс":11178,"##анки":11179,"пожи":11180,"попро":11181,"##гонять":11182,"##лизма":11183,"##боли":11184,"##больш":11185,"##рашивать":11186,"##итя":11187,"наско":11188,"наск":11189,"начи":11190,"наря":11191,"наив":11192,"наклады":11193,"наивный":11194,"лири":11195,"линий":11196,"##емы":11197,"##емыми":11198,"##тона":11199,"##точный":11200,"##кадем":11201,"нести":11202,"нева":11203,"нежный":11204,"некачеств":11205,"неестеств":11206,"##нисти":11207,"состо":11208,"соразмер":11209,"##анией":11210,"кора":11211,"кось":11212,"разо":11213,"развод":11214,"разобр":11215,"разряда":11216,"разбрасы":11217,"общая":11218,"обрет":11219,"обволаки":11220,"прочный":11221,"проходящий":11222,"простое":11223,"##льшими":11224,"##есообраз":11225,"##арного":11226,"примет":11227,"приклю":11228,"причу":11229,"прибав":11230,"причё":11231,"##лачи":11232,"отхо":11233,"оттор":11234,"##ложении":11235,"##орф":11236,"изну":11237,"изреч":11238,"зали":11239,"зало":11240,"закуп":11241,"завода":11242,"заменя":11243,"захоронения":11244,"##едать":11245,"##едения":11246,"вост":11247,"воров":11248,"вопре":11249,"##тиз":11250,"##тиях":11251,"кано":11252,"каменный":11253,"выру":11254,"выставлять":11255,"##вам":11256,"##вах":11257,"стату":11258,"##ительными":11259,"##езии":11260,"судо":11261,"сукон":11262,"##имой":11263,"##ейства":11264,"##авый":11265,"##лух":11266,"##ольная":11267,"##леб":11268,"подот":11269,"поднять":11270,"подряд":11271,"подчер":11272,"##чивое":11273,"долина":11274,"договари":11275,"##тает":11276,"##ательству":11277,"##удить":11278,"реко":11279,"##ойти":11280,"##рованию":11281,"оплаты":11282,"##альность":11283,"##еливать":11284,"силами":11285,"видах":11286,"существа":11287,"##гается":11288,"кус":11289,"куска":11290,"соотношение":11291,"жира":11292,"##нева":11293,"##невого":11294,"жены":11295,"##жигать":11296,"##живает":11297,"возму":11298,"проститут":11299,"состояний":11300,"состоящие":11301,"ручкой":11302,"моро":11303,"мочи":11304,"май":11305,"распы":11306,"такти":11307,"уподоб":11308,"соблаз":11309,"садов":11310,"грузин":11311,"произра":11312,"вслух":11313,"##рата":11314,"##арактерный":11315,"характерным":11316,"##зун":11317,"больным":11318,"больнице":11319,"плоти":11320,"плоское":11321,"плоского":11322,"средних":11323,"обладать":11324,"обладает":11325,"лак":11326,"лад":11327,"полуд":11328,"делаться":11329,"делах":11330,"военную":11331,"представить":11332,"верт":11333,"основному":11334,"основанием":11335,"выраженный":11336,"##ентный":11337,"полорогих":11338,"##зив":11339,"##речье":11340,"бессозн":11341,"переживать":11342,"уменьшить":11343,"бока":11344,"бобов":11345,"бокам":11346,"бороз":11347,"болтов":11348,"телу":11349,"телодви":11350,"небольшими":11351,"##летвор":11352,"ноч":11353,"диспер":11354,"учёт":11355,"названием":11356,"государством":11357,"страда":11358,"страхов":11359,"используются":11360,"автором":11361,"пиш":11362,"пища":11363,"стало":11364,"старину":11365,"звуковой":11366,"системой":11367,"биологии":11368,"армян":11369,"##крас":11370,"направленность":11371,"составлять":11372,"трудо":11373,"трудовой":11374,"видимое":11375,"рождению":11376,"##образно":11377,"желании":11378,"определённые":11379,"исчис":11380,"##ропот":11381,"выпить":11382,"одноклето":11383,"терять":11384,"##казывая":11385,"неприличный":11386,"карман":11387,"многое":11388,"дета":11389,"самца":11390,"##возь":11391,"долю":11392,"долж":11393,"повредить":11394,"объектив":11395,"развлек":11396,"строении":11397,"сильная":11398,"##атурой":11399,"бага":11400,"дерз":11401,"##дарный":11402,"узкой":11403,"целых":11404,"местного":11405,"плани":11406,"маски":11407,"масло":11408,"глупо":11409,"фабри":11410,"крив":11411,"числит":11412,"##естно":11413,"##падение":11414,"покрытия":11415,"##яния":11416,"позже":11417,"отдельного":11418,"дам":11419,"даже":11420,"дающая":11421,"образовавшийся":11422,"необъ":11423,"транск":11424,"##еться":11425,"##цева":11426,"народный":11427,"народная":11428,"деревья":11429,"обозначенный":11430,"править":11431,"формально":11432,"принадлежащих":11433,"быстрого":11434,"затя":11435,"затрат":11436,"общие":11437,"общность":11438,"##чатых":11439,"малый":11440,"помощник":11441,"мыслить":11442,"мыслями":11443,"изображать":11444,"соответствующая":11445,"лёд":11446,"тонко":11447,"неприятности":11448,"ветка":11449,"##нистый":11450,"политический":11451,"украсть":11452,"ново":11453,"собственное":11454,"разделять":11455,"томиться":11456,"элементом":11457,"элементами":11458,"свободного":11459,"короткой":11460,"короткие":11461,"характеризуется":11462,"##лёта":11463,"говорит":11464,"дорогу":11465,"частями":11466,"отверстиями":11467,"впослед":11468,"наукой":11469,"синтакси":11470,"смертной":11471,"физиологи":11472,"маленькие":11473,"расположенные":11474,"выполнение":11475,"деньгах":11476,"круглого":11477,"получающий":11478,"близких":11479,"медика":11480,"жалов":11481,"применяется":11482,"размером":11483,"солне":11484,"урожай":11485,"происхождению":11486,"контра":11487,"танцу":11488,"погруз":11489,"высказывании":11490,"знат":11491,"прослав":11492,"молодё":11493,"космос":11494,"продаже":11495,"закрывать":11496,"природных":11497,"актёр":11498,"последние":11499,"##скивать":11500,"потому":11501,"надеваемый":11502,"чрезмерная":11503,"монет":11504,"чёрными":11505,"христианстве":11506,"источником":11507,"1918":11508,"бедный":11509,"##шоном":11510,"перепис":11511,"льсти":11512,"любоп":11513,"встречи":11514,"экспон":11515,"включая":11516,"кустарника":11517,"командующий":11518,"концент":11519,"горячей":11520,"священный":11521,"пересел":11522,"превосходящий":11523,"кинофиль":11524,"спортивный":11525,"драматичес":11526,"электроэнерги":11527,"отрицанием":11528,"сущности":11529,"выполняющее":11530,"активный":11531,"глубокая":11532,"принятое":11533,"экологи":11534,"германо":11535,"диска":11536,"морально":11537,"писателя":11538,"письменной":11539,"Закавказ":11540,"творчества":11541,"микроскоп":11542,"исследование":11543,"закончить":11544,"пребывания":11545,"созданное":11546,"яркость":11547,"православном":11548,"дыхании":11549,"дыхательных":11550,"замечать":11551,"контролиру":11552,"##язычного":11553,"психической":11554,"западном":11555,"плоскость":11556,"плоскодон":11557,"необычай":11558,"твёрдой":11559,"абстра":11560,"плате":11561,"платок":11562,"балка":11563,"сидения":11564,"повреждений":11565,"независимость":11566,"цветок":11567,"двадцать":11568,"нелег":11569,"убед":11570,"убран":11571,"позволяющая":11572,"органам":11573,"представлениям":11574,"кушанья":11575,"сходство":11576,"неотврат":11577,"средневековых":11578,"развивающийся":11579,"молитв":11580,"массовое":11581,"литературное":11582,"крепость":11583,"беспозвоно":11584,"геометри":11585,"пальцев":11586,"выступать":11587,"силах":11588,"шиф":11589,"публиц":11590,"туловище":11591,"пластины":11592,"разрешения":11593,"расстройства":11594,"необходимого":11595,"##вшегося":11596,"заключённых":11597,"истинный":11598,"истинным":11599,"цирк":11600,"игроков":11601,"пассажир":11602,"овраг":11603,"ровный":11604,"тесное":11605,"шеи":11606,"неразбор":11607,"берем":11608,"настоящее":11609,"возвышенность":11610,"снопов":11611,"ступе":11612,"машину":11613,"сексуального":11614,"китайская":11615,"воспроизвод":11616,"певчая":11617,"кухне":11618,"плавно":11619,"обусловленное":11620,"товарами":11621,"стрельбе":11622,"существующего":11623,"захватывать":11624,"жалости":11625,"шахм":11626,"присутствие":11627,"ароматичес":11628,"##ющемуся":11629,"старооб":11630,"океана":11631,"разведки":11632,"технологии":11633,"складка":11634,"сельскохозяйственное":11635,"запускать":11636,"казаков":11637,"полезных":11638,"казни":11639,"продолжительность":11640,"римлян":11641,"платья":11642,"восстановить":11643,"лежащая":11644,"устойчивое":11645,"неподвижный":11646,"взаимодействие":11647,"ребёнке":11648,"утон":11649,"##лизовать":11650,"предположение":11651,"коммуника":11652,"стрелять":11653,"гомосексуалист":11654,"младшего":11655,"фоку":11656,"обстановка":11657,"графического":11658,"классов":11659,"канала":11660,"##калывания":11661,"тягостный":11662,"обстоятельствах":11663,"спокойно":11664,"хуй":11665,"понимания":11666,"типогр":11667,"крыльями":11668,"партнёр":11669,"пехоте":11670,"однократ":11671,"мячом":11672,"встрече":11673,"переработки":11674,"предотвращения":11675,"подлинный":11676,"могиле":11677,"интелли":11678,"тропических":11679,"примесью":11680,"устраиваемое":11681,"грунте":11682,"теория":11683,"сострадания":11684,"святых":11685,"простейших":11686,"бревно":11687,"шёлковая":11688,"стремящийся":11689,"возлюбленный":11690,"стоянка":11691,"эпитет":11692,"##родук":11693,"вечнозелёное":11694,"вечнозелёных":11695,"откровенно":11696,"закруглённая":11697,"Завета":11698,"приписы":11699,"основываясь":11700,"отображения":11701,"спектакля":11702,"ископаемых":11703,"гусени":11704,"лизинга":11705,"неумелый":11706,"чтения":11707,"предвку":11708,"беспринцип":11709,"целостность":11710,"серебристо":11711,"скандинавской":11712,"кирпича":11713,"поспешно":11714,"бесцерем":11715,"группировки":11716,"преодолеть":11717,"ритуальный":11718,"унтер":11719,"хокк":11720,"челюсти":11721,"##атериал":11722,"растирания":11723,"отзыв":11724,"перечень":11725,"церемони":11726,"нарочито":11727,"князя":11728,"разыгры":11729,"скрещи":11730,"пистолет":11731,"эксперим":11732,"пневматичес":11733,"реаги":11734,"бесчувственный":11735,"потряс":11736,"неоправданно":11737,"январ":11738,"Интернет":11739,"евреев":11740,"несогласованное":11741,"ястребиных":11742,"кошачьих":11743,"напротив":11744,"туалет":11745,"вдова":11746,"побудить":11747,"##защит":11748,"глюко":11749,"диагности":11750,"Воронеж":11751,"безнадё":11752,"капюшоном":11753,"Ветхого":11754,"чепуха":11755,"электромагнит":11756,"отпечаток":11757,"Швейцарии":11758,"Ближн":11759,"нравоуч":11760,"шерохов":11761,"насквозь":11762,"состоит":11763,"вопреки":11764,"проститутка":11765,"впоследствии":11766,"14":11767,"24":11768,"D1":11769,"VI":11770,"ru":11771,"Вер":11772,"Ге":11773,"Ду":11774,"Ла":11775,"Лит":11776,"Паки":11777,"Цер":11778,"ани":11779,"аспек":11780,"бров":11781,"блед":11782,"вь":11783,"ват":11784,"вез":11785,"введение":11786,"вклады":11787,"дне":11788,"зар":11789,"зата":11790,"исти":11791,"кг":11792,"клё":11793,"лати":11794,"мая":11795,"мез":11796,"моби":11797,"оли":11798,"отор":11799,"пел":11800,"пением":11801,"роб":11802,"сц":11803,"схо":11804,"сест":11805,"сливо":11806,"сати":11807,"сгор":11808,"сито":11809,"сформи":11810,"трос":11811,"уль":11812,"ути":11813,"учи":11814,"уду":11815,"уника":11816,"уклады":11817,"ухода":11818,"укло":11819,"уложен":11820,"фал":11821,"храм":11822,"штам":11823,"эрит":11824,"эласти":11825,"##лата":11826,"##ева":11827,"##еги":11828,"##ечи":11829,"##ала":11830,"##апп":11831,"##рени":11832,"##рной":11833,"##рту":11834,"##нной":11835,"##оров":11836,"##ывают":11837,"##вки":11838,"##ивание":11839,"##ившее":11840,"##мить":11841,"##щенная":11842,"##юз":11843,"##жё":11844,"##жих":11845,"##хаться":11846,"##шня":11847,"##шине":11848,"##днев":11849,"##ьего":11850,"##чев":11851,"##эф":11852,"##66":11853,"##am":11854,"##di":11855,"##ER":11856,"##стрии":11857,"##нови":11858,"##анностью":11859,"поры":11860,"пота":11861,"показать":11862,"##ате":11863,"##атологии":11864,"##года":11865,"##елом":11866,"##лита":11867,"##рее":11868,"##итого":11869,"нара":11870,"наступа":11871,"накло":11872,"наставление":11873,"##олеку":11874,"##еме":11875,"##точного":11876,"некий":11877,"неак":11878,"нечая":11879,"нетерп":11880,"нечест":11881,"##аница":11882,"костей":11883,"размы":11884,"разве":11885,"обрядов":11886,"просу":11887,"прощение":11888,"##лям":11889,"##ляемая":11890,"##лятор":11891,"##лью":11892,"##есси":11893,"приу":11894,"##локо":11895,"##лона":11896,"##лому":11897,"##стись":11898,"изложить":11899,"изгн":11900,"запро":11901,"заговор":11902,"залива":11903,"##тимый":11904,"##стот":11905,"##стоп":11906,"вымер":11907,"выбирать":11908,"##валиться":11909,"##цист":11910,"##одоли":11911,"##екто":11912,"##виз":11913,"сустав":11914,"суждения":11915,"предать":11916,"##лун":11917,"свы":11918,"свёр":11919,"спес":11920,"##гиба":11921,"такие":11922,"талию":11923,"##ольного":11924,"##ольных":11925,"подсти":11926,"подклю":11927,"подтя":11928,"##ённостью":11929,"действа":11930,"действии":11931,"##ждаться":11932,"##ловид":11933,"редак":11934,"##ровый":11935,"##жающее":11936,"##жается":11937,"##мого":11938,"силовой":11939,"прегра":11940,"презид":11941,"##рями":11942,"##ктяб":11943,"куку":11944,"живым":11945,"живших":11946,"тону":11947,"точности":11948,"испражняться":11949,"##ленник":11950,"##ленную":11951,"##жевой":11952,"##думывать":11953,"##товый":11954,"##товых":11955,"##товое":11956,"##садить":11957,"##ветривания":11958,"ордена":11959,"имеющие":11960,"##лениями":11961,"##люцина":11962,"ручным":11963,"малое":11964,"посв":11965,"поселение":11966,"комсом":11967,"расцвет":11968,"произволь":11969,"жарго":11970,"медная":11971,"плоть":11972,"плоских":11973,"плоским":11974,"плодоро":11975,"миром":11976,"образное":11977,"живом":11978,"определенных":11979,"красо":11980,"облаков":11981,"областей":11982,"лаз":11983,"##ступно":11984,"полукруг":11985,"семит":11986,"деления":11987,"обоз":11988,"обостр":11989,"военным":11990,"##почка":11991,"##зирующий":11992,"##женство":11993,"рабочих":11994,"пулем":11995,"перечис":11996,"органических":11997,"##ерея":11998,"являться":11999,"болот":12000,"высотой":12001,"##менить":12002,"##летка":12003,"скле":12004,"ношения":12005,"##сывать":12006,"##ымать":12007,"содержать":12008,"думать":12009,"##никах":12010,"государственных":12011,"буй":12012,"бурого":12013,"очерт":12014,"городом":12015,"городских":12016,"системат":12017,"##стант":12018,"арха":12019,"горный":12020,"высшим":12021,"цветы":12022,"составить":12023,"трус":12024,"действиям":12025,"производству":12026,"качеству":12027,"##ницах":12028,"видимый":12029,"героя":12030,"слои":12031,"слоге":12032,"сложных":12033,"сложные":12034,"роско":12035,"черни":12036,"череп":12037,"##глав":12038,"леж":12039,"родства":12040,"##формы":12041,"собираться":12042,"неприкоснов":12043,"карь":12044,"передовой":12045,"лоп":12046,"лопат":12047,"детях":12048,"надпись":12049,"заполнять":12050,"псев":12051,"псал":12052,"##ционер":12053,"единого":12054,"субкульту":12055,"долг":12056,"половая":12057,"объекту":12058,"##беж":12059,"строя":12060,"туго":12061,"газы":12062,"металлу":12063,"##атуру":12064,"гипер":12065,"ударов":12066,"устройстве":12067,"бас":12068,"бабу":12069,"бакла":12070,"узлов":12071,"целесообраз":12072,"вызывающих":12073,"##имостью":12074,"массу":12075,"фаза":12076,"фактов":12077,"имита":12078,"волны":12079,"волей":12080,"длинное":12081,"угнета":12082,"покрыва":12083,"лишения":12084,"лишенный":12085,"русскому":12086,"увеч":12087,"крещения":12088,"траг":12089,"трап":12090,"самое":12091,"пряность":12092,"владе":12093,"влагой":12094,"низких":12095,"равных":12096,"плавания":12097,"особая":12098,"образовании":12099,"толчения":12100,"сосед":12101,"почита":12102,"экран":12103,"корней":12104,"кормов":12105,"корню":12106,"отсутству":12107,"трех":12108,"войлок":12109,"##вёрты":12110,"акта":12111,"активи":12112,"воздуху":12113,"стихов":12114,"страна":12115,"изготовлению":12116,"домах":12117,"типов":12118,"белору":12119,"развитием":12120,"едва":12121,"общаться":12122,"общепри":12123,"службу":12124,"говя":12125,"неофи":12126,"следить":12127,"следствие":12128,"сырь":12129,"оруди":12130,"изображении":12131,"изображений":12132,"тонкого":12133,"покрова":12134,"несло":12135,"струн":12136,"##лённость":12137,"##лённые":12138,"установка":12139,"новую":12140,"восточный":12141,"организацией":12142,"чьему":12143,"##лизму":12144,"отделки":12145,"отделения":12146,"разделение":12147,"денежного":12148,"смех":12149,"физическая":12150,"##управ":12151,"##клами":12152,"свободное":12153,"сверления":12154,"предоставить":12155,"государствах":12156,"государствами":12157,"руководить":12158,"шапка":12159,"##писью":12160,"синего":12161,"привлекать":12162,"интересы":12163,"радиов":12164,"столе":12165,"ограничения":12166,"историю":12167,"исторического":12168,"волосах":12169,"вызва":12170,"открыто":12171,"открытая":12172,"образуя":12173,"временный":12174,"временной":12175,"жадный":12176,"лесу":12177,"лесная":12178,"взаимные":12179,"##мотрен":12180,"учреждений":12181,"воздействию":12182,"волося":12183,"множеством":12184,"генов":12185,"поправ":12186,"конечный":12187,"высказывать":12188,"длиной":12189,"наибольш":12190,"художник":12191,"хозяйством":12192,"обозначающими":12193,"административной":12194,"крепкого":12195,"потоком":12196,"опустившийся":12197,"степенью":12198,"##лотный":12199,"предложение":12200,"предложении":12201,"описания":12202,"церковной":12203,"возникновением":12204,"психики":12205,"будущем":12206,"оценки":12207,"решений":12208,"банка":12209,"дополнительная":12210,"окно":12211,"охоты":12212,"кратко":12213,"кратков":12214,"жизненных":12215,"доски":12216,"злодей":12217,"античной":12218,"спортивного":12219,"нижнюю":12220,"очищенный":12221,"назначение":12222,"естественного":12223,"##ловию":12224,"официально":12225,"уничтожать":12226,"проникнуть":12227,"климат":12228,"воинских":12229,"отодви":12230,"несообраз":12231,"заключающий":12232,"герман":12233,"торжественное":12234,"профессии":12235,"этажа":12236,"наступление":12237,"демократ":12238,"письменно":12239,"обеспечивающая":12240,"вредный":12241,"каплями":12242,"сокращения":12243,"##невеков":12244,"Северного":12245,"изучение":12246,"выгоду":12247,"выходка":12248,"##ометия":12249,"диамет":12250,"температура":12251,"##язычных":12252,"снег":12253,"возникающее":12254,"участием":12255,"невынос":12256,"свеже":12257,"чужого":12258,"девушке":12259,"молекул":12260,"обильный":12261,"излишняя":12262,"сидя":12263,"военнослужа":12264,"домашней":12265,"бессодерж":12266,"180":12267,"школа":12268,"делопроизвод":12269,"альп":12270,"вооружённый":12271,"магнет":12272,"крестьянская":12273,"седь":12274,"седло":12275,"королев":12276,"исключительный":12277,"винтов":12278,"погода":12279,"живущая":12280,"формирование":12281,"удовлетворение":12282,"истинности":12283,"совместное":12284,"судебно":12285,"цилинд":12286,"саней":12287,"сухим":12288,"пренебрегать":12289,"построения":12290,"предварительное":12291,"волнения":12292,"Армении":12293,"китайской":12294,"интри":12295,"принципа":12296,"зубами":12297,"сосредоточи":12298,"грязь":12299,"пластинки":12300,"присущий":12301,"признанный":12302,"неопря":12303,"снабдить":12304,"включающий":12305,"здоровье":12306,"союза":12307,"прозрачный":12308,"прозрачная":12309,"вращающегося":12310,"спиртных":12311,"агрегат":12312,"бойкий":12313,"веке":12314,"придато":12315,"жалость":12316,"обнаруживать":12317,"привлечь":12318,"богослужении":12319,"декоративное":12320,"повышенной":12321,"устранять":12322,"священства":12323,"футляр":12324,"сочинение":12325,"непрерывный":12326,"блеск":12327,"судорогах":12328,"следующих":12329,"ослабления":12330,"жёсткая":12331,"лепки":12332,"рассматривать":12333,"программного":12334,"встречающийся":12335,"демонстри":12336,"жереб":12337,"социалисти":12338,"снарядов":12339,"лошадьми":12340,"последующего":12341,"сюр":12342,"фразы":12343,"пояса":12344,"ча́се":12345,"неподвижно":12346,"окончания":12347,"покровительство":12348,"неодушев":12349,"портить":12350,"слез":12351,"облегчить":12352,"заслуживающий":12353,"реализации":12354,"низкорос":12355,"утрата":12356,"функционирование":12357,"ходьбы":12358,"окисления":12359,"рыхлое":12360,"пропускать":12361,"1930":12362,"##патии":12363,"опыте":12364,"рукоятке":12365,"переплетения":12366,"агент":12367,"галлюцина":12368,"бухгал":12369,"мёртвых":12370,"остановить":12371,"перегород":12372,"перегонки":12373,"воображении":12374,"опоры":12375,"опорной":12376,"непреодоли":12377,"садиться":12378,"верующих":12379,"##ящиеся":12380,"целомуд":12381,"бутылка":12382,"укоро":12383,"отчётливо":12384,"бытовой":12385,"весьма":12386,"сообщества":12387,"охватывающая":12388,"обсуждение":12389,"ислама":12390,"темпе":12391,"блаженство":12392,"обихода":12393,"святы":12394,"возвыша":12395,"специализированное":12396,"алфавит":12397,"огромный":12398,"неглубокая":12399,"экипаж":12400,"афри":12401,"стоянки":12402,"охлаждения":12403,"прыжок":12404,"ныне":12405,"оленя":12406,"заведениях":12407,"неприязни":12408,"неприязнь":12409,"путешествие":12410,"Австрии":12411,"ссылку":12412,"несправед":12413,"беспокойство":12414,"поразить":12415,"соцветия":12416,"отечества":12417,"карау":12418,"Луны":12419,"индийской":12420,"напыщ":12421,"напыщенный":12422,"звучащий":12423,"гнез":12424,"храма":12425,"шриф":12426,"шрифт":12427,"выемка":12428,"рассуждения":12429,"простира":12430,"междометия":12431,"жилья":12432,"сахаром":12433,"фамильярное":12434,"вулкани":12435,"мятеж":12436,"серого":12437,"подчёрки":12438,"равновесие":12439,"заболеваниях":12440,"иудейской":12441,"промысловая":12442,"капусты":12443,"справедливости":12444,"полицейский":12445,"графики":12446,"вспыль":12447,"отложным":12448,"перезапис":12449,"верблю":12450,"пузырь":12451,"корнепло":12452,"Израи":12453,"далё":12454,"зёрна":12455,"съестные":12456,"упадка":12457,"провозгла":12458,"продавливания":12459,"радикал":12460,"импрессиони":12461,"предусматривающий":12462,"щекотать":12463,"иници":12464,"повязка":12465,"увесел":12466,"египт":12467,"##олнившись":12468,"совпадающий":12469,"синдром":12470,"суматоха":12471,"ягодицы":12472,"Михаил":12473,"тромбо":12474,"##набжения":12475,"смелость":12476,"перемещаясь":12477,"успешно":12478,"мочеиспускания":12479,"размельчения":12480,"ерунда":12481,"тавт":12482,"отхожее":12483,"судоход":12484,"транскрип":12485,"абстракт":12486,"неакку":12487,"Frag":12488,"Ph":12489,"Si":12490,"Бол":12491,"Вс":12492,"Вал":12493,"Гав":12494,"Ир":12495,"Пяти":12496,"Солне":12497,"Эгей":12498,"анима":12499,"академ":12500,"вит":12501,"встав":12502,"грав":12503,"голо":12504,"дели":12505,"дном":12506,"деб":12507,"дитя":12508,"еванг":12509,"иному":12510,"крё":12511,"нить":12512,"ом":12513,"о́":12514,"оставля":12515,"овец":12516,"пуд":12517,"сани":12518,"сей":12519,"сби":12520,"счет":12521,"сдержи":12522,"слеп":12523,"тая":12524,"уга":12525,"уте":12526,"улица":12527,"улицы":12528,"удержать":12529,"фла":12530,"чех":12531,"шо":12532,"эст":12533,"южн":12534,"южных":12535,"##еци":12536,"##евать":12537,"##ающий":12538,"##а́ть":12539,"##рения":12540,"##нание":12541,"##нением":12542,"##оение":12543,"##обов":12544,"##охран":12545,"##бами":12546,"##кри":12547,"##ктами":12548,"##иск":12549,"##ивая":12550,"##ичный":12551,"##зав":12552,"##зят":12553,"##мп":12554,"##щенного":12555,"##юра":12556,"##яш":12557,"##ятое":12558,"##хими":12559,"##шень":12560,"##шённый":12561,"##шний":12562,"##шенные":12563,"##гру":12564,"##гред":12565,"##гиз":12566,"##дый":12567,"##дным":12568,"##джа":12569,"##пывать":12570,"##ed":12571,"##et":12572,"##ss":12573,"##ip":12574,"##ноло":12575,"##рое":12576,"##еру":12577,"##ану":12578,"пон":12579,"пож":12580,"пови":12581,"поте":12582,"повин":12583,"понимать":12584,"поезд":12585,"позади":12586,"##атри":12587,"##атая":12588,"##голь":12589,"##ковом":12590,"##лича":12591,"##реты":12592,"##речия":12593,"##ова":12594,"##овым":12595,"##ийское":12596,"най":12597,"нало":12598,"нави":12599,"нанося":12600,"навер":12601,"нации":12602,"налогов":12603,"листа":12604,"##риот":12605,"##олж":12606,"##олков":12607,"##тости":12608,"##кара":12609,"некое":12610,"некру":12611,"небе":12612,"недом":12613,"##вобо":12614,"##етатив":12615,"##ельно":12616,"##ельской":12617,"кофей":12618,"разложения":12619,"обви":12620,"обая":12621,"обму":12622,"обмол":12623,"обтяги":12624,"##руемый":12625,"прови":12626,"промысла":12627,"##ейка":12628,"##ард":12629,"##арно":12630,"приман":12631,"приведение":12632,"примат":12633,"приклад":12634,"примеч":12635,"приносит":12636,"##ламут":12637,"отраз":12638,"отвар":12639,"отложения":12640,"первым":12641,"первые":12642,"перламут":12643,"##ложн":12644,"##стив":12645,"##стики":12646,"##стимый":12647,"изоли":12648,"изощ":12649,"зача":12650,"зараз":12651,"замер":12652,"закру":12653,"задейств":12654,"заглав":12655,"карета":12656,"##стопад":12657,"выг":12658,"вывед":12659,"##вавшийся":12660,"##вающихся":12661,"##одер":12662,"перено":12663,"##обращ":12664,"##екла":12665,"уставу":12666,"##меи":12667,"##инания":12668,"супа":12669,"##авес":12670,"##авшей":12671,"предпис":12672,"справ":12673,"##гивания":12674,"табу":12675,"##дец":12676,"подко":12677,"##чивается":12678,"дога":12679,"доступа":12680,"##ждённым":12681,"##час":12682,"##чах":12683,"##ательством":12684,"связано":12685,"реального":12686,"##торой":12687,"##равный":12688,"##ходы":12689,"##ходный":12690,"##ровкой":12691,"##рованным":12692,"##жаются":12693,"##альную":12694,"##онер":12695,"силовых":12696,"##дира":12697,"прест":12698,"##рям":12699,"видами":12700,"муск":12701,"мурав":12702,"мусора":12703,"кури":12704,"кула":12705,"жили":12706,"жиров":12707,"##закон":12708,"женской":12709,"##делать":12710,"##жинок":12711,"##со́":12712,"воздел":12713,"возвращение":12714,"##доподоб":12715,"свойством":12716,"##утный":12717,"ингред":12718,"##ленному":12719,"##товать":12720,"орфо":12721,"книзу":12722,"книге":12723,"имеющим":12724,"##чеством":12725,"##лениях":12726,"безропот":12727,"ручке":12728,"ругательства":12729,"##еньев":12730,"непод":12731,"мари":12732,"гореть":12733,"горах":12734,"городе":12735,"##ические":12736,"упорный":12737,"упоение":12738,"посел":12739,"посуд":12740,"соблю":12741,"ведающее":12742,"##вшим":12743,"пау":12744,"паст":12745,"характерных":12746,"плодах":12747,"мило":12748,"минима":12749,"микол":12750,"##шины":12751,"образе":12752,"образа":12753,"мужские":12754,"среду":12755,"среднее":12756,"краям":12757,"крахма":12758,"растя":12759,"растительностью":12760,"резкие":12761,"резвый":12762,"слуха":12763,"полукру":12764,"движению":12765,"##пора":12766,"##почеч":12767,"##зировать":12768,"##женности":12769,"бесед":12770,"животными":12771,"прилагательное":12772,"##шающее":12773,"##шается":12774,"явиться":12775,"боковой":12776,"боковая":12777,"фиолетов":12778,"техноло":12779,"болтун":12780,"высокую":12781,"местом":12782,"местополо":12783,"древнем":12784,"колени":12785,"колющее":12786,"дикт":12787,"династи":12788,"дуб":12789,"компен":12790,"компро":12791,"искренний":12792,"бун":12793,"##озный":12794,"пигмент":12795,"стациона":12796,"старей":12797,"звуком":12798,"звучание":12799,"##терн":12800,"##станно":12801,"сделанная":12802,"горы":12803,"высоте":12804,"чувству":12805,"цветка":12806,"составленный":12807,"сложным":12808,"розы":12809,"результатом":12810,"##канского":12811,"##ётная":12812,"черте":12813,"употреблении":12814,"мыши":12815,"тереть":12816,"непристойный":12817,"лох":12818,"ложное":12819,"многогран":12820,"помеща":12821,"надз":12822,"надпочеч":12823,"ваф":12824,"отдать":12825,"мясом":12826,"проявлением":12827,"половом":12828,"половым":12829,"половины":12830,"психо":12831,"строю":12832,"строки":12833,"гам":12834,"гастро":12835,"одевать":12836,"соединить":12837,"гиль":12838,"искусственного":12839,"удача":12840,"баз":12841,"бабо":12842,"бази":12843,"плато":12844,"масшта":12845,"##страивать":12846,"осуществление":12847,"рассказать":12848,"кривой":12849,"воля":12850,"сервер":12851,"покрытием":12852,"лишён":12853,"самок":12854,"стоимость":12855,"широкие":12856,"даёт":12857,"охра":12858,"плаща":12859,"образовывать":12860,"крупного":12861,"птичь":12862,"толпа":12863,"сословию":12864,"кило":12865,"войне":12866,"акроб":12867,"##циональный":12868,"стилю":12869,"страну":12870,"изготовлении":12871,"##церов":12872,"народу":12873,"народного":12874,"субстанция":12875,"деревьями":12876,"специалистов":12877,"шутник":12878,"##никовых":12879,"формальных":12880,"белка":12881,"быстрое":12882,"развитию":12883,"общем":12884,"общих":12885,"находящееся":12886,"применение":12887,"утрен":12888,"многие":12889,"сыра":12890,"##ливостью":12891,"возможных":12892,"возможностью":12893,"постоянного":12894,"постоянной":12895,"запаха":12896,"аллю":12897,"ветки":12898,"##рьмя":12899,"##нистая":12900,"снаряда":12901,"##лённой":12902,"польза":12903,"политические":12904,"украдкой":12905,"снима":12906,"восточно":12907,"собственности":12908,"чьим":12909,"религиях":12910,"благочести":12911,"холм":12912,"носу":12913,"хорошего":12914,"##нокров":12915,"будничный":12916,"местами":12917,"автомобиле":12918,"коротким":12919,"короткими":12920,"участники":12921,"нужд":12922,"нужный":12923,"дорого":12924,"частые":12925,"##лярных":12926,"##лярной":12927,"занавес":12928,"идеа":12929,"идея":12930,"неуклю":12931,"усилие":12932,"исполнении":12933,"летательных":12934,"бумажная":12935,"ощущать":12936,"ощущений":12937,"шаб":12938,"шашки":12939,"притес":12940,"старинное":12941,"старинных":12942,"чувствам":12943,"синх":12944,"прель":12945,"склонен":12946,"духовно":12947,"духовный":12948,"расположены":12949,"ограничение":12950,"симп":12951,"круглое":12952,"##докс":12953,"нейтра":12954,"скрыть":12955,"крыша":12956,"размеры":12957,"препинания":12958,"формулы":12959,"взаимное":12960,"телеграф":12961,"нерус":12962,"неряш":12963,"воздействий":12964,"средствах":12965,"попечение":12966,"пышный":12967,"защиту":12968,"враг":12969,"##ясни":12970,"необходимый":12971,"продолжающийся":12972,"малочисленный":12973,"восприятие":12974,"худож":12975,"диалек":12976,"передвигаясь":12977,"молодых":12978,"тяжёлого":12979,"тяжёлая":12980,"культуру":12981,"моде":12982,"осуществляющее":12983,"этнолог":12984,"порошок":12985,"актри":12986,"технических":12987,"составляющие":12988,"крепко":12989,"национального":12990,"окружающая":12991,"чрезмерное":12992,"чёрт":12993,"методи":12994,"церковнос":12995,"сопровождаемый":12996,"возникать":12997,"приятной":12998,"известность":12999,"удобр":13000,"содержащийся":13001,"концах":13002,"окси":13003,"копия":13004,"концов":13005,"концом":13006,"горячо":13007,"вмеш":13008,"тёмный":13009,"водопла":13010,"современный":13011,"причинить":13012,"причиняющий":13013,"правоохран":13014,"горизонтальных":13015,"четырьмя":13016,"изучает":13017,"вопросу":13018,"пресновод":13019,"патрон":13020,"##графического":13021,"артику":13022,"художественное":13023,"очист":13024,"ожидать":13025,"оттенка":13026,"естественно":13027,"постели":13028,"отрицательное":13029,"отрицательных":13030,"лекарственный":13031,"лекарственных":13032,"богослов":13033,"руководящий":13034,"переносить":13035,"переносном":13036,"кровля":13037,"праздни":13038,"двоя":13039,"согласных":13040,"согласие":13041,"герб":13042,"гераль":13043,"первобы":13044,"подчинения":13045,"написать":13046,"написанный":13047,"морали":13048,"прямолиней":13049,"оставшийся":13050,"наступать":13051,"персонажей":13052,"письменное":13053,"творить":13054,"##едини":13055,"выпуск":13056,"выпускать":13057,"ясности":13058,"станция":13059,"древесиной":13060,"добавление":13061,"Северном":13062,"дыша":13063,"тюрем":13064,"нагрузки":13065,"лучшая":13066,"гражданка":13067,"хлопьев":13068,"изучению":13069,"##фикацию":13070,"Средневеков":13071,"приводящий":13072,"психическое":13073,"алкоголя":13074,"снежинок":13075,"ягодами":13076,"ковёр":13077,"указание":13078,"невыраз":13079,"углевод":13080,"располагаться":13081,"домашних":13082,"статья":13083,"нити":13084,"школе":13085,"школы":13086,"предшествен":13087,"глупец":13088,"позволяющее":13089,"##пывания":13090,"поперем":13091,"##ативный":13092,"альбо":13093,"средневековое":13094,"пятно":13095,"загроб":13096,"позвоночное":13097,"Афгани":13098,"ездить":13099,"проверять":13100,"протяжный":13101,"протяжённый":13102,"забро":13103,"насмехаться":13104,"субъекта":13105,"небесных":13106,"пальцами":13107,"доверие":13108,"поворо":13109,"необходимым":13110,"хвост":13111,"погоде":13112,"стебли":13113,"движущихся":13114,"движущегося":13115,"буржу":13116,"цирка":13117,"совместного":13118,"традиционное":13119,"глико":13120,"золотой":13121,"ровно":13122,"сухие":13123,"берего":13124,"жанра":13125,"корабля":13126,"кораблей":13127,"стекла":13128,"французское":13129,"способов":13130,"Арх":13131,"избавляться":13132,"непрозрачный":13133,"веролом":13134,"категория":13135,"ферментов":13136,"продолговатой":13137,"дисциплины":13138,"ласково":13139,"наркотик":13140,"##ica":13141,"спектра":13142,"верховой":13143,"сладкого":13144,"повозки":13145,"присущих":13146,"электронной":13147,"снабжённый":13148,"брюк":13149,"здоровый":13150,"единственный":13151,"единственно":13152,"театре":13153,"срочной":13154,"выразительности":13155,"табак":13156,"инструментом":13157,"нелепое":13158,"обеих":13159,"изогнутой":13160,"извлечение":13161,"организовать":13162,"компонента":13163,"компонентов":13164,"управляющая":13165,"английского":13166,"цилиндрический":13167,"устранение":13168,"угроза":13169,"священника":13170,"католического":13171,"внушать":13172,"внушающий":13173,"нападение":13174,"нападения":13175,"##качественная":13176,"несовме":13177,"технология":13178,"территориальная":13179,"лечебное":13180,"юридическое":13181,"сельскохозяйственных":13182,"вежливого":13183,"высказываниях":13184,"ослабление":13185,"сборками":13186,"##ющуюся":13187,"приветствовать":13188,"приветствия":13189,"часах":13190,"развлечение":13191,"сбере":13192,"сбив":13193,"позиции":13194,"позиция":13195,"##минации":13196,"вычислитель":13197,"палец":13198,"земляника":13199,"восстановление":13200,"предоставляемый":13201,"встречается":13202,"фонетичес":13203,"исправлять":13204,"солдата":13205,"брака":13206,"протест":13207,"подводных":13208,"земельных":13209,"строгое":13210,"спортсмена":13211,"нанесение":13212,"убийца":13213,"котлов":13214,"предположительно":13215,"офицерский":13216,"календарного":13217,"европейских":13218,"меньше":13219,"гомосексуал":13220,"подтверждение":13221,"умеет":13222,"покорность":13223,"пропуск":13224,"вышестоя":13225,"тупым":13226,"графической":13227,"распространяясь":13228,"Петербург":13229,"умирать":13230,"чётко":13231,"утомить":13232,"опыта":13233,"смотря":13234,"гармони":13235,"аренду":13236,"бухг":13237,"кремн":13238,"магнитного":13239,"зелёного":13240,"ядро":13241,"завися":13242,"очереди":13243,"голубо":13244,"классификации":13245,"пшеничной":13246,"дымом":13247,"картина":13248,"Канаде":13249,"обитания":13250,"ворота":13251,"сухопут":13252,"сайта":13253,"кровообращ":13254,"промежутки":13255,"Волги":13256,"ежего":13257,"пчели":13258,"тихий":13259,"мошенник":13260,"верёвка":13261,"верёвки":13262,"взятый":13263,"беглый":13264,"тренировки":13265,"Примор":13266,"сбоку":13267,"шёлковой":13268,"возлюбленная":13269,"добровольное":13270,"уголовное":13271,"равнодуш":13272,"помимо":13273,"пристани":13274,"конфликта":13275,"раствори":13276,"придерживаться":13277,"придерживающийся":13278,"торопливо":13279,"посетить":13280,"параметров":13281,"принципы":13282,"лосос":13283,"лоскут":13284,"пьес":13285,"турни":13286,"уходом":13287,"обыкновенный":13288,"свободным":13289,"поглощать":13290,"нефти":13291,"сочувствие":13292,"коробка":13293,"отвлеч":13294,"стилистическая":13295,"осторожно":13296,"худой":13297,"##центри":13298,"##рисовать":13299,"репродук":13300,"соблюдением":13301,"вселенной":13302,"нуклеоти":13303,"коричнев":13304,"лестница":13305,"кишечника":13306,"стихотворение":13307,"боеприпасов":13308,"университ":13309,"эпидем":13310,"мёда":13311,"координ":13312,"перелётная":13313,"восторженное":13314,"кулинарии":13315,"двигателя":13316,"весёлый":13317,"тюрьма":13318,"невежественный":13319,"Латвии":13320,"тенни":13321,"тоску":13322,"рамки":13323,"кажущийся":13324,"обычаев":13325,"бесконечно":13326,"поперечном":13327,"брёвен":13328,"гетеро":13329,"снегом":13330,"накидки":13331,"разборка":13332,"сукна":13333,"вирусов":13334,"безопас":13335,"дефект":13336,"сложноцветных":13337,"скорлу":13338,"концентрации":13339,"несоответствие":13340,"осадочная":13341,"адап":13342,"пустяки":13343,"перепончато":13344,"шерстяная":13345,"мертвец":13346,"вегетатив":13347,"бесстыдный":13348,"дифферен":13349,"допускающий":13350,"опускаться":13351,"индоевропей":13352,"кондитерское":13353,"лягу":13354,"тусклый":13355,"атмосферы":13356,"олицетворя":13357,"щеголь":13358,"сочета":13359,"размышления":13360,"изяществом":13361,"керами":13362,"хотя":13363,"недалё":13364,"алкалоид":13365,"символи":13366,"предпочтение":13367,"Александ":13368,"Эстонии":13369,"хорео":13370,"наскоро":13371,"начиная":13372,"рекомен":13373,"жаловаться":13374,"любопыт":13375,"января":13376,"глюкозы":13377,"эритро":13378,"плодородия":13379,"систематизи":13380,"лежания":13381,"псевдо":13382,"баклажан":13383,"кратковремен":13384,"египтян":13385,"Fragaria":13386,"Солнечной":13387,"деликат":13388,"обмунди":13389,"зачастую":13390,"ингреди":13391,"технологий":13392,"надпочечников":13393,"Fe":13394,"IV":13395,"St":13396,"Ген":13397,"Данное":13398,"Еванг":13399,"Зев":13400,"Кир":13401,"Мор":13402,"Не":13403,"Рей":13404,"Татар":13405,"Эль":13406,"ано":13407,"бре":13408,"брыз":13409,"ван":13410,"введ":13411,"гем":13412,"гур":13413,"глина":13414,"днев":13415,"жва":13416,"жал":13417,"иран":13418,"инос":13419,"иони":13420,"клу":13421,"кран":13422,"кром":13423,"квали":13424,"лёт":13425,"ленты":13426,"мл":13427,"мним":13428,"мимо":13429,"нуд":13430,"пир":13431,"пур":13432,"руд":13433,"рту":13434,"сё":13435,"сми":13436,"сда":13437,"сков":13438,"сара":13439,"слиз":13440,"сбить":13441,"слё":13442,"сцеп":13443,"тит":13444,"течения":13445,"ура":13446,"умо":13447,"усы":13448,"уби":13449,"фору":13450,"ценное":13451,"цены":13452,"чит":13453,"чья":13454,"шот":13455,"шев":13456,"шип":13457,"штук":13458,"щело":13459,"эроти":13460,"эскад":13461,"ювели":13462,"яко":13463,"##лкой":13464,"##е́":13465,"##сла":13466,"##сие":13467,"##син":13468,"##азиат":13469,"##рное":13470,"##рба":13471,"##ози":13472,"##онист":13473,"##бал":13474,"##батывать":13475,"##тное":13476,"##вка":13477,"##вить":13478,"##венный":13479,"##витый":13480,"##кции":13481,"##кция":13482,"##иг":13483,"##исто":13484,"##идный":13485,"##ущее":13486,"##зный":13487,"##мения":13488,"##щить":13489,"##щённым":13490,"##щавый":13491,"##ютом":13492,"##жего":13493,"##жется":13494,"##жками":13495,"##жнять":13496,"##цети":13497,"##шель":13498,"##шитая":13499,"##дя":13500,"##дке":13501,"##пс":13502,"##пра":13503,"##полн":13504,"##ьма":13505,"##чен":13506,"##чом":13507,"##чению":13508,"##член":13509,"##ченных":13510,"##ёме":13511,"##ётов":13512,"##yl":13513,"##na":13514,"##ex":13515,"##tic":13516,"##14":13517,"##стати":13518,"##ногих":13519,"##новое":13520,"##нового":13521,"##нообразных":13522,"##ноамерикан":13523,"##рол":13524,"##рока":13525,"##ровое":13526,"##еница":13527,"##анси":13528,"попа":13529,"пове":13530,"порос":13531,"побить":13532,"похи":13533,"пожел":13534,"погиб":13535,"показывать":13536,"##гоги":13537,"##говой":13538,"##лиф":13539,"##лине":13540,"##ливаться":13541,"##ствования":13542,"##ребо":13543,"##рети":13544,"##реться":13545,"наго":13546,"набо":13547,"нарост":13548,"намот":13549,"накле":13550,"наёмный":13551,"рако":13552,"лидер":13553,"лиши":13554,"личный":13555,"личных":13556,"либер":13557,"##риб":13558,"##риона":13559,"##емость":13560,"нее":13561,"неа":13562,"нек":13563,"неуч":13564,"##восто":13565,"##води":13566,"сожа":13567,"созид":13568,"кость":13569,"коди":13570,"колич":13571,"разным":13572,"разнос":13573,"разбе":13574,"обло":13575,"общение":13576,"обстрел":13577,"обёрты":13578,"проп":13579,"пропи":13580,"пропис":13581,"прочности":13582,"прохода":13583,"прочего":13584,"прохождения":13585,"##лянный":13586,"##есед":13587,"##есчур":13588,"##аркти":13589,"прио":13590,"прида":13591,"приез":13592,"пристав":13593,"приправ":13594,"приехать":13595,"прикладывать":13596,"пришедший":13597,"приличия":13598,"##ладе":13599,"##лазн":13600,"оты":13601,"отъ":13602,"отго":13603,"отвес":13604,"отщеп":13605,"##стия":13606,"изо":13607,"изму":13608,"изве":13609,"изнут":13610,"издающий":13611,"извин":13612,"издание":13613,"##дакти":13614,"зав":13615,"заост":13616,"##еднев":13617,"вот":13618,"водами":13619,"разга":13620,"кали":13621,"кавы":13622,"выш":13623,"выстав":13624,"выставля":13625,"выбора":13626,"вывода":13627,"выпасть":13628,"##вай":13629,"##вающейся":13630,"##вающегося":13631,"##вавшаяся":13632,"##вающимся":13633,"##обнов":13634,"сте":13635,"стере":13636,"створ":13637,"##еке":13638,"##вица":13639,"устной":13640,"значительных":13641,"сужи":13642,"сушё":13643,"##авроп":13644,"предл":13645,"##изации":13646,"свято":13647,"спла":13648,"##гивая":13649,"##менты":13650,"##ментом":13651,"тамо":13652,"##лести":13653,"подрост":13654,"подкла":13655,"подготавли":13656,"поддерживать":13657,"достат":13658,"достовер":13659,"мешо":13660,"мечт":13661,"час":13662,"своем":13663,"действительно":13664,"##части":13665,"##чащий":13666,"##исцип":13667,"##новый":13668,"осет":13669,"осей":13670,"осуш":13671,"освящ":13672,"рецеп":13673,"##равли":13674,"##равни":13675,"##ходом":13676,"##ходовать":13677,"##ровую":13678,"##рованные":13679,"одар":13680,"##жает":13681,"##жало":13682,"##няющийся":13683,"##разум":13684,"##онная":13685,"##див":13686,"обычным":13687,"премь":13688,"мунд":13689,"##олок":13690,"кубан":13691,"##алл":13692,"##нест":13693,"женские":13694,"##родов":13695,"##родной":13696,"ток":13697,"точное":13698,"##сочет":13699,"испа":13700,"испов":13701,"исповед":13702,"##лена":13703,"##лены":13704,"истечение":13705,"##водом":13706,"наполненный":13707,"##еха":13708,"имеющийся":13709,"безз":13710,"безвоз":13711,"безуслов":13712,"##мыми":13713,"рубеж":13714,"непло":13715,"непоро":13716,"неподоб":13717,"мону":13718,"мак":13719,"масту":13720,"распу":13721,"распут":13722,"гори":13723,"такси":13724,"послу":13725,"собесед":13726,"соблазн":13727,"сама":13728,"комбина":13729,"грудью":13730,"верований":13731,"контин":13732,"рассп":13733,"расчи":13734,"произо":13735,"##ренность":13736,"нищий":13737,"##жениями":13738,"пада":13739,"паром":13740,"палом":13741,"##зум":13742,"плодо":13743,"была":13744,"быта":13745,"живота":13746,"средне":13747,"средняя":13748,"крася":13749,"##ерист":13750,"лаком":13751,"резать":13752,"резон":13753,"резино":13754,"##ступен":13755,"полутора":13756,"семь":13757,"делом":13758,"делами":13759,"делениями":13760,"военно":13761,"верности":13762,"вернуться":13763,"##пору":13764,"выработ":13765,"##гун":13766,"##енту":13767,"полоска":13768,"полотни":13769,"пустое":13770,"пустые":13771,"пустого":13772,"беско":13773,"перестав":13774,"чуть":13775,"чужд":13776,"уменьшения":13777,"словам":13778,"##ерах":13779,"##нутых":13780,"полёта":13781,"явный":13782,"полисахари":13783,"боро":13784,"болван":13785,"болтать":13786,
[...]
